{
  "eos": 0, 
  "UNK": 1, 
  "the": 2, 
  ",": 3, 
  ".": 4, 
  "of": 5, 
  "to": 6, 
  "and": 7, 
  "in": 8, 
  "is": 9, 
  "that": 10, 
  "a": 11, 
  "this": 12, 
  "we": 13, 
  "for": 14, 
  "I": 15, 
  "be": 16, 
  "it": 17, 
  "on": 18, 
  "not": 19, 
  "which": 20, 
  "are": 21, 
  "have": 22, 
  "as": 23, 
  "with": 24, 
  "will": 25, 
  "Commission": 26, 
  "European": 27, 
  "by": 28, 
  "has": 29, 
  "Mr": 30, 
  "would": 31, 
  "an": 32, 
  "&apos;": 33, 
  "at": 34, 
  "but": 35, 
  "should": 36, 
  "you": 37, 
  "must": 38, 
  "also": 39, 
  "all": 40, 
  "can": 41, 
  "s": 42, 
  "there": 43, 
  "our": 44, 
  "President": 45, 
  "Parliament": 46, 
  "from": 47, 
  "been": 48, 
  "-": 49, 
  "Union": 50, 
  "these": 51, 
  "like": 52, 
  "more": 53, 
  "do": 54, 
  "or": 55, 
  "if": 56, 
  "what": 57, 
  "its": 58, 
  "was": 59, 
  "one": 60, 
  "Europe": 61, 
  "so": 62, 
  "they": 63, 
  "my": 64, 
  "very": 65, 
  "their": 66, 
  "Member": 67, 
  "report": 68, 
  "need": 69, 
  "Council": 70, 
  "States": 71, 
  "only": 72, 
  "?": 73, 
  "therefore": 74, 
  "who": 75, 
  "no": 76, 
  "about": 77, 
  "new": 78, 
  "us": 79, 
  "policy": 80, 
  "other": 81, 
  "important": 82, 
  "-RRB-": 83, 
  "because": 84, 
  "time": 85, 
  "-LRB-": 86, 
  "make": 87, 
  "am": 88, 
  "take": 89, 
  "when": 90, 
  "up": 91, 
  "now": 92, 
  ":": 93, 
  "out": 94, 
  "however": 95, 
  "into": 96, 
  "some": 97, 
  "people": 98, 
  "any": 99, 
  "Commissioner": 100, 
  "between": 101, 
  "programme": 102, 
  "just": 103, 
  "such": 104, 
  "made": 105, 
  "within": 106, 
  "way": 107, 
  "say": 108, 
  "Community": 109, 
  "support": 110, 
  "fact": 111, 
  "were": 112, 
  "your": 113, 
  "development": 114, 
  "political": 115, 
  "work": 116, 
  "being": 117, 
  "areas": 118, 
  "point": 119, 
  "debate": 120, 
  "those": 121, 
  "issue": 122, 
  "first": 123, 
  "countries": 124, 
  "question": 125, 
  "than": 126, 
  "them": 127, 
  "regions": 128, 
  "social": 129, 
  "aid": 130, 
  "how": 131, 
  "believe": 132, 
  "economic": 133, 
  "does": 134, 
  "competition": 135, 
  "many": 136, 
  "where": 137, 
  "EU": 138, 
  "order": 139, 
  "think": 140, 
  "here": 141, 
  "most": 142, 
  "today": 143, 
  "Committee": 144, 
  "already": 145, 
  "possible": 146, 
  "financial": 147, 
  "Madam": 148, 
  "under": 149, 
  "could": 150, 
  "area": 151, 
  "see": 152, 
  "proposal": 153, 
  "want": 154, 
  "even": 155, 
  "then": 156, 
  "future": 157, 
  "course": 158, 
  "me": 159, 
  "same": 160, 
  "@/@": 161, 
  "national": 162, 
  "too": 163, 
  "had": 164, 
  ";": 165, 
  "two": 166, 
  "why": 167, 
  "market": 168, 
  "able": 169, 
  "much": 170, 
  "said": 171, 
  "Mrs": 172, 
  "his": 173, 
  "years": 174, 
  "well": 175, 
  "process": 176, 
  "public": 177, 
  "right": 178, 
  "ensure": 179, 
  "system": 180, 
  "programmes": 181, 
  "directive": 182, 
  "initiative": 183, 
  "still": 184, 
  "against": 185, 
  "may": 186, 
  "last": 187, 
  "case": 188, 
  "principle": 189, 
  "given": 190, 
  "amendments": 191, 
  "particularly": 192, 
  "state": 193, 
  "1999": 194, 
  "over": 195, 
  "clear": 196, 
  "level": 197, 
  "common": 198, 
  "situation": 199, 
  "citizens": 200, 
  "thank": 201, 
  "know": 202, 
  "again": 203, 
  "particular": 204, 
  "own": 205, 
  "view": 206, 
  "action": 207, 
  "example": 208, 
  "opinion": 209, 
  "measures": 210, 
  "taken": 211, 
  "put": 212, 
  "far": 213, 
  "part": 214, 
  "he": 215, 
  "regard": 216, 
  "legal": 217, 
  "reform": 218, 
  "matter": 219, 
  "vote": 220, 
  "problems": 221, 
  "Treaty": 222, 
  "concerned": 223, 
  "shall": 224, 
  "since": 225, 
  "good": 226, 
  "terms": 227, 
  "issues": 228, 
  "cooperation": 229, 
  "position": 230, 
  "give": 231, 
  "institutions": 232, 
  "hope": 233, 
  "safety": 234, 
  "before": 235, 
  "both": 236, 
  "House": 237, 
  "present": 238, 
  "place": 239, 
  "without": 240, 
  "law": 241, 
  "ask": 242, 
  "regional": 243, 
  "necessary": 244, 
  "whether": 245, 
  "great": 246, 
  "end": 247, 
  "number": 248, 
  "use": 249, 
  "few": 250, 
  "proposals": 251, 
  "next": 252, 
  "year": 253, 
  "employment": 254, 
  "world": 255, 
  "respect": 256, 
  "projects": 257, 
  "Members": 258, 
  "rapporteur": 259, 
  "agenda": 260, 
  "rural": 261, 
  "certain": 262, 
  "done": 263, 
  "tax": 264, 
  "come": 265, 
  "Group": 266, 
  "proposed": 267, 
  "Conference": 268, 
  "favour": 269, 
  "country": 270, 
  "guidelines": 271, 
  "local": 272, 
  "role": 273, 
  "rights": 274, 
  "something": 275, 
  "%": 276, 
  "environmental": 277, 
  "once": 278, 
  "resolution": 279, 
  "group": 280, 
  "problem": 281, 
  "industry": 282, 
  "2000": 283, 
  "after": 284, 
  "government": 285, 
  "responsibility": 286, 
  "Presidency": 287, 
  "enlargement": 288, 
  "&apos;s": 289, 
  "importance": 290, 
  "legislation": 291, 
  "Austria": 292, 
  "subject": 293, 
  "rather": 294, 
  "indeed": 295, 
  "set": 296, 
  "going": 297, 
  "basis": 298, 
  "having": 299, 
  "clearly": 300, 
  "information": 301, 
  "Article": 302, 
  "consider": 303, 
  "quite": 304, 
  "yet": 305, 
  "means": 306, 
  "internal": 307, 
  "food": 308, 
  "State": 309, 
  "resources": 310, 
  "INTERREG": 311, 
  "specific": 312, 
  "concerns": 313, 
  "``": 314, 
  "car": 315, 
  "finally": 316, 
  "freedom": 317, 
  "long": 318, 
  "&apos;&apos;": 319, 
  "through": 320, 
  "objectives": 321, 
  "economy": 322, 
  "control": 323, 
  "each": 324, 
  "down": 325, 
  "adopted": 326, 
  "security": 327, 
  "rules": 328, 
  "account": 329, 
  "wish": 330, 
  "Prodi": 331, 
  "committee": 332, 
  "`": 333, 
  "towards": 334, 
  "agreement": 335, 
  "second": 336, 
  "justice": 337, 
  "during": 338, 
  "Intergovernmental": 339, 
  "continue": 340, 
  "decision": 341, 
  "welcome": 342, 
  "change": 343, 
  "!": 344, 
  "whole": 345, 
  "serious": 346, 
  "policies": 347, 
  "another": 348, 
  "various": 349, 
  "essential": 350, 
  "Portuguese": 351, 
  "look": 352, 
  "itself": 353, 
  "certainly": 354, 
  "extremely": 355, 
  "greater": 356, 
  "help": 357, 
  "achieve": 358, 
  "every": 359, 
  "authorities": 360, 
  "implementation": 361, 
  "deal": 362, 
  "agree": 363, 
  "three": 364, 
  "hand": 365, 
  "cars": 366, 
  "especially": 367, 
  "protection": 368, 
  "let": 369, 
  "authority": 370, 
  "small": 371, 
  "re@@": 372, 
  "major": 373, 
  "sector": 374, 
  "making": 375, 
  "further": 376, 
  "although": 377, 
  "go": 378, 
  "used": 379, 
  "did": 380, 
  "human": 381, 
  "needs": 382, 
  "provide": 383, 
  "groups": 384, 
  "forward": 385, 
  "1": 386, 
  "opportunity": 387, 
  "firstly": 388, 
  "energy": 389, 
  "million": 390, 
  "transport": 391, 
  "decisions": 392, 
  "behalf": 393, 
  "peace": 394, 
  "period": 395, 
  "mentioned": 396, 
  "always": 397, 
  "effective": 398, 
  "transparency": 399, 
  "LEADER": 400, 
  "find": 401, 
  "really": 402, 
  "different": 403, 
  "environment": 404, 
  "international": 405, 
  "together": 406, 
  "less": 407, 
  "interests": 408, 
  "taking": 409, 
  "democratic": 410, 
  "general": 411, 
  "gentlemen": 412, 
  "attention": 413, 
  "words": 414, 
  "back": 415, 
  "regarding": 416, 
  "months": 417, 
  "real": 418, 
  "money": 419, 
  "least": 420, 
  "women": 421, 
  "culture": 422, 
  "positive": 423, 
  "responsible": 424, 
  "un@@": 425, 
  "framework": 426, 
  "while": 427, 
  "funds": 428, 
  "start": 429, 
  "concern": 430, 
  "ladies": 431, 
  "better": 432, 
  "form": 433, 
  "budget": 434, 
  "involved": 435, 
  "working": 436, 
  "become": 437, 
  "regulations": 438, 
  "difficult": 439, 
  "initiatives": 440, 
  "single": 441, 
  "progress": 442, 
  "understand": 443, 
  "available": 444, 
  "result": 445, 
  "companies": 446, 
  "conditions": 447, 
  "communication": 448, 
  "fundamental": 449, 
  "questions": 450, 
  "services": 451, 
  "URBAN": 452, 
  "risk": 453, 
  "idea": 454, 
  "United": 455, 
  "create": 456, 
  "allow": 457, 
  "nothing": 458, 
  "No": 459, 
  "increase": 460, 
  "aware": 461, 
  "Paper": 462, 
  "2": 463, 
  "past": 464, 
  "White": 465, 
  "points": 466, 
  "kind": 467, 
  "actually": 468, 
  "values": 469, 
  "procedure": 470, 
  "feel": 471, 
  "Austrian": 472, 
  "region": 473, 
  "amendment": 474, 
  "Affairs": 475, 
  "approach": 476, 
  "cultural": 477, 
  "majority": 478, 
  "might": 479, 
  "accept": 480, 
  "including": 481, 
  "large": 482, 
  "things": 483, 
  "vehicles": 484, 
  "Court": 485, 
  "based": 486, 
  "current": 487, 
  "urban": 488, 
  "training": 489, 
  "apply": 490, 
  "five": 491, 
  "comes": 492, 
  "negotiations": 493, 
  "day": 494, 
  "ourselves": 495, 
  "efforts": 496, 
  "service": 497, 
  "democracy": 498, 
  "enough": 499, 
  "get": 500, 
  "Funds": 501, 
  "concerning": 502, 
  "longer": 503, 
  "often": 504, 
  "include": 505, 
  "best": 506, 
  "little": 507, 
  "Structural": 508, 
  "fully": 509, 
  "perhaps": 510, 
  "matters": 511, 
  "lack": 512, 
  "principles": 513, 
  "special": 514, 
  "off": 515, 
  "high": 516, 
  "others": 517, 
  "full": 518, 
  "ing": 519, 
  "previous": 520, 
  "reason": 521, 
  "text": 522, 
  "expressed": 523, 
  "dangerous": 524, 
  "joint": 525, 
  "Party": 526, 
  "upon": 527, 
  "though": 528, 
  "life": 529, 
  "unfortunately": 530, 
  "her": 531, 
  "governments": 532, 
  "-@@": 533, 
  "mind": 534, 
  "prevent": 535, 
  "context": 536, 
  "standards": 537, 
  "simply": 538, 
  "statement": 539, 
  "following": 540, 
  "lead": 541, 
  "secondly": 542, 
  "cohesion": 543, 
  "jobs": 544, 
  "interest": 545, 
  "key": 546, 
  "cost": 547, 
  "Kosovo": 548, 
  "confidence": 549, 
  "EUR": 550, 
  "EQUAL": 551, 
  "unemployment": 552, 
  "strategy": 553, 
  "requirements": 554, 
  "implemented": 555, 
  "disaster": 556, 
  "express": 557, 
  "doing": 558, 
  "quality": 559, 
  "ed": 560, 
  "force": 561, 
  "seen": 562, 
  "third": 563, 
  "legislative": 564, 
  "precisely": 565, 
  "share": 566, 
  "criminal": 567, 
  "according": 568, 
  "appropriate": 569, 
  "aim": 570, 
  "voted": 571, 
  "mean": 572, 
  "IGC": 573, 
  "seems": 574, 
  "actions": 575, 
  "administration": 576, 
  "draft": 577, 
  "precautionary": 578, 
  "moment": 579, 
  "pleased": 580, 
  "sense": 581, 
  "addition": 582, 
  "French": 583, 
  "results": 584, 
  "main": 585, 
  "propose": 586, 
  "effect": 587, 
  "recycling": 588, 
  "nevertheless": 589, 
  "health": 590, 
  "mention": 591, 
  "party": 592, 
  "increasing": 593, 
  "sure": 594, 
  "consideration": 595, 
  "type": 596, 
  "objective": 597, 
  "power": 598, 
  "The": 599, 
  "funding": 600, 
  "currently": 601, 
  "asked": 602, 
  "included": 603, 
  "task": 604, 
  "society": 605, 
  "tomorrow": 606, 
  "states": 607, 
  "comments": 608, 
  "management": 609, 
  "goods": 610, 
  "true": 611, 
  "prepared": 612, 
  "recent": 613, 
  "markets": 614, 
  "document": 615, 
  "tabled": 616, 
  "provided": 617, 
  "manufacturers": 618, 
  "representatives": 619, 
  "France": 620, 
  "improve": 621, 
  "four": 622, 
  "approved": 623, 
  "activities": 624, 
  "trade": 625, 
  "liability": 626, 
  "promote": 627, 
  "assistance": 628, 
  "needed": 629, 
  "speak": 630, 
  "priority": 631, 
  "Haider": 632, 
  "call": 633, 
  "cases": 634, 
  "technical": 635, 
  "costs": 636, 
  "thing": 637, 
  "population": 638, 
  "reasons": 639, 
  "proper": 640, 
  "quickly": 641, 
  "relating": 642, 
  "structural": 643, 
  "makes": 644, 
  "act": 645, 
  "regulation": 646, 
  "discussion": 647, 
  "relation": 648, 
  "meeting": 649, 
  "capital": 650, 
  "raised": 651, 
  "bring": 652, 
  "step": 653, 
  "solidarity": 654, 
  "pay": 655, 
  "integration": 656, 
  "free": 657, 
  "several": 658, 
  "changes": 659, 
  "whose": 660, 
  "colleagues": 661, 
  "Tobin": 662, 
  "address": 663, 
  "business": 664, 
  "provision": 665, 
  "establish": 666, 
  "individual": 667, 
  "project": 668, 
  "access": 669, 
  "carried": 670, 
  "crucial": 671, 
  "item": 672, 
  "Amsterdam": 673, 
  "opportunities": 674, 
  "equal": 675, 
  "excellent": 676, 
  "oil": 677, 
  "creating": 678, 
  "reports": 679, 
  "old": 680, 
  "commitment": 681, 
  "Government": 682, 
  "develop": 683, 
  "limited": 684, 
  "either": 685, 
  "es": 686, 
  "unacceptable": 687, 
  "coming": 688, 
  "saying": 689, 
  "conclusion": 690, 
  "motion": 691, 
  "behind": 692, 
  "reached": 693, 
  "request": 694, 
  "term": 695, 
  "remain": 696, 
  "fraud": 697, 
  "contribution": 698, 
  "strategic": 699, 
  "crime": 700, 
  "absolutely": 701, 
  "remind": 702, 
  "presented": 703, 
  "extent": 704, 
  "soon": 705, 
  "answer": 706, 
  "tell": 707, 
  "success": 708, 
  "due": 709, 
  "application": 710, 
  "instrument": 711, 
  "fight": 712, 
  "guarantee": 713, 
  "instead": 714, 
  "despite": 715, 
  "considered": 716, 
  "in@@": 717, 
  "established": 718, 
  "agreements": 719, 
  "monitoring": 720, 
  "discrimination": 721, 
  "him": 722, 
  "ago": 723, 
  "date": 724, 
  "research": 725, 
  "increased": 726, 
  "begin": 727, 
  "until": 728, 
  "workers": 729, 
  "above": 730, 
  "basic": 731, 
  "practical": 732, 
  "nature": 733, 
  "movement": 734, 
  "consumer": 735, 
  "using": 736, 
  "line": 737, 
  "Fund": 738, 
  "received": 739, 
  "existing": 740, 
  "play": 741, 
  "stage": 742, 
  "draw": 743, 
  "Treaties": 744, 
  "everyone": 745, 
  "face": 746, 
  "regards": 747, 
  "Minister": 748, 
  "she": 749, 
  "currency": 750, 
  "congratulate": 751, 
  "nuclear": 752, 
  "1997": 753, 
  "specifically": 754, 
  "businesses": 755, 
  "independent": 756, 
  "never": 757, 
  "throughout": 758, 
  "implement": 759, 
  "stress": 760, 
  "open": 761, 
  "experience": 762, 
  "dialogue": 763, 
  "views": 764, 
  "move": 765, 
  "cross-border": 766, 
  "Brussels": 767, 
  "keep": 768, 
  "plans": 769, 
  "solution": 770, 
  "takes": 771, 
  "sectors": 772, 
  "Amendment": 773, 
  "discharge": 774, 
  "officials": 775, 
  "adopt": 776, 
  "practice": 777, 
  "furthermore": 778, 
  "outside": 779, 
  "note": 780, 
  "priorities": 781, 
  "i.e.": 782, 
  "reference": 783, 
  "van": 784, 
  "applied": 785, 
  "namely": 786, 
  "difficulties": 787, 
  "affected": 788, 
  "exchange": 789, 
  "structure": 790, 
  "effects": 791, 
  "stated": 792, 
  "job": 793, 
  "week": 794, 
  "central": 795, 
  "carry": 796, 
  "7": 797, 
  "subsidiarity": 798, 
  "Justice": 799, 
  "analysis": 800, 
  "Ireland": 801, 
  "achieved": 802, 
  "wishes": 803, 
  "crisis": 804, 
  "planning": 805, 
  "final": 806, 
  "implementing": 807, 
  "list": 808, 
  "Turkey": 809, 
  "connection": 810, 
  "manufacturer": 811, 
  "require": 812, 
  "talking": 813, 
  "yesterday": 814, 
  "value": 815, 
  "bear": 816, 
  "field": 817, 
  "obviously": 818, 
  "possibility": 819, 
  "reforms": 820, 
  "nor": 821, 
  "Commissioners": 822, 
  "3": 823, 
  "show": 824, 
  "themselves": 825, 
  "production": 826, 
  "strand": 827, 
  "Israel": 828, 
  "response": 829, 
  "doubt": 830, 
  "demand": 831, 
  "created": 832, 
  "1998": 833, 
  "challenge": 834, 
  "global": 835, 
  "powers": 836, 
  "expect": 837, 
  "integrated": 838, 
  "compromise": 839, 
  "card": 840, 
  "six": 841, 
  "combat": 842, 
  "participation": 843, 
  "led": 844, 
  "strong": 845, 
  "sustainable": 846, 
  "away": 847, 
  "criteria": 848, 
  "ever": 849, 
  "creation": 850, 
  "scope": 851, 
  "OLAF": 852, 
  "establishing": 853, 
  "spirit": 854, 
  "tasks": 855, 
  "cause": 856, 
  "everything": 857, 
  "potential": 858, 
  "procedures": 859, 
  "recently": 860, 
  "content": 861, 
  "documents": 862, 
  "relations": 863, 
  "maritime": 864, 
  "non-@@": 865, 
  "successful": 866, 
  "4": 867, 
  "plan": 868, 
  "voting": 869, 
  "myself": 870, 
  "damage": 871, 
  "II": 872, 
  "light": 873, 
  "bodies": 874, 
  "comment": 875, 
  "ts": 876, 
  "discussions": 877, 
  "judicial": 878, 
  "cities": 879, 
  "balance": 880, 
  "held": 881, 
  "accordance": 882, 
  "required": 883, 
  "decided": 884, 
  "6": 885, 
  "renewable": 886, 
  "overall": 887, 
  "thus": 888, 
  "Objective": 889, 
  "affairs": 890, 
  "directives": 891, 
  "raise": 892, 
  "ted": 893, 
  "scientific": 894, 
  "levels": 895, 
  "growth": 896, 
  "seriously": 897, 
  "Policy": 898, 
  "c@@": 899, 
  "merely": 900, 
  "subjects": 901, 
  "assessment": 902, 
  "fishing": 903, 
  "politics": 904, 
  "organisations": 905, 
  "benefit": 906, 
  "Hulten": 907, 
  "parties": 908, 
  "add": 909, 
  "feedingstuffs": 910, 
  "LEADER+": 911, 
  "speakers": 912, 
  "among": 913, 
  "significant": 914, 
  "body": 915, 
  "members": 916, 
  "completely": 917, 
  "urge": 918, 
  "globalisation": 919, 
  "looking": 920, 
  "fear": 921, 
  "Public": 922, 
  "meet": 923, 
  "code": 924, 
  "reduce": 925, 
  "community": 926, 
  "provisions": 927, 
  "Social": 928, 
  "recognise": 929, 
  "borders": 930, 
  "developing": 931, 
  "amount": 932, 
  "lot": 933, 
  "close": 934, 
  "stand": 935, 
  "produce": 936, 
  "comprehensive": 937, 
  "refer": 938, 
  "12": 939, 
  "granted": 940, 
  "construction": 941, 
  "days": 942, 
  "end-of-life": 943, 
  "000": 944, 
  "consequences": 945, 
  "almost": 946, 
  "efficiency": 947, 
  "Rights": 948, 
  "closed": 949, 
  "y": 950, 
  "ated": 951, 
  "beyond": 952, 
  "goes": 953, 
  "steel": 954, 
  "East": 955, 
  "conclusions": 956, 
  "direction": 957, 
  "border": 958, 
  "referred": 959, 
  "caused": 960, 
  "table": 961, 
  "total": 962, 
  "similar": 963, 
  "giving": 964, 
  "circumstances": 965, 
  "thought": 966, 
  "living": 967, 
  "relevant": 968, 
  "home": 969, 
  "intend": 970, 
  "live": 971, 
  "left": 972, 
  "experts": 973, 
  "establishment": 974, 
  "represent": 975, 
  "ought": 976, 
  "per": 977, 
  "road": 978, 
  "otherwise": 979, 
  "urgent": 980, 
  "heard": 981, 
  "events": 982, 
  "99": 983, 
  "colleague": 984, 
  "reading": 985, 
  "sitting": 986, 
  "remember": 987, 
  "hard": 988, 
  "s@@": 989, 
  "forthcoming": 990, 
  "presidency": 991, 
  "disasters": 992, 
  "administrative": 993, 
  "anything": 994, 
  "agreed": 995, 
  "10": 996, 
  "refugees": 997, 
  "flexibility": 998, 
  "speaking": 999, 
  "dealt": 1000, 
  "medium-sized": 1001, 
  "elections": 1002, 
  "parliamentary": 1003, 
  "paragraph": 1004, 
  "agricultural": 1005, 
  "ambitious": 1006, 
  "event": 1007, 
  "covered": 1008, 
  "external": 1009, 
  "supported": 1010, 
  "setting": 1011, 
  "offer": 1012, 
  "reality": 1013, 
  "sufficient": 1014, 
  "coordination": 1015, 
  "properly": 1016, 
  "additives": 1017, 
  "contribute": 1018, 
  "drawn": 1019, 
  "minimum": 1020, 
  "aspect": 1021, 
  "13": 1022, 
  "submitted": 1023, 
  "probably": 1024, 
  "complete": 1025, 
  "15": 1026, 
  "President-in-Office": 1027, 
  "happen": 1028, 
  "aspects": 1029, 
  "accepted": 1030, 
  "Erika": 1031, 
  "ability": 1032, 
  "Nations": 1033, 
  "discussing": 1034, 
  "elected": 1035, 
  "staff": 1036, 
  "victims": 1037, 
  "reasonable": 1038, 
  "private": 1039, 
  "measure": 1040, 
  "brought": 1041, 
  "knowledge": 1042, 
  "February": 1043, 
  "ating": 1044, 
  "effort": 1045, 
  "ate": 1046, 
  "grounds": 1047, 
  "Ministers": 1048, 
  "effectively": 1049, 
  "talk": 1050, 
  "intention": 1051, 
  "paid": 1052, 
  "long-term": 1053, 
  "active": 1054, 
  "competitiveness": 1055, 
  "nonetheless": 1056, 
  "conference": 1057, 
  "50": 1058, 
  "ecological": 1059, 
  "focus": 1060, 
  "stability": 1061, 
  "ensuring": 1062, 
  "pointed": 1063, 
  "steps": 1064, 
  "repeat": 1065, 
  "civil": 1066, 
  "Regional": 1067, 
  "word": 1068, 
  "forms": 1069, 
  "huge": 1070, 
  "asylum": 1071, 
  "billion": 1072, 
  "office": 1073, 
  "discussed": 1074, 
  "speech": 1075, 
  "asking": 1076, 
  "ships": 1077, 
  "waste": 1078, 
  "equality": 1079, 
  "approve": 1080, 
  "14": 1081, 
  "men": 1082, 
  "entire": 1083, 
  "committed": 1084, 
  "short": 1085, 
  "risks": 1086, 
  "purpose": 1087, 
  "gives": 1088, 
  "British": 1089, 
  "message": 1090, 
  "Denmark": 1091, 
  "gave": 1092, 
  "hear": 1093, 
  "ting": 1094, 
  "operation": 1095, 
  "thanks": 1096, 
  "approval": 1097, 
  "build": 1098, 
  "ation": 1099, 
  "water": 1100, 
  "December": 1101, 
  "avoid": 1102, 
  "consumers": 1103, 
  "times": 1104, 
  "conciliation": 1105, 
  "history": 1106, 
  "try": 1107, 
  "applies": 1108, 
  "happy": 1109, 
  "considerable": 1110, 
  "intended": 1111, 
  "al": 1112, 
  "causes": 1113, 
  "rule": 1114, 
  "enable": 1115, 
  "directly": 1116, 
  "Tampere": 1117, 
  "partnership": 1118, 
  "German": 1119, 
  "aims": 1120, 
  "activity": 1121, 
  "Middle": 1122, 
  "proposing": 1123, 
  "ideas": 1124, 
  "storms": 1125, 
  "Prosecutor": 1126, 
  "5": 1127, 
  "carefully": 1128, 
  "rightly": 1129, 
  "correct": 1130, 
  "amongst": 1131, 
  "systems": 1132, 
  "thinking": 1133, 
  "addressed": 1134, 
  "discuss": 1135, 
  "naturally": 1136, 
  "scale": 1137, 
  "employees": 1138, 
  "parliaments": 1139, 
  "dealing": 1140, 
  "Nos": 1141, 
  "Applause": 1142, 
  "sources": 1143, 
  "instruments": 1144, 
  "immediately": 1145, 
  "heart": 1146, 
  "Schroedter": 1147, 
  "eligible": 1148, 
  "encourage": 1149, 
  "review": 1150, 
  "receive": 1151, 
  "materials": 1152, 
  "introduced": 1153, 
  "gender": 1154, 
  "detail": 1155, 
  "sometimes": 1156, 
  "reach": 1157, 
  "remote": 1158, 
  "sort": 1159, 
  "statements": 1160, 
  "delay": 1161, 
  "developments": 1162, 
  "exclusion": 1163, 
  "useful": 1164, 
  "contrary": 1165, 
  "farmers": 1166, 
  "requires": 1167, 
  "impact": 1168, 
  "threat": 1169, 
  "manner": 1170, 
  "Transport": 1171, 
  "stop": 1172, 
  "parts": 1173, 
  "promoting": 1174, 
  "elements": 1175, 
  "strengthen": 1176, 
  "dis@@": 1177, 
  "introduce": 1178, 
  "combating": 1179, 
  "detailed": 1180, 
  "turn": 1181, 
  "around": 1182, 
  "forces": 1183, 
  "limit": 1184, 
  "Culture": 1185, 
  "broad": 1186, 
  "simple": 1187, 
  "improving": 1188, 
  "vital": 1189, 
  "sensitive": 1190, 
  "burden": 1191, 
  "natural": 1192, 
  "developed": 1193, 
  "shown": 1194, 
  "status": 1195, 
  "totally": 1196, 
  "personally": 1197, 
  "please": 1198, 
  "science": 1199, 
  "applicable": 1200, 
  "poverty": 1201, 
  "along": 1202, 
  "beginning": 1203, 
  "institutional": 1204, 
  "age": 1205, 
  "called": 1206, 
  "honourable": 1207, 
  "earlier": 1208, 
  "providing": 1209, 
  "Report": 1210, 
  "territory": 1211, 
  "promotion": 1212, 
  "greatest": 1213, 
  "controls": 1214, 
  "later": 1215, 
  "conduct": 1216, 
  "decision-making": 1217, 
  "improvement": 1218, 
  "anyone": 1219, 
  "supervision": 1220, 
  "capacity": 1221, 
  "committees": 1222, 
  "agriculture": 1223, 
  "firm": 1224, 
  "intends": 1225, 
  "codecision": 1226, 
  "Danish": 1227, 
  "demands": 1228, 
  "moreover": 1229, 
  "Development": 1230, 
  "taxation": 1231, 
  "morning": 1232, 
  "former": 1233, 
  "extend": 1234, 
  "allocated": 1235, 
  "emphasis": 1236, 
  "xenophobia": 1237, 
  "putting": 1238, 
  "recommendations": 1239, 
  "adequate": 1240, 
  "Kinnock": 1241, 
  "includes": 1242, 
  "consequently": 1243, 
  "floor": 1244, 
  "January": 1245, 
  "sea": 1246, 
  "fall": 1247, 
  "ways": 1248, 
  "seem": 1249, 
  "plenary": 1250, 
  "regret": 1251, 
  "wrong": 1252, 
  "fellow": 1253, 
  "EC": 1254, 
  "Patten": 1255, 
  "Socialists": 1256, 
  "early": 1257, 
  "extreme": 1258, 
  "Helsinki": 1259, 
  "product": 1260, 
  "III": 1261, 
  "Syria": 1262, 
  "desire": 1263, 
  "half": 1264, 
  "weeks": 1265, 
  "conflict": 1266, 
  "building": 1267, 
  "sympathy": 1268, 
  "passed": 1269, 
  "related": 1270, 
  "opposed": 1271, 
  "adopting": 1272, 
  "hold": 1273, 
  "paper": 1274, 
  "ly": 1275, 
  "demonstrate": 1276, 
  "t": 1277, 
  "personal": 1278, 
  "late": 1279, 
  "demonstrated": 1280, 
  "dimension": 1281, 
  "weapons": 1282, 
  "responsibilities": 1283, 
  "monopolies": 1284, 
  "enterprises": 1285, 
  "attitude": 1286, 
  "fail": 1287, 
  "poor": 1288, 
  "thirdly": 1289, 
  "known": 1290, 
  "low": 1291, 
  "ates": 1292, 
  "involving": 1293, 
  "sovereignty": 1294, 
  "unable": 1295, 
  "hence": 1296, 
  "von": 1297, 
  "operators": 1298, 
  "g@@": 1299, 
  "wanted": 1300, 
  "b@@": 1301, 
  "version": 1302, 
  "involvement": 1303, 
  "considerably": 1304, 
  "outcome": 1305, 
  "disparities": 1306, 
  "ban": 1307, 
  "Economic": 1308, 
  "exactly": 1309, 
  "Theato": 1310, 
  "supporting": 1311, 
  "re-@@": 1312, 
  "took": 1313, 
  "cut": 1314, 
  "annual": 1315, 
  "de": 1316, 
  "danger": 1317, 
  "rate": 1318, 
  "model": 1319, 
  "decide": 1320, 
  "pre@@": 1321, 
  "talks": 1322, 
  "Directive": 1323, 
  "wealth": 1324, 
  "contains": 1325, 
  "commitments": 1326, 
  "factor": 1327, 
  "Europol": 1328, 
  "applicant": 1329, 
  "80": 1330, 
  "follow": 1331, 
  "solutions": 1332, 
  "1996": 1333, 
  "Langen": 1334, 
  "nationals": 1335, 
  "improved": 1336, 
  "obvious": 1337, 
  "lines": 1338, 
  "efficient": 1339, 
  "courts": 1340, 
  "century": 1341, 
  "competitive": 1342, 
  "ex@@": 1343, 
  "fulfil": 1344, 
  "arguments": 1345, 
  "governance": 1346, 
  "function": 1347, 
  "impression": 1348, 
  "study": 1349, 
  "enormous": 1350, 
  "Italy": 1351, 
  "p.m": 1352, 
  "news": 1353, 
  "effectiveness": 1354, 
  "Socialist": 1355, 
  "2000-2006": 1356, 
  "Chamber": 1357, 
  "certainty": 1358, 
  "involve": 1359, 
  "ahead": 1360, 
  "assure": 1361, 
  "rise": 1362, 
  "element": 1363, 
  "Kingdom": 1364, 
  "Minutes": 1365, 
  "placed": 1366, 
  "alone": 1367, 
  "Tourism": 1368, 
  "influence": 1369, 
  "Tibet": 1370, 
  "appropriations": 1371, 
  "neither": 1372, 
  "amended": 1373, 
  "September": 1374, 
  "truly": 1375, 
  "return": 1376, 
  "flexible": 1377, 
  "e@@": 1378, 
  "25": 1379, 
  "ti@@": 1380, 
  "Germany": 1381, 
  "resolutions": 1382, 
  "countryside": 1383, 
  "March": 1384, 
  "criticism": 1385, 
  "delegation": 1386, 
  "concentrate": 1387, 
  "young": 1388, 
  "union": 1389, 
  "across": 1390, 
  "o@@": 1391, 
  "critical": 1392, 
  "designed": 1393, 
  "transactions": 1394, 
  "perfectly": 1395, 
  "laid": 1396, 
  "coalition": 1397, 
  "en@@": 1398, 
  "challenges": 1399, 
  "man": 1400, 
  "complex": 1401, 
  "arrangements": 1402, 
  "economies": 1403, 
  "exist": 1404, 
  "fair": 1405, 
  "managed": 1406, 
  "prior": 1407, 
  "maintain": 1408, 
  "con@@": 1409, 
  "Monetary": 1410, 
  "9": 1411, 
  "necessarily": 1412, 
  "racism": 1413, 
  "heritage": 1414, 
  "d@@": 1415, 
  "Wogau": 1416, 
  "examine": 1417, 
  "impossible": 1418, 
  "mis@@": 1419, 
  "recognition": 1420, 
  "mainly": 1421, 
  "letter": 1422, 
  "treatment": 1423, 
  "People": 1424, 
  "advice": 1425, 
  "acceptable": 1426, 
  "urgency": 1427, 
  "pressure": 1428, 
  "spent": 1429, 
  "Thursday": 1430, 
  "found": 1431, 
  "additional": 1432, 
  "guarantees": 1433, 
  "Israeli": 1434, 
  "leave": 1435, 
  "di@@": 1436, 
  "communities": 1437, 
  "Barnier": 1438, 
  "Balkans": 1439, 
  "sound": 1440, 
  "labour": 1441, 
  "International": 1442, 
  "Italian": 1443, 
  "scientists": 1444, 
  "recognised": 1445, 
  "immigrants": 1446, 
  "u@@": 1447, 
  "bad": 1448, 
  "conclude": 1449, 
  "credibility": 1450, 
  "Portugal": 1451, 
  "minority": 1452, 
  "knows": 1453, 
  "read": 1454, 
  "faced": 1455, 
  "Greece": 1456, 
  "differences": 1457, 
  "reducing": 1458, 
  "unless": 1459, 
  "Charter": 1460, 
  "defend": 1461, 
  "nations": 1462, 
  "succeed": 1463, 
  "diversity": 1464, 
  "police": 1465, 
  "facing": 1466, 
  "de@@": 1467, 
  "foreign": 1468, 
  "applying": 1469, 
  "vessels": 1470, 
  "ones": 1471, 
  "emphasise": 1472, 
  "defined": 1473, 
  "functioning": 1474, 
  "historic": 1475, 
  "schemes": 1476, 
  "bringing": 1477, 
  "else": 1478, 
  "equally": 1479, 
  "intervention": 1480, 
  "reject": 1481, 
  "latter": 1482, 
  "excluded": 1483, 
  "growing": 1484, 
  "transnational": 1485, 
  "join": 1486, 
  "achieving": 1487, 
  "side": 1488, 
  "run": 1489, 
  "requested": 1490, 
  "generally": 1491, 
  "interesting": 1492, 
  "realise": 1493, 
  "signed": 1494, 
  "concept": 1495, 
  "yes": 1496, 
  "published": 1497, 
  "speculative": 1498, 
  "wait": 1499, 
  "reduction": 1500, 
  "scheme": 1501, 
  "competence": 1502, 
  "immigration": 1503, 
  "technology": 1504, 
  "Palacio": 1505, 
  "Jonckheer": 1506, 
  "examination": 1507, 
  "closely": 1508, 
  "FPÖ": 1509, 
  "Schengen": 1510, 
  "euro": 1511, 
  "occasions": 1512, 
  "happening": 1513, 
  "structures": 1514, 
  "original": 1515, 
  "spending": 1516, 
  "announced": 1517, 
  "ready": 1518, 
  "lies": 1519, 
  "encouraging": 1520, 
  "monetary": 1521, 
  "forget": 1522, 
  "explain": 1523, 
  "Florenz": 1524, 
  "SMEs": 1525, 
  "situations": 1526, 
  "Democrats": 1527, 
  "planned": 1528, 
  "consultation": 1529, 
  "claim": 1530, 
  "degree": 1531, 
  "11": 1532, 
  "fund": 1533, 
  "proceed": 1534, 
  "reply": 1535, 
  "helping": 1536, 
  "material": 1537, 
  "innovative": 1538, 
  "relates": 1539, 
  "lost": 1540, 
  "briefly": 1541, 
  "ground": 1542, 
  "30": 1543, 
  "i@@": 1544, 
  "contributions": 1545, 
  "CAP": 1546, 
  "revision": 1547, 
  "lastly": 1548, 
  "core": 1549, 
  "base": 1550, 
  "amounts": 1551, 
  "40": 1552, 
  "bureaucracy": 1553, 
  "positions": 1554, 
  "press": 1555, 
  "scoreboard": 1556, 
  "trying": 1557, 
  "concrete": 1558, 
  "Convention": 1559, 
  "worse": 1560, 
  "implications": 1561, 
  "protect": 1562, 
  "laws": 1563, 
  "networks": 1564, 
  "produced": 1565, 
  "consensus": 1566, 
  "safeguard": 1567, 
  "hands": 1568, 
  "convinced": 1569, 
  "seek": 1570, 
  "organised": 1571, 
  "infrastructure": 1572, 
  "Cohesion": 1573, 
  "Liberal": 1574, 
  "exercise": 1575, 
  "maximum": 1576, 
  "introduction": 1577, 
  "ten": 1578, 
  "legally": 1579, 
  "informed": 1580, 
  "tackle": 1581, 
  "says": 1582, 
  "Market": 1583, 
  "w@@": 1584, 
  "double": 1585, 
  "COM": 1586, 
  "Legal": 1587, 
  "goal": 1588, 
  "presentation": 1589, 
  "Internal": 1590, 
  "sake": 1591, 
  "FR": 1592, 
  "paying": 1593, 
  "environmentally": 1594, 
  "expenditure": 1595, 
  "transparent": 1596, 
  "balanced": 1597, 
  "apart": 1598, 
  "surely": 1599, 
  "serve": 1600, 
  "advisers": 1601, 
  "peoples": 1602, 
  "Employment": 1603, 
  "shared": 1604, 
  "ers": 1605, 
  "easy": 1606, 
  "linked": 1607, 
  "industries": 1608, 
  "Rules": 1609, 
  "confirm": 1610, 
  "qualified": 1611, 
  "strategies": 1612, 
  "on@@": 1613, 
  "existence": 1614, 
  "overcome": 1615, 
  "remains": 1616, 
  "er": 1617, 
  "20": 1618, 
  "millennium": 1619, 
  "starting": 1620, 
  "built": 1621, 
  "prosperity": 1622, 
  "investment": 1623, 
  "duty": 1624, 
  "l@@": 1625, 
  "co@@": 1626, 
  "reconstruction": 1627, 
  "grateful": 1628, 
  "for@@": 1629, 
  "sixth": 1630, 
  "budgetary": 1631, 
  "resolve": 1632, 
  "actual": 1633, 
  "round": 1634, 
  "continuing": 1635, 
  "representative": 1636, 
  "session": 1637, 
  "strict": 1638, 
  "financed": 1639, 
  "donors": 1640, 
  "pays": 1641, 
  "expectations": 1642, 
  "red": 1643, 
  "care": 1644, 
  "resolved": 1645, 
  "range": 1646, 
  "organisation": 1647, 
  "excessive": 1648, 
  "follows": 1649, 
  "price": 1650, 
  "declared": 1651, 
  "consistent": 1652, 
  "wants": 1653, 
  "average": 1654, 
  "calling": 1655, 
  "amend": 1656, 
  "brief": 1657, 
  "plant": 1658, 
  "thereby": 1659, 
  "incorporated": 1660, 
  "topical": 1661, 
  "rejected": 1662, 
  "forestry": 1663, 
  "votes": 1664, 
  "none": 1665, 
  "understanding": 1666, 
  "drawing": 1667, 
  "Control": 1668, 
  "permit": 1669, 
  "extension": 1670, 
  "extending": 1671, 
  "Procedure": 1672, 
  "reflect": 1673, 
  "checks": 1674, 
  "explanation": 1675, 
  "grant": 1676, 
  "defence": 1677, 
  "partners": 1678, 
  "cover": 1679, 
  "unanimously": 1680, 
  "candidate": 1681, 
  "secure": 1682, 
  "capable": 1683, 
  "speaker": 1684, 
  "Presidents": 1685, 
  "yourself": 1686, 
  "higher": 1687, 
  "minorities": 1688, 
  "Monti": 1689, 
  "moving": 1690, 
  "over@@": 1691, 
  "mandate": 1692, 
  "board": 1693, 
  "timetable": 1694, 
  "reaction": 1695, 
  "obligation": 1696, 
  "ous": 1697, 
  "institution": 1698, 
  "person": 1699, 
  "convenience": 1700, 
  "v@@": 1701, 
  "products": 1702, 
  "comply": 1703, 
  "smaller": 1704, 
  "falls": 1705, 
  "participate": 1706, 
  "f@@": 1707, 
  "im@@": 1708, 
  "Fundamental": 1709, 
  "modernisation": 1710, 
  "Articles": 1711, 
  "Code": 1712, 
  "C@@": 1713, 
  "Dutch": 1714, 
  "justified": 1715, 
  "sent": 1716, 
  "speculation": 1717, 
  "provides": 1718, 
  "meaning": 1719, 
  "negative": 1720, 
  "tion": 1721, 
  "financing": 1722, 
  "shows": 1723, 
  "Summit": 1724, 
  "November": 1725, 
  "Central": 1726, 
  "evening": 1727, 
  "Amendments": 1728, 
  "operational": 1729, 
  "Palestinian": 1730, 
  "relationship": 1731, 
  "issued": 1732, 
  "adoption": 1733, 
  "mergers": 1734, 
  "proceedings": 1735, 
  "judges": 1736, 
  "send": 1737, 
  "underlying": 1738, 
  "li@@": 1739, 
  "authorised": 1740, 
  "mainstreaming": 1741, 
  "goals": 1742, 
  "81": 1743, 
  "debated": 1744, 
  "independence": 1745, 
  "calls": 1746, 
  "Europeans": 1747, 
  "remarks": 1748, 
  "ethnic": 1749, 
  "worked": 1750, 
  "Vice-President": 1751, 
  "le": 1752, 
  "highly": 1753, 
  "reduced": 1754, 
  "Freedom": 1755, 
  "entirely": 1756, 
  "preventing": 1757, 
  "innovation": 1758, 
  "learn": 1759, 
  "distributed": 1760, 
  "entitled": 1761, 
  "proposes": 1762, 
  "wonder": 1763, 
  "accounts": 1764, 
  "undertaken": 1765, 
  "ar@@": 1766, 
  "whatever": 1767, 
  "couple": 1768, 
  "Experts": 1769, 
  "Africa": 1770, 
  "xenophobic": 1771, 
  "World": 1772, 
  "self-@@": 1773, 
  "chance": 1774, 
  "18": 1775, 
  "attempt": 1776, 
  "ations": 1777, 
  "described": 1778, 
  "radical": 1779, 
  "Office": 1780, 
  "ded": 1781, 
  "mechanisms": 1782, 
  "referring": 1783, 
  "Costa": 1784, 
  "links": 1785, 
  "politically": 1786, 
  "sets": 1787, 
  "package": 1788, 
  "series": 1789, 
  "so-called": 1790, 
  "professional": 1791, 
  "Lisbon": 1792, 
  "oral": 1793, 
  "basically": 1794, 
  "feeling": 1795, 
  "1994": 1796, 
  "port": 1797, 
  "bureaucratic": 1798, 
  "Agriculture": 1799, 
  "bearing": 1800, 
  "ALTENER": 1801, 
  "failure": 1802, 
  "five-year": 1803, 
  "contained": 1804, 
  "Bank": 1805, 
  "carrying": 1806, 
  "easier": 1807, 
  "hours": 1808, 
  "constitute": 1809, 
  "families": 1810, 
  "proved": 1811, 
  "programming": 1812, 
  "worst": 1813, 
  "flag": 1814, 
  "permanent": 1815, 
  "leaders": 1816, 
  "highlight": 1817, 
  "der": 1818, 
  "obliged": 1819, 
  "added": 1820, 
  "recovery": 1821, 
  "instance": 1822, 
  "debating": 1823, 
  "impose": 1824, 
  "tool": 1825, 
  "COS": 1826, 
  "sides": 1827, 
  "openness": 1828, 
  "obligations": 1829, 
  "inspection": 1830, 
  "tic": 1831, 
  "clarity": 1832, 
  "firmly": 1833, 
  "prevention": 1834, 
  "ports": 1835, 
  "promised": 1836, 
  "treaties": 1837, 
  "p@@": 1838, 
  "allowed": 1839, 
  "concluded": 1840, 
  "Agenda": 1841, 
  "gain": 1842, 
  "leading": 1843, 
  "restricted": 1844, 
  "ex": 1845, 
  "June": 1846, 
  "MEPs": 1847, 
  "nation": 1848, 
  "increasingly": 1849, 
  "chairman": 1850, 
  "texts": 1851, 
  "suggest": 1852, 
  "envisaged": 1853, 
  "rest": 1854, 
  "tri@@": 1855, 
  "respects": 1856, 
  "choice": 1857, 
  "name": 1858, 
  "inter@@": 1859, 
  "borne": 1860, 
  "st@@": 1861, 
  "visible": 1862, 
  "definition": 1863, 
  "geographical": 1864, 
  "obtain": 1865, 
  "observations": 1866, 
  "company": 1867, 
  "under@@": 1868, 
  "came": 1869, 
  "la@@": 1870, 
  "Financial": 1871, 
  "Koch": 1872, 
  "interregional": 1873, 
  "Budgetary": 1874, 
  "figures": 1875, 
  "island": 1876, 
  "assistants": 1877, 
  "successfully": 1878, 
  "Jörg": 1879, 
  "centres": 1880, 
  "Auditors": 1881, 
  "initial": 1882, 
  "Decourrière": 1883, 
  "granting": 1884, 
  "citizen": 1885, 
  "Regulation": 1886, 
  "industrial": 1887, 
  "numerous": 1888, 
  "monitor": 1889, 
  "ent": 1890, 
  "thousands": 1891, 
  "possibly": 1892, 
  "considers": 1893, 
  "th": 1894, 
  "short-term": 1895, 
  "anchovy": 1896, 
  "ity": 1897, 
  "somewhat": 1898, 
  "rich": 1899, 
  "opening": 1900, 
  "details": 1901, 
  "Initiative": 1902, 
  "submit": 1903, 
  "inform": 1904, 
  "court": 1905, 
  "Netherlands": 1906, 
  "facts": 1907, 
  "education": 1908, 
  "acting": 1909, 
  "B": 1910, 
  "perspective": 1911, 
  "direct": 1912, 
  "accession": 1913, 
  "clarify": 1914, 
  "governing": 1915, 
  "intentions": 1916, 
  "examples": 1917, 
  "ship": 1918, 
  "GDP": 1919, 
  "afternoon": 1920, 
  "proof": 1921, 
  "supports": 1922, 
  "liable": 1923, 
  "honour": 1924, 
  "willing": 1925, 
  "genuine": 1926, 
  "whom": 1927, 
  "17": 1928, 
  "section": 1929, 
  "components": 1930, 
  "becoming": 1931, 
  "told": 1932, 
  "notification": 1933, 
  "Vitorino": 1934, 
  "courage": 1935, 
  "big": 1936, 
  "modern": 1937, 
  "climate": 1938, 
  "ultimately": 1939, 
  "uniform": 1940, 
  "respond": 1941, 
  "changing": 1942, 
  "investments": 1943, 
  "Belgium": 1944, 
  "introducing": 1945, 
  "A": 1946, 
  "becomes": 1947, 
  "heavy": 1948, 
  "be@@": 1949, 
  "th@@": 1950, 
  "et": 1951, 
  "happened": 1952, 
  "Directorate-General": 1953, 
  "Greens": 1954, 
  "endorse": 1955, 
  "requirement": 1956, 
  "partnerships": 1957, 
  "mismanagement": 1958, 
  "practices": 1959, 
  "appeal": 1960, 
  "lives": 1961, 
  "t@@": 1962, 
  "protecting": 1963, 
  "substances": 1964, 
  "associated": 1965, 
  "pollution": 1966, 
  "authorisation": 1967, 
  "supply": 1968, 
  "quota": 1969, 
  "Prime": 1970, 
  "millions": 1971, 
  "finance": 1972, 
  "satisfaction": 1973, 
  "flags": 1974, 
  "continent": 1975, 
  "1995": 1976, 
  "official": 1977, 
  "presence": 1978, 
  "mutual": 1979, 
  "Internet": 1980, 
  "assist": 1981, 
  "exclusively": 1982, 
  "substance": 1983, 
  "remit": 1984, 
  "allowing": 1985, 
  "obstacles": 1986, 
  "genetically-modified": 1987, 
  "suggested": 1988, 
  "likely": 1989, 
  "welcomed": 1990, 
  "employed": 1991, 
  "language": 1992, 
  "occasion": 1993, 
  "37": 1994, 
  "al@@": 1995, 
  "sensible": 1996, 
  "types": 1997, 
  "spoke": 1998, 
  "behaviour": 1999, 
  "Seattle": 2000, 
  "worth": 2001, 
  "considerations": 2002, 
  "represents": 2003, 
  "familiar": 2004, 
  "room": 2005, 
  "abandoned": 2006, 
  "rapid": 2007, 
  "mission": 2008, 
  "individuals": 2009, 
  "minutes": 2010, 
  "subsidies": 2011, 
  "ro@@": 2012, 
  "accidents": 2013, 
  "firms": 2014, 
  "enlarged": 2015, 
  "ance": 2016, 
  "feed": 2017, 
  "evidence": 2018, 
  "mo@@": 2019, 
  "written": 2020, 
  "nine": 2021, 
  "evaluation": 2022, 
  "elsewhere": 2023, 
  "Eastern": 2024, 
  "strengthened": 2025, 
  "100": 2026, 
  "approximately": 2027, 
  "income": 2028, 
  "closer": 2029, 
  "undertake": 2030, 
  "+": 2031, 
  "met": 2032, 
  "8": 2033, 
  "confirmed": 2034, 
  "lacking": 2035, 
  "Finnish": 2036, 
  "affects": 2037, 
  "insurance": 2038, 
  "procedural": 2039, 
  "persons": 2040, 
  "McCarthy": 2041, 
  "uncertainty": 2042, 
  "constructive": 2043, 
  "35": 2044, 
  "y-@@": 2045, 
  "operate": 2046, 
  "decisive": 2047, 
  "compulsory": 2048, 
  "month": 2049, 
  "commercial": 2050, 
  "design": 2051, 
  "precise": 2052, 
  "appreciate": 2053, 
  "definitely": 2054, 
  "changed": 2055, 
  "relate": 2056, 
  "extended": 2057, 
  "located": 2058, 
  "Wales": 2059, 
  "ment": 2060, 
  "argument": 2061, 
  "illegal": 2062, 
  "debates": 2063, 
  "drafting": 2064, 
  "operating": 2065, 
  "interim": 2066, 
  "incorporate": 2067, 
  "seven": 2068, 
  "constitutional": 2069, 
  "cooperate": 2070, 
  "an@@": 2071, 
  "turned": 2072, 
  "ra@@": 2073, 
  "identified": 2074, 
  "prices": 2075, 
  "sh@@": 2076, 
  "enforcement": 2077, 
  "animal": 2078, 
  "Rapkay": 2079, 
  "noted": 2080, 
  "launched": 2081, 
  "fields": 2082, 
  "American": 2083, 
  "ideology": 2084, 
  "h@@": 2085, 
  "prove": 2086, 
  "regulate": 2087, 
  "tive": 2088, 
  "manufacturing": 2089, 
  "Aid": 2090, 
  "third-country": 2091, 
  "substantial": 2092, 
  "ignore": 2093, 
  "encouraged": 2094, 
  "distribution": 2095, 
  "getting": 2096, 
  "accident": 2097, 
  "followed": 2098, 
  "stocks": 2099, 
  "top": 2100, 
  "worthy": 2101, 
  "harmonisation": 2102, 
  "posting": 2103, 
  "felt": 2104, 
  "treaty": 2105, 
  "weaken": 2106, 
  "judge": 2107, 
  "legitimate": 2108, 
  "regeneration": 2109, 
  "occurred": 2110, 
  "islands": 2111, 
  "formation": 2112, 
  "immediate": 2113, 
  "declaration": 2114, 
  "determination": 2115, 
  "Instance": 2116, 
  "whatsoever": 2117, 
  "satisfactory": 2118, 
  "ambition": 2119, 
  "correctly": 2120, 
  "insist": 2121, 
  "facilitate": 2122, 
  "manage": 2123, 
  "selection": 2124, 
  "disabled": 2125, 
  "k": 2126, 
  "data": 2127, 
  "rail": 2128, 
  "Stenzel": 2129, 
  "campaign": 2130, 
  "turning": 2131, 
  "offers": 2132, 
  "exists": 2133, 
  "July": 2134, 
  "affect": 2135, 
  "failed": 2136, 
  "lo@@": 2137, 
  "highest": 2138, 
  "believes": 2139, 
  "a@@": 2140, 
  "parliament": 2141, 
  "convergence": 2142, 
  "listening": 2143, 
  "relatively": 2144, 
  "coast": 2145, 
  "essentially": 2146, 
  "decentralised": 2147, 
  "ours": 2148, 
  "focused": 2149, 
  "worthwhile": 2150, 
  "Conciliation": 2151, 
  "charter": 2152, 
  "thorough": 2153, 
  "stressed": 2154, 
  "deadline": 2155, 
  "part-session": 2156, 
  "refers": 2157, 
  "war": 2158, 
  "went": 2159, 
  "towns": 2160, 
  "appears": 2161, 
  "Authority": 2162, 
  "Republic": 2163, 
  "normal": 2164, 
  "2006": 2165, 
  "condemn": 2166, 
  "previously": 2167, 
  "monitored": 2168, 
  "path": 2169, 
  "sp@@": 2170, 
  "holding": 2171, 
  "contributed": 2172, 
  "tonnes": 2173, 
  "running": 2174, 
  "classification": 2175, 
  "politicians": 2176, 
  "farming": 2177, 
  "Spanish": 2178, 
  "Kouchner": 2179, 
  "stands": 2180, 
  "transfer": 2181, 
  "expected": 2182, 
  "exemption": 2183, 
  "agencies": 2184, 
  "English": 2185, 
  "collective": 2186, 
  "H-07@@": 2187, 
  "UK": 2188, 
  "vast": 2189, 
  "concentration": 2190, 
  "via": 2191, 
  "taxpayers": 2192, 
  "contain": 2193, 
  "waiting": 2194, 
  "Christian": 2195, 
  "option": 2196, 
  "loss": 2197, 
  "whilst": 2198, 
  "entry": 2199, 
  "contradiction": 2200, 
  "follow-up": 2201, 
  "remaining": 2202, 
  "alisation": 2203, 
  "motions": 2204, 
  "regular": 2205, 
  "weight": 2206, 
  "keeping": 2207, 
  "2002": 2208, 
  "seeing": 2209, 
  "binding": 2210, 
  "unanimity": 2211, 
  "enter": 2212, 
  "neighbouring": 2213, 
  "timber": 2214, 
  "deplore": 2215, 
  "First": 2216, 
  "do@@": 2217, 
  "arrived": 2218, 
  "uphold": 2219, 
  "deliver": 2220, 
  "unnecessary": 2221, 
  "lose": 2222, 
  "fi@@": 2223, 
  "Lange": 2224, 
  "CEN": 2225, 
  "collection": 2226, 
  "sums": 2227, 
  "ties": 2228, 
  "resignation": 2229, 
  "ratified": 2230, 
  "delighted": 2231, 
  "massive": 2232, 
  "offences": 2233, 
  "Berger": 2234, 
  "Asia": 2235, 
  "coherent": 2236, 
  "disposal": 2237, 
  "m@@": 2238, 
  "ma@@": 2239, 
  "Irish": 2240, 
  "suffered": 2241, 
  "er@@": 2242, 
  "internationally": 2243, 
  "withdraw": 2244, 
  "near": 2245, 
  "minute": 2246, 
  "convening": 2247, 
  "restructuring": 2248, 
  "feasible": 2249, 
  "audit": 2250, 
  "significance": 2251, 
  "peaceful": 2252, 
  "approving": 2253, 
  "it@@": 2254, 
  "media": 2255, 
  "identify": 2256, 
  "completed": 2257, 
  "rapporteurs": 2258, 
  "eventually": 2259, 
  "disagreement": 2260, 
  "understood": 2261, 
  "regime": 2262, 
  "departments": 2263, 
  "polluter": 2264, 
  "spend": 2265, 
  "standard": 2266, 
  "competences": 2267, 
  "ÖVP": 2268, 
  "chosen": 2269, 
  "represented": 2270, 
  "Independent": 2271, 
  "fifth": 2272, 
  "ds": 2273, 
  "figure": 2274, 
  "formal": 2275, 
  "dismantling": 2276, 
  "tanker": 2277, 
  "tough": 2278, 
  "presents": 2279, 
  "inspections": 2280, 
  "opinions": 2281, 
  "opposite": 2282, 
  "stipulates": 2283, 
  "explained": 2284, 
  "etc": 2285, 
  "phase": 2286, 
  "advance": 2287, 
  "well-@@": 2288, 
  "faith": 2289, 
  "Budgets": 2290, 
  "looked": 2291, 
  "surrounding": 2292, 
  "ongoing": 2293, 
  "pursuant": 2294, 
  "emergency": 2295, 
  "children": 2296, 
  "Safety": 2297, 
  "uranium": 2298, 
  "Environment": 2299, 
  "aimed": 2300, 
  "Steel": 2301, 
  "roads": 2302, 
  "mi@@": 2303, 
  "meant": 2304, 
  "awareness": 2305, 
  "periodic": 2306, 
  "absolute": 2307, 
  "fo@@": 2308, 
  "tions": 2309, 
  "Left": 2310, 
  "22": 2311, 
  "ist": 2312, 
  "Schüssel": 2313, 
  "intergovernmental": 2314, 
  "delivered": 2315, 
  "strongly": 2316, 
  "happens": 2317, 
  "careful": 2318, 
  "fighting": 2319, 
  "China": 2320, 
  "est": 2321, 
  "truth": 2322, 
  "benefits": 2323, 
  "targeted": 2324, 
  "considering": 2325, 
  "testing": 2326, 
  "economically": 2327, 
  "check": 2328, 
  "energies": 2329, 
  "Agreement": 2330, 
  "studies": 2331, 
  "register": 2332, 
  "listen": 2333, 
  "ge": 2334, 
  "arise": 2335, 
  "sphere": 2336, 
  "consolidate": 2337, 
  "safeguarding": 2338, 
  "choose": 2339, 
  "rec@@": 2340, 
  "voice": 2341, 
  "grants": 2342, 
  "da": 2343, 
  "missing": 2344, 
  "recognises": 2345, 
  "negotiating": 2346, 
  "deserve": 2347, 
  "sanctions": 2348, 
  "wide": 2349, 
  "ante": 2350, 
  "harmonising": 2351, 
  "Byrne": 2352, 
  "democratically": 2353, 
  "Austrians": 2354, 
  "Berlin": 2355, 
  "ality": 2356, 
  "recommendation": 2357, 
  "source": 2358, 
  "damaging": 2359, 
  "fate": 2360, 
  "raising": 2361, 
  "April": 2362, 
  "played": 2363, 
  "racist": 2364, 
  "deserves": 2365, 
  "Organisation": 2366, 
  "Barak": 2367, 
  "undoubtedly": 2368, 
  "strictly": 2369, 
  "zone": 2370, 
  "employ": 2371, 
  "assume": 2372, 
  "easily": 2373, 
  "fine": 2374, 
  "PPE": 2375, 
  "appear": 2376, 
  "accountable": 2377, 
  "bound": 2378, 
  "await": 2379, 
  "ves": 2380, 
  "suggestions": 2381, 
  "interpreted": 2382, 
  "formed": 2383, 
  "removed": 2384, 
  "shortcomings": 2385, 
  "advantage": 2386, 
  "Chinese": 2387, 
  "marked": 2388, 
  "Friday": 2389, 
  "ably": 2390, 
  "member": 2391, 
  "declare": 2392, 
  "Golan": 2393, 
  "guaranteed": 2394, 
  "recall": 2395, 
  "suggests": 2396, 
  "method": 2397, 
  "wing": 2398, 
  "insecurity": 2399, 
  "trust": 2400, 
  "October": 2401, 
  "ch@@": 2402, 
  "interinstitutional": 2403, 
  "worrying": 2404, 
  "May": 2405, 
  "record": 2406, 
  "rigorous": 2407, 
  "renationalisation": 2408, 
  "tolerance": 2409, 
  "monopoly": 2410, 
  "cost-benefit": 2411, 
  "largely": 2412, 
  "depleted": 2413, 
  "proud": 2414, 
  "maintained": 2415, 
  "prepare": 2416, 
  "non-governmental": 2417, 
  "philosophy": 2418, 
  "strengthening": 2419, 
  "feels": 2420, 
  "26": 2421, 
  "examining": 2422, 
  "unprecedented": 2423, 
  "e": 2424, 
  "centre": 2425, 
  "ings": 2426, 
  "Mediterranean": 2427, 
  "exchanges": 2428, 
  "preparing": 2429, 
  "criticisms": 2430, 
  "inclusion": 2431, 
  "c": 2432, 
  "Syrian": 2433, 
  "background": 2434, 
  "confusion": 2435, 
  "importantly": 2436, 
  "presenting": 2437, 
  "constantly": 2438, 
  "identity": 2439, 
  "Malta": 2440, 
  "likewise": 2441, 
  "exceptions": 2442, 
  "mere": 2443, 
  "pass": 2444, 
  "guidance": 2445, 
  "ble": 2446, 
  "confidentiality": 2447, 
  "kinds": 2448, 
  "contributing": 2449, 
  "confine": 2450, 
  "multiannual": 2451, 
  "structured": 2452, 
  "gone": 2453, 
  "pl@@": 2454, 
  "subsequent": 2455, 
  "ck": 2456, 
  "restore": 2457, 
  "interventions": 2458, 
  "generate": 2459, 
  "holds": 2460, 
  "places": 2461, 
  "inadequate": 2462, 
  "acceptance": 2463, 
  "safe": 2464, 
  "m": 2465, 
  "compensation": 2466, 
  "transportation": 2467, 
  "detriment": 2468, 
  "accountability": 2469, 
  "looks": 2470, 
  "exact": 2471, 
  "save": 2472, 
  "taxes": 2473, 
  "forming": 2474, 
  "offices": 2475, 
  "survey": 2476, 
  "federal": 2477, 
  "technological": 2478, 
  "seeking": 2479, 
  "frontiers": 2480, 
  "Wednesday": 2481, 
  "powerful": 2482, 
  "devoted": 2483, 
  "channels": 2484, 
  "sufficiently": 2485, 
  "Health": 2486, 
  "numbers": 2487, 
  "alternative": 2488, 
  "rates": 2489, 
  "right-wing": 2490, 
  "le@@": 2491, 
  "anti-@@": 2492, 
  "friendly": 2493, 
  "agrees": 2494, 
  "diplomatic": 2495, 
  "partly": 2496, 
  "incident": 2497, 
  "boost": 2498, 
  "SV": 2499, 
  "attempts": 2500, 
  "started": 2501, 
  "disappointed": 2502, 
  "sign": 2503, 
  "competent": 2504, 
  "waters": 2505, 
  "reconsider": 2506, 
  "capita": 2507, 
  "centralised": 2508, 
  "pursue": 2509, 
  "societies": 2510, 
  "bases": 2511, 
  "Constitutional": 2512, 
  "resource": 2513, 
  "d": 2514, 
  "delays": 2515, 
  "peripheral": 2516, 
  "owner": 2517, 
  "attach": 2518, 
  "oppose": 2519, 
  "recycled": 2520, 
  "solely": 2521, 
  "appointment": 2522, 
  "Rule": 2523, 
  "founding": 2524, 
  "vehicle": 2525, 
  "born": 2526, 
  "interference": 2527, 
  "categories": 2528, 
  "processes": 2529, 
  "O@@": 2530, 
  "supposed": 2531, 
  "alongside": 2532, 
  "des": 2533, 
  "network": 2534, 
  "y@@": 2535, 
  "Consumer": 2536, 
  "WTO": 2537, 
  "green": 2538, 
  "crimes": 2539, 
  "afraid": 2540, 
  "begun": 2541, 
  "drop": 2542, 
  "Eurojust": 2543, 
  "aside": 2544, 
  "hide": 2545, 
  "items": 2546, 
  "slick": 2547, 
  "scandals": 2548, 
  "expertise": 2549, 
  "reaching": 2550, 
  "house": 2551, 
  "proactive": 2552, 
  "footing": 2553, 
  "spread": 2554, 
  "judgement": 2555, 
  "demonstration": 2556, 
  "utmost": 2557, 
  "defining": 2558, 
  "respective": 2559, 
  "remove": 2560, 
  "doubts": 2561, 
  "treated": 2562, 
  "separate": 2563, 
  "topic": 2564, 
  "Foreign": 2565, 
  "nepotism": 2566, 
  "ally": 2567, 
  "occur": 2568, 
  "restoring": 2569, 
  "arising": 2570, 
  "senior": 2571, 
  "coordinate": 2572, 
  "mistakes": 2573, 
  "accordingly": 2574, 
  "disadvantaged": 2575, 
  "break": 2576, 
  "refused": 2577, 
  "stance": 2578, 
  "21": 2579, 
  "Question": 2580, 
  "hour": 2581, 
  "count": 2582, 
  "owners": 2583, 
  "determine": 2584, 
  "meetings": 2585, 
  "ag@@": 2586, 
  "P@@": 2587, 
  "target": 2588, 
  "p": 2589, 
  "ceiling": 2590, 
  "Brittany": 2591, 
  "ary": 2592, 
  "ic": 2593, 
  "UN": 2594, 
  "Ombudsman": 2595, 
  "shipowners": 2596, 
  "difficulty": 2597, 
  "membership": 2598, 
  "residence": 2599, 
  "stake": 2600, 
  "decades": 2601, 
  "payments": 2602, 
  "emissions": 2603, 
  "em@@": 2604, 
  "spoken": 2605, 
  "ism": 2606, 
  "acknowledge": 2607, 
  "Arab": 2608, 
  "Men": 2609, 
  "tra@@": 2610, 
  "Wise": 2611, 
  "n@@": 2612, 
  "tourism": 2613, 
  "stronger": 2614, 
  "traditional": 2615, 
  "Leinen": 2616, 
  "ously": 2617, 
  "lasting": 2618, 
  "Sweden": 2619, 
  "investigation": 2620, 
  "ap@@": 2621, 
  "voluntary": 2622, 
  "ls": 2623, 
  "ve": 2624, 
  "vintage": 2625, 
  "mistake": 2626, 
  "coherence": 2627, 
  "deep": 2628, 
  "track": 2629, 
  "recycle": 2630, 
  "define": 2631, 
  "condition": 2632, 
  "acquis": 2633, 
  "ges": 2634, 
  "alism": 2635, 
  "resulting": 2636, 
  "leaving": 2637, 
  "har@@": 2638, 
  "Albanians": 2639, 
  "vi@@": 2640, 
  "city": 2641, 
  "continued": 2642, 
  "eyes": 2643, 
  "k@@": 2644, 
  "exceptionally": 2645, 
  "scrutiny": 2646, 
  "actively": 2647, 
  "prosperous": 2648, 
  "forced": 2649, 
  "Finland": 2650, 
  "afford": 2651, 
  "94": 2652, 
  "severely": 2653, 
  "allows": 2654, 
  "sought": 2655, 
  "-LSB-": 2656, 
  "-RSB-": 2657, 
  "wider": 2658, 
  "Rural": 2659, 
  "A5-00@@": 2660, 
  "27": 2661, 
  "involves": 2662, 
  "primarily": 2663, 
  "below": 2664, 
  "stressing": 2665, 
  "self-employed": 2666, 
  "accessible": 2667, 
  "decentralisation": 2668, 
  "fit": 2669, 
  "ce": 2670, 
  "stable": 2671, 
  "largest": 2672, 
  "speed": 2673, 
  "genuinely": 2674, 
  "16": 2675, 
  "tankers": 2676, 
  "acts": 2677, 
  "transition": 2678, 
  "ECSC": 2679, 
  "engaged": 2680, 
  "82": 2681, 
  "rapidly": 2682, 
  "receiving": 2683, 
  "barriers": 2684, 
  "validity": 2685, 
  "claims": 2686, 
  "entail": 2687, 
  "purely": 2688, 
  "creates": 2689, 
  "possibilities": 2690, 
  "transported": 2691, 
  "Trade": 2692, 
  "USD": 2693, 
  "release": 2694, 
  "Greek": 2695, 
  "translation": 2696, 
  "requests": 2697, 
  "head": 2698, 
  "allocation": 2699, 
  "relative": 2700, 
  "Berend": 2701, 
  "car@@": 2702, 
  "initiate": 2703, 
  "profit": 2704, 
  "reviewed": 2705, 
  "regulating": 2706, 
  "military": 2707, 
  "ver@@": 2708, 
  "integral": 2709, 
  "explicitly": 2710, 
  "e-@@": 2711, 
  "valuable": 2712, 
  "evident": 2713, 
  "admit": 2714, 
  "34": 2715, 
  "ir@@": 2716, 
  "discipline": 2717, 
  "whereas": 2718, 
  "roots": 2719, 
  "Strasbourg": 2720, 
  "air": 2721, 
  "decade": 2722, 
  "Belgian": 2723, 
  "demanding": 2724, 
  "stipulated": 2725, 
  "hearing": 2726, 
  "Seixas": 2727, 
  "organisms": 2728, 
  "pilot": 2729, 
  "scenario": 2730, 
  "PPE-DE": 2731, 
  "limits": 2732, 
  "observed": 2733, 
  "preparation": 2734, 
  "excuse": 2735, 
  "ruling": 2736, 
  "entered": 2737, 
  "factors": 2738, 
  "consequence": 2739, 
  "West": 2740, 
  "exception": 2741, 
  "as@@": 2742, 
  "res@@": 2743, 
  "functions": 2744, 
  "someone": 2745, 
  "Reform": 2746, 
  "PHARE": 2747, 
  "raft": 2748, 
  "resumed": 2749, 
  "Dimitrakopoulos": 2750, 
  "ministers": 2751, 
  "coastal": 2752, 
  "ant": 2753, 
  "outermost": 2754, 
  "me@@": 2755, 
  "retain": 2756, 
  "unemployed": 2757, 
  "unions": 2758, 
  "rejection": 2759, 
  "Roth-Behrendt": 2760, 
  "finding": 2761, 
  "sight": 2762, 
  "thematic": 2763, 
  "manifesto": 2764, 
  "invite": 2765, 
  "leader": 2766, 
  "Brok": 2767, 
  "complicated": 2768, 
  "isolate": 2769, 
  "productive": 2770, 
  "Citizens": 2771, 
  "t-@@": 2772, 
  "indicators": 2773, 
  "hitherto": 2774, 
  "restrict": 2775, 
  "High": 2776, 
  "roles": 2777, 
  "spite": 2778, 
  "1993": 2779, 
  "ni@@": 2780, 
  "1992": 2781, 
  "ab@@": 2782, 
  "root": 2783, 
  "volunteers": 2784, 
  "extensive": 2785, 
  "unclear": 2786, 
  "location": 2787, 
  "C": 2788, 
  "ms": 2789, 
  "substantive": 2790, 
  "telling": 2791, 
  "tried": 2792, 
  "war@@": 2793, 
  "disappear": 2794, 
  "solve": 2795, 
  "indicative": 2796, 
  "managers": 2797, 
  "enabling": 2798, 
  "depth": 2799, 
  "w": 2800, 
  "assessing": 2801, 
  "elderly": 2802, 
  "ad": 2803, 
  "depend": 2804, 
  "ou@@": 2805, 
  "arms": 2806, 
  "refuse": 2807, 
  "expense": 2808, 
  "Nielson": 2809, 
  "deprived": 2810, 
  "in-depth": 2811, 
  "unique": 2812, 
  "attached": 2813, 
  "shares": 2814, 
  "ri@@": 2815, 
  "Poettering": 2816, 
  "Wurtz": 2817, 
  "reservations": 2818, 
  "96": 2819, 
  "b": 2820, 
  "dissemination": 2821, 
  "corresponding": 2822, 
  "memory": 2823, 
  "physical": 2824, 
  "keen": 2825, 
  "king": 2826, 
  "Reding": 2827, 
  "honest": 2828, 
  "antibiotics": 2829, 
  "television": 2830, 
  "career": 2831, 
  "merit": 2832, 
  "expressing": 2833, 
  "Evans": 2834, 
  "ad@@": 2835, 
  "internally": 2836, 
  "persistent": 2837, 
  "hopes": 2838, 
  "America": 2839, 
  "universally": 2840, 
  "mobility": 2841, 
  "condemned": 2842, 
  "Russia": 2843, 
  "70": 2844, 
  "kept": 2845, 
  "channel": 2846, 
  "traffic": 2847, 
  "pul@@": 2848, 
  "town": 2849, 
  "welcomes": 2850, 
  "deadlines": 2851, 
  "listened": 2852, 
  "greenhouse": 2853, 
  "Lebanon": 2854, 
  "undertaking": 2855, 
  "suffering": 2856, 
  "complement": 2857, 
  "forests": 2858, 
  "lower": 2859, 
  "atory": 2860, 
  "suffer": 2861, 
  "forest": 2862, 
  "refugee": 2863, 
  "bit": 2864, 
  "Human": 2865, 
  "ying": 2866, 
  "answers": 2867, 
  "aspirations": 2868, 
  "liked": 2869, 
  "laying": 2870, 
  "33": 2871, 
  "doubtless": 2872, 
  "crises": 2873, 
  "highlighted": 2874, 
  "volume": 2875, 
  "passing": 2876, 
  "stringent": 2877, 
  "ho@@": 2878, 
  "preferred": 2879, 
  "logical": 2880, 
  "plays": 2881, 
  "BSE": 2882, 
  "citizenship": 2883, 
  "ises": 2884, 
  "metals": 2885, 
  "neighbours": 2886, 
  "realistic": 2887, 
  "Palestinians": 2888, 
  "association": 2889, 
  "Israelis": 2890, 
  "ked": 2891, 
  "destruction": 2892, 
  "fy": 2893, 
  "stating": 2894, 
  "addressing": 2895, 
  "expression": 2896, 
  "handed": 2897, 
  "awaiting": 2898, 
  "assets": 2899, 
  "interested": 2900, 
  "foundation": 2901, 
  "continues": 2902, 
  "warmly": 2903, 
  "belong": 2904, 
  "suitable": 2905, 
  "prevented": 2906, 
  "territories": 2907, 
  "socially": 2908, 
  "regardless": 2909, 
  "envisage": 2910, 
  "satisfied": 2911, 
  "courses": 2912, 
  "daily": 2913, 
  "began": 2914, 
  "indication": 2915, 
  "Britain": 2916, 
  "straight": 2917, 
  "absence": 2918, 
  "fourth": 2919, 
  "formally": 2920, 
  "85": 2921, 
  "inevitably": 2922, 
  "lay": 2923, 
  "lessons": 2924, 
  "unfair": 2925, 
  "founded": 2926, 
  "image": 2927, 
  "pending": 2928, 
  "standing": 2929, 
  "feet": 2930, 
  "compete": 2931, 
  "undermine": 2932, 
  "fying": 2933, 
  "continuation": 2934, 
  "lie": 2935, 
  "Désir": 2936, 
  "banks": 2937, 
  "features": 2938, 
  "opened": 2939, 
  "family": 2940, 
  "succeeded": 2941, 
  "perfect": 2942, 
  "expressly": 2943, 
  "Democrat": 2944, 
  "negotiate": 2945, 
  "chain": 2946, 
  "imposed": 2947, 
  "owe": 2948, 
  "ces": 2949, 
  "freedoms": 2950, 
  "ise": 2951, 
  "ters": 2952, 
  "hardly": 2953, 
  "openly": 2954, 
  "exemptions": 2955, 
  "ists": 2956, 
  "counter": 2957, 
  "vigilant": 2958, 
  "shift": 2959, 
  "jurisdiction": 2960, 
  "el@@": 2961, 
  "instability": 2962, 
  "altogether": 2963, 
  "restrictive": 2964, 
  "Competition": 2965, 
  "outstanding": 2966, 
  "qu@@": 2967, 
  "Spain": 2968, 
  "driving": 2969, 
  "Terrón": 2970, 
  "up@@": 2971, 
  "collaboration": 2972, 
  "Karas": 2973, 
  "fairly": 2974, 
  "harmful": 2975, 
  "drug": 2976, 
  "supranational": 2977, 
  "Chancellor": 2978, 
  "il@@": 2979, 
  "compensate": 2980, 
  "assent": 2981, 
  "i": 2982, 
  "options": 2983, 
  "playing": 2984, 
  "demonstrates": 2985, 
  "notice": 2986, 
  "reverse": 2987, 
  "Fischler": 2988, 
  "sincerely": 2989, 
  "raises": 2990, 
  "offered": 2991, 
  "constitutes": 2992, 
  "desired": 2993, 
  "Madame": 2994, 
  "limitations": 2995, 
  "integrating": 2996, 
  "thoughts": 2997, 
  "division": 2998, 
  "duties": 2999, 
  "Freedoms": 3000, 
  "dignity": 3001, 
  "voters": 3002, 
  "at@@": 3003, 
  "Home": 3004, 
  "catastrophe": 3005, 
  "obtained": 3006, 
  "dynamic": 3007, 
  "notably": 3008, 
  "refusal": 3009, 
  "mandatory": 3010, 
  "Dublin": 3011, 
  "threatens": 3012, 
  "everywhere": 3013, 
  "cards": 3014, 
  "se@@": 3015, 
  "subsequently": 3016, 
  "Food": 3017, 
  "no@@": 3018, 
  "sions": 3019, 
  "2001": 3020, 
  "ingly": 3021, 
  "originally": 3022, 
  "pro@@": 3023, 
  "sa@@": 3024, 
  "MEP": 3025, 
  "ur@@": 3026, 
  "showing": 3027, 
  "legitimacy": 3028, 
  "ob@@": 3029, 
  "magnificent": 3030, 
  "ambitions": 3031, 
  "F@@": 3032, 
  "meantime": 3033, 
  "cing": 3034, 
  "attack": 3035, 
  "terrible": 3036, 
  "prosecution": 3037, 
  "definitive": 3038, 
  "confined": 3039, 
  "essence": 3040, 
  "paragraphs": 3041, 
  "statute": 3042, 
  "ish": 3043, 
  "partner": 3044, 
  "agency": 3045, 
  "contracts": 3046, 
  "write": 3047, 
  "targets": 3048, 
  "amending": 3049, 
  "irregularities": 3050, 
  "input": 3051, 
  "45": 3052, 
  "sti@@": 3053, 
  "Swoboda": 3054, 
  "depends": 3055, 
  "enhanced": 3056, 
  "dly": 3057, 
  "affair": 3058, 
  "prosecutor": 3059, 
  "acted": 3060, 
  "wholeheartedly": 3061, 
  "eight": 3062, 
  "less-favoured": 3063, 
  "legislature": 3064, 
  "noticed": 3065, 
  "Monday": 3066, 
  "bi@@": 3067, 
  "pillar": 3068, 
  "negotiation": 3069, 
  "Quaestors": 3070, 
  "employability": 3071, 
  "test": 3072, 
  "irresponsible": 3073, 
  "o": 3074, 
  "retirement": 3075, 
  "pension": 3076, 
  "communitisation": 3077, 
  "bilateral": 3078, 
  "USA": 3079, 
  "unlike": 3080, 
  "death": 3081, 
  "preparations": 3082, 
  "foremost": 3083, 
  "lawyers": 3084, 
  "ised": 3085, 
  "29": 3086, 
  "Time": 3087, 
  "ending": 3088, 
  "28": 3089, 
  "sta@@": 3090, 
  "wa@@": 3091, 
  "reactors": 3092, 
  "acquire": 3093, 
  "fourthly": 3094, 
  "alised": 3095, 
  "fisheries": 3096, 
  "explanations": 3097, 
  "indicated": 3098, 
  "sending": 3099, 
  "infringement": 3100, 
  "ments": 3101, 
  "withdrawn": 3102, 
  "recommend": 3103, 
  "da@@": 3104, 
  "unanimous": 3105, 
  "summer": 3106, 
  "ently": 3107, 
  "survival": 3108, 
  "Dalai": 3109, 
  "Lama": 3110, 
  "sections": 3111, 
  "preliminary": 3112, 
  "experienced": 3113, 
  "zones": 3114, 
  "weakness": 3115, 
  "p.m.": 3116, 
  "ling": 3117, 
  "improvements": 3118, 
  "enjoy": 3119, 
  "productivity": 3120, 
  "or@@": 3121, 
  "alising": 3122, 
  "el": 3123, 
  "incentives": 3124, 
  "E@@": 3125, 
  "reiterate": 3126, 
  "imperative": 3127, 
  "per@@": 3128, 
  "proportion": 3129, 
  "protocol": 3130, 
  "inequalities": 3131, 
  "shape": 3132, 
  "CO2": 3133, 
  "insufficient": 3134, 
  "costly": 3135, 
  "moral": 3136, 
  "ess": 3137, 
  "threats": 3138, 
  "interpretation": 3139, 
  "publicly": 3140, 
  "unfortunate": 3141, 
  "works": 3142, 
  "size": 3143, 
  "organising": 3144, 
  "delayed": 3145, 
  "4@@": 3146, 
  "emphasises": 3147, 
  "hit": 3148, 
  "occurring": 3149, 
  "slow": 3150, 
  "employee": 3151, 
  "entrepreneurship": 3152, 
  "convention": 3153, 
  "optimum": 3154, 
  "suspended": 3155, 
  "skills": 3156, 
  "fast": 3157, 
  "experiencing": 3158, 
  "author": 3159, 
  "tendency": 3160, 
  "shed": 3161, 
  "explicit": 3162, 
  "mentioning": 3163, 
  "Objectives": 3164, 
  "lu@@": 3165, 
  "wished": 3166, 
  "link": 3167, 
  "prerequisite": 3168, 
  "gained": 3169, 
  "23": 3170, 
  "profile": 3171, 
  "back@@": 3172, 
  "poorest": 3173, 
  "observation": 3174, 
  "harmonious": 3175, 
  "issuing": 3176, 
  "B@@": 3177, 
  "funded": 3178, 
  "undertakings": 3179, 
  "It": 3180, 
  "methods": 3181, 
  "parallel": 3182, 
  "ness": 3183, 
  "S@@": 3184, 
  "sed": 3185, 
  "lowest": 3186, 
  "om@@": 3187, 
  "employers": 3188, 
  "ished": 3189, 
  "tackling": 3190, 
  "breach": 3191, 
  "South": 3192, 
  "faster": 3193, 
  "grow": 3194, 
  "US": 3195, 
  "mar@@": 3196, 
  "ders": 3197, 
  "supervise": 3198, 
  "welfare": 3199, 
  "permission": 3200, 
  "adapting": 3201, 
  "provisional": 3202, 
  "consolidation": 3203, 
  "violence": 3204, 
  "National": 3205, 
  "imp@@": 3206, 
  "tor@@": 3207, 
  "storm": 3208, 
  "pertaining": 3209, 
  "acknowledged": 3210, 
  "writing": 3211, 
  "warning": 3212, 
  "pact": 3213, 
  "consistency": 3214, 
  "corruption": 3215, 
  "front": 3216, 
  "visit": 3217, 
  "accorded": 3218, 
  "difference": 3219, 
  "signal": 3220, 
  "ali@@": 3221, 
  "guaranteeing": 3222, 
  "repeatedly": 3223, 
  "appreciation": 3224, 
  "revenue": 3225, 
  "extraordinary": 3226, 
  "gs": 3227, 
  "submitting": 3228, 
  "com@@": 3229, 
  "regulatory": 3230, 
  "latest": 3231, 
  "he@@": 3232, 
  "northern": 3233, 
  "convince": 3234, 
  "Kyoto": 3235, 
  "gap": 3236, 
  "faces": 3237, 
  "enhance": 3238, 
  "feature": 3239, 
  "abuses": 3240, 
  "drew": 3241, 
  "reassure": 3242, 
  "breaking": 3243, 
  "exploit": 3244, 
  "forum": 3245, 
  "ac@@": 3246, 
  "apparent": 3247, 
  "deficiencies": 3248, 
  "lacks": 3249, 
  "ence": 3250, 
  "incomes": 3251, 
  "r@@": 3252, 
  "thanking": 3253, 
  "reflected": 3254, 
  "push": 3255, 
  "animals": 3256, 
  "ge@@": 3257, 
  "isolation": 3258, 
  "sc@@": 3259, 
  "New": 3260, 
  "door": 3261, 
  "impetus": 3262, 
  "col@@": 3263, 
  "insofar": 3264, 
  "disciplinary": 3265, 
  "pi@@": 3266, 
  "ative": 3267, 
  "alter": 3268, 
  "covering": 3269, 
  "1.@@": 3270, 
  "assess": 3271, 
  "finished": 3272, 
  "emphasised": 3273, 
  "harm": 3274, 
  "consists": 3275, 
  "renewables": 3276, 
  "imagine": 3277, 
  "resumption": 3278, 
  "Rome": 3279, 
  "references": 3280, 
  "War": 3281, 
  "preparatory": 3282, 
  "neighbourhoods": 3283, 
  "literature": 3284, 
  "ins@@": 3285, 
  "deprivation": 3286, 
  "Valentine": 3287, 
  "match": 3288, 
  "Bolkestein": 3289, 
  "GMOs": 3290, 
  "withdrawal": 3291, 
  "processing": 3292, 
  "models": 3293, 
  "electoral": 3294, 
  "inflation": 3295, 
  "ful": 3296, 
  "dependence": 3297, 
  "Cusí": 3298, 
  "coordinated": 3299, 
  "disagree": 3300, 
  "co-@@": 3301, 
  "promoted": 3302, 
  "residents": 3303, 
  "re-use": 3304, 
  "Resolution": 3305, 
  "incorporation": 3306, 
  "extremism": 3307, 
  "Democratic": 3308, 
  "Serbs": 3309, 
  "threatened": 3310, 
  "movements": 3311, 
  "Hitler": 3312, 
  "mark": 3313, 
  "opposition": 3314, 
  "Bay": 3315, 
  "contract": 3316, 
  "propaganda": 3317, 
  "suddenly": 3318, 
  "Moura": 3319, 
  "Eurodac": 3320, 
  "AIDS": 3321, 
  "councils": 3322, 
  "quotas": 3323, 
  "rooted": 3324, 
  "allegations": 3325, 
  "strange": 3326, 
  "fire": 3327, 
  "communications": 3328, 
  "technologies": 3329, 
  "repeating": 3330, 
  "-up": 3331, 
  "civilisation": 3332, 
  "abstain": 3333, 
  "shaping": 3334, 
  "Second": 3335, 
  "reformed": 3336, 
  "answered": 3337, 
  "fixed": 3338, 
  "degrees": 3339, 
  "peat": 3340, 
  "soul": 3341, 
  "predecessor": 3342, 
  "appointed": 3343, 
  "fresh": 3344, 
  "friends": 3345, 
  "ass@@": 3346, 
  "DA": 3347, 
  "trading": 3348, 
  "remarkable": 3349, 
  "We": 3350, 
  "regularly": 3351, 
  "resolving": 3352, 
  "attaches": 3353, 
  "sub@@": 3354, 
  "pointing": 3355, 
  "Japan": 3356, 
  "periphery": 3357, 
  "sweeping": 3358, 
  "repeated": 3359, 
  "managing": 3360, 
  "concludes": 3361, 
  "ideal": 3362, 
  "Security": 3363, 
  "failing": 3364, 
  "finish": 3365, 
  "Maastricht": 3366, 
  "admissible": 3367, 
  "protest": 3368, 
  "quoted": 3369, 
  "serves": 3370, 
  "judgements": 3371, 
  "restrictions": 3372, 
  "synergy": 3373, 
  "dioxin": 3374, 
  "ys": 3375, 
  "19": 3376, 
  "outline": 3377, 
  "acknowledges": 3378, 
  "liberalisation": 3379, 
  "denied": 3380, 
  "PSE": 3381, 
  "fewer": 3382, 
  "24": 3383, 
  "strands": 3384, 
  "In": 3385, 
  "charterer": 3386, 
  "vision": 3387, 
  "listed": 3388, 
  "argued": 3389, 
  "advocate": 3390, 
  "machine": 3391, 
  "clarification": 3392, 
  "headway": 3393, 
  "preserve": 3394, 
  "tape": 3395, 
  "Americans": 3396, 
  "networking": 3397, 
  "SAVE": 3398, 
  "enforced": 3399, 
  "speeches": 3400, 
  "achievements": 3401, 
  "ethical": 3402, 
  "modified": 3403, 
  "republicans": 3404, 
  "revised": 3405, 
  "significantly": 3406, 
  "appropriately": 3407, 
  "terrorist": 3408, 
  "jointly": 3409, 
  "applications": 3410, 
  "entails": 3411, 
  "ren@@": 3412, 
  "pat@@": 3413, 
  "pledges": 3414, 
  "book": 3415, 
  "fiscal": 3416, 
  "objections": 3417, 
  "struck": 3418, 
  "anxious": 3419, 
  "T@@": 3420, 
  "cor@@": 3421, 
  "charge": 3422, 
  "permitted": 3423, 
  "wrote": 3424, 
  "representation": 3425, 
  "manoeuvre": 3426, 
  "destroyed": 3427, 
  "distant": 3428, 
  "far-reaching": 3429, 
  "credit": 3430, 
  "twofold": 3431, 
  "Tibetan": 3432, 
  "TACIS": 3433, 
  "specified": 3434, 
  "albeit": 3435, 
  "linguistic": 3436, 
  "reconcile": 3437, 
  "united": 3438, 
  "initially": 3439, 
  "perpetrated": 3440, 
  "fore": 3441, 
  "determined": 3442, 
  "districts": 3443, 
  "daring": 3444, 
  "turnout": 3445, 
  "greatly": 3446, 
  "MEDA": 3447, 
  "inhabitants": 3448, 
  "intervene": 3449, 
  "leg@@": 3450, 
  "ine": 3451, 
  "populations": 3452, 
  "se": 3453, 
  "uni@@": 3454, 
  "complaint": 3455, 
  "Action": 3456, 
  "Adriatic": 3457, 
  "Protection": 3458, 
  "ci@@": 3459, 
  "win": 3460, 
  "electronic": 3461, 
  "organise": 3462, 
  "seventh": 3463, 
  "approaches": 3464, 
  "democracies": 3465, 
  "positively": 3466, 
  "investigations": 3467, 
  "distortions": 3468, 
  "hurdles": 3469, 
  "trans@@": 3470, 
  "pronounced": 3471, 
  "drugs": 3472, 
  "reservation": 3473, 
  "ans": 3474, 
  "repercussions": 3475, 
  "react": 3476, 
  "Barón": 3477, 
  "Crespo": 3478, 
  "combined": 3479, 
  "ining": 3480, 
  "cancelled": 3481, 
  "desperately": 3482, 
  "Industry": 3483, 
  "secondary": 3484, 
  "participated": 3485, 
  "linking": 3486, 
  "quote": 3487, 
  "en": 3488, 
  "omission": 3489, 
  "equ@@": 3490, 
  "temporary": 3491, 
  "cent": 3492, 
  "Schreyer": 3493, 
  "producing": 3494, 
  "differentiation": 3495, 
  "reinforce": 3496, 
  "asylum-seekers": 3497, 
  "describe": 3498, 
  "unit": 3499, 
  "justify": 3500, 
  "willingness": 3501, 
  "venture": 3502, 
  "earthquakes": 3503, 
  "beef": 3504, 
  "disposed": 3505, 
  "summit": 3506, 
  "widen": 3507, 
  "systematically": 3508, 
  "95": 3509, 
  "perspectives": 3510, 
  "hypocrisy": 3511, 
  "underlined": 3512, 
  "confused": 3513, 
  "harder": 3514, 
  "religious": 3515, 
  "drafted": 3516, 
  "travel": 3517, 
  "posed": 3518, 
  "profitable": 3519, 
  "EAGGF": 3520, 
  "cement": 3521, 
  "purposes": 3522, 
  "deeply": 3523, 
  "concluding": 3524, 
  "length": 3525, 
  "highlights": 3526, 
  "Bourlanges": 3527, 
  "delicate": 3528, 
  "producers": 3529, 
  "COD": 3530, 
  "inland": 3531, 
  "98": 3532, 
  "doors": 3533, 
  "corpus": 3534, 
  "widely": 3535, 
  "tor": 3536, 
  "quarters": 3537, 
  "31": 3538, 
  "fears": 3539, 
  "Ahern": 3540, 
  "ators": 3541, 
  "86": 3542, 
  "nationality": 3543, 
  "fulfilled": 3544, 
  "outlines": 3545, 
  "ks": 3546, 
  "chapter": 3547, 
  "beings": 3548, 
  "puts": 3549, 
  "tered": 3550, 
  "land": 3551, 
  "l": 3552, 
  "38": 3553, 
  "conducted": 3554, 
  "bur@@": 3555, 
  "focusing": 3556, 
  "interfere": 3557, 
  "dered": 3558, 
  "moved": 3559, 
  "deciding": 3560, 
  "remark": 3561, 
  "hull": 3562, 
  "BBC": 3563, 
  "simplify": 3564, 
  "losses": 3565, 
  "piece": 3566, 
  "ed@@": 3567, 
  "overlook": 3568, 
  "dominant": 3569, 
  "ging": 3570, 
  "profits": 3571, 
  "postponed": 3572, 
  "transferred": 3573, 
  "inspectors": 3574, 
  "tradition": 3575, 
  "adequately": 3576, 
  "bu@@": 3577, 
  "ming": 3578, 
  "tes": 3579, 
  "ec@@": 3580, 
  "interaction": 3581, 
  "pa@@": 3582, 
  "ol@@": 3583, 
  "housing": 3584, 
  "description": 3585, 
  "judged": 3586, 
  "dramatic": 3587, 
  "ced": 3588, 
  "payment": 3589, 
  "out@@": 3590, 
  "res": 3591, 
  "75": 3592, 
  "suggestion": 3593, 
  "meets": 3594, 
  "ta@@": 3595, 
  "coexistence": 3596, 
  "eliminate": 3597, 
  "transit": 3598, 
  "leftovers": 3599, 
  "exploitation": 3600, 
  "applaud": 3601, 
  "fourteen": 3602, 
  "reinforced": 3603, 
  "marketing": 3604, 
  "orders": 3605, 
  "charges": 3606, 
  "sole": 3607, 
  "Sea": 3608, 
  "hundred": 3609, 
  "outlined": 3610, 
  "savings": 3611, 
  "vulnerable": 3612, 
  "tune": 3613, 
  "connected": 3614, 
  "ons": 3615, 
  "am@@": 3616, 
  "Danube": 3617, 
  "Protocol": 3618, 
  "applause": 3619, 
  "ved": 3620, 
  "generations": 3621, 
  "nearly": 3622, 
  "findings": 3623, 
  "stick": 3624, 
  "Palestine": 3625, 
  "to@@": 3626, 
  "medium": 3627, 
  "got": 3628, 
  "valid": 3629, 
  "counter@@": 3630, 
  "Cambodia": 3631, 
  "trend": 3632, 
  "taxpayer": 3633, 
  "tanks": 3634, 
  "cally": 3635, 
  "Biscay": 3636, 
  "Representative": 3637, 
  "Pinochet": 3638, 
  "efficiently": 3639, 
  "stock": 3640, 
  "controversy": 3641, 
  "Christmas": 3642, 
  "conflicts": 3643, 
  "enterprise": 3644, 
  "EMU": 3645, 
  "Graça": 3646, 
  "constant": 3647, 
  "appraisal": 3648, 
  "personnel": 3649, 
  "glad": 3650, 
  "man@@": 3651, 
  "gra@@": 3652, 
  "codes": 3653, 
  "commend": 3654, 
  ".@@": 3655, 
  "swiftly": 3656, 
  "leadership": 3657, 
  "confident": 3658, 
  "heading": 3659, 
  "signs": 3660, 
  "ps": 3661, 
  "industrialised": 3662, 
  "is@@": 3663, 
  "vo@@": 3664, 
  "south": 3665, 
  "abuse": 3666, 
  "ding": 3667, 
  "youth": 3668, 
  "dependency": 3669, 
  "als": 3670, 
  "tragic": 3671, 
  "permits": 3672, 
  "adhere": 3673, 
  "upheld": 3674, 
  "Randzio-Plath": 3675, 
  "enforce": 3676, 
  "tremendous": 3677, 
  "died": 3678, 
  "weak": 3679, 
  "birds": 3680, 
  "users": 3681, 
  "ke": 3682, 
  "hundreds": 3683, 
  "sovereign": 3684, 
  "dying": 3685, 
  "helped": 3686, 
  "700": 3687, 
  "Alliance": 3688, 
  "badly": 3689, 
  "beneficial": 3690, 
  "drive": 3691, 
  "resulted": 3692, 
  "managerial": 3693, 
  "conjunction": 3694, 
  "wishing": 3695, 
  "stay": 3696, 
  "Groups": 3697, 
  "promises": 3698, 
  "rid": 3699, 
  "ses": 3700, 
  "Heights": 3701, 
  "whenever": 3702, 
  "hazardous": 3703, 
  "wn": 3704, 
  "embargo": 3705, 
  "east": 3706, 
  "traditions": 3707, 
  "except": 3708, 
  "Nazism": 3709, 
  "fied": 3710, 
  "expand": 3711, 
  "racial": 3712, 
  "legislate": 3713, 
  "CNS": 3714, 
  "minimal": 3715, 
  "blind": 3716, 
  "annually": 3717, 
  "mon@@": 3718, 
  "boundaries": 3719, 
  "devastated": 3720, 
  "contact": 3721, 
  "alist": 3722, 
  "fashion": 3723, 
  "forgotten": 3724, 
  "meaningful": 3725, 
  "ia": 3726, 
  "90": 3727, 
  "na@@": 3728, 
  "audi@@": 3729, 
  "invited": 3730, 
  "repair": 3731, 
  "sensitivity": 3732, 
  "farm": 3733, 
  "liberalism": 3734, 
  "collapse": 3735, 
  "somehow": 3736, 
  "appe@@": 3737, 
  "grave": 3738, 
  "denominator": 3739, 
  "abstained": 3740, 
  "indicates": 3741, 
  "Balkan": 3742, 
  "endeavour": 3743, 
  "enshrined": 3744, 
  "bul@@": 3745, 
  "launch": 3746, 
  "migration": 3747, 
  "fu@@": 3748, 
  "sive": 3749, 
  "vague": 3750, 
  "Herr": 3751, 
  "low-@@": 3752, 
  "centralisation": 3753, 
  "exp@@": 3754, 
  "500": 3755, 
  "accurate": 3756, 
  "investigate": 3757, 
  "elled": 3758, 
  "older": 3759, 
  "attentive": 3760, 
  "owing": 3761, 
  "relevance": 3762, 
  "Questions": 3763, 
  "composition": 3764, 
  "widespread": 3765, 
  "maintaining": 3766, 
  "certificates": 3767, 
  "tribute": 3768, 
  "fish": 3769, 
  "rel@@": 3770, 
  "tl@@": 3771, 
  "cast": 3772, 
  "bro@@": 3773, 
  "entering": 3774, 
  "experiences": 3775, 
  "sittings": 3776, 
  "cal": 3777, 
  "slightly": 3778, 
  "consistently": 3779, 
  "convincing": 3780, 
  "operations": 3781, 
  "foodstuffs": 3782, 
  "158": 3783, 
  "labelling": 3784, 
  "divided": 3785, 
  "wondering": 3786, 
  "southern": 3787, 
  "complacency": 3788, 
  "continually": 3789, 
  "symptoms": 3790, 
  "regretted": 3791, 
  "Chapter": 3792, 
  "needless": 3793, 
  "inappropriate": 3794, 
  "filled": 3795, 
  "rely": 3796, 
  "arbitrary": 3797, 
  "pity": 3798, 
  "ambiguity": 3799, 
  "decline": 3800, 
  "adding": 3801, 
  "grown": 3802, 
  "air@@": 3803, 
  "48": 3804, 
  "Sharm": 3805, 
  "NGOs": 3806, 
  "Scotland": 3807, 
  "tragedy": 3808, 
  "mid-term": 3809, 
  "hopefully": 3810, 
  "twenty": 3811, 
  "intolerable": 3812, 
  "distance": 3813, 
  "minds": 3814, 
  "f": 3815, 
  "stretched": 3816, 
  "brave": 3817, 
  "gh@@": 3818, 
  "showed": 3819, 
  "College": 3820, 
  "killed": 3821, 
  "argue": 3822, 
  "supplement": 3823, 
  "bas@@": 3824, 
  "Gama": 3825, 
  "Amoco": 3826, 
  "Cadiz": 3827, 
  "gre@@": 3828, 
  "availability": 3829, 
  "Conservative": 3830, 
  "regrettable": 3831, 
  "mass": 3832, 
  "damaged": 3833, 
  "component": 3834, 
  "inequality": 3835, 
  "Lucas": 3836, 
  "one-@@": 3837, 
  "facilities": 3838, 
  "knew": 3839, 
  "nobody": 3840, 
  "orientated": 3841, 
  "witnessed": 3842, 
  "proliferation": 3843, 
  "anticipated": 3844, 
  "fac@@": 3845, 
  "humanity": 3846, 
  "sion": 3847, 
  "N@@": 3848, 
  "consultations": 3849, 
  "unity": 3850, 
  "fundamentally": 3851, 
  "reserves": 3852, 
  "tiger": 3853, 
  "reflects": 3854, 
  "devastating": 3855, 
  "Green": 3856, 
  "talked": 3857, 
  "ged": 3858, 
  "maybe": 3859, 
  "cre@@": 3860, 
  "stopped": 3861, 
  "bridge": 3862, 
  "respecting": 3863, 
  "lasted": 3864, 
  "route": 3865, 
  "spends": 3866, 
  "stepped": 3867, 
  "comparison": 3868, 
  "Nordic": 3869, 
  "et@@": 3870, 
  "we@@": 3871, 
  "causing": 3872, 
  "rejecting": 3873, 
  "reserve": 3874, 
  "prohibited": 3875, 
  "performance": 3876, 
  "referendum": 3877, 
  "onto": 3878, 
  "sustained": 3879, 
  "al-@@": 3880, 
  "Hatzidakis": 3881, 
  "polluting": 3882, 
  "prospects": 3883, 
  "shifting": 3884, 
  "execution": 3885, 
  "admittedly": 3886, 
  "virtually": 3887, 
  "Leader": 3888, 
  "hin@@": 3889, 
  "subordinate": 3890, 
  "consultative": 3891, 
  "hot": 3892, 
  "prime": 3893, 
  "PT": 3894, 
  "federalist": 3895, 
  "airport": 3896, 
  "42": 3897, 
  "touch": 3898, 
  "cons@@": 3899, 
  "Northern": 3900, 
  "odds": 3901, 
  "whereby": 3902, 
  "NATO": 3903, 
  "ends": 3904, 
  "invested": 3905, 
  "cargo": 3906, 
  "us@@": 3907, 
  "motor": 3908, 
  "med": 3909, 
  "Regions": 3910, 
  "intolerance": 3911, 
  "origin": 3912, 
  "territorial": 3913, 
  "au@@": 3914, 
  "1994-1999": 3915, 
  "ordinary": 3916, 
  "attempted": 3917, 
  "ory": 3918, 
  "completion": 3919, 
  "Luxembourg": 3920, 
  "wherever": 3921, 
  "spec@@": 3922, 
  "General": 3923, 
  "disappointment": 3924, 
  "precedent": 3925, 
  "cutting": 3926, 
  "fl@@": 3927, 
  "neo-@@": 3928, 
  "scrap": 3929, 
  "choices": 3930, 
  "widened": 3931, 
  "newspaper": 3932, 
  "blocks": 3933, 
  "appeared": 3934, 
  "duration": 3935, 
  "south-east": 3936, 
  "2.@@": 3937, 
  "contacts": 3938, 
  "41": 3939, 
  "si@@": 3940, 
  "backing": 3941, 
  "fa@@": 3942, 
  "far@@": 3943, 
  "ving": 3944, 
  "objection": 3945, 
  "contravention": 3946, 
  "Atlantic": 3947, 
  "disp@@": 3948, 
  "1991": 3949, 
  "dro@@": 3950, 
  "minor": 3951, 
  "accompanied": 3952, 
  "urgently": 3953, 
  "businesspeople": 3954, 
  "1967": 3955, 
  "du@@": 3956, 
  "Agency": 3957, 
  "rethink": 3958, 
  "election": 3959, 
  "pen@@": 3960, 
  "ended": 3961, 
  "Paris": 3962, 
  "ological": 3963, 
  "Vienna": 3964, 
  "stricter": 3965, 
  "gaps": 3966, 
  "vari@@": 3967, 
  "examined": 3968, 
  "ches": 3969, 
  "justification": 3970, 
  "Van": 3971, 
  "appropriateness": 3972, 
  "responded": 3973, 
  "clarified": 3974, 
  "imposing": 3975, 
  "avoided": 3976, 
  "sorts": 3977, 
  "cuts": 3978, 
  "Gaza": 3979, 
  "publish": 3980, 
  "budgets": 3981, 
  "cul@@": 3982, 
  "analyse": 3983, 
  "hor@@": 3984, 
  "800": 3985, 
  "ner": 3986, 
  "wage": 3987, 
  "measured": 3988, 
  "incidentally": 3989, 
  "inc@@": 3990, 
  "frequently": 3991, 
  "informing": 3992, 
  "deregulation": 3993, 
  "dy": 3994, 
  "pre-@@": 3995, 
  "heavily": 3996, 
  "ton@@": 3997, 
  "democrats": 3998, 
  "plus": 3999, 
  "TAOs": 4000, 
  "steelworks": 4001, 
  "drastic": 4002, 
  "achievement": 4003, 
  "postpone": 4004, 
  "automatically": 4005, 
  "dropped": 4006, 
  "liberty": 4007, 
  "article": 4008, 
  "weaknesses": 4009, 
  "impracticable": 4010, 
  "category": 4011, 
  "posted": 4012, 
  "po@@": 4013, 
  "economics": 4014, 
  "Professor": 4015, 
  "voiced": 4016, 
  "object": 4017, 
  "deepening": 4018, 
  "advise": 4019, 
  "fifteen": 4020, 
  "gradually": 4021, 
  "incorrect": 4022, 
  "collect": 4023, 
  "symbolic": 4024, 
  "pursued": 4025, 
  "reforming": 4026, 
  "wording": 4027, 
  "seekers": 4028, 
  "enables": 4029, 
  "workplace": 4030, 
  "vis@@": 4031, 
  "thereof": 4032, 
  "controversial": 4033, 
  "broader": 4034, 
  "hierarchy": 4035, 
  "op@@": 4036, 
  "divide": 4037, 
  "accord": 4038, 
  "threshold": 4039, 
  "comprehensible": 4040, 
  "sum": 4041, 
  "permissible": 4042, 
  "bomb": 4043, 
  "accepts": 4044, 
  "dictatorship": 4045, 
  "indispensable": 4046, 
  "immense": 4047, 
  "prejudice": 4048, 
  "theory": 4049, 
  "doubtful": 4050, 
  "compatible": 4051, 
  "scandalous": 4052, 
  "hoping": 4053, 
  "delegates": 4054, 
  "bears": 4055, 
  "proceeding": 4056, 
  "jeopardise": 4057, 
  "witnessing": 4058, 
  "ited": 4059, 
  "lobbying": 4060, 
  "off@@": 4061, 
  "realised": 4062, 
  "conditionality": 4063, 
  "liberal": 4064, 
  "wealthy": 4065, 
  "forcing": 4066, 
  "controller": 4067, 
  "understandable": 4068, 
  "phenomenon": 4069, 
  "Serb": 4070, 
  "kes": 4071, 
  "usually": 4072, 
  "surprised": 4073, 
  "judiciary": 4074, 
  "Decision": 4075, 
  "cleansing": 4076, 
  "occupied": 4077, 
  "alise": 4078, 
  "ession": 4079, 
  "transitional": 4080, 
  "constraints": 4081, 
  "modernise": 4082, 
  "corporations": 4083, 
  "bo@@": 4084, 
  "logic": 4085, 
  "overriding": 4086, 
  "ha@@": 4087, 
  "solving": 4088, 
  "multifunctionality": 4089, 
  "contributes": 4090, 
  "es@@": 4091, 
  "Banotti": 4092, 
  "bold": 4093, 
  "justifiable": 4094, 
  "criticised": 4095, 
  "Geneva": 4096, 
  "ELDR": 4097, 
  "deployed": 4098, 
  "visa": 4099, 
  "55": 4100, 
  "comple@@": 4101, 
  "rational": 4102, 
  "dear": 4103, 
  "socio-economic": 4104, 
  "unease": 4105, 
  "nation@@": 4106, 
  "Sjöstedt": 4107, 
  "rhetoric": 4108, 
  "systematic": 4109, 
  "replaced": 4110, 
  "worried": 4111, 
  "plastic": 4112, 
  "brings": 4113, 
  "Thyssen": 4114, 
  "quick": 4115, 
  "creative": 4116, 
  "Romano": 4117, 
  "morality": 4118, 
  "400": 4119, 
  "associations": 4120, 
  "Gargani": 4121, 
  "regulated": 4122, 
  "1990": 4123, 
  "rationale": 4124, 
  "Procacci": 4125, 
  "workings": 4126, 
  "negotiated": 4127, 
  "throw": 4128, 
  "speci@@": 4129, 
  "supervisory": 4130, 
  "TAC": 4131, 
  "ure": 4132, 
  "524": 4133, 
  "arisen": 4134, 
  "constituency": 4135, 
  "clauses": 4136, 
  "preserving": 4137, 
  "Conservatives": 4138, 
  "assured": 4139, 
  "Elles": 4140, 
  "cold": 4141, 
  "Basque": 4142, 
  "lobby": 4143, 
  "affecting": 4144, 
  "resistance": 4145, 
  "respected": 4146, 
  "fortunately": 4147, 
  "a.m.": 4148, 
  "invitation": 4149, 
  "friend": 4150, 
  "ats": 4151, 
  "forefront": 4152, 
  "introductory": 4153, 
  "tender": 4154, 
  "ined": 4155, 
  "monies": 4156, 
  "lapses": 4157, 
  "guardian": 4158, 
  "scheduled": 4159, 
  "hospital": 4160, 
  "32": 4161, 
  "resident": 4162, 
  "assuming": 4163, 
  "abolish": 4164, 
  "sadly": 4165, 
  "dra@@": 4166, 
  "everyday": 4167, 
  "ulated": 4168, 
  "ct": 4169, 
  "exhibitions": 4170, 
  "contradictions": 4171, 
  "our@@": 4172, 
  "lesson": 4173, 
  "comp@@": 4174, 
  "Marinho": 4175, 
  "280": 4176, 
  "invest": 4177, 
  "j@@": 4178, 
  "himself": 4179, 
  "ter": 4180, 
  "te@@": 4181, 
  "Gasòliba": 4182, 
  "anti-fraud": 4183, 
  "gesture": 4184, 
  "entirety": 4185, 
  "commit": 4186, 
  "su@@": 4187, 
  "hat": 4188, 
  "outset": 4189, 
  "integrate": 4190, 
  "counting": 4191, 
  "appoint": 4192, 
  "Tajikistan": 4193, 
  "fill": 4194, 
  "mental": 4195, 
  "termed": 4196, 
  "covers": 4197, 
  "addresses": 4198, 
  "observatory": 4199, 
  "well-known": 4200, 
  "classic": 4201, 
  "obli@@": 4202, 
  "can@@": 4203, 
  "Kyrgyzstan": 4204, 
  "Asian": 4205, 
  "pursuing": 4206, 
  "moderate": 4207, 
  "billions": 4208, 
  "reconciliation": 4209, 
  "characterised": 4210, 
  "juris": 4211, 
  "legality": 4212, 
  "contents": 4213, 
  "accepting": 4214, 
  "kings": 4215, 
  "story": 4216, 
  "era": 4217, 
  "alists": 4218, 
  "principally": 4219, 
  "suffice": 4220, 
  "re": 4221, 
  "dossiers": 4222, 
  "telecommunications": 4223, 
  "increases": 4224, 
  "tly": 4225, 
  "gran@@": 4226, 
  "ownership": 4227, 
  "cautious": 4228, 
  "double-hulled": 4229, 
  "learned": 4230, 
  "Mar@@": 4231, 
  "game": 4232, 
  "Pro@@": 4233, 
  "privilege": 4234, 
  "centrally": 4235, 
  "recourse": 4236, 
  "assurances": 4237, 
  "stra@@": 4238, 
  "additions": 4239, 
  "tonight": 4240, 
  "Larrea": 4241, 
  "Ortuondo": 4242, 
  "Heads": 4243, 
  "z@@": 4244, 
  "vertical": 4245, 
  "ingredients": 4246, 
  "containing": 4247, 
  "ch-@@": 4248, 
  "mid-@@": 4249, 
  "pure": 4250, 
  "leads": 4251, 
  "superstate": 4252, 
  "generation": 4253, 
  "department": 4254, 
  "closing": 4255, 
  "species": 4256, 
  "inter-@@": 4257, 
  "laundering": 4258, 
  "delinquency": 4259, 
  "broke": 4260, 
  "sion@@": 4261, 
  "boosting": 4262, 
  "5@@": 4263, 
  "exceptional": 4264, 
  "block": 4265, 
  "255": 4266, 
  "everybody": 4267, 
  "n": 4268, 
  "vigorous": 4269, 
  "IMF": 4270, 
  "tabling": 4271, 
  "spheres": 4272, 
  "thinks": 4273, 
  "def@@": 4274, 
  "unjustified": 4275, 
  "virtue": 4276, 
  "decision-makers": 4277, 
  "yed": 4278, 
  "km": 4279, 
  "frequent": 4280, 
  "VIII": 4281, 
  "indefinitely": 4282, 
  "equation": 4283, 
  "ICES": 4284, 
  "exclusive": 4285, 
  "62": 4286, 
  "um@@": 4287, 
  "Federal": 4288, 
  "inconsistent": 4289, 
  "fre@@": 4290, 
  "intensify": 4291, 
  "tangible": 4292, 
  "ministerial": 4293, 
  "modification": 4294, 
  "identical": 4295, 
  "Total-Fina": 4296, 
  "brand": 4297, 
  "catastrophic": 4298, 
  "devise": 4299, 
  "though@@": 4300, 
  "backwards": 4301, 
  "ents": 4302, 
  "ars": 4303, 
  "generated": 4304, 
  "weakening": 4305, 
  "incentive": 4306, 
  "Women": 4307, 
  "Davies": 4308, 
  "populism": 4309, 
  "interven@@": 4310, 
  "spir@@": 4311, 
  "decreased": 4312, 
  "Y@@": 4313, 
  "Morgan": 4314, 
  "earned": 4315, 
  "praise": 4316, 
  "sting": 4317, 
  "ru@@": 4318, 
  "Annex": 4319, 
  "select": 4320, 
  "staunchly": 4321, 
  "assurance": 4322, 
  "advantages": 4323, 
  "compatibility": 4324, 
  "ultimate": 4325, 
  "met@@": 4326, 
  "indirectly": 4327, 
  "race": 4328, 
  "trouble": 4329, 
  "Da": 4330, 
  "hi@@": 4331, 
  "routine": 4332, 
  "violate": 4333, 
  "ban@@": 4334, 
  "VAT": 4335, 
  "blame": 4336, 
  "ines": 4337, 
  "poorer": 4338, 
  "aids": 4339, 
  "cheap": 4340, 
  "Ethiopia": 4341, 
  "receives": 4342, 
  "stabilisation": 4343, 
  "pose": 4344, 
  "certificate": 4345, 
  "Franz": 4346, 
  "sidel@@": 4347, 
  "fragility": 4348, 
  "tighten": 4349, 
  "school": 4350, 
  "experimental": 4351, 
  "instances": 4352, 
  "tone": 4353, 
  "style": 4354, 
  "detrimental": 4355, 
  "acy": 4356, 
  "liberals": 4357, 
  "acquisitions": 4358, 
  "master": 4359, 
  "saving": 4360, 
  "apparently": 4361, 
  "Ex@@": 4362, 
  "day-to-day": 4363, 
  "space": 4364, 
  "retaining": 4365, 
  "bom@@": 4366, 
  "victory": 4367, 
  "brake": 4368, 
  "L@@": 4369, 
  "marine": 4370, 
  "tourist": 4371, 
  "cr@@": 4372, 
  "destructive": 4373, 
  "approaching": 4374, 
  "horizontal": 4375, 
  "usual": 4376, 
  "continuity": 4377, 
  "modest": 4378, 
  "customs": 4379, 
  "accused": 4380, 
  "Defence": 4381, 
  "System": 4382, 
  "reputable": 4383, 
  "resurgence": 4384, 
  "superficial": 4385, 
  "tide": 4386, 
  "ama@@": 4387, 
  "euros": 4388, 
  "cap@@": 4389, 
  "decrease": 4390, 
  "accompanying": 4391, 
  "reactions": 4392, 
  "reputation": 4393, 
  "predecessors": 4394, 
  "remained": 4395, 
  "tight": 4396, 
  "sail": 4397, 
  "ken": 4398, 
  "ster@@": 4399, 
  "appropriation": 4400, 
  "by-@@": 4401, 
  "weakest": 4402, 
  "tend": 4403, 
  "Southern": 4404, 
  "technically": 4405, 
  "opt": 4406, 
  "cur@@": 4407, 
  "nowadays": 4408, 
  "attempting": 4409, 
  "removing": 4410, 
  "teen": 4411, 
  "fe@@": 4412, 
  "strength": 4413, 
  "requesting": 4414, 
  "preservation": 4415, 
  "worldwide": 4416, 
  "facilitating": 4417, 
  "bitter": 4418, 
  "Alavanos": 4419, 
  "Barcelona": 4420, 
  "rein@@": 4421, 
  "terrorists": 4422, 
  "R@@": 4423, 
  "reminded": 4424, 
  "richer": 4425, 
  "Delors": 4426, 
  "sing": 4427, 
  "cation": 4428, 
  "XXVIIIth": 4429, 
  "enlarging": 4430, 
  "ensures": 4431, 
  "returned": 4432, 
  "clause": 4433, 
  "immigrant": 4434, 
  "occasionally": 4435, 
  "exposed": 4436, 
  "London": 4437, 
  "alternatively": 4438, 
  "contrast": 4439, 
  "exercising": 4440, 
  "viewpoint": 4441, 
  "replies": 4442, 
  "gue": 4443, 
  "1986": 4444, 
  "statistics": 4445, 
  "ide@@": 4446, 
  "marks": 4447, 
  "authorising": 4448, 
  "dare": 4449, 
  "tenets": 4450, 
  "substitute": 4451, 
  "demanded": 4452, 
  "Force": 4453, 
  "fabric": 4454, 
  "undertook": 4455, 
  "sectoral": 4456, 
  "wanting": 4457, 
  "overwhelming": 4458, 
  "page": 4459, 
  "totalitarian": 4460, 
  "wel@@": 4461, 
  "attacking": 4462, 
  "ear@@": 4463, 
  "distressing": 4464, 
  "preference": 4465, 
  "Communist": 4466, 
  "sur@@": 4467, 
  "sorry": 4468, 
  "Cox": 4469, 
  "anticipate": 4470, 
  "publicised": 4471, 
  "prospect": 4472, 
  "selected": 4473, 
  "stresses": 4474, 
  "yield": 4475, 
  "Con@@": 4476, 
  "ty@@": 4477, 
  "forward-looking": 4478, 
  "88": 4479, 
  "arrested": 4480, 
  "dedicated": 4481, 
  "Chairman": 4482, 
  "dominated": 4483, 
  "compare": 4484, 
  "secured": 4485, 
  "shortly": 4486, 
  "undergo": 4487, 
  "loyalists": 4488, 
  "ws": 4489, 
  "ies": 4490, 
  "finalised": 4491, 
  "falling": 4492, 
  "taught": 4493, 
  "milestone": 4494, 
  "Vallelersundi": 4495, 
  "renew": 4496, 
  "eligibility": 4497, 
  "normally": 4498, 
  "tically": 4499, 
  "viability": 4500, 
  "professions": 4501, 
  "favourably": 4502, 
  "benchmark": 4503, 
  "SEC": 4504, 
  "vitally": 4505, 
  "observance": 4506, 
  "declarations": 4507, 
  "No.": 4508, 
  "coun@@": 4509, 
  "eliminated": 4510, 
  "broadest": 4511, 
  "endorsement": 4512, 
  "Canadian": 4513, 
  "Equal": 4514, 
  "backed": 4515, 
  "Jacques": 4516, 
  "watch": 4517, 
  "overcoming": 4518, 
  "exaggerated": 4519, 
  "dependent": 4520, 
  "launching": 4521, 
  "D@@": 4522, 
  "variety": 4523, 
  "weighing": 4524, 
  "unite": 4525, 
  "bor@@": 4526, 
  "executive": 4527, 
  "time-consuming": 4528, 
  "Task": 4529, 
  "sk@@": 4530, 
  "records": 4531, 
  "slightest": 4532, 
  "solemn": 4533, 
  "protagonists": 4534, 
  "optimistic": 4535, 
  "concentrated": 4536, 
  "cultures": 4537, 
  "shopping": 4538, 
  "fications": 4539, 
  "A5-000@@": 4540, 
  "plants": 4541, 
  "vessel": 4542, 
  "acc@@": 4543, 
  "delight": 4544, 
  "intellectual": 4545, 
  "ice": 4546, 
  "F": 4547, 
  "frontier": 4548, 
  "patience": 4549, 
  "reminds": 4550, 
  "gathering": 4551, 
  "standardised": 4552, 
  "ori@@": 4553, 
  "B.": 4554, 
  "recognising": 4555, 
  "violation": 4556, 
  "disadvantage": 4557, 
  "subsidy": 4558, 
  "congratulating": 4559, 
  "vested": 4560, 
  "des@@": 4561, 
  "contradictory": 4562, 
  "sup@@": 4563, 
  "shame": 4564, 
  "asing": 4565, 
  "gulf": 4566, 
  "haste": 4567, 
  "welcoming": 4568, 
  "relationships": 4569, 
  "transposed": 4570, 
  "treat": 4571, 
  "exercised": 4572, 
  "advocating": 4573, 
  "unsatisfactory": 4574, 
  "differs": 4575, 
  "shot": 4576, 
  "Maritime": 4577, 
  "Nazi": 4578, 
  "random": 4579, 
  "ghten": 4580, 
  "timeframe": 4581, 
  "distort": 4582, 
  "bing": 4583, 
  "ely": 4584, 
  "ck@@": 4585, 
  "ak@@": 4586, 
  "Network": 4587, 
  "armed": 4588, 
  "compiled": 4589, 
  "squ@@": 4590, 
  "streams": 4591, 
  "CIP": 4592, 
  "underline": 4593, 
  "electricity": 4594, 
  "havens": 4595, 
  "multiple": 4596, 
  "criticise": 4597, 
  "flying": 4598, 
  "sustain": 4599, 
  "shadow": 4600, 
  "attacks": 4601, 
  "merger": 4602, 
  "know-how": 4603, 
  "reiterated": 4604, 
  "poses": 4605, 
  "por@@": 4606, 
  "J@@": 4607, 
  "banning": 4608, 
  "cted": 4609, 
  "famous": 4610, 
  "ute": 4611, 
  "property": 4612, 
  "multinationals": 4613, 
  "alliance": 4614, 
  "Lynne": 4615, 
  "highlighting": 4616, 
  "priori": 4617, 
  "staffing": 4618, 
  "istic": 4619, 
  "violated": 4620, 
  "confirms": 4621, 
  "absurd": 4622, 
  "communi@@": 4623, 
  "te": 4624, 
  "th-@@": 4625, 
  "class": 4626, 
  "Moratinos": 4627, 
  "stabilising": 4628, 
  "bl@@": 4629, 
  "adaptability": 4630, 
  "favoured": 4631, 
  "and@@": 4632, 
  "presidents": 4633, 
  "learning": 4634, 
  "recorded": 4635, 
  "ce@@": 4636, 
  "Air": 4637, 
  "indirect": 4638, 
  "plain": 4639, 
  "suspension": 4640, 
  "dest@@": 4641, 
  "slowly": 4642, 
  "transposition": 4643, 
  "team": 4644, 
  "deals": 4645, 
  "gu@@": 4646, 
  "facility": 4647, 
  "Finance": 4648, 
  "articles": 4649, 
  "Syrians": 4650, 
  "x": 4651, 
  "hamper": 4652, 
  "Pollution": 4653, 
  "reliable": 4654, 
  "viable": 4655, 
  "tling": 4656, 
  "fulness": 4657, 
  "assessed": 4658, 
  "coastline": 4659, 
  "score": 4660, 
  "checking": 4661, 
  "waterway": 4662, 
  "authorise": 4663, 
  "correspond": 4664, 
  "criticising": 4665, 
  "drastically": 4666, 
  "night": 4667, 
  "attend": 4668, 
  "participating": 4669, 
  "disputes": 4670, 
  "extra@@": 4671, 
  "similarly": 4672, 
  "warn": 4673, 
  "abolished": 4674, 
  "chances": 4675, 
  "widest": 4676, 
  "gradual": 4677, 
  "gross": 4678, 
  "perpetrators": 4679, 
  "consulting": 4680, 
  "houses": 4681, 
  "domestic": 4682, 
  "alert": 4683, 
  "practically": 4684, 
  "6@@": 4685, 
  "grips": 4686, 
  "Bonde": 4687, 
  "Day": 4688, 
  "Directorates-General": 4689, 
  "placing": 4690, 
  "doctors": 4691, 
  "warm": 4692, 
  "retrospective": 4693, 
  "sho@@": 4694, 
  "additionality": 4695, 
  "wo@@": 4696, 
  "enlarge": 4697, 
  "stories": 4698, 
  "customary": 4699, 
  "ty": 4700, 
  "H-08@@": 4701, 
  "apologise": 4702, 
  "tranche": 4703, 
  "bly": 4704, 
  "partially": 4705, 
  "credible": 4706, 
  "invitations": 4707, 
  "assu@@": 4708, 
  "wh@@": 4709, 
  "Free": 4710, 
  "sales": 4711, 
  "tackled": 4712, 
  "separated": 4713, 
  "wholly": 4714, 
  "railways": 4715, 
  "Roma": 4716, 
  "flow": 4717, 
  "worded": 4718, 
  "belief": 4719, 
  "ght": 4720, 
  "larger": 4721, 
  "trusted": 4722, 
  "grasp": 4723, 
  "premise": 4724, 
  "forgetting": 4725, 
  "tour": 4726, 
  "reversed": 4727, 
  "heads": 4728, 
  "avalanche": 4729, 
  "evaluate": 4730, 
  "gets": 4731, 
  "hi-tech": 4732, 
  "equipment": 4733, 
  "hel@@": 4734, 
  "desirable": 4735, 
  "wisdom": 4736, 
  "half-@@": 4737, 
  "store": 4738, 
  "ell@@": 4739, 
  "financially": 4740, 
  "wood": 4741, 
  "Ob@@": 4742, 
  "Plan": 4743, 
  "Constitution": 4744, 
  "irrelevant": 4745, 
  "backs": 4746, 
  "H-080@@": 4747, 
  "waterways": 4748, 
  "released": 4749, 
  "arrive": 4750, 
  "encompasses": 4751, 
  "won": 4752, 
  "ning": 4753, 
  "officially": 4754, 
  "tolerate": 4755, 
  "stages": 4756, 
  "packaging": 4757, 
  "encourages": 4758, 
  "imminent": 4759, 
  "autonomy": 4760, 
  "reinforcing": 4761, 
  "loopholes": 4762, 
  "emphasising": 4763, 
  "proven": 4764, 
  "suited": 4765, 
  "prioritise": 4766, 
  "attractive": 4767, 
  "combine": 4768, 
  "fuel-efficient": 4769, 
  "stabilise": 4770, 
  "foster": 4771, 
  "bes@@": 4772, 
  "branch": 4773, 
  "quantities": 4774, 
  "twice": 4775, 
  "quantitative": 4776, 
  "carpet": 4777, 
  "commenting": 4778, 
  "adhered": 4779, 
  "silence": 4780, 
  "deaths": 4781, 
  "Santer": 4782, 
  "od": 4783, 
  "sincere": 4784, 
  "differently": 4785, 
  "retroactive": 4786, 
  "scandal": 4787, 
  "emerges": 4788, 
  "integrity": 4789, 
  "sceptical": 4790, 
  "incumbent": 4791, 
  "supplies": 4792, 
  "downfall": 4793, 
  "ruled": 4794, 
  "advanced": 4795, 
  "whistle-blowers": 4796, 
  "Wulf-Mathies": 4797, 
  "notion": 4798, 
  "gro@@": 4799, 
  "bla@@": 4800, 
  "marginalised": 4801, 
  "deser@@": 4802, 
  "accommodate": 4803, 
  "restored": 4804, 
  "wake": 4805, 
  "entrepreneurs": 4806, 
  "Laan": 4807, 
  "rating": 4808, 
  "Energy": 4809, 
  "st": 4810, 
  "socialists": 4811, 
  "representing": 4812, 
  "farmer": 4813, 
  "harmonised": 4814, 
  "pressing": 4815, 
  "Gulf": 4816, 
  "recovering": 4817, 
  "pieces": 4818, 
  "arena": 4819, 
  "7.@@": 4820, 
  "asks": 4821, 
  "regimes": 4822, 
  "identifying": 4823, 
  "nu@@": 4824, 
  "popular": 4825, 
  "expert": 4826, 
  "picture": 4827, 
  "exert": 4828, 
  "gr@@": 4829, 
  "worker": 4830, 
  "scene": 4831, 
  "incompatible": 4832, 
  "approximating": 4833, 
  "unreasonable": 4834, 
  "152": 4835, 
  "awaits": 4836, 
  "posts": 4837, 
  "justifying": 4838, 
  "Tibetans": 4839, 
  "train": 4840, 
  "commensurate": 4841, 
  "indications": 4842, 
  "expensive": 4843, 
  "stakeholders": 4844, 
  "illustrate": 4845, 
  "grade": 4846, 
  "holder": 4847, 
  "infrastructures": 4848, 
  "fleet": 4849, 
  "insisting": 4850, 
  "schedule": 4851, 
  "Programme": 4852, 
  "feedingstuff": 4853, 
  "cra@@": 4854, 
  "vanguard": 4855, 
  "perceived": 4856, 
  "specifi@@": 4857, 
  "strike": 4858, 
  "DE": 4859, 
  "che@@": 4860, 
  "M@@": 4861, 
  "drinking": 4862, 
  "Special": 4863, 
  "Turkish": 4864, 
  "cost-effective": 4865, 
  "Wallström": 4866, 
  "crossing": 4867, 
  "mix": 4868, 
  "discriminated": 4869, 
  "moments": 4870, 
  "concentrates": 4871, 
  "xing": 4872, 
  "adapted": 4873, 
  "multi-@@": 4874, 
  "confirmation": 4875, 
  "emerge": 4876, 
  "emerged": 4877, 
  "settlement": 4878, 
  "generous": 4879, 
  "Liikanen": 4880, 
  "go@@": 4881, 
  "exclude": 4882, 
  "penalties": 4883, 
  "scrapping": 4884, 
  "spot": 4885, 
  "studied": 4886, 
  "eastern": 4887, 
  "earth": 4888, 
  "extra": 4889, 
  "Bureau": 4890, 
  "tree": 4891, 
  "deeds": 4892, 
  "belongs": 4893, 
  "explo@@": 4894, 
  "buyer": 4895, 
  "rigid": 4896, 
  "scrapped": 4897, 
  "dawn": 4898, 
  "prescribed": 4899, 
  "adjourned": 4900, 
  "Sri": 4901, 
  "ne@@": 4902, 
  "43": 4903, 
  "ables": 4904, 
  "Catholic": 4905, 
  "consumption": 4906, 
  "regarded": 4907, 
  "congratulations": 4908, 
  "processed": 4909, 
  "urging": 4910, 
  "solid": 4911, 
  "Pakistan": 4912, 
  "India": 4913, 
  "acquired": 4914, 
  "urged": 4915, 
  "Board": 4916, 
  "imported": 4917, 
  "buy": 4918, 
  "verify": 4919, 
  "embrace": 4920, 
  "genetically": 4921, 
  "steering": 4922, 
  "af@@": 4923, 
  "char@@": 4924, 
  "ture": 4925, 
  "Solana": 4926, 
  "brominated": 4927, 
  "Confederal": 4928, 
  "retroactively": 4929, 
  "A@@": 4930, 
  "5b": 4931, 
  "flame": 4932, 
  "pillars": 4933, 
  "Wieland": 4934, 
  "retardants": 4935, 
  "dec@@": 4936, 
  "el-Sheikh": 4937, 
  "limiting": 4938, 
  "barrier": 4939, 
  "dubious": 4940, 
  "e-Europe": 4941, 
  "misery": 4942, 
  "seed": 4943, 
  "cked": 4944, 
  "blo@@": 4945, 
  "FF": 4946, 
  "lic@@": 4947, 
  "parameters": 4948, 
  "comitology": 4949, 
  "fin@@": 4950, 
  "afforded": 4951, 
  "fallen": 4952, 
  "chemicals": 4953, 
  "macrofinancial": 4954, 
  "accords": 4955, 
  "draftsman": 4956, 
  "super@@": 4957, 
  "investigative": 4958, 
  "apparatchiks": 4959, 
  "matched": 4960, 
  "geared": 4961, 
  "rare": 4962, 
  "ratify": 4963, 
  "controlled": 4964, 
  "globalised": 4965, 
  "duly": 4966, 
  "plight": 4967, 
  "compla@@": 4968, 
  "heartily": 4969, 
  "guiding": 4970, 
  "decent": 4971, 
  "confusing": 4972, 
  "36": 4973, 
  "dossier": 4974, 
  "pain@@": 4975, 
  "39": 4976, 
  "failings": 4977, 
  "selling": 4978, 
  "organisational": 4979, 
  "ens@@": 4980, 
  "perverse": 4981, 
  "Will": 4982, 
  "pleasing": 4983, 
  "self-evident": 4984, 
  "red-@@": 4985, 
  "formulating": 4986, 
  "mechanism": 4987, 
  "inquiries": 4988, 
  "cro@@": 4989, 
  "deploy": 4990, 
  "orientation": 4991, 
  "alarming": 4992, 
  "tation": 4993, 
  "é@@": 4994, 
  "summary": 4995, 
  "A5-0087": 4996, 
  "mercury": 4997, 
  "TEU": 4998, 
  "This": 4999, 
  "A5-0073": 5000, 
  "abstract": 5001, 
  "2.8": 5002, 
  "messages": 5003, 
  "overlap": 5004, 
  "UNMIK": 5005, 
  "reconciling": 5006, 
  "primary": 5007, 
  "dissatisfied": 5008, 
  "selecting": 5009, 
  "suspected": 5010, 
  "interpreting": 5011, 
  "intent": 5012, 
  "hypocritically": 5013, 
  "Pack": 5014, 
  "domin@@": 5015, 
  "modus": 5016, 
  "securing": 5017, 
  "rising": 5018, 
  "blatant": 5019, 
  "eradicate": 5020, 
  "operandi": 5021, 
  "punishing": 5022, 
  "demagoguery": 5023, 
  "two-@@": 5024, 
  "condemning": 5025, 
  "permitting": 5026, 
  "ing@@": 5027, 
  "extreme-right": 5028, 
  "A5-0069": 5029, 
  "Third": 5030, 
  "Hemicycle": 5031, 
  "infrin@@": 5032, 
  "IT": 5033, 
  "confidential": 5034, 
  "cadmium": 5035, 
  "upholding": 5036, 
  "equip": 5037, 
  "murders": 5038, 
  "mine": 5039, 
  "margin@@": 5040, 
  "speculators": 5041, 
  "nationalism": 5042, 
  "regul@@": 5043, 
  "logically": 5044, 
  "lock": 5045, 
  "A5-0078": 5046, 
  "thrown": 5047, 
  "municipal": 5048, 
  "occupation": 5049, 
  "responses": 5050, 
  "protocols": 5051, 
  "wal@@": 5052, 
  "effected": 5053, 
  "inct": 5054, 
  "Papayannakis": 5055, 
  "moun@@": 5056, 
  "ke@@": 5057, 
  "expansion": 5058, 
  "demand-orientated": 5059, 
  "hom@@": 5060, 
  "ati@@": 5061, 
  "merits": 5062, 
  "concentrating": 5063, 
  "one-sided": 5064, 
  "iled": 5065, 
  "alities": 5066, 
  "shop": 5067, 
  "fication": 5068, 
  "pressed": 5069, 
  "veri@@": 5070, 
  "explaining": 5071, 
  "handover": 5072, 
  "believed": 5073, 
  "Controller": 5074, 
  "sustainability": 5075, 
  "clash": 5076, 
  "remedy": 5077, 
  "so@@": 5078, 
  "disclosure": 5079, 
  "plan@@": 5080, 
  "iness": 5081, 
  "anyway": 5082, 
  "readily": 5083, 
  "viewed": 5084, 
  "l-@@": 5085, 
  "delegating": 5086, 
  "ser@@": 5087, 
  "G@@": 5088, 
  "emb@@": 5089, 
  "provider": 5090, 
  "authoritative": 5091, 
  "seemed": 5092, 
  "employer": 5093, 
  "bed": 5094, 
  "journ@@": 5095, 
  "critics": 5096, 
  "distinguished": 5097, 
  "xed": 5098, 
  "compliments": 5099, 
  "commen@@": 5100, 
  "definite": 5101, 
  "tains": 5102, 
  "reorganisation": 5103, 
  "separation": 5104, 
  "scar@@": 5105, 
  "conception": 5106, 
  "undermining": 5107, 
  "unrestricted": 5108, 
  "utilise": 5109, 
  "approximation": 5110, 
  "headed": 5111, 
  "south-eastern": 5112, 
  "profes@@": 5113, 
  "obstacle": 5114, 
  "C4-@@": 5115, 
  "Communities": 5116, 
  "hampered": 5117, 
  "coup": 5118, 
  "violations": 5119, 
  "enforcing": 5120, 
  "large-scale": 5121, 
  "IIIA": 5122, 
  "C5-@@": 5123, 
  "commence": 5124, 
  "3@@": 5125, 
  "closest": 5126, 
  "distances": 5127, 
  "functionalist": 5128, 
  "iting": 5129, 
  "medical": 5130, 
  "seldom": 5131, 
  "discovered": 5132, 
  "envoy": 5133, 
  "Judicial": 5134, 
  "aggressive": 5135, 
  "tells": 5136, 
  "interpre@@": 5137, 
  "Gomes": 5138, 
  "impres@@": 5139, 
  "Guterres": 5140, 
  "contested": 5141, 
  "defended": 5142, 
  "high-@@": 5143, 
  "Corbett": 5144, 
  "lets": 5145, 
  "dispose": 5146, 
  "fulfilling": 5147, 
  "discover": 5148, 
  "exac@@": 5149, 
  "anxiety": 5150, 
  "foreseeable": 5151, 
  "conviction": 5152, 
  "Caribbean": 5153, 
  "finances": 5154, 
  "cated": 5155, 
  "EURODAC": 5156, 
  "unsuccessful": 5157, 
  "ECHO": 5158, 
  "delivering": 5159, 
  "undermines": 5160, 
  "Schulz": 5161, 
  "misgivings": 5162, 
  "rehabilitation": 5163, 
  "defending": 5164, 
  "optimism": 5165, 
  "centr@@": 5166, 
  "radically": 5167, 
  "edge": 5168, 
  "lar@@": 5169, 
  "child": 5170, 
  "fore@@": 5171, 
  "trafficking": 5172, 
  "inability": 5173, 
  "hierarchical": 5174, 
  "stopgap": 5175, 
  "inquiry": 5176, 
  "Millennium": 5177, 
  "republics": 5178, 
  "Plans": 5179, 
  "interface": 5180, 
  "compounded": 5181, 
  "questioned": 5182, 
  "president": 5183, 
  "broaden": 5184, 
  "honoured": 5185, 
  "restraint": 5186, 
  "watching": 5187, 
  "Interests": 5188, 
  "communautaire": 5189, 
  "earliest": 5190, 
  "consist": 5191, 
  "shredding": 5192, 
  "all@@": 5193, 
  "fra@@": 5194, 
  "glo@@": 5195, 
  "set@@": 5196, 
  "stimulate": 5197, 
  "distinct": 5198, 
  "remarked": 5199, 
  "ors": 5200, 
  "Serbian": 5201, 
  "x@@": 5202, 
  "mad": 5203, 
  "Official": 5204, 
  "analysed": 5205, 
  "intensive": 5206, 
  "cost-@@": 5207, 
  "Recital": 5208, 
  "2004": 5209, 
  "misleading": 5210, 
  "stranger": 5211, 
  "ety": 5212, 
  "incompetence": 5213, 
  "EEC": 5214, 
  "cleaning": 5215, 
  "intelligent": 5216, 
  "foundations": 5217, 
  "spiritual": 5218, 
  "fell": 5219, 
  "prosecutors": 5220, 
  "qualitative": 5221, 
  "barely": 5222, 
  "misunderstanding": 5223, 
  "escape": 5224, 
  "Journal": 5225, 
  "legisl@@": 5226, 
  "reuniting": 5227, 
  "cycle": 5228, 
  "instruc@@": 5229, 
  "consciousness": 5230, 
  "app@@": 5231, 
  "David": 5232, 
  "ideological": 5233, 
  "clarifying": 5234, 
  "tens": 5235, 
  "separately": 5236, 
  "underway": 5237, 
  "delegations": 5238, 
  "ot@@": 5239, 
  "realisation": 5240, 
  "capitals": 5241, 
  "grip": 5242, 
  "mor@@": 5243, 
  "sity": 5244, 
  "governed": 5245, 
  "eded": 5246, 
  "Level": 5247, 
  "protec@@": 5248, 
  "revolution": 5249, 
  "meagre": 5250, 
  "relying": 5251, 
  "pretext": 5252, 
  "fifthly": 5253, 
  "counties": 5254, 
  "first-class": 5255, 
  "papers": 5256, 
  "1988": 5257, 
  "render": 5258, 
  "in-house": 5259, 
  "notify": 5260, 
  "meanwhile": 5261, 
  "approvals": 5262, 
  "specialised": 5263, 
  "temperatures": 5264, 
  "advertising": 5265, 
  "-related": 5266, 
  "percentages": 5267, 
  "post": 5268, 
  "ze": 5269, 
  "Baringdorf": 5270, 
  "files": 5271, 
  "quarrel": 5272, 
  "elec@@": 5273, 
  "ring": 5274, 
  "Stockholm": 5275, 
  "infringements": 5276, 
  "adaptation": 5277, 
  "cash": 5278, 
  "corporate": 5279, 
  "ss": 5280, 
  "cking": 5281, 
  "recyclable": 5282, 
  "condemns": 5283, 
  "timely": 5284, 
  "loy@@": 5285, 
  "go-ahead": 5286, 
  "battle": 5287, 
  "bank": 5288, 
  "de-@@": 5289, 
  "defender": 5290, 
  "investing": 5291, 
  "govern@@": 5292, 
  "weaker": 5293, 
  "Romania": 5294, 
  "replacing": 5295, 
  "ite": 5296, 
  "worry": 5297, 
  "promoters": 5298, 
  "preferable": 5299, 
  "Cederschiöld": 5300, 
  "improper": 5301, 
  "Fisheries": 5302, 
  "indicate": 5303, 
  "tr@@": 5304, 
  "Dunn": 5305, 
  "her@@": 5306, 
  "learnt": 5307, 
  "mountain": 5308, 
  "adjustments": 5309, 
  "deeper": 5310, 
  "ze@@": 5311, 
  "den": 5312, 
  "excess": 5313, 
  "unilaterally": 5314, 
  "quantity": 5315, 
  "dispute": 5316, 
  "ens": 5317, 
  "dreadful": 5318, 
  "nationalistic": 5319, 
  "G7": 5320, 
  "newly": 5321, 
  "lawyer": 5322, 
  "minister": 5323, 
  "Newton": 5324, 
  "W@@": 5325, 
  "wasted": 5326, 
  "successive": 5327, 
  "rat@@": 5328, 
  "solved": 5329, 
  "privatisation": 5330, 
  "materialise": 5331, 
  "zu": 5332, 
  "Graefe": 5333, 
  "consolidating": 5334, 
  "stripped": 5335, 
  "love": 5336, 
  "rigour": 5337, 
  "frankly": 5338, 
  "catches": 5339, 
  "well-balanced": 5340, 
  "wrongly": 5341, 
  "mes": 5342, 
  "hard-working": 5343, 
  "compared": 5344, 
  "den@@": 5345, 
  "prevail@@": 5346, 
  "trans-European": 5347, 
  "hesitate": 5348, 
  "excessively": 5349, 
  "dar@@": 5350, 
  "widening": 5351, 
  "understands": 5352, 
  "investors": 5353, 
  "1244": 5354, 
  "adverse": 5355, 
  "profoundly": 5356, 
  "box": 5357, 
  "quaestors": 5358, 
  "emergence": 5359, 
  "Brazil": 5360, 
  "multinational": 5361, 
  "advocates": 5362, 
  "dimensions": 5363, 
  "slice": 5364, 
  "redundant": 5365, 
  "dre@@": 5366, 
  "60": 5367, 
  "campaigns": 5368, 
  "ERDF": 5369, 
  "dollar": 5370, 
  "Duisenberg": 5371, 
  "constraint": 5372, 
  "ki@@": 5373, 
  "Holzmann": 5374, 
  "transaction": 5375, 
  "Communication": 5376, 
  "ishing": 5377, 
  "birth": 5378, 
  "favourable": 5379, 
  "avoiding": 5380, 
  "she@@": 5381, 
  "ep@@": 5382, 
  "instrumental": 5383, 
  "parameter": 5384, 
  "shipyards": 5385, 
  "Medi@@": 5386, 
  "dead": 5387, 
  "mil@@": 5388, 
  "predict": 5389, 
  "unlawful": 5390, 
  "kg": 5391, 
  "repayment": 5392, 
  "gic": 5393, 
  "inspired": 5394, 
  "authorisations": 5395, 
  "inter-company": 5396, 
  "disposing": 5397, 
  "solidly": 5398, 
  "ent@@": 5399, 
  "radio": 5400, 
  "thoroughly": 5401, 
  "combining": 5402, 
  "grand": 5403, 
  "lobbies": 5404, 
  "duty-free": 5405, 
  "homelessness": 5406, 
  "excesses": 5407, 
  "profound": 5408, 
  "enabled": 5409, 
  "ury": 5410, 
  "lays": 5411, 
  "audiovisual": 5412, 
  "warned": 5413, 
  "enriching": 5414, 
  "tolerated": 5415, 
  "ran@@": 5416, 
  "multi-ethnic": 5417, 
  "hoc": 5418, 
  "estimated": 5419, 
  "margins": 5420, 
  "reserved": 5421, 
  "supposedly": 5422, 
  "id": 5423, 
  "retained": 5424, 
  "Romany": 5425, 
  "ignored": 5426, 
  "inefficient": 5427, 
  "criminals": 5428, 
  "enjoyed": 5429, 
  "curb": 5430, 
  "signals": 5431, 
  "mp@@": 5432, 
  "heed": 5433, 
  "pu@@": 5434, 
  "Register": 5435, 
  "asset": 5436, 
  "army": 5437, 
  "endeavoured": 5438, 
  "sees": 5439, 
  "Euro": 5440, 
  "export": 5441, 
  "auspices": 5442, 
  "manifest": 5443, 
  "affir@@": 5444, 
  "sentence": 5445, 
  "onerous": 5446, 
  "promotes": 5447, 
  "eliminating": 5448, 
  "postponing": 5449, 
  "rushing": 5450, 
  "del@@": 5451, 
  "sec@@": 5452, 
  "ular": 5453, 
  "ghter": 5454, 
  "ain": 5455, 
  "oriented": 5456, 
  "returning": 5457, 
  "favours": 5458, 
  "allocations": 5459, 
  "promise": 5460, 
  "inherent": 5461, 
  "flight": 5462, 
  "sine": 5463, 
  "translated": 5464, 
  "quiet": 5465, 
  "compliance": 5466, 
  "simultaneously": 5467, 
  "terribly": 5468, 
  "competitors": 5469, 
  ".00": 5470, 
  "resist": 5471, 
  "conferences": 5472, 
  "universal": 5473, 
  "single-@@": 5474, 
  "percentage": 5475, 
  "Provan": 5476, 
  "foresee": 5477, 
  "re-establish": 5478, 
  "equivalent": 5479, 
  "ineffective": 5480, 
  "H@@": 5481, 
  "Soviet": 5482, 
  "host": 5483, 
  "classified": 5484, 
  "vol@@": 5485, 
  "autumn": 5486, 
  "assert": 5487, 
  "qua": 5488, 
  "progressive": 5489, 
  "music": 5490, 
  "unusual": 5491, 
  "infrastructural": 5492, 
  "replace": 5493, 
  "gement": 5494, 
  "finds": 5495, 
  "workload": 5496, 
  "transfers": 5497, 
  "Institutions": 5498, 
  "portion": 5499, 
  "belonging": 5500, 
  "commission": 5501, 
  "redundancies": 5502, 
  "detract": 5503, 
  "pounds": 5504, 
  "tivity": 5505, 
  "chi@@": 5506, 
  "enrichment": 5507, 
  "cop@@": 5508, 
  "shareholders": 5509, 
  "presupposes": 5510, 
  "non": 5511, 
  "plainly": 5512, 
  "zero": 5513, 
  "compromises": 5514, 
  "quo": 5515, 
  "44": 5516, 
  "gigantic": 5517, 
  "workable": 5518, 
  "ca@@": 5519, 
  "fool@@": 5520, 
  "alternatives": 5521, 
  "ES": 5522, 
  "Lanka": 5523, 
  "subsidised": 5524, 
  "ch": 5525, 
  "boat": 5526, 
  "disability": 5527, 
  "row": 5528, 
  "indul@@": 5529, 
  "touches": 5530, 
  "medi@@": 5531, 
  "A5-0108": 5532, 
  "composed": 5533, 
  "dilemma": 5534, 
  "intensifying": 5535, 
  "tiny": 5536, 
  "explore": 5537, 
  "mantra": 5538, 
  "cious": 5539, 
  "iling": 5540, 
  "protectionism": 5541, 
  "leap": 5542, 
  "hur@@": 5543, 
  "Fascism": 5544, 
  "matic": 5545, 
  "C5-03@@": 5546, 
  "87": 5547, 
  "Altener": 5548, 
  "multiplier": 5549, 
  "timing": 5550, 
  "character@@": 5551, 
  "estimates": 5552, 
  "conform@@": 5553, 
  "characterise": 5554, 
  "protected": 5555, 
  "pil@@": 5556, 
  "somewhere": 5557, 
  "suggesting": 5558, 
  "distortion": 5559, 
  "form@@": 5560, 
  "accuracy": 5561, 
  "bus@@": 5562, 
  "prejudices": 5563, 
  "perceive": 5564, 
  "complexity": 5565, 
  "reflection": 5566, 
  "ethics": 5567, 
  "conservative": 5568, 
  "pe@@": 5569, 
  "outdated": 5570, 
  "Youth": 5571, 
  "bigger": 5572, 
  "overhaul": 5573, 
  "worries": 5574, 
  "thrust": 5575, 
  "expires": 5576, 
  "crucially": 5577, 
  "down@@": 5578, 
  "Imbeni": 5579, 
  "unequal": 5580, 
  "directed": 5581, 
  "persecution": 5582, 
  "currencies": 5583, 
  "undergone": 5584, 
  "wards": 5585, 
  "equipped": 5586, 
  "penalise": 5587, 
  "abstentions": 5588, 
  "lodged": 5589, 
  "proportions": 5590, 
  "manufacture": 5591, 
  "watering-down": 5592, 
  "radi@@": 5593, 
  "changeover": 5594, 
  "guided": 5595, 
  "volatility": 5596, 
  "tests": 5597, 
  "visual": 5598, 
  "undermined": 5599, 
  "respectable": 5600, 
  "abide": 5601, 
  "overdue": 5602, 
  "167": 5603, 
  "shameful": 5604, 
  "debatable": 5605, 
  "wide-ranging": 5606, 
  "objectively": 5607, 
  "straightforward": 5608, 
  "motive": 5609, 
  "disturbing": 5610, 
  "compromising": 5611, 
  "endless": 5612, 
  "affords": 5613, 
  "enemy": 5614, 
  "deterrent": 5615, 
  "entitlement": 5616, 
  "observe": 5617, 
  "illustration": 5618, 
  "pre-accession": 5619, 
  "iron": 5620, 
  "strengths": 5621, 
  "colle@@": 5622, 
  "Hänsch": 5623, 
  "indebted": 5624, 
  "unambiguous": 5625, 
  "split": 5626, 
  "care@@": 5627, 
  "min@@": 5628, 
  "expiry": 5629, 
  "problematic": 5630, 
  "concessions": 5631, 
  "actors": 5632, 
  "Korea": 5633, 
  "failures": 5634, 
  "CSU": 5635, 
  "2010": 5636, 
  "Director-General": 5637, 
  "minded": 5638, 
  "endeavours": 5639, 
  "needy": 5640, 
  "pun@@": 5641, 
  "wordings": 5642, 
  "six@@": 5643, 
  "expired": 5644, 
  "saves": 5645, 
  "overview": 5646, 
  "circulation": 5647, 
  "simplification": 5648, 
  "tactics": 5649, 
  "struggle": 5650, 
  "ste@@": 5651, 
  "cease": 5652, 
  "closure": 5653, 
  "sively": 5654, 
  "flows": 5655, 
  "agri-foodstuffs": 5656, 
  "contemplating": 5657, 
  "deemed": 5658, 
  "indi@@": 5659, 
  "impressed": 5660, 
  "fault": 5661, 
  "vis-à-vis": 5662, 
  "exempted": 5663, 
  "dge": 5664, 
  "tiv@@": 5665, 
  "enthusiasm": 5666, 
  "ele@@": 5667, 
  "5.@@": 5668, 
  "zed": 5669, 
  "irresponsibility": 5670, 
  "excluding": 5671, 
  "cri@@": 5672, 
  "Azores": 5673, 
  "EDD": 5674, 
  "radiation": 5675, 
  "succ@@": 5676, 
  "enli@@": 5677, 
  "dering": 5678, 
  "gar@@": 5679, 
  "structurally": 5680, 
  "entrepreneurial": 5681, 
  "awaited": 5682, 
  "ABB": 5683, 
  "Alsthom": 5684, 
  "Power": 5685, 
  "fifty": 5686, 
  "Senate": 5687, 
  "relie@@": 5688, 
  "speedy": 5689, 
  "politician": 5690, 
  "spinelessness": 5691, 
  "guideline": 5692, 
  "female": 5693, 
  "publicity": 5694, 
  "adopts": 5695, 
  "proclaimed": 5696, 
  "substantially": 5697, 
  "appalling": 5698, 
  "ingredient": 5699, 
  "breakthrough": 5700, 
  "sement": 5701, 
  "decisively": 5702, 
  "administrations": 5703, 
  "aling": 5704, 
  "farms": 5705, 
  "roughshod": 5706, 
  "conservation": 5707, 
  "spe@@": 5708, 
  "empty": 5709, 
  "precision": 5710, 
  "charterers": 5711, 
  "petty": 5712, 
  "discriminatory": 5713, 
  "unbelievable": 5714, 
  "novel": 5715, 
  "blow": 5716, 
  "Front": 5717, 
  "A5-0018": 5718, 
  "irreparable": 5719, 
  "cat@@": 5720, 
  "Washington": 5721, 
  "irrational": 5722, 
  "satisfy": 5723, 
  "abandon": 5724, 
  "partial": 5725, 
  "embar@@": 5726, 
  "raged": 5727, 
  "san@@": 5728, 
  "ants": 5729, 
  "Opportunities": 5730, 
  "slicks": 5731, 
  "denouncing": 5732, 
  "wildlife": 5733, 
  "ssed": 5734, 
  "clu@@": 5735, 
  "layoffs": 5736, 
  "prob@@": 5737, 
  "cts": 5738, 
  "gener@@": 5739, 
  "shoulders": 5740, 
  "und": 5741, 
  "reaffir@@": 5742, 
  "assessments": 5743, 
  "isolating": 5744, 
  "eleven": 5745, 
  "Shaping": 5746, 
  "teeth": 5747, 
  "joining": 5748, 
  "grass": 5749, 
  "shellfish": 5750, 
  "anony@@": 5751, 
  "pan@@": 5752, 
  "subsidiary": 5753, 
  "dict@@": 5754, 
  "depopulation": 5755, 
  "travelling": 5756, 
  "ases": 5757, 
  "displaying": 5758, 
  "paved": 5759, 
  "federalists": 5760, 
  "specify": 5761, 
  "tre@@": 5762, 
  "sad": 5763, 
  "historical": 5764, 
  "anywhere": 5765, 
  "disastrous": 5766, 
  "enforceable": 5767, 
  "condemnation": 5768, 
  "Russian": 5769, 
  "PVC": 5770, 
  "tunnels": 5771, 
  "constitution": 5772, 
  "2003": 5773, 
  "fishermen": 5774, 
  "outcomes": 5775, 
  "fruitful": 5776, 
  "breeding": 5777, 
  "absent": 5778, 
  "Francis": 5779, 
  "copy": 5780, 
  "starts": 5781, 
  "safest": 5782, 
  "influ@@": 5783, 
  "demago@@": 5784, 
  "ignorance": 5785, 
  "heartfelt": 5786, 
  "isting": 5787, 
  "sin@@": 5788, 
  "interview": 5789, 
  "bar@@": 5790, 
  "ences": 5791, 
  "Gu@@": 5792, 
  "identification": 5793, 
  "middle-@@": 5794, 
  "demonstrations": 5795, 
  "shopkeepers": 5796, 
  "GNP": 5797, 
  "amounted": 5798, 
  "jec@@": 5799, 
  "attain": 5800, 
  "fur@@": 5801, 
  "compliment": 5802, 
  "LAGs": 5803, 
  "gi@@": 5804, 
  "spring": 5805, 
  "Verheugen": 5806, 
  "develops": 5807, 
  "framing": 5808, 
  "ator": 5809, 
  "embark": 5810, 
  "attending": 5811, 
  "aches": 5812, 
  "gases": 5813, 
  "farce": 5814, 
  "pulling": 5815, 
  "uring": 5816, 
  "sional": 5817, 
  "superiority": 5818, 
  "2000-2005": 5819, 
  "Oil": 5820, 
  "endure": 5821, 
  "buildings": 5822, 
  "attracted": 5823, 
  "kil@@": 5824, 
  "direc@@": 5825, 
  "crop": 5826, 
  "principal": 5827, 
  "clearer": 5828, 
  "relies": 5829, 
  "provinces": 5830, 
  "Great": 5831, 
  "laudable": 5832, 
  "excellence": 5833, 
  "beneficiaries": 5834, 
  "individually": 5835, 
  "interfering": 5836, 
  "gratitude": 5837, 
  "dri@@": 5838, 
  "modi@@": 5839, 
  "remin@@": 5840, 
  "persecu@@": 5841, 
  "commun@@": 5842, 
  "ut@@": 5843, 
  "ful@@": 5844, 
  "horrors": 5845, 
  "ast@@": 5846, 
  "inspected": 5847, 
  "fact-finding": 5848, 
  "cy": 5849, 
  "Memorandum": 5850, 
  "aptly": 5851, 
  "holocaust": 5852, 
  "wind": 5853, 
  "comparable": 5854, 
  "tragedies": 5855, 
  "doctrine": 5856, 
  "les": 5857, 
  "pol@@": 5858, 
  "God": 5859, 
  "approached": 5860, 
  "patients": 5861, 
  "RINA": 5862, 
  "ignoring": 5863, 
  "Switzerland": 5864, 
  "der@@": 5865, 
  "instructions": 5866, 
  "atmosphere": 5867, 
  "Munich": 5868, 
  "inevitable": 5869, 
  "marginalisation": 5870, 
  "receipt": 5871, 
  "comprise": 5872, 
  "SPÖ": 5873, 
  "insurmountable": 5874, 
  "flies": 5875, 
  "challenging": 5876, 
  "halfway": 5877, 
  "delivery": 5878, 
  "ward": 5879, 
  "outlining": 5880, 
  "north": 5881, 
  "tively": 5882, 
  "prompt": 5883, 
  "Fascists": 5884, 
  "Egypt": 5885, 
  "reads": 5886, 
  "gas": 5887, 
  "well-intentioned": 5888, 
  "soundly": 5889, 
  "reluctantly": 5890, 
  "human@@": 5891, 
  "sounding": 5892, 
  "1@@": 5893, 
  "dilution": 5894, 
  "denounce": 5895, 
  "twentieth": 5896, 
  "eye": 5897, 
  "prescriptive": 5898, 
  "nazism": 5899, 
  "publishing": 5900, 
  "tory": 5901, 
  "evolution": 5902, 
  "petition": 5903, 
  "strive": 5904, 
  "criterion": 5905, 
  "inn@@": 5906, 
  "ing-@@": 5907, 
  "atten@@": 5908, 
  "shoul@@": 5909, 
  "complying": 5910, 
  "rush": 5911, 
  "lived": 5912, 
  "remembered": 5913, 
  "Jordan": 5914, 
  "detected": 5915, 
  "convoluted": 5916, 
  "disgraceful": 5917, 
  "losing": 5918, 
  "sailing": 5919, 
  "allocate": 5920, 
  "fossil": 5921, 
  "conce@@": 5922, 
  "corrupt": 5923, 
  "troops": 5924, 
  "apology": 5925, 
  "fuels": 5926, 
  "torate": 5927, 
  "omissions": 5928, 
  "47": 5929, 
  "Assembly": 5930, 
  "Radicals": 5931, 
  "convey": 5932, 
  "site": 5933, 
  "henceforth": 5934, 
  "backward": 5935, 
  "appeals": 5936, 
  "persu@@": 5937, 
  "splendid": 5938, 
  "topics": 5939, 
  "buck@@": 5940, 
  "embra@@": 5941, 
  "bogged": 5942, 
  "wed": 5943, 
  "investigated": 5944, 
  "preclude": 5945, 
  "establishes": 5946, 
  "ruined": 5947, 
  "ish@@": 5948, 
  "requisite": 5949, 
  "participants": 5950, 
  "swift": 5951, 
  "A5-0107": 5952, 
  "became": 5953, 
  "bottom-up": 5954, 
  "inertia": 5955, 
  "rests": 5956, 
  "demographic": 5957, 
  "storage": 5958, 
  "federation": 5959, 
  "Tsatsos": 5960, 
  "arrogance": 5961, 
  "aspiration": 5962, 
  "incidents": 5963, 
  "joined": 5964, 
  "operates": 5965, 
  "reck@@": 5966, 
  "Oslo": 5967, 
  "estimate": 5968, 
  "eve": 5969, 
  "tools": 5970, 
  "allotted": 5971, 
  "wor@@": 5972, 
  "beforehand": 5973, 
  "a-@@": 5974, 
  "vers": 5975, 
  "seismic": 5976, 
  "offering": 5977, 
  "speaks": 5978, 
  "hearings": 5979, 
  "revi@@": 5980, 
  "Stream": 5981, 
  "reven@@": 5982, 
  "Atomic": 5983, 
  "self-governing": 5984, 
  "Peace": 5985, 
  "Reconciliation": 5986, 
  "Iceland": 5987, 
  "beg@@": 5988, 
  "exported": 5989, 
  "Torrey": 5990, 
  "persuasive": 5991, 
  "Canyon": 5992, 
  "annex": 5993, 
  "exile": 5994, 
  "intending": 5995, 
  "Norway": 5996, 
  "brid@@": 5997, 
  "hand-@@": 5998, 
  "state-@@": 5999, 
  "mainland": 6000, 
  "repudi@@": 6001, 
  "art": 6002, 
  "players": 6003, 
  "wonder@@": 6004, 
  "lending": 6005, 
  "wrought": 6006, 
  "ride": 6007, 
  "locked": 6008, 
  "casting": 6009, 
  "tting": 6010, 
  "ecosystems": 6011, 
  "suspicion": 6012, 
  "yp@@": 6013, 
  "persist": 6014, 
  "tolerable": 6015, 
  "short-sighted": 6016, 
  "debt": 6017, 
  "ga@@": 6018, 
  "transporting": 6019, 
  "over-@@": 6020, 
  "simplified": 6021, 
  "ods": 6022, 
  "endorsed": 6023, 
  "polycentric": 6024, 
  "mentary": 6025, 
  "certification": 6026, 
  "accounting": 6027, 
  "apologies": 6028, 
  "fe": 6029, 
  "aring": 6030, 
  "density": 6031, 
  "dable": 6032, 
  "mankind": 6033, 
  "Li@@": 6034, 
  "tant": 6035, 
  "languages": 6036, 
  "my@@": 6037, 
  "commonplace": 6038, 
  "initiated": 6039, 
  "tensions": 6040, 
  "traceability": 6041, 
  "complies": 6042, 
  "tax@@": 6043, 
  "expelled": 6044, 
  "ensured": 6045, 
  "lev@@": 6046, 
  "justifies": 6047, 
  "Souladakis": 6048, 
  "expecting": 6049, 
  "multiplication": 6050, 
  "ar": 6051, 
  "enacting": 6052, 
  "temptation": 6053, 
  "ourced": 6054, 
  "nationally": 6055, 
  "expanding": 6056, 
  "disguise": 6057, 
  "Nuclear": 6058, 
  "o-@@": 6059, 
  "safeguards": 6060, 
  "woodland": 6061, 
  "minim@@": 6062, 
  "devote": 6063, 
  "repairing": 6064, 
  "on-@@": 6065, 
  "publication": 6066, 
  "mainstream": 6067, 
  "Car@@": 6068, 
  "maintenance": 6069, 
  "watered": 6070, 
  "concentric": 6071, 
  "ger@@": 6072, 
  "mixed": 6073, 
  "confront": 6074, 
  "multilateral": 6075, 
  "21st": 6076, 
  "defines": 6077, 
  "monocultures": 6078, 
  "post-@@": 6079, 
  "1989": 6080, 
  "Caucasus": 6081, 
  "explosion": 6082, 
  "precarious": 6083, 
  "Madrid": 6084, 
  "meticulous": 6085, 
  "assumed": 6086, 
  "not@@": 6087, 
  "hurricane": 6088, 
  "van@@": 6089, 
  "dumping": 6090, 
  "up-to-date": 6091, 
  "Akkuyu": 6092, 
  "Berenguer": 6093, 
  "thro@@": 6094, 
  "bill": 6095, 
  "respectability": 6096, 
  "reported": 6097, 
  "fails": 6098, 
  "IMO": 6099, 
  "g-@@": 6100, 
  "ship@@": 6101, 
  "steer": 6102, 
  "undesirable": 6103, 
  "constituents": 6104, 
  "foot": 6105, 
  "isation": 6106, 
  "atives": 6107, 
  "differing": 6108, 
  "-L@@": 6109, 
  "constitu@@": 6110, 
  "spon@@": 6111, 
  "dissatisfaction": 6112, 
  "names": 6113, 
  "challenged": 6114, 
  "Catholics": 6115, 
  "freeing": 6116, 
  "oured": 6117, 
  "reassured": 6118, 
  "200": 6119, 
  "Guidance": 6120, 
  "synergies": 6121, 
  "craft": 6122, 
  "micro-@@": 6123, 
  "renewed": 6124, 
  "advisors": 6125, 
  "hulls": 6126, 
  "diversi@@": 6127, 
  "Ps": 6128, 
  "enlist": 6129, 
  "correc@@": 6130, 
  "phasing-out": 6131, 
  "op": 6132, 
  "ater@@": 6133, 
  "chemical": 6134, 
  "93": 6135, 
  "slight": 6136, 
  "sub-@@": 6137, 
  "soci@@": 6138, 
  "CE@@": 6139, 
  "centralist": 6140, 
  "loaded": 6141, 
  "atively": 6142, 
  "Maltese": 6143, 
  "ear": 6144, 
  "wi@@": 6145, 
  "Wye": 6146, 
  "chose": 6147, 
  "Re@@": 6148, 
  "ul@@": 6149, 
  "ver": 6150, 
  "containers": 6151, 
  "implies": 6152, 
  "str@@": 6153, 
  "ESF": 6154, 
  "victim": 6155, 
  "orches@@": 6156, 
  "paradoxical": 6157, 
  "begins": 6158, 
  "Arafat": 6159, 
  "false": 6160, 
  "je@@": 6161, 
  "culturally": 6162, 
  "Shepherdstown": 6163, 
  "continuous": 6164, 
  "catastrophes": 6165, 
  "cooperating": 6166, 
  "reporting": 6167, 
  "imagin@@": 6168, 
  "named": 6169, 
  "deviate": 6170, 
  "Parliamentary": 6171, 
  "pri@@": 6172, 
  "eless": 6173, 
  "broadly": 6174, 
  "matches": 6175, 
  "doub@@": 6176, 
  "restoration": 6177, 
  "sha@@": 6178, 
  "suitably": 6179, 
  "registering": 6180, 
  "cks": 6181, 
  "wrong-doing": 6182, 
  "province": 6183, 
  "generates": 6184, 
  "drafts": 6185, 
  "aeroplane": 6186, 
  "municipalities": 6187, 
  "exceed": 6188, 
  "threatening": 6189, 
  "ten@@": 6190, 
  "ease": 6191, 
  "vigilance": 6192, 
  "McNally": 6193, 
  "isolated": 6194, 
  "nominate": 6195, 
  "EDF": 6196, 
  "trigger": 6197, 
  "stri@@": 6198, 
  "Midlands": 6199, 
  "invent": 6200, 
  "plague": 6201, 
  "nineties": 6202, 
  "barbarism": 6203, 
  "extraordinarily": 6204, 
  "mu@@": 6205, 
  "consigned": 6206, 
  "obtaining": 6207, 
  "arbitrarily": 6208, 
  "restriction": 6209, 
  "striking": 6210, 
  "phased": 6211, 
  "totalling": 6212, 
  "prerequisites": 6213, 
  "els": 6214, 
  "horse-trading": 6215, 
  "transl@@": 6216, 
  "inclination": 6217, 
  "ADR": 6218, 
  "admiration": 6219, 
  "14094": 6220, 
  "opens": 6221, 
  "connections": 6222, 
  "termin@@": 6223, 
  "tendencies": 6224, 
  "wolf": 6225, 
  "pleasure": 6226, 
  "traders": 6227, 
  "concretely": 6228, 
  "Mac@@": 6229, 
  "non-economic": 6230, 
  "disbursed": 6231, 
  "il": 6232, 
  "guide": 6233, 
  "destroying": 6234, 
  "Rack": 6235, 
  "tress": 6236, 
  "focuses": 6237, 
  "restricting": 6238, 
  "shore": 6239, 
  "ages": 6240, 
  "Vatanen": 6241, 
  "ther@@": 6242, 
  "awarded": 6243, 
  "nominal": 6244, 
  "stipulate": 6245, 
  "displays": 6246, 
  "C5-0341": 6247, 
  "auditing": 6248, 
  "preserved": 6249, 
  "se-@@": 6250, 
  "superb": 6251, 
  "Education": 6252, 
  "dio@@": 6253, 
  "runs": 6254, 
  "proponents": 6255, 
  "flexibly": 6256, 
  "afterwards": 6257, 
  "civilised": 6258, 
  "execu@@": 6259, 
  "par@@": 6260, 
  "exploiting": 6261, 
  "0825": 6262, 
  "benefited": 6263, 
  "extremist": 6264, 
  "hear@@": 6265, 
  "small-scale": 6266, 
  "alike": 6267, 
  "contravene": 6268, 
  "syn@@": 6269, 
  "eding": 6270, 
  "370": 6271, 
  "elling": 6272, 
  "oper@@": 6273, 
  "deficit": 6274, 
  "asser@@": 6275, 
  "mixture": 6276, 
  "dragged": 6277, 
  "intransigence": 6278, 
  "monu@@": 6279, 
  "summ@@": 6280, 
  "praiseworthy": 6281, 
  "attribute": 6282, 
  "chers": 6283, 
  "nationalist": 6284, 
  "glorification": 6285, 
  "prolon@@": 6286, 
  "indifference": 6287, 
  "reintroduce": 6288, 
  "auto-oil": 6289, 
  "well-informed": 6290, 
  "flourish": 6291, 
  "lander": 6292, 
  "versed": 6293, 
  "nut": 6294, 
  "Science": 6295, 
  "incineration": 6296, 
  "rediscovered": 6297, 
  "unites": 6298, 
  "knowing": 6299, 
  "clients": 6300, 
  "sledgehammer": 6301, 
  "complements": 6302, 
  "chairmen": 6303, 
  "arose": 6304, 
  "Velzen": 6305, 
  "A5-0006": 6306, 
  "protes@@": 6307, 
  "annexes": 6308, 
  "C5-01@@": 6309, 
  "tre": 6310, 
  "underrepresented": 6311, 
  "Indian": 6312, 
  "after@@": 6313, 
  "legislators": 6314, 
  "acro@@": 6315, 
  "ss@@": 6316, 
  "the-board": 6317, 
  "outrage": 6318, 
  "wan": 6319, 
  "embo@@": 6320, 
  "mentar@@": 6321, 
  "crystal": 6322, 
  "reluctance": 6323, 
  "wrecks": 6324, 
  "sli@@": 6325, 
  "exemplary": 6326, 
  "ess@@": 6327, 
  "panels": 6328, 
  "regrets": 6329, 
  "produces": 6330, 
  "twenty-first": 6331, 
  "renewal": 6332, 
  "ast": 6333, 
  "cum@@": 6334, 
  "post@@": 6335, 
  "Marinos": 6336, 
  "hypocritical": 6337, 
  "Holocaust": 6338, 
  "evil": 6339, 
  "resort": 6340, 
  "int": 6341, 
  "hoped": 6342, 
  "invent@@": 6343, 
  "biggest": 6344, 
  "crops": 6345, 
  "special-purpose": 6346, 
  "spotlight": 6347, 
  "tidy": 6348, 
  "mess": 6349, 
  "Bi@@": 6350, 
  "ath": 6351, 
  "visions": 6352, 
  "ak": 6353, 
  "motives": 6354, 
  "friendship": 6355, 
  "clearest": 6356, 
  "offensive": 6357, 
  "ener": 6358, 
  "ever-@@": 6359, 
  "und@@": 6360, 
  "1,@@": 6361, 
  "entreprises": 6362, 
  "usable": 6363, 
  "Erkki": 6364, 
  "200,000": 6365, 
  "lightweight": 6366, 
  "inst@@": 6367, 
  "preferential": 6368, 
  "aroused": 6369, 
  "3-litre": 6370, 
  "naïve": 6371, 
  "rop@@": 6372, 
  "lea@@": 6373, 
  "signi@@": 6374, 
  "deed": 6375, 
  "crossroads": 6376, 
  "shredded": 6377, 
  "opposing": 6378, 
  "perform": 6379, 
  "disease": 6380, 
  "driven": 6381, 
  "enactment": 6382, 
  "intra@@": 6383, 
  "disagreed": 6384, 
  "alleg@@": 6385, 
  "disguised": 6386, 
  "upgra@@": 6387, 
  "rigidly": 6388, 
  "ground-breaking": 6389, 
  "motorcycles": 6390, 
  "sin": 6391, 
  "distinctive": 6392, 
  "An@@": 6393, 
  "liter@@": 6394, 
  "Mexico": 6395, 
  "bread": 6396, 
  "adul@@": 6397, 
  "reasoned": 6398, 
  "motor@@": 6399, 
  "uns": 6400, 
  "whoever": 6401, 
  "triumph": 6402, 
  "dealers": 6403, 
  "Stalinist": 6404, 
  "unequivocal": 6405, 
  "teratogen@@": 6406, 
  "biased": 6407, 
  "ades": 6408, 
  "seized": 6409, 
  "drink": 6410, 
  "exempt": 6411, 
  "totalitarianism": 6412, 
  "mistaken": 6413, 
  "gers": 6414, 
  "dic@@": 6415, 
  "recapture": 6416, 
  "wheels": 6417, 
  "opportun@@": 6418, 
  "misunderstandings": 6419, 
  "exciting": 6420, 
  "fil@@": 6421, 
  "construc@@": 6422, 
  "Kaleidoscope": 6423, 
  "Ariane": 6424, 
  "resor@@": 6425, 
  "thirties": 6426, 
  "redistribution": 6427, 
  "Adolf": 6428, 
  "Raphael": 6429, 
  "pos@@": 6430, 
  "harmon@@": 6431, 
  "formula": 6432, 
  "gress": 6433, 
  "ATTAC": 6434, 
  "tested": 6435, 
  "conscience": 6436, 
  "dged": 6437, 
  "modernised": 6438, 
  "plat@@": 6439, 
  "push@@": 6440, 
  "dismantled": 6441, 
  "laboratory": 6442, 
  "personalities": 6443, 
  "Bernd": 6444, 
  "ud@@": 6445, 
  "hole": 6446, 
  "Lapland": 6447, 
  "popul@@": 6448, 
  "compendium": 6449, 
  "adds": 6450, 
  "ethni@@": 6451, 
  "utilising": 6452, 
  "sts": 6453, 
  "fs": 6454, 
  "onically": 6455, 
  "net": 6456, 
  "aci@@": 6457, 
  "mindful": 6458, 
  "revitalise": 6459, 
  "frost-@@": 6460, 
  "intrinsically": 6461, 
  "counted": 6462, 
  "bab@@": 6463, 
  "maiden": 6464, 
  "ential": 6465, 
  "pois@@": 6466, 
  "Th@@": 6467, 
  "loo@@": 6468, 
  "eing": 6469, 
  "minimis": 6470, 
  "loud": 6471, 
  "noticeable": 6472, 
  "lis@@": 6473, 
  "provoke": 6474, 
  "accuse": 6475, 
  "Montreal": 6476, 
  "ading": 6477, 
  "sh": 6478, 
  "ank": 6479, 
  "conferred": 6480, 
  "Ocean": 6481, 
  "evol@@": 6482, 
  "awkward": 6483, 
  "structuring": 6484, 
  "redistribute": 6485, 
  "grudgingly": 6486, 
  "left-wing": 6487, 
  "decides": 6488, 
  "customers": 6489, 
  "persuade": 6490, 
  "safer": 6491, 
  "trate": 6492, 
  "flowers": 6493, 
  "inhabitant": 6494, 
  "marker": 6495, 
  "indic@@": 6496, 
  "libraries": 6497, 
  "-20ºC": 6498, 
  "circle": 6499, 
  "and-@@": 6500, 
  "fungicide": 6501, 
  "wering": 6502, 
  "Dropping": 6503, 
  "retrodisplacement": 6504, 
  "envisages": 6505, 
  "inner": 6506, 
  "educational": 6507, 
  "ung@@": 6508, 
  "infil@@": 6509, 
  "entr@@": 6510, 
  "traded": 6511, 
  "Rover": 6512, 
  "populist": 6513, 
  "disciplined": 6514, 
  "hol@@": 6515, 
  "B5-000@@": 6516, 
  "ol": 6517, 
  "evolving": 6518, 
  "reinforces": 6519, 
  "Father": 6520, 
  "recitals": 6521, 
  "vacuum": 6522, 
  "anti-fascist": 6523, 
  "tion-@@": 6524, 
  "Right": 6525, 
  "emptied": 6526, 
  "applicability": 6527, 
  "benches": 6528, 
  "ffs": 6529, 
  "Pol@@": 6530, 
  "non-EU": 6531, 
  "uncertain": 6532, 
  "brush": 6533, 
  "dirty": 6534, 
  "chamber": 6535, 
  "bitterly": 6536, 
  "confirming": 6537, 
  "livelihood": 6538, 
  "opposes": 6539, 
  "fruits": 6540, 
  "ell": 6541, 
  "Böhm": 6542, 
  "scales": 6543, 
  "missed": 6544, 
  "stem": 6545, 
  "eighteen": 6546, 
  "pr@@": 6547, 
  "overambitious": 6548, 
  "remo@@": 6549, 
  "deaf": 6550, 
  "quot@@": 6551, 
  "teness": 6552, 
  "lab@@": 6553, 
  "personality": 6554, 
  "centred": 6555, 
  "opprobrium": 6556, 
  "External": 6557, 
  "western": 6558, 
  "Inglewood": 6559, 
  "compensated": 6560, 
  "cofinanced": 6561, 
  "thin": 6562, 
  "contempl@@": 6563, 
  "nonsense": 6564, 
  "pped": 6565, 
  "conc@@": 6566, 
  "ratification": 6567, 
  "harmonise": 6568, 
  "jeopardises": 6569, 
  "bubbles": 6570, 
  "distress": 6571, 
  "yst@@": 6572, 
  "twenty-@@": 6573, 
  "incorpor@@": 6574, 
  "scrapyards": 6575, 
  "thirteen": 6576, 
  "dismantle": 6577, 
  "admi@@": 6578, 
  "earn": 6579, 
  "attaining": 6580, 
  "Lord": 6581, 
  "ust": 6582, 
  "militarisation": 6583, 
  "schools": 6584, 
  "hospitals": 6585, 
  "error": 6586, 
  "ambiguous": 6587, 
  "Research": 6588, 
  "resur@@": 6589, 
  "unquestionably": 6590, 
  "desperate": 6591, 
  "tless": 6592, 
  "menting": 6593, 
  "definitively": 6594, 
  "overload": 6595, 
  "obstruc@@": 6596, 
  "commented": 6597, 
  "destroy": 6598, 
  "redistributed": 6599, 
  "acceding": 6600, 
  "67": 6601, 
  "extensively": 6602, 
  "riding": 6603, 
  "apprehension": 6604, 
  "wager": 6605, 
  "unwise": 6606, 
  "virtuous": 6607, 
  "sy": 6608, 
  "cataly@@": 6609, 
  "nor@@": 6610, 
  "pleas": 6611, 
  "Copenhagen": 6612, 
  "hereby": 6613, 
  "demo@@": 6614, 
  "Common": 6615, 
  "ego@@": 6616, 
  "drains": 6617, 
  "beware": 6618, 
  "chair": 6619, 
  "sm@@": 6620, 
  "fitting": 6621, 
  "commendable": 6622, 
  "naivety": 6623, 
  "weighting": 6624, 
  "mentions": 6625, 
  "pal@@": 6626, 
  "dens": 6627, 
  "transpire": 6628, 
  "ide": 6629, 
  "cope": 6630, 
  "resem@@": 6631, 
  "feared": 6632, 
  "uns@@": 6633, 
  "8@@": 6634, 
  "cru@@": 6635, 
  "key@@": 6636, 
  ".25": 6637, 
  "suspend": 6638, 
  "edu@@": 6639, 
  "Round": 6640, 
  "accommodated": 6641, 
  "respec@@": 6642, 
  "neo-Nazis": 6643, 
  "appreciated": 6644, 
  "male": 6645, 
  "errors": 6646, 
  "obscure": 6647, 
  "self-determination": 6648, 
  "cumbersome": 6649, 
  "St.": 6650, 
  "ology": 6651, 
  "differentiated": 6652, 
  "burn": 6653, 
  "Sing@@": 6654, 
  "dish@@": 6655, 
  "tax-recycling": 6656, 
  "Guarantee": 6657, 
  "depending": 6658, 
  "seasonal": 6659, 
  "299": 6660, 
  "functional": 6661, 
  "chipped": 6662, 
  "uncontrolled": 6663, 
  "overseas": 6664, 
  "traitor": 6665, 
  "collec@@": 6666, 
  "rings": 6667, 
  "responding": 6668, 
  "counts": 6669, 
  "Seguro": 6670, 
  "prerogatives": 6671, 
  "trade-offs": 6672, 
  "inclined": 6673, 
  "omitted": 6674, 
  "overarching": 6675, 
  "toned": 6676, 
  "Napolitano": 6677, 
  "breaches": 6678, 
  "fort@@": 6679, 
  "2123": 6680, 
  "C5-0120": 6681, 
  "0066": 6682, 
  "entrepreneur": 6683, 
  "constructively": 6684, 
  "Brandenburg": 6685, 
  "equilibrium": 6686, 
  "U@@": 6687, 
  "label": 6688, 
  "Frassoni": 6689, 
  "thereafter": 6690, 
  "plastics": 6691, 
  "attitudes": 6692, 
  "advances": 6693, 
  "proportionality": 6694, 
  "seats": 6695, 
  "conten@@": 6696, 
  "sold": 6697, 
  "comm@@": 6698, 
  "congratul@@": 6699, 
  "boyco@@": 6700, 
  "Sloven@@": 6701, 
  "ill-considered": 6702, 
  "strongest": 6703, 
  "ranks": 6704, 
  "anticipation": 6705, 
  "DE-PSE": 6706, 
  "unfavourable": 6707, 
  "disappe@@": 6708, 
  "supranation@@": 6709, 
  "men@@": 6710, 
  "habit@@": 6711, 
  "disappearing": 6712, 
  "embly": 6713, 
  "inspire": 6714, 
  "opted": 6715, 
  "smallest": 6716, 
  "inflammatory": 6717, 
  "clim@@": 6718, 
  "deliber@@": 6719, 
  "concili@@": 6720, 
  "painting": 6721, 
  "solic@@": 6722, 
  "elimination": 6723, 
  "spillage": 6724, 
  "ich@@": 6725, 
  "divisions": 6726, 
  "0@@": 6727, 
  "tail@@": 6728, 
  "lights": 6729, 
  "tying": 6730, 
  "re-weighting": 6731, 
  "anti-Semitic": 6732, 
  "rum@@": 6733, 
  "boast": 6734, 
  "breadth": 6735, 
  "acute": 6736, 
  "discontinued": 6737, 
  "theoretical": 6738, 
  "extensions": 6739, 
  "smoothly": 6740, 
  "the@@": 6741, 
  "accum@@": 6742, 
  "ulation": 6743, 
  "tantamount": 6744, 
  "ill": 6745, 
  "Bowis": 6746, 
  "multifunctional": 6747, 
  "unduly": 6748, 
  "Flautre": 6749, 
  "suspending": 6750, 
  "politic@@": 6751, 
  "cornerstones": 6752, 
  "Section": 6753, 
  "duct": 6754, 
  "Labour": 6755, 
  "exceeded": 6756, 
  "admitted": 6757, 
  "governmental": 6758, 
  "canc@@": 6759, 
  "confines": 6760, 
  "dom@@": 6761, 
  "anniversary": 6762, 
  "midst": 6763, 
  "lesser": 6764, 
  "rationalisation": 6765, 
  "bogus": 6766, 
  "accomplished": 6767, 
  "QMV": 6768, 
  "vocational": 6769, 
  "nal": 6770, 
  "De": 6771, 
  "explains": 6772, 
  "8.@@": 6773, 
  "flexibilisation": 6774, 
  "confron@@": 6775, 
  "left-overs": 6776, 
  "NL": 6777, 
  "three-month": 6778, 
  "endeavouring": 6779, 
  "gen@@": 6780, 
  "hesitant": 6781, 
  "stone": 6782, 
  "expresses": 6783, 
  "satisfying": 6784, 
  "Loud": 6785, 
  "needing": 6786, 
  "ong": 6787, 
  "unwarranted": 6788, 
  "pet@@": 6789, 
  "r": 6790, 
  "above-mentioned": 6791, 
  "Annual": 6792, 
  "reminiscent": 6793, 
  "vendor": 6794, 
  "inject": 6795, 
  "cs": 6796, 
  "ency": 6797, 
  "89": 6798, 
  "descrip@@": 6799, 
  "attracting": 6800, 
  "Madeira": 6801, 
  "theirs": 6802, 
  "Socialism": 6803, 
  "cers": 6804, 
  "neoliberal": 6805, 
  "wer": 6806, 
  "dictators": 6807, 
  "defec@@": 6808, 
  "stems": 6809, 
  "dispensing": 6810, 
  "openings": 6811, 
  "uses": 6812, 
  "insult": 6813, 
  "differenti@@": 6814, 
  "ss-@@": 6815, 
  "quarter": 6816, 
  "contentious": 6817, 
  "abund@@": 6818, 
  "Standardisation": 6819, 
  "ration": 6820, 
  "reco@@": 6821, 
  "denying": 6822, 
  "lory": 6823, 
  "serv@@": 6824, 
  "all-@@": 6825, 
  "renovation": 6826, 
  "translate": 6827, 
  "tur@@": 6828, 
  "hatred": 6829, 
  "highly-developed": 6830, 
  "separates": 6831, 
  "olo@@": 6832, 
  "ering": 6833, 
  "announcement": 6834, 
  "referenda": 6835, 
  "è@@": 6836, 
  "comprising": 6837, 
  "adher@@": 6838, 
  "worship": 6839, 
  "spectac@@": 6840, 
  "opponents": 6841, 
  "imply": 6842, 
  "gued": 6843, 
  "bought": 6844, 
  "lion": 6845, 
  "blocking": 6846, 
  "inconceivable": 6847, 
  "macroeconomic": 6848, 
  "symbol@@": 6849, 
  "deliberations": 6850, 
  "habit": 6851, 
  "camps": 6852, 
  "Bertinotti": 6853, 
  "diverted": 6854, 
  "-80": 6855, 
  "assimil@@": 6856, 
  "suppose": 6857, 
  "necessity": 6858, 
  "trained": 6859, 
  "calmly": 6860, 
  "paucity": 6861, 
  "revive": 6862, 
  "league": 6863, 
  "river": 6864, 
  "life-cycle": 6865, 
  "expeditiously": 6866, 
  "unacceptably": 6867, 
  "compar@@": 6868, 
  "inadequacies": 6869, 
  "vered": 6870, 
  "bling": 6871, 
  "Latin": 6872, 
  "diminish": 6873, 
  "associate": 6874, 
  "lag": 6875, 
  "prematurely": 6876, 
  "convictions": 6877, 
  "expire": 6878, 
  "good-@@": 6879, 
  "profitability": 6880, 
  "pollute": 6881, 
  "jeopardis@@": 6882, 
  "pro-@@": 6883, 
  "irreconcilable": 6884, 
  "feeds": 6885, 
  "questionable": 6886, 
  "hasten": 6887, 
  "adju@@": 6888, 
  "supplements": 6889, 
  "arran@@": 6890, 
  "Saint": 6891, 
  "legitimately": 6892, 
  "monster": 6893, 
  "phases": 6894, 
  "77": 6895, 
  "oned": 6896, 
  "fer@@": 6897, 
  "manufactures": 6898, 
  "tivation": 6899, 
  "invites": 6900, 
  "bargain": 6901, 
  "buyers": 6902, 
  "poli@@": 6903, 
  "79": 6904, 
  "refute": 6905, 
  "guilt": 6906, 
  "behave": 6907, 
  "ample": 6908, 
  "spots": 6909, 
  "tons": 6910, 
  "reopen": 6911, 
  "professes": 6912, 
  "aggravates": 6913, 
  "colour": 6914, 
  "loose": 6915, 
  "cut-@@": 6916, 
  "identities": 6917, 
  "adapt": 6918, 
  "chromium": 6919, 
  "pro-active": 6920, 
  "cry": 6921, 
  "owes": 6922, 
  "main@@": 6923, 
  "handicapped": 6924, 
  "A5-0007": 6925, 
  "second-hand": 6926, 
  "C5-0121": 6927, 
  "2124": 6928, 
  "dozens": 6929, 
  "tured": 6930, 
  "block@@": 6931, 
  "feeding": 6932, 
  "murdered": 6933, 
  "banner": 6934, 
  "pair": 6935, 
  "unknown": 6936, 
  "148": 6937, 
  "weigh": 6938, 
  "C5-0107": 6939, 
  "seat": 6940, 
  "2110": 6941, 
  "1995-1997": 6942, 
  "inhabited": 6943, 
  "council": 6944, 
  "passionately": 6945, 
  "life-@@": 6946, 
  "mediation": 6947, 
  "bli@@": 6948, 
  "dit@@": 6949, 
  "2496": 6950, 
  "incentivise": 6951, 
  "signatories": 6952, 
  "Ecofin": 6953, 
  "hosti@@": 6954, 
  "tionality": 6955, 
  "retains": 6956, 
  "gauge": 6957, 
  "oci@@": 6958, 
  "stic": 6959, 
  "transp@@": 6960, 
  "credited": 6961, 
  "proving": 6962, 
  "tu@@": 6963, 
  "Commun@@": 6964, 
  "1990s": 6965, 
  "endlessly": 6966, 
  "grandchildren": 6967, 
  "distinction": 6968, 
  "persuasion": 6969, 
  "sends": 6970, 
  "ignores": 6971, 
  "Secre@@": 6972, 
  "cancel": 6973, 
  "unwieldiness": 6974, 
  "tary": 6975, 
  "memorandums": 6976, 
  "disass@@": 6977, 
  "bel@@": 6978, 
  "C5-0105": 6979, 
  "2108": 6980, 
  "headlong": 6981, 
  "unstable": 6982, 
  "hidden": 6983, 
  "Aids": 6984, 
  "jac@@": 6985, 
  "utilisation": 6986, 
  "predic@@": 6987, 
  "ules": 6988, 
  "believing": 6989, 
  "coordinators": 6990, 
  "ied": 6991, 
  "d-@@": 6992, 
  "proportional": 6993, 
  "symbolism": 6994, 
  "2127": 6995, 
  "facilitated": 6996, 
  "C5-0122": 6997, 
  "examinations": 6998, 
  "newspapers": 6999, 
  "incredi@@": 7000, 
  "erodes": 7001, 
  "élites": 7002, 
  "seven@@": 7003, 
  "Bosnians": 7004, 
  "denounced": 7005, 
  "fascistic": 7006, 
  "subscribe": 7007, 
  "expound": 7008, 
  "reason@@": 7009, 
  "democra@@": 7010, 
  "anti-European": 7011, 
  "focus@@": 7012, 
  "desk": 7013, 
  "mod@@": 7014, 
  "monopolised": 7015, 
  "denies": 7016, 
  "officer": 7017, 
  "gy": 7018, 
  "intensively": 7019, 
  "engen@@": 7020, 
  "C5-0104": 7021, 
  "served": 7022, 
  "2107": 7023, 
  "92": 7024, 
  "handouts": 7025, 
  "vote@@": 7026, 
  "interrupted": 7027, 
  "monstro@@": 7028, 
  "rebuild": 7029, 
  "Reich": 7030, 
  "ecologically": 7031, 
  "Pillar": 7032, 
  "winning": 7033, 
  "contributor": 7034, 
  "miss": 7035, 
  "port@@": 7036, 
  "retrograde": 7037, 
  "disadvantages": 7038, 
  "electing": 7039, 
  "patrio@@": 7040, 
  "heightened": 7041, 
  "ns": 7042, 
  "occa@@": 7043, 
  "Solbes": 7044, 
  "aver@@": 7045, 
  "compli@@": 7046, 
  "layers": 7047, 
  "sear@@": 7048, 
  "juncture": 7049, 
  "overvalued": 7050, 
  "alleviate": 7051, 
  "pretty": 7052, 
  "jurisdictions": 7053, 
  "trailing": 7054, 
  "loading": 7055, 
  "seem@@": 7056, 
  "usefulness": 7057, 
  "restructure": 7058, 
  "umb@@": 7059, 
  "strictness": 7060, 
  "banned": 7061, 
  "la": 7062, 
  "switch": 7063, 
  "immunity": 7064, 
  "penet@@": 7065, 
  "Faslane": 7066, 
  "symbol": 7067, 
  "protesting": 7068, 
  "fies": 7069, 
  "spokesperson": 7070, 
  "Lannoye": 7071, 
  "Hautala": 7072, 
  "cooperative": 7073, 
  "gallery": 7074, 
  "engage": 7075, 
  "visitors": 7076, 
  "disgust": 7077, 
  "ordeal": 7078, 
  "blessing": 7079, 
  "Per@@": 7080, 
  "analytical": 7081, 
  "promin@@": 7082, 
  "govern": 7083, 
  "shock": 7084, 
  "unequivocally": 7085, 
  "confiscated": 7086, 
  "17@@": 7087, 
  "informal": 7088, 
  "anno@@": 7089, 
  "Compensation": 7090, 
  "deem": 7091, 
  "mature": 7092, 
  "handled": 7093, 
  "settlements": 7094, 
  "confronted": 7095, 
  "traceable": 7096, 
  "floo@@": 7097, 
  "ff@@": 7098, 
  "On": 7099, 
  "veritable": 7100, 
  "attachment": 7101, 
  "habitats": 7102, 
  "spaces": 7103, 
  "yourselves": 7104, 
  "leaves": 7105, 
  "gift": 7106, 
  "wonderfully": 7107, 
  "STAR": 7108, 
  "sities": 7109, 
  "veterinary": 7110, 
  "soak@@": 7111, 
  "oil-@@": 7112, 
  "pictures": 7113, 
  "foreshado@@": 7114, 
  "fuel": 7115, 
  "qualification": 7116, 
  "teacher": 7117, 
  "Royal": 7118, 
  "bird": 7119, 
  "settled": 7120, 
  "crude": 7121, 
  "passes": 7122, 
  "Arlene": 7123, 
  "wise": 7124, 
  "reds": 7125, 
  "leaked": 7126, 
  "testify": 7127, 
  "Strategy": 7128, 
  "cu@@": 7129, 
  "Glasgow": 7130, 
  "Plooij-@@": 7131, 
  "lovers": 7132, 
  "assing": 7133, 
  "Gorsel": 7134, 
  "Total": 7135, 
  "contradi@@": 7136, 
  "Shell": 7137, 
  "cargoes": 7138, 
  "responds": 7139, 
  "determin@@": 7140, 
  "fru@@": 7141, 
  "Ortega": 7142, 
  "Sheikh": 7143, 
  "Medina": 7144, 
  "lin@@": 7145, 
  "clean@@": 7146, 
  "black": 7147, 
  "deny": 7148, 
  "ump@@": 7149, 
  "teenth": 7150, 
  "rul@@": 7151, 
  "Jews": 7152, 
  "regis@@": 7153, 
  "parent": 7154, 
  "suit": 7155, 
  "exter@@": 7156, 
  "extingu@@": 7157, 
  "prioritising": 7158, 
  "quanti@@": 7159, 
  "tightening": 7160, 
  "powerless": 7161, 
  "crux": 7162, 
  "boats": 7163, 
  "reacting": 7164, 
  "treas@@": 7165, 
  "outraged": 7166, 
  "ian": 7167, 
  "institute": 7168, 
  "Al@@": 7169, 
  "denoun@@": 7170, 
  "NGL": 7171, 
  "GUE": 7172, 
  "communal": 7173, 
  "sinking": 7174, 
  "critically": 7175, 
  "hon@@": 7176, 
  "merchant": 7177, 
  "shaken": 7178, 
  "Loyola": 7179, 
  "by@@": 7180, 
  "fluctuations": 7181, 
  "statistical": 7182, 
  "bat@@": 7183, 
  "yo@@": 7184, 
  "Work": 7185, 
  "priori@@": 7186, 
  "deplor@@": 7187, 
  "En@@": 7188, 
  "broadening": 7189, 
  "Galicia": 7190, 
  "bil@@": 7191, 
  "respectful": 7192, 
  "tors": 7193, 
  "ecosystem": 7194, 
  "viol@@": 7195, 
  "Jerusalem": 7196, 
  "units": 7197, 
  "harbours": 7198, 
  "Coast": 7199, 
  "unwavering": 7200, 
  "residing": 7201, 
  "bour": 7202, 
  "coinci@@": 7203, 
  "frei@@": 7204, 
  "exhaustive": 7205, 
  "world-wide": 7206, 
  "non-consultant": 7207, 
  "recover": 7208, 
  "esi@@": 7209, 
  "oyster": 7210, 
  "transposing": 7211, 
  "harsh": 7212, 
  "essness": 7213, 
  "recurring": 7214, 
  "2-@@": 7215, 
  "Comart": 7216, 
  "contaminated": 7217, 
  "classed": 7218, 
  "flo@@": 7219, 
  "capitulation": 7220, 
  "ensuing": 7221, 
  "Pre@@": 7222, 
  "hindering": 7223, 
  "TÜV": 7224, 
  "anti-Semitism": 7225, 
  "first-@@": 7226, 
  "coloni@@": 7227, 
  "investiture": 7228, 
  "marvellous": 7229, 
  "Cuxhaven": 7230, 
  "Rotterdam": 7231, 
  "nomin@@": 7232, 
  "undertakes": 7233, 
  "operated": 7234, 
  "Jospin": 7235, 
  "obligatory": 7236, 
  "Efterløn": 7237, 
  "rolled": 7238, 
  "retire": 7239, 
  "institu@@": 7240, 
  "unifying": 7241, 
  "port-state": 7242, 
  "ched": 7243, 
  "approximate": 7244, 
  "submission": 7245, 
  "ay": 7246, 
  "eng@@": 7247, 
  "tration": 7248, 
  "astonishing": 7249, 
  "slimming": 7250, 
  "terrorism": 7251, 
  "therein": 7252, 
  "imbalance": 7253, 
  "varying": 7254, 
  "calculating": 7255, 
  "Länder": 7256, 
  "disappointing": 7257, 
  "flaw": 7258, 
  "pec@@": 7259, 
  "46": 7260, 
  "disintegration": 7261, 
  "suffers": 7262, 
  "partisan": 7263, 
  "B5-00@@": 7264, 
  "cending": 7265, 
  "replied": 7266, 
  "9@@": 7267, 
  "civi@@": 7268, 
  "dence": 7269, 
  "admission": 7270, 
  "u": 7271, 
  "worsening": 7272, 
  "71": 7273, 
  "sparing": 7274, 
  "arduous": 7275, 
  "England": 7276, 
  "91": 7277, 
  "105": 7278, 
  "inapplicable": 7279, 
  "ne-@@": 7280, 
  "enterprising": 7281, 
  "downturn": 7282, 
  "competing": 7283, 
  "declaring": 7284, 
  "Karlsruhe": 7285, 
  "analysing": 7286, 
  "activ@@": 7287, 
  "distingu@@": 7288, 
  "respon@@": 7289, 
  "urch@@": 7290, 
  "testifying": 7291, 
  "allocating": 7292, 
  "1260": 7293, 
  "tough@@": 7294, 
  "sacrifi@@": 7295, 
  "Go@@": 7296, 
  "maxim@@": 7297, 
  "Vice-@@": 7298, 
  "inside": 7299, 
  "evaluations": 7300, 
  "tack": 7301, 
  "presumably": 7302, 
  "agendas": 7303, 
  "1957": 7304, 
  "Ro@@": 7305, 
  "riage": 7306, 
  "pride": 7307, 
  "notable": 7308, 
  "derogations": 7309, 
  "ising": 7310, 
  "qualifications": 7311, 
  "ire": 7312, 
  "Indonesia": 7313, 
  "cleared": 7314, 
  "concomitant": 7315, 
  "high-level": 7316, 
  "Leinster": 7317, 
  "refusing": 7318, 
  "excus@@": 7319, 
  "15.@@": 7320, 
  "proclaim": 7321, 
  "revealed": 7322, 
  "ACP": 7323, 
  "flout": 7324, 
  "delaying": 7325, 
  "globally": 7326, 
  "rose": 7327, 
  "sponsored": 7328, 
  "waive": 7329, 
  "industrialists": 7330, 
  "pool": 7331, 
  "agents": 7332, 
  "chiefly": 7333, 
  "consulted": 7334, 
  "abling": 7335, 
  "timet@@": 7336, 
  "regre@@": 7337, 
  "multiply": 7338, 
  "regaining": 7339, 
  "tal@@": 7340, 
  "Alsace": 7341, 
  "1999-@@": 7342, 
  "livelihoods": 7343, 
  "Grossetête": 7344, 
  "Act": 7345, 
  "Valdez": 7346, 
  "Exxon": 7347, 
  "environmentalists": 7348, 
  "Assad": 7349, 
  "beautiful": 7350, 
  "Agricultural": 7351, 
  "shipwreck": 7352, 
  "eval": 7353, 
  "shocked": 7354, 
  "¾": 7355, 
  "smo@@": 7356, 
  "dry": 7357, 
  "assass@@": 7358, 
  "Ehud": 7359, 
  "insul@@": 7360, 
  "six-month": 7361, 
  "micro@@": 7362, 
  "dollars": 7363, 
  "straw": 7364, 
  "coastguard": 7365, 
  "contrasts": 7366, 
  "3.8": 7367, 
  "delivers": 7368, 
  "gging": 7369, 
  "ets": 7370, 
  "rust": 7371, 
  "threefold": 7372, 
  "capability": 7373, 
  "shipping": 7374, 
  "die": 7375, 
  "ll": 7376, 
  "segreg@@": 7377, 
  "sexual": 7378, 
  "echo@@": 7379, 
  "Eri@@": 7380, 
  "real-life": 7381, 
  "overlooked": 7382, 
  "breaks": 7383, 
  "coasts": 7384, 
  "ards": 7385, 
  "coast@@": 7386, 
  "Oz": 7387, 
  "ghtened": 7388, 
  "nin@@": 7389, 
  "credi@@": 7390, 
  "ECU": 7391, 
  "long-@@": 7392, 
  "standardis@@": 7393, 
  "scepticism": 7394, 
  "upheaval": 7395, 
  "physically": 7396, 
  "winded": 7397, 
  "anticipating": 7398, 
  "conve@@": 7399, 
  "arrival": 7400, 
  "abilities": 7401, 
  "devol@@": 7402, 
  "preferring": 7403, 
  "streets": 7404, 
  "updated": 7405, 
  "Councils": 7406, 
  "Works": 7407, 
  "bidding": 7408, 
  "visiting": 7409, 
  "sizeable": 7410, 
  "00": 7411, 
  "doubted": 7412, 
  "Curiously": 7413, 
  "economical": 7414, 
  "peac@@": 7415, 
  "devour": 7416, 
  "forecasts": 7417, 
  "injured": 7418, 
  "St@@": 7419, 
  "reticent": 7420, 
  "inspiration": 7421, 
  "killings": 7422, 
  "diligence": 7423, 
  "capitalist": 7424, 
  "impotence": 7425, 
  "jungle": 7426, 
  "scand@@": 7427, 
  "installation": 7428, 
  "ridiculous": 7429, 
  "negotiators": 7430, 
  "thi@@": 7431, 
  "wheelchairs": 7432, 
  "parking": 7433, 
  "closures": 7434, 
  "fly": 7435, 
  "weekend": 7436, 
  "watershed": 7437, 
  "Century": 7438, 
  "pirates": 7439, 
  "fic": 7440, 
  "devolve": 7441, 
  "extol@@": 7442, 
  "identifies": 7443, 
  "hallmark": 7444, 
  "insights": 7445, 
  "value-added": 7446, 
  "Reconstruction": 7447, 
  "Isabel": 7448, 
  "Comm@@": 7449, 
  "enti@@": 7450, 
  "tandem": 7451, 
  "trip": 7452, 
  "assuring": 7453, 
  "twin": 7454, 
  "elicit": 7455, 
  "envisaging": 7456, 
  "lest": 7457, 
  "eroding": 7458, 
  "600": 7459, 
  "campaign@@": 7460, 
  "law-making": 7461, 
  "sely": 7462, 
  "potent": 7463, 
  "salvation": 7464, 
  "contamin@@": 7465, 
  "reflecting": 7466, 
  "mutilation": 7467, 
  "dividen@@": 7468, 
  "with@@": 7469, 
  "balances": 7470, 
  "hugely": 7471, 
  "forth": 7472, 
  "the-@@": 7473, 
  "consumer@@": 7474, 
  "passion": 7475, 
  "disseminate": 7476, 
  "infinitum": 7477, 
  "spare": 7478, 
  "underpins": 7479, 
  "priority-setting": 7480, 
  "charged": 7481, 
  "rationally": 7482, 
  "unavoi@@": 7483, 
  "lengthy": 7484, 
  "spade": 7485, 
  "ley": 7486, 
  "fla@@": 7487, 
  "floods": 7488, 
  "noble": 7489, 
  "strikes": 7490, 
  "Clinton": 7491, 
  "redep@@": 7492, 
  "According": 7493, 
  "penny": 7494, 
  "Fra@@": 7495, 
  "Jacob": 7496, 
  "pushed": 7497, 
  "Gre@@": 7498, 
  "ye@@": 7499, 
  "cally-@@": 7500, 
  "reinstate": 7501, 
  "Söderman": 7502, 
  "streamlining": 7503, 
  "temperature": 7504, 
  "resul@@": 7505, 
  "discrepancy": 7506, 
  "sor@@": 7507, 
  "calculations": 7508, 
  "frequency": 7509, 
  "va@@": 7510, 
  "happ@@": 7511, 
  "ultra-@@": 7512, 
  "arranged": 7513, 
  "coinciding": 7514, 
  "sludge": 7515, 
  "alerts": 7516, 
  "Lebanese": 7517, 
  "noon": 7518, 
  "dem@@": 7519, 
  "communicate": 7520, 
  "themes": 7521, 
  "Texas": 7522, 
  "bids": 7523, 
  "infected": 7524, 
  "sanitation": 7525, 
  "merged": 7526, 
  "rain@@": 7527, 
  "winds": 7528, 
  "dee@@": 7529, 
  "avalanches": 7530, 
  "mas@@": 7531, 
  "arrives": 7532, 
  "residues": 7533, 
  "praised": 7534, 
  "pages": 7535, 
  "ons@@": 7536, 
  "ani@@": 7537, 
  "limb": 7538, 
  "simulators": 7539, 
  "engineer": 7540, 
  "geo@@": 7541, 
  "complemented": 7542, 
  "Intergroup": 7543, 
  "stimulation": 7544, 
  "ou": 7545, 
  "weap@@": 7546, 
  "non-proliferation": 7547, 
  "vic@@": 7548, 
  "decommissioning": 7549, 
  "vely": 7550, 
  "Envoy": 7551, 
  "evidenced": 7552, 
  "dams": 7553, 
  "Atatürk": 7554, 
  "persistence": 7555, 
  "Richter": 7556, 
  "Bulgaria": 7557, 
  "rela@@": 7558, 
  "earthquake-prone": 7559, 
  "railway": 7560, 
  "dangers": 7561, 
  "ascertaining": 7562, 
  "chec@@": 7563, 
  "safely": 7564, 
  "swim": 7565, 
  "dump@@": 7566, 
  "holiday": 7567, 
  "neglect": 7568, 
  "holidaymakers": 7569, 
  "Yugoslavia": 7570, 
  "Progress": 7571, 
  "clean-up": 7572, 
  "escaped": 7573, 
  "liberalised": 7574, 
  "contamination": 7575, 
  "refu@@": 7576, 
  "Bowe": 7577, 
  "Audit": 7578, 
  "Kosovan": 7579, 
  "transboundary": 7580, 
  "Union@@": 7581, 
  "Part": 7582, 
  "incisive": 7583, 
  "land@@": 7584, 
  "requiring": 7585, 
  "consult": 7586, 
  "liaise": 7587, 
  "makeup": 7588, 
  "popularise": 7589, 
  "gather": 7590, 
  "ft": 7591, 
  "guard": 7592, 
  "satellite": 7593, 
  "envoys": 7594, 
  "nominees": 7595, 
  "CFSP": 7596, 
  "Jackson": 7597, 
  "expects": 7598, 
  "under-@@": 7599, 
  "over-regulation": 7600, 
  "compo@@": 7601, 
  "rash": 7602, 
  "ris@@": 7603, 
  "formulated": 7604, 
  "fairness": 7605, 
  "O": 7606, 
  "clock": 7607, 
  "FVO": 7608, 
  "silent": 7609, 
  "dedicate": 7610, 
  "B5-0003": 7611, 
  "essly": 7612, 
  "character": 7613, 
  "­@@": 7614, 
  "policy-making": 7615, 
  "forcefully": 7616, 
  "initi@@": 7617, 
  "Peking": 7618, 
  "somebody": 7619, 
  "circumstance": 7620, 
  "dated": 7621, 
  "persuaded": 7622, 
  "advis@@": 7623, 
  "suspect": 7624, 
  "mous": 7625, 
  "tionate": 7626, 
  "sign@@": 7627, 
  "typically": 7628, 
  "fortunate": 7629, 
  "privileged": 7630, 
  "deprive": 7631, 
  "break@@": 7632, 
  "of-the-@@": 7633, 
  "loyment": 7634, 
  "Alexander": 7635, 
  "cot@@": 7636, 
  "Nikitin": 7637, 
  "entailed": 7638, 
  "ari@@": 7639, 
  "ambi@@": 7640, 
  "plo@@": 7641, 
  "Papers": 7642, 
  "withhold": 7643, 
  "forever": 7644, 
  "pledge": 7645, 
  "kers": 7646, 
  "acqu@@": 7647, 
  "usefully": 7648, 
  "hint": 7649, 
  "sal@@": 7650, 
  "promp@@": 7651, 
  "mem@@": 7652, 
  "preventive": 7653, 
  "opportune": 7654, 
  "TV": 7655, 
  "orious": 7656, 
  "ude": 7657, 
  "gla@@": 7658, 
  "practic@@": 7659, 
  "disap@@": 7660, 
  "insured": 7661, 
  "conventions": 7662, 
  "ultra-peripheral": 7663, 
  "secretariat": 7664, 
  "supplementary": 7665, 
  "Uzbekistan": 7666, 
  "mously": 7667, 
  "registers": 7668, 
  "Turkmenistan": 7669, 
  "Cyprus": 7670, 
  "fluid": 7671, 
  "arance": 7672, 
  "deriving": 7673, 
  "generalisations": 7674, 
  "arian": 7675, 
  "divert": 7676, 
  "wind@@": 7677, 
  "intentional": 7678, 
  "fathers": 7679, 
  "familiarity": 7680, 
  "Breton": 7681, 
  "gence": 7682, 
  "dation": 7683, 
  "accommo@@": 7684, 
  "veiled": 7685, 
  "prisoners": 7686, 
  "peninsula": 7687, 
  "scep@@": 7688, 
  "complied": 7689, 
  "apathy": 7690, 
  "fauna": 7691, 
  "asions": 7692, 
  "preceded": 7693, 
  "advised": 7694, 
  "ill-@@": 7695, 
  "feelings": 7696, 
  "rallied": 7697, 
  "aw@@": 7698, 
  "sovereignty-sensitive": 7699, 
  "beauty": 7700, 
  "flora": 7701, 
  "weakened": 7702, 
  "adjec@@": 7703, 
  "emotional": 7704, 
  "pledged": 7705, 
  "even@@": 7706, 
  "washed": 7707, 
  "celeb@@": 7708, 
  "staying": 7709, 
  "dev@@": 7710, 
  "emp@@": 7711, 
  "woman": 7712, 
  "Swedish": 7713, 
  "Agreements": 7714, 
  "releases": 7715, 
  "hal@@": 7716, 
  "ister": 7717, 
  "rap@@": 7718, 
  "ard": 7719, 
  "ils": 7720, 
  "esteemed": 7721, 
  "fal@@": 7722, 
  "incoming": 7723, 
  "inspect": 7724, 
  "gn@@": 7725, 
  "12.00": 7726, 
  "cycles": 7727, 
  "cal@@": 7728, 
  "announce": 7729, 
  "1-@@": 7730, 
  "duc@@": 7731, 
  "street": 7732, 
  "ouch": 7733, 
  "accelerated": 7734, 
  "irs": 7735, 
  "performed": 7736, 
  "Lothar": 7737, 
  "reforestation": 7738, 
  "trail": 7739, 
  "coverage": 7740, 
  "purchase": 7741, 
  "mainstreamed": 7742, 
  "optional": 7743, 
  "add-on": 7744, 
  "loans": 7745, 
  "freed": 7746, 
  "Community-level": 7747, 
  "competitor": 7748, 
  "claiming": 7749, 
  "re-evaluation": 7750, 
  "bles": 7751, 
  "Moscow": 7752, 
  "underground": 7753, 
  "centuries": 7754, 
  "adheres": 7755, 
  "liaison": 7756, 
  "gal@@": 7757, 
  "inations": 7758, 
  "outs": 7759, 
  "wherewithal": 7760, 
  "bibliography": 7761, 
  "bombs": 7762, 
  "ile": 7763, 
  "tended": 7764, 
  "attra@@": 7765, 
  "Padanian": 7766, 
  "manager": 7767, 
  "ening": 7768, 
  "banker": 7769, 
  "attentively": 7770, 
  "discourtesy": 7771, 
  "Mainstreaming": 7772, 
  "underpinned": 7773, 
  "represent@@": 7774, 
  "sympathise": 7775, 
  "to-@@": 7776, 
  "thousand": 7777, 
  "mechan@@": 7778, 
  "Jean": 7779, 
  "CFP": 7780, 
  "fellow-citizens": 7781, 
  "mayors": 7782, 
  "freeze": 7783, 
  "sen@@": 7784, 
  "people-@@": 7785, 
  "tise": 7786, 
  "books": 7787, 
  "wn@@": 7788, 
  "donor": 7789, 
  "mat@@": 7790, 
  "150": 7791, 
  "trees": 7792, 
  "telegram": 7793, 
  "cross-cutting": 7794, 
  "deci@@": 7795, 
  "Lorraine": 7796, 
  "teleph@@": 7797, 
  "hec@@": 7798, 
  "tas@@": 7799, 
  "reform@@": 7800, 
  "quest": 7801, 
  "fan@@": 7802, 
  "deterior@@": 7803, 
  "weather": 7804, 
  "ce-@@": 7805, 
  "permeate": 7806, 
  "unrelated": 7807, 
  "earmarked": 7808, 
  "architecture": 7809, 
  "courageous": 7810, 
  "Arabs": 7811, 
  "bolster": 7812, 
  "benefiting": 7813, 
  "transformation": 7814, 
  "depar@@": 7815, 
  "ace": 7816, 
  "pursuit": 7817, 
  "Su@@": 7818, 
  "metres": 7819, 
  "cubic": 7820, 
  "Secretary-General": 7821, 
  "clari@@": 7822, 
  "translations": 7823, 
  "cket": 7824, 
  "gains": 7825, 
  "classes": 7826, 
  "astonished": 7827, 
  "time-@@": 7828, 
  "prof@@": 7829, 
  "eat": 7830, 
  "ean@@": 7831, 
  "ADAPT": 7832, 
  "ears": 7833, 
  "renation@@": 7834, 
  "theme": 7835, 
  "Karl": 7836, 
  "succeeds": 7837, 
  "open-@@": 7838, 
  "sit": 7839, 
  "trated": 7840, 
  "wning": 7841, 
  "ship-building": 7842, 
  "imports": 7843, 
  "alia": 7844, 
  "inter": 7845, 
  "aliens": 7846, 
  "IV": 7847, 
  "survi@@": 7848, 
  "choosing": 7849, 
  "abor@@": 7850, 
  "concep@@": 7851, 
  "nowhere": 7852, 
  "pumped": 7853, 
  "assaulted": 7854, 
  "123": 7855, 
  "fulfils": 7856, 
  "film": 7857, 
  "totalled": 7858, 
  "constituent": 7859, 
  "colossal": 7860, 
  "wit": 7861, 
  "assaults": 7862, 
  "mur@@": 7863, 
  "richest": 7864, 
  "handful": 7865, 
  "cates": 7866, 
  "relocating": 7867, 
  "hunting": 7868, 
  "counterproductive": 7869, 
  "parliamentarians": 7870, 
  "shorter": 7871, 
  "law@@": 7872, 
  "zing": 7873, 
  "cross": 7874, 
  "liber@@": 7875, 
  "bra@@": 7876, 
  "ref@@": 7877, 
  "tac@@": 7878, 
  "index": 7879, 
  "sentiments": 7880, 
  "cross-disciplinary": 7881, 
  "under-developed": 7882, 
  "pleasant": 7883, 
  "180": 7884, 
  "seconds": 7885, 
  "disregarded": 7886, 
  "environmentally-friendly": 7887, 
  "map": 7888, 
  "smooth-running": 7889, 
  "seg@@": 7890, 
  "ed-@@": 7891, 
  "illegality": 7892, 
  "draws": 7893, 
  "slippage": 7894, 
  "market@@": 7895, 
  "pen": 7896, 
  "stro@@": 7897, 
  "fifties": 7898, 
  "shado@@": 7899, 
  "Disciplinary": 7900, 
  "disturbance": 7901, 
  "Staff": 7902, 
  "elaborate": 7903, 
  "tim@@": 7904, 
  "disturbances": 7905, 
  "competition-related": 7906, 
  "pretend": 7907, 
  "020": 7908, 
  "misuse": 7909, 
  "vate": 7910, 
  "Regulations": 7911, 
  "incomplete": 7912, 
  "supplemented": 7913, 
  "festive": 7914, 
  "dark": 7915, 
  "incomprehensibly": 7916, 
  "parti@@": 7917, 
  "expectation": 7918, 
  "reveals": 7919, 
  "lessly": 7920, 
  "observer": 7921, 
  "sorted": 7922, 
  "thread": 7923, 
  "fic@@": 7924, 
  "wine": 7925, 
  "clean": 7926, 
  "transcends": 7927, 
  "venue": 7928, 
  "genous": 7929, 
  "promising": 7930, 
  "bio@@": 7931, 
  "g": 7932, 
  "Celtic": 7933, 
  "ugly": 7934, 
  "legitimising": 7935, 
  "finishing": 7936, 
  "activity-based": 7937, 
  "helm": 7938, 
  "mic": 7939, 
  "bud@@": 7940, 
  "threaten": 7941, 
  "admire": 7942, 
  "inundated": 7943, 
  "synony@@": 7944, 
  "locations": 7945, 
  "miscalculation": 7946, 
  "splitting": 7947, 
  "Chair": 7948, 
  "wil@@": 7949, 
  "sex@@": 7950, 
  "ints": 7951, 
  "cart": 7952, 
  "Peijs": 7953, 
  "alleviating": 7954, 
  "origin@@": 7955, 
  "Riis-Jørgensen": 7956, 
  "plethora": 7957, 
  "work@@": 7958, 
  "mercy": 7959, 
  "horse": 7960, 
  "thrive": 7961, 
  "lan@@": 7962, 
  "lords": 7963, 
  "honestly": 7964, 
  "studying": 7965, 
  "ponder@@": 7966, 
  "devolution": 7967, 
  "in-@@": 7968, 
  "chains": 7969, 
  "calculated": 7970, 
  "cabinets": 7971, 
  "adjustment": 7972, 
  "assisted": 7973, 
  "sustaining": 7974, 
  "itous": 7975, 
  "pubs": 7976, 
  "ort": 7977, 
  "democrat": 7978, 
  "dle": 7979, 
  "unrealistic": 7980, 
  "aiming": 7981, 
  "fruition": 7982, 
  "prop@@": 7983, 
  "ious": 7984, 
  "dream": 7985, 
  "beneficiary": 7986, 
  "Commons": 7987, 
  "regenerating": 7988, 
  "high-technology": 7989, 
  "gauges": 7990, 
  "ve@@": 7991, 
  "vary": 7992, 
  "design@@": 7993, 
  "downward": 7994, 
  "bind": 7995, 
  "lenient": 7996, 
  "indiscrimin@@": 7997, 
  "neighbourhood": 7998, 
  "specialist": 7999, 
  "Uni@@": 8000, 
  "circles": 8001, 
  "duplication": 8002, 
  "tic@@": 8003, 
  "get@@": 8004, 
  "infancy": 8005, 
  "vit@@": 8006, 
  "focal": 8007, 
  "time-scale": 8008, 
  "anti-discrimination": 8009, 
  "kee@@": 8010, 
  "dened": 8011, 
  "verb@@": 8012, 
  "2@@": 8013, 
  "capture": 8014, 
  "J": 8015, 
  "upward": 8016, 
  "unwillingness": 8017, 
  "aming": 8018, 
  "I.": 8019, 
  "artificial": 8020, 
  "underlies": 8021, 
  "ouring": 8022, 
  "abolition": 8023, 
  "KFOR": 8024, 
  "smear": 8025, 
  "Feder@@": 8026, 
  "end-@@": 8027, 
  "lau@@": 8028, 
  "pas@@": 8029, 
  "dispu@@": 8030, 
  "modernising": 8031, 
  "Relating": 8032, 
  "Croati@@": 8033, 
  "Sittings": 8034, 
  "advisable": 8035, 
  "anti-competitive": 8036, 
  "undeniable": 8037, 
  "routes": 8038, 
  "backbone": 8039, 
  "Rübig": 8040, 
  "civilian": 8041, 
  "zzled": 8042, 
  "subscri@@": 8043, 
  "Albanian": 8044, 
  "intimidation": 8045, 
  "3.@@": 8046, 
  "European@@": 8047, 
  "authors": 8048, 
  "Romanies": 8049, 
  "pardon": 8050, 
  "ple@@": 8051, 
  "atro@@": 8052, 
  "sophisticated": 8053, 
  "livestock": 8054, 
  "son": 8055, 
  "Kosovar": 8056, 
  "insufficiently": 8057, 
  "jects": 8058, 
  "controllers": 8059, 
  "no-one": 8060, 
  "coccidiostats": 8061, 
  "ranging": 8062, 
  "void": 8063, 
  "perpet@@": 8064, 
  "capit@@": 8065, 
  "yours": 8066, 
  "imprisons": 8067, 
  "reiterates": 8068, 
  "clam@@": 8069, 
  "dealings": 8070, 
  "meat": 8071, 
  "sell": 8072, 
  "anomalous": 8073, 
  "slip": 8074, 
  "Zealand": 8075, 
  "compens@@": 8076, 
  "Kindermann": 8077, 
  "homeless": 8078, 
  "outs@@": 8079, 
  "underpinning": 8080, 
  "resolutely": 8081, 
  "X@@": 8082, 
  "redistributing": 8083, 
  "knock-on": 8084, 
  "vigorously": 8085, 
  "lawful": 8086, 
  "avoi@@": 8087, 
  "GMO": 8088, 
  "Lomé": 8089, 
  "famine": 8090, 
  "Maria": 8091, 
  "fri@@": 8092, 
  "ghten@@": 8093, 
  "public-@@": 8094, 
  "pivotal": 8095, 
  "tan@@": 8096, 
  "authorises": 8097, 
  "terated": 8098, 
  "diss@@": 8099, 
  "ances": 8100, 
  "carelessness": 8101, 
  "attract": 8102, 
  "alling": 8103, 
  "oning": 8104, 
  "consultancy": 8105, 
  "proc@@": 8106, 
  "quali@@": 8107, 
  "redressing": 8108, 
  "conversion": 8109, 
  "ly-@@": 8110, 
  "shipbuilding": 8111, 
  "ate@@": 8112, 
  "scur@@": 8113, 
  "ares": 8114, 
  "vocation": 8115, 
  "affili@@": 8116, 
  "caution": 8117, 
  "bes": 8118, 
  "forgive": 8119, 
  "histories": 8120, 
  "reproductive": 8121, 
  "judi@@": 8122, 
  "end@@": 8123, 
  "dovetailing": 8124, 
  "anybody": 8125, 
  "proves": 8126, 
  "refra@@": 8127, 
  "opacity": 8128, 
  "illustrated": 8129, 
  "CI@@": 8130, 
  "fork": 8131, 
  "U-turn": 8132, 
  "stagnate": 8133, 
  "unquestionable": 8134, 
  "tariat": 8135, 
  "ir": 8136, 
  "lap@@": 8137, 
  "tely": 8138, 
  "mach@@": 8139, 
  "unfor@@": 8140, 
  "dog": 8141, 
  "nice": 8142, 
  "overs": 8143, 
  "unleashed": 8144, 
  "vent": 8145, 
  "prohibition": 8146, 
  "inferior": 8147, 
  "degenerate": 8148, 
  "chaos": 8149, 
  "furthering": 8150, 
  "organises": 8151, 
  "assigned": 8152, 
  "take-@@": 8153, 
  "proximity": 8154, 
  "evaded": 8155, 
  "alliances": 8156, 
  "surrendering": 8157, 
  "terror": 8158, 
  "soft": 8159, 
  "referr@@": 8160, 
  "entity": 8161, 
  "irrespective": 8162, 
  "tension": 8163, 
  "descri@@": 8164, 
  "C5­02@@": 8165, 
  "adversely": 8166, 
  "margin": 8167, 
  "Conventions": 8168, 
  "hearts": 8169, 
  "50@@": 8170, 
  "forty": 8171, 
  "fruit": 8172, 
  "expediency": 8173, 
  "hastily": 8174, 
  "thly": 8175, 
  "Six@@": 8176, 
  "IX": 8177, 
  "proportionally": 8178, 
  "008": 8179, 
  "penalty": 8180, 
  "dity": 8181, 
  "inv@@": 8182, 
  "fished": 8183, 
  "counterfeiting": 8184, 
  "Pen@@": 8185, 
  "insular": 8186, 
  "fresh@@": 8187, 
  "onwards": 8188, 
  "acade@@": 8189, 
  "mics": 8190, 
  "attended": 8191, 
  "tism": 8192, 
  "Country": 8193, 
  "tability": 8194, 
  "A5-0028": 8195, 
  "collabor@@": 8196, 
  "sibly": 8197, 
  "anchovies": 8198, 
  "repealed": 8199, 
  "abusive": 8200, 
  "carries": 8201, 
  "continental": 8202, 
  "search": 8203, 
  "transfer@@": 8204, 
  "fall@@": 8205, 
  "additive": 8206, 
  "tread": 8207, 
  "1762": 8208, 
  "metric": 8209, 
  "feasibility": 8210, 
  "overfishing": 8211, 
  "violates": 8212, 
  "1982": 8213, 
  "atta@@": 8214, 
  "re-examined": 8215, 
  "emotions": 8216, 
  "p.@@": 8217, 
  "orial": 8218, 
  "inqu@@": 8219, 
  "servants": 8220, 
  "experiments": 8221, 
  "rank": 8222, 
  "gering": 8223, 
  "are@@": 8224, 
  "unification": 8225, 
  "constructing": 8226, 
  "dismissal": 8227, 
  "mation": 8228, 
  "sack": 8229, 
  "negligence": 8230, 
  "underpin": 8231, 
  "mammoth": 8232, 
  "Ruiz": 8233, 
  "riation": 8234, 
  "Fraud": 8235, 
  "scorched": 8236, 
  "140": 8237, 
  "Criminal": 8238, 
  "mid@@": 8239, 
  "multiplicity": 8240, 
  "designate": 8241, 
  "neglecting": 8242, 
  "co-operation": 8243, 
  "renoun@@": 8244, 
  "perple@@": 8245, 
  "pinpoint": 8246, 
  "stub@@": 8247, 
  "crushed": 8248, 
  "sei@@": 8249, 
  "Radical": 8250, 
  "isted": 8251, 
  "110": 8252, 
  "tobacco": 8253, 
  "rup@@": 8254, 
  "congratulated": 8255, 
  "IIIC": 8256, 
  "DGs": 8257, 
  "-R@@": 8258, 
  "clever": 8259, 
  "Assistance": 8260, 
  "fine-tun@@": 8261, 
  "wars": 8262, 
  "Generalised": 8263, 
  "disregarding": 8264, 
  "Eurofederalist": 8265, 
  "readmission": 8266, 
  "veness": 8267, 
  "characteristic": 8268, 
  "updating": 8269, 
  "documentation": 8270, 
  "poss@@": 8271, 
  "forgot": 8272, 
  "-General": 8273, 
  "qualities": 8274, 
  "visas": 8275, 
  "secu@@": 8276, 
  "contractual": 8277, 
  "discre@@": 8278, 
  "delegated": 8279, 
  "simplifying": 8280, 
  "cows": 8281, 
  "Preferences": 8282, 
  "pick": 8283, 
  "tual": 8284, 
  "masse": 8285, 
  "allow@@": 8286, 
  "Japanese": 8287, 
  "admitting": 8288, 
  "um": 8289, 
  "ball": 8290, 
  "Recommendations": 8291, 
  "Asylum": 8292, 
  "ineffectual": 8293, 
  "affording": 8294, 
  "formulate": 8295, 
  "Migration": 8296, 
  "combination": 8297, 
  "alle@@": 8298, 
  "infli@@": 8299, 
  "akers": 8300, 
  "ghettos": 8301, 
  "severe": 8302, 
  "North": 8303, 
  "onic": 8304, 
  "vehemently": 8305, 
  "norm": 8306, 
  "VI": 8307, 
  "enhan@@": 8308, 
  "phrases": 8309, 
  "Western": 8310, 
  "codified": 8311, 
  "roll": 8312, 
  "reg@@": 8313, 
  "Heaton-Harris": 8314, 
  "roll-call": 8315, 
  "conditional": 8316, 
  "Information": 8317, 
  "loophole": 8318, 
  "approves": 8319, 
  "Pyrenees": 8320, 
  "tain@@": 8321, 
  "EC@@": 8322, 
  "ur": 8323, 
  "presently": 8324, 
  "Sustained": 8325, 
  "forwards": 8326, 
  "attribu@@": 8327, 
  "fine-sounding": 8328, 
  "Euratom": 8329, 
  "burner": 8330, 
  "circulating": 8331, 
  "axis": 8332, 
  "2025": 8333, 
  "Advisory": 8334, 
  "refuses": 8335, 
  "federalism": 8336, 
  "cep@@": 8337, 
  "envelope": 8338, 
  "7.5": 8339, 
  "fostered": 8340, 
  "V@@": 8341, 
  "emin@@": 8342, 
  "ourcing": 8343, 
  "Sicilian": 8344, 
  "saw": 8345, 
  "landlocked": 8346, 
  "strugg@@": 8347, 
  "A5-0104": 8348, 
  "stret@@": 8349, 
  "97": 8350, 
  "corrup@@": 8351, 
  "ratifying": 8352, 
  "stopping": 8353, 
  "Fernando": 8354, 
  "bygones": 8355, 
  "orderly": 8356, 
  "recital": 8357, 
  "uncertainties": 8358, 
  "Mayor": 8359, 
  "money-laundering": 8360, 
  "transcend": 8361, 
  "anci@@": 8362, 
  "chaired": 8363, 
  "litig@@": 8364, 
  "oted": 8365, 
  "Sapard": 8366, 
  "landscape": 8367, 
  "cy@@": 8368, 
  "jur@@": 8369, 
  "viewing": 8370, 
  "philosophical": 8371, 
  "Haarder": 8372, 
  "explored": 8373, 
  "frustration": 8374, 
  "Cork": 8375, 
  "Multi-disciplinary": 8376, 
  "entailing": 8377, 
  "witness": 8378, 
  "ker": 8379, 
  "nest": 8380, 
  "scrutinise": 8381, 
  "recruitment": 8382, 
  "prevents": 8383, 
  "fashioned": 8384, 
  "old-@@": 8385, 
  "premature": 8386, 
  "criminalise": 8387, 
  "stemming": 8388, 
  "displayed": 8389, 
  "suspicions": 8390, 
  "signing": 8391, 
  "Community-wide": 8392, 
  "Associ@@": 8393, 
  "thoroughness": 8394, 
  "Alps": 8395, 
  "indifferent": 8396, 
  "database": 8397, 
  "ive": 8398, 
  "dictates": 8399, 
  "Perspective": 8400, 
  "punishment": 8401, 
  "receptive": 8402, 
  "tising": 8403, 
  "secret": 8404, 
  "ams": 8405, 
  "prepares": 8406, 
  "sounds": 8407, 
  "small-": 8408, 
  "profit-making": 8409, 
  "Direc@@": 8410, 
  "coordinating": 8411, 
  "detention": 8412, 
  "reside": 8413, 
  "repression": 8414, 
  "Eurosceptics": 8415, 
  "moderation": 8416, 
  "ail": 8417, 
  "transmission": 8418, 
  "prosecu@@": 8419, 
  "officers": 8420, 
  "eting": 8421, 
  "inaugural": 8422, 
  "precedence": 8423, 
  "diplom@@": 8424, 
  "-out": 8425, 
  "bureaucrats": 8426, 
  "rab@@": 8427, 
  "prize": 8428, 
  "snake": 8429, 
  "own-initiative": 8430, 
  "champion": 8431, 
  "stead@@": 8432, 
  "imagined": 8433, 
  "fav@@": 8434, 
  "fought": 8435, 
  "announcements": 8436, 
  "questioning": 8437, 
  "successes": 8438, 
  "cross-@@": 8439, 
  "fraternity": 8440, 
  "explanatory": 8441, 
  "scourge": 8442, 
  "ISPA": 8443, 
  "kened": 8444, 
  "shell": 8445, 
  "trends": 8446, 
  "deliberately": 8447, 
  "misdemeanours": 8448, 
  "short-@@": 8449, 
  "recommended": 8450, 
  "unded": 8451, 
  "ination": 8452, 
  "accompany": 8453, 
  "fleeing": 8454, 
  "dictatorships": 8455, 
  "automatic": 8456, 
  "appointments": 8457, 
  "mode": 8458, 
  "protracted": 8459, 
  "squander@@": 8460, 
  "stu@@": 8461, 
  "rumour": 8462, 
  "ing-up": 8463, 
  "sett@@": 8464, 
  "bureaux": 8465, 
  "dead@@": 8466, 
  "tradi@@": 8467, 
  "scores": 8468, 
  "arrest": 8469, 
  "angles": 8470, 
  "win@@": 8471, 
  "UCLAF": 8472, 
  "guilty": 8473, 
  "detec@@": 8474, 
  "ins": 8475, 
  "forth@@": 8476, 
  "sol@@": 8477, 
  "fol@@": 8478, 
  "sharing": 8479, 
  "conceive": 8480, 
  "upsetting": 8481, 
  "Feira": 8482, 
  "incidences": 8483, 
  "cross-pillar": 8484, 
  "supervised": 8485, 
  "EPP": 8486, 
  "reap": 8487, 
  "computer": 8488, 
  "instigate": 8489, 
  "ately": 8490, 
  "ishes": 8491, 
  "lowing": 8492, 
  "pornography": 8493, 
  "definitions": 8494, 
  "irregularity": 8495, 
  "an-@@": 8496, 
  "absor@@": 8497, 
  "ony": 8498, 
  "judging": 8499, 
  "hist@@": 8500, 
  "medium-scale": 8501, 
  "coordinator": 8502, 
  "disappeared": 8503, 
  "applicants": 8504, 
  "unthinkable": 8505, 
  "syner@@": 8506, 
  "kl@@": 8507, 
  "juvenile": 8508, 
  "remedied": 8509, 
  "pave": 8510, 
  "Kumar": 8511, 
  "of-life": 8512, 
  "deleg@@": 8513, 
  "Ha@@": 8514, 
  "provi@@": 8515, 
  "2a": 8516, 
  "wavering": 8517, 
  "retro@@": 8518, 
  "gyp@@": 8519, 
  "ambigu@@": 8520, 
  "disin@@": 8521, 
  "escap@@": 8522, 
  "pli@@": 8523, 
  "Aspe": 8524, 
  "tment": 8525, 
  "m-@@": 8526, 
  "cations": 8527, 
  "159": 8528, 
  "diox@@": 8529, 
  "struction": 8530, 
  "UEN": 8531, 
  "substan@@": 8532, 
  "rus": 8533, 
  "last@@": 8534, 
  "precau@@": 8535, 
  "alar@@": 8536, 
  "Schröder": 8537, 
  "ina": 8538, 
  "ag": 8539, 
  "posi@@": 8540, 
  "sym@@": 8541, 
  "coh@@": 8542, 
  "Balfe": 8543, 
  "arre@@": 8544, 
  "cken": 8545, 
  "Ar@@": 8546, 
  "balan@@": 8547, 
  "mari@@": 8548, 
  "Afri@@": 8549, 
  "so-@@": 8550, 
  "ein": 8551, 
  "Assist@@": 8552, 
  "stood": 8553, 
  "tech@@": 8554, 
  "consequ@@": 8555, 
  "aut": 8556, 
  "pe": 8557, 
  "Calais": 8558, 
  "datory": 8559, 
  "phra@@": 8560, 
  "For@@": 8561, 
  "Sabah": 8562, 
  "ctive": 8563, 
  "facilit@@": 8564, 
  "Auroi": 8565, 
  "262": 8566, 
  "EFTA": 8567, 
  "titude": 8568, 
  "em": 8569, 
  "chem@@": 8570, 
  "solem@@": 8571, 
  "itation": 8572, 
  "Salem": 8573, 
  "cles": 8574, 
  "9002": 8575, 
  "Nord@@": 8576, 
  "conver@@": 8577, 
  "Gen@@": 8578, 
  "Lan@@": 8579, 
  "diverse": 8580, 
  "arri@@": 8581, 
  "kan": 8582, 
  "forci@@": 8583, 
  "len@@": 8584, 
  "finesse": 8585, 
  "crats": 8586, 
  "esprit": 8587, 
  "loss@@": 8588, 
  "Veh@@": 8589, 
  "ISO": 8590, 
  "pla@@": 8591, 
  "public@@": 8592, 
  "lition": 8593, 
  "Ku@@": 8594, 
  "-making": 8595, 
  "Cunha": 8596, 
  "14.@@": 8597, 
  "inate": 8598, 
  "aper": 8599, 
  "zo@@": 8600, 
  "Ponnambalam": 8601, 
  "0168": 8602, 
  "GATT": 8603, 
  "rix": 8604, 
  "Souchet": 8605, 
  "143": 8606, 
  "analy@@": 8607, 
  "tter": 8608, 
  "surpris@@": 8609, 
  "bies": 8610, 
  "pover@@": 8611, 
  "enses": 8612, 
  "abo@@": 8613, 
  "indisp@@": 8614, 
  "omen": 8615, 
  "dern@@": 8616, 
  "eness": 8617, 
  "Drug": 8618, 
  "314": 8619, 
  "stum@@": 8620, 
  "Dominique": 8621, 
  "wholehear@@": 8622, 
  "ken@@": 8623, 
  "rs": 8624, 
  "viate": 8625, 
  "los": 8626, 
  "Doyle": 8627, 
  "250": 8628, 
  "Depar@@": 8629, 
  "fel@@": 8630, 
  "inciner@@": 8631, 
  "take@@": 8632, 
  "ang@@": 8633, 
  "ensing": 8634, 
  "2012": 8635, 
  "uation": 8636, 
  "inf@@": 8637, 
  "tage": 8638, 
  "anom@@": 8639, 
  "Dispar@@": 8640, 
  "Roo": 8641, 
  "ilater@@": 8642, 
  "ander@@": 8643, 
  "sy@@": 8644, 
  "grow@@": 8645, 
  "tsper@@": 8646, 
  "Busquin": 8647, 
  "knowled@@": 8648, 
  "Administration": 8649, 
  "geous": 8650, 
  "dread@@": 8651, 
  "disadvanta@@": 8652, 
  "countr@@": 8653, 
  "imper@@": 8654, 
  "offs": 8655, 
  "Deutsch@@": 8656, 
  "Chair@@": 8657, 
  "mani@@": 8658, 
  "ational": 8659, 
  "wo": 8660, 
  "775": 8661, 
  "1987": 8662, 
  "exhau@@": 8663, 
  "fancy": 8664, 
  "diffuse": 8665, 
  "conclu@@": 8666, 
  "arly": 8667, 
  "Bilbao": 8668, 
  "Devon": 8669, 
  "Margarine": 8670, 
  "abin@@": 8671, 
  "draf@@": 8672, 
  "ature": 8673, 
  "forwar@@": 8674, 
  "Cornwall": 8675, 
  "este@@": 8676, 
  "antibio@@": 8677, 
  "&apos;@@": 8678, 
  "EUROPOL": 8679, 
  "cting": 8680, 
  "orts": 8681, 
  "Simpson": 8682, 
  "388": 8683, 
  "sibility": 8684, 
  "sters": 8685, 
  "continent@@": 8686, 
  "900": 8687, 
  "Serbi@@": 8688, 
  "vag@@": 8689, 
  "1970": 8690, 
  "decisi@@": 8691, 
  "dating": 8692, 
  ".1": 8693, 
  "tw@@": 8694, 
  "Trittin": 8695, 
  "ILO": 8696, 
  "LEADER@@": 8697, 
  "tari@@": 8698, 
  "Sisyphus": 8699, 
  "anuts": 8700, 
  "hes@@": 8701, 
  "Hearts": 8702, 
  "stand@@": 8703, 
  "Mitterrand": 8704, 
  "Waffen": 8705, 
  "dn@@": 8706, 
  "toler@@": 8707, 
  "municip@@": 8708, 
  "tran@@": 8709, 
  "shi@@": 8710, 
  "scho@@": 8711, 
  "sel@@": 8712, 
  "etc.": 8713, 
  "phenomen@@": 8714, 
  "lers": 8715, 
  "Albacete": 8716, 
  "jargon": 8717, 
  "particip@@": 8718, 
  "dents": 8719, 
  "olog@@": 8720, 
  "sided": 8721, 
  "cau@@": 8722, 
  "esday": 8723, 
  "Tu@@": 8724, 
  "SAPARD": 8725, 
  "subordin@@": 8726, 
  "fec@@": 8727, 
  "Arta": 8728, 
  "associ@@": 8729, 
  "Natura": 8730, 
  "Pétain": 8731, 
  "SS": 8732, 
  "geographi@@": 8733, 
  "19@@": 8734, 
  "measu@@": 8735, 
  "EL": 8736, 
  "thir@@": 8737, 
  "fran@@": 8738, 
  "T": 8739, 
  "NO@@": 8740, 
  "Nogueira": 8741, 
  "omin@@": 8742, 
  "Román": 8743, 
  "subsi@@": 8744, 
  "gif@@": 8745, 
  "ous@@": 8746, 
  "chron@@": 8747, 
  "legitimis@@": 8748, 
  "separ@@": 8749, 
  "pping": 8750, 
  "1945": 8751, 
  "optimal": 8752, 
  "rect": 8753, 
  "observ@@": 8754, 
  "Judas": 8755, 
  "atories": 8756, 
  "dubi@@": 8757, 
  "arti@@": 8758, 
  "Le@@": 8759, 
  "fici@@": 8760, 
  "30@@": 8761, 
  "ble@@": 8762, 
  "François": 8763, 
  "rene@@": 8764, 
  "Meijer": 8765, 
  "tt": 8766, 
  "passion@@": 8767, 
  "star@@": 8768, 
  "atic": 8769, 
  "volati@@": 8770, 
  "servatives": 8771, 
  "NUTS": 8772, 
  "scor@@": 8773, 
  "inten@@": 8774, 
  "Réunion": 8775, 
  "gehe@@": 8776, 
  "ads": 8777, 
  "ativ@@": 8778, 
  "ese": 8779, 
  "Muslim": 8780, 
  "gis@@": 8781, 
  "neg@@": 8782, 
  "bi": 8783, 
  "declar@@": 8784, 
  "outl@@": 8785, 
  "two@@": 8786, 
  "three-@@": 8787, 
  "REGIS": 8788, 
  "à": 8789, 
  "ster": 8790, 
  "Fu@@": 8791, 
  "ann@@": 8792, 
  "Nevada": 8793, 
  "verbal": 8794, 
  "left-@@": 8795, 
  "tane@@": 8796, 
  "Graco": 8797, 
  "Sages": 8798, 
  "Urba": 8799, 
  "nov@@": 8800, 
  "uli@@": 8801, 
  "arities": 8802, 
  "Agusta": 8803, 
  "Vandam": 8804, 
  "ophi@@": 8805, 
  "fea@@": 8806, 
  "ek": 8807, 
  "perman@@": 8808, 
  "reli@@": 8809, 
  "Sierra": 8810, 
  "eri@@": 8811, 
  "strin@@": 8812, 
  "trage@@": 8813, 
  "italiano": 8814, 
  "sociale": 8815, 
  "Movimento": 8816, 
  "satisfac@@": 8817, 
  "Blok": 8818, 
  "zz@@": 8819, 
  "vision@@": 8820, 
  "Vlaams": 8821, 
  "inno@@": 8822, 
  "Tro@@": 8823, 
  "ean": 8824, 
  "conven@@": 8825, 
  "2186": 8826, 
  "Núñez": 8827, 
  "Chi@@": 8828, 
  "cals": 8829, 
  "Environ@@": 8830, 
  "tribu@@": 8831, 
  "nobyl": 8832, 
  "low@@": 8833, 
  "extremis@@": 8834, 
  "Enrique": 8835, 
  "164": 8836, 
  "chao@@": 8837, 
  "166": 8838, 
  "Today": 8839, 
  "claim@@": 8840, 
  "mali@@": 8841, 
  "broad@@": 8842, 
  "seh@@": 8843, 
  "2178": 8844, 
  "59": 8845, 
  "2185": 8846, 
  "Program@@": 8847, 
  "PR": 8848, 
  "Super": 8849, 
  "scap@@": 8850, 
  "teen@@": 8851, 
  "76": 8852, 
  "0260": 8853, 
  "Ricardo": 8854, 
  "Chile": 8855, 
  "success@@": 8856, 
  "Bre@@": 8857, 
  "65": 8858, 
  "ach@@": 8859, 
  "Winning": 8860, 
  "repu@@": 8861, 
  "ler": 8862, 
  "Murphy": 8863, 
  "contin@@": 8864, 
  "gency": 8865, 
  "mitted": 8866, 
  "Elly": 8867, 
  "aest@@": 8868, 
  "fort": 8869, 
  "v": 8870, 
  "DDR": 8871, 
  "ldoz@@": 8872, 
  "12.25": 8873, 
  "Ad@@": 8874, 
  "ple": 8875, 
  "Corrie": 8876, 
  "anti@@": 8877, 
  "Knörr": 8878, 
  "viously": 8879, 
  "Borràs": 8880, 
  "tact": 8881, 
  "ull": 8882, 
  "warran@@": 8883, 
  "wns": 8884, 
  "4.@@": 8885, 
  "oc@@": 8886, 
  "875": 8887, 
  "atur@@": 8888, 
  "Lille": 8889, 
  "statis@@": 8890, 
  "dru@@": 8891, 
  "gangs": 8892, 
  "alien@@": 8893, 
  "concer@@": 8894, 
  "lassi@@": 8895, 
  "ulative": 8896, 
  "offen@@": 8897, 
  "Duham@@": 8898, 
  "Olivier": 8899, 
  "fatal": 8900, 
  "bir@@": 8901, 
  "endo@@": 8902, 
  "spee@@": 8903, 
  "techni@@": 8904, 
  "ques": 8905, 
  "new@@": 8906, 
  "SAPAR": 8907, 
  "EU@@": 8908, 
  "stark": 8909, 
  "short@@": 8910, 
  "ily": 8911, 
  "republi@@": 8912, 
  "chil@@": 8913, 
  "absten@@": 8914, 
  "turn@@": 8915, 
  "oul": 8916, 
  "Park": 8917, 
  "inau@@": 8918, 
  "604": 8919, 
  "ands@@": 8920, 
  "implement@@": 8921, 
  "remain@@": 8922, 
  "renti@@": 8923, 
  "422": 8924, 
  "integr@@": 8925, 
  "acquisi@@": 8926, 
  "dissem@@": 8927, 
  "amm@@": 8928, 
  "217": 8929, 
  "val": 8930, 
  "155": 8931, 
  "Side": 8932, 
  "ran": 8933, 
  "orical": 8934, 
  "Camus": 8935, 
  "Albert": 8936, 
  "stak@@": 8937, 
  "EMPLOYMENT": 8938, 
  "test@@": 8939, 
  "job@@": 8940, 
  "awa@@": 8941, 
  "lessness": 8942, 
  "Manchester": 8943, 
  "Moss": 8944, 
  "progre@@": 8945, 
  "legitim@@": 8946, 
  "dereg@@": 8947, 
  "ment@@": 8948, 
  "up-@@": 8949, 
  "ceed@@": 8950, 
  "humane": 8951, 
  "tionally": 8952, 
  "terns": 8953, 
  "confiden@@": 8954, 
  "Heinz": 8955, 
  "opp@@": 8956, 
  "ett@@": 8957, 
  "unwiel@@": 8958, 
  "minis@@": 8959, 
  "reconci@@": 8960, 
  "Kar@@": 8961, 
  "Alleanza": 8962, 
  "Nazionale": 8963, 
  "Bel@@": 8964, 
  "worl@@": 8965, 
  "dise@@": 8966, 
  "garch@@": 8967, 
  "Zimeray": 8968, 
  "Padani@@": 8969, 
  "mel@@": 8970, 
  "2005": 8971, 
  "Hicks": 8972, 
  "enlar@@": 8973, 
  "ologi@@": 8974, 
  "nally": 8975, 
  "fragi@@": 8976, 
  "Mon@@": 8977, 
  "Govern@@": 8978, 
  "scientifiques": 8979, 
  "inclu@@": 8980, 
  "chan@@": 8981, 
  "equival@@": 8982, 
  "tiously": 8983, 
  "tle": 8984, 
  "Speroni": 8985, 
  "loqu@@": 8986, 
  "sory": 8987, 
  "sis": 8988, 
  "nerv@@": 8989, 
  "tier": 8990, 
  "Fren@@": 8991, 
  "ee": 8992, 
  "Bush": 8993, 
  "stream@@": 8994, 
  "lined": 8995, 
  "pharmaceutiques": 8996, 
  "weak@@": 8997, 
  "pharmaceutical": 8998, 
  "Segni": 8999, 
  "cher@@": 9000, 
  "prac@@": 9001, 
  "lit@@": 9002, 
  "ow@@": 9003, 
  "Dell": 9004, 
  "Alba": 9005, 
  "sent@@": 9006, 
  "ini@@": 9007, 
  "discipl@@": 9008, 
  "Dam": 9009, 
  "Carlo": 9010, 
  "Martini": 9011, 
  "2000@@": 9012, 
  "pers": 9013, 
  "enem@@": 9014, 
  "omit@@": 9015, 
  "person@@": 9016, 
  "Ford": 9017, 
  "deb@@": 9018, 
  "ilit@@": 9019, 
  "wall": 9020, 
  "draw@@": 9021, 
  "Henry": 9022, 
  "Invest@@": 9023, 
  "diff@@": 9024, 
  "consensu@@": 9025, 
  "sted": 9026, 
  "milli@@": 9027, 
  "ateg@@": 9028, 
  "restric@@": 9029, 
  "ber@@": 9030, 
  "stag@@": 9031, 
  "ration@@": 9032, 
  "reno@@": 9033, 
  "alisations": 9034, 
  "Monopoly": 9035, 
  "forec@@": 9036, 
  "Monsign@@": 9037, 
  "alli@@": 9038, 
  "Mil@@": 9039, 
  "ve-@@": 9040, 
  "horizont@@": 9041, 
  "Belgi@@": 9042, 
  "gui@@": 9043, 
  "lor@@": 9044, 
  "ries": 9045, 
  "comb@@": 9046, 
  "Memo@@": 9047, 
  "Monnet": 9048, 
  "trade-@@": 9049, 
  "enfor@@": 9050, 
  "Breyer": 9051, 
  "Frau": 9052, 
  "seu@@": 9053, 
  "bish@@": 9054, 
  "auto@@": 9055, 
  "cratic": 9056, 
  "reve@@": 9057, 
  "sab@@": 9058, 
  "ols": 9059, 
  "conveni@@": 9060, 
  "compet@@": 9061, 
  "sit@@": 9062, 
  "neces@@": 9063, 
  "lags": 9064, 
  "Soci@@": 9065, 
  "Arch@@": 9066, 
  "ener@@": 9067, 
  "Marie": 9068, 
  "ABC": 9069, 
  "409": 9070, 
  "olk@@": 9071, 
  "Norfolk": 9072, 
  "Klima": 9073, 
  "overla@@": 9074, 
  "1257": 9075, 
  "slu@@": 9076, 
  "velas": 9077, 
  "tunnel": 9078, 
  "no-@@": 9079, 
  "Techni@@": 9080, 
  "Offi@@": 9081, 
  "LEONARDO": 9082, 
  "guaran@@": 9083, 
  "5122": 9084, 
  "382": 9085, 
  "lit": 9086, 
  "vements": 9087, 
  "Anna": 9088, 
  "Diamantopoulou": 9089, 
  "handle": 9090, 
  "redundan@@": 9091, 
  "than@@": 9092, 
  "C.": 9093, 
  "Si@@": 9094, 
  "tiveness": 9095, 
  "Poul": 9096, 
  "cryst@@": 9097, 
  "Tunnel": 9098, 
  "auern": 9099, 
  "Suff@@": 9100, 
  "clo@@": 9101, 
  "350": 9102, 
  "idealis@@": 9103, 
  "explic@@": 9104, 
  "Monika": 9105, 
  "Eneko": 9106, 
  "Landaburu": 9107, 
  "milit@@": 9108, 
  "homo@@": 9109, 
  "CORE": 9110, 
  "Bedfordshire": 9111, 
  "Hertfordshire": 9112, 
  "Essex": 9113, 
  "NOW": 9114, 
  "Ess@@": 9115, 
  "Suffolk": 9116, 
  "wer@@": 9117, 
  "CF@@": 9118, 
  "skil@@": 9119, 
  "González": 9120, 
  "Acc@@": 9121, 
  "perfec@@": 9122, 
  "Díez": 9123, 
  "non@@": 9124, 
  "sensi@@": 9125, 
  "Yarmouth": 9126, 
  "Harwich": 9127, 
  "vise": 9128, 
  "hell": 9129, 
  "unroman@@": 9130, 
  "Caroline": 9131, 
  "resol@@": 9132, 
  "dings": 9133, 
  "wat@@": 9134, 
  "mer@@": 9135, 
  "compromis@@": 9136, 
  "Bar@@": 9137, 
  "Beveridge": 9138, 
  "hous@@": 9139, 
  "eh@@": 9140, 
  "gnet": 9141, 
  "demographi@@": 9142, 
  "prag@@": 9143, 
  "ines@@": 9144, 
  "stipul@@": 9145, 
  "tisation": 9146, 
  "Sou@@": 9147, 
  "Euro@@": 9148, 
  "Nor@@": 9149, 
  "tably": 9150, 
  "ter@@": 9151, 
  "citizen@@": 9152, 
  "ie@@": 9153, 
  "life@@": 9154, 
  "St": 9155, 
  "Curie": 9156, 
  "ey@@": 9157, 
  "roman@@": 9158, 
  "aval@@": 9159, 
  "lament": 9160, 
  "nest@@": 9161, 
  "enth@@": 9162, 
  "tives": 9163, 
  "testi@@": 9164, 
  "sto@@": 9165, 
  "contac@@": 9166, 
  "obile": 9167, 
  "autom@@": 9168, 
  "Trident": 9169, 
  "bottom@@": 9170, 
  "Ghilardotti": 9171, 
  "unab@@": 9172, 
  "asts": 9173, 
  "usi@@": 9174, 
  "whol@@": 9175, 
  "prophe@@": 9176, 
  "ale": 9177, 
  "utes": 9178, 
  "operative": 9179, 
  "Marshall": 9180, 
  "Ukraine": 9181, 
  "stat@@": 9182, 
  "iso@@": 9183, 
  "duty-@@": 9184, 
  "cour@@": 9185, 
  "ere@@": 9186, 
  "tox@@": 9187, 
  "peti@@": 9188, 
  "ft@@": 9189, 
  "Blak": 9190, 
  "tioned": 9191, 
  "ka@@": 9192, 
  "Is@@": 9193, 
  "Shet@@": 9194, 
  "Ira@@": 9195, 
  "Braer": 9196, 
  "Empress": 9197, 
  "q": 9198, 
  "Stewart": 9199, 
  "Ken": 9200, 
  "irds": 9201, 
  "notic@@": 9202, 
  "discus@@": 9203, 
  "any@@": 9204, 
  "arrogan@@": 9205, 
  "kas": 9206, 
  "wick@@": 9207, 
  "too@@": 9208, 
  "aff@@": 9209, 
  "Amos": 9210, 
  "lands": 9211, 
  "seas": 9212, 
  "teur": 9213, 
  "Wi@@": 9214, 
  "compas@@": 9215, 
  "194": 9216, 
  "Petroleum": 9217, 
  "Ne@@": 9218, 
  "ision": 9219, 
  "tar": 9220, 
  "hat@@": 9221, 
  "ach": 9222, 
  "Noirmoutier": 9223, 
  "flag@@": 9224, 
  "anim@@": 9225, 
  "guil@@": 9226, 
  ",000": 9227, 
  "00@@": 9228, 
  "Birds": 9229, 
  "Society": 9230, 
  "befallen": 9231, 
  "of-@@": 9232, 
  "oner@@": 9233, 
  "Da@@": 9234, 
  "mption": 9235, 
  "Alpes": 9236, 
  "Salafranca": 9237, 
  "dan@@": 9238, 
  "realis@@": 9239, 
  "noti@@": 9240, 
  "ges@@": 9241, 
  "Russi@@": 9242, 
  "stly": 9243, 
  "postp@@": 9244, 
  "Rhô@@": 9245, 
  "fig@@": 9246, 
  "ement": 9247, 
  "83": 9248, 
  "Auvergne": 9249, 
  "Loire": 9250, 
  "Ardennes": 9251, 
  "sovereign@@": 9252, 
  "Champ@@": 9253, 
  "agna": 9254, 
  "Plantation": 9255, 
  "tiful": 9256, 
  "Lutte": 9257, 
  "vrière": 9258, 
  "discour@@": 9259, 
  "Far@@": 9260, 
  "Shara": 9261, 
  "05": 9262, 
  "nose": 9263, 
  "ron": 9264, 
  "3-@@": 9265, 
  "199@@": 9266, 
  "indefin@@": 9267, 
  "Am@@": 9268, 
  "primi@@": 9269, 
  "Paddington": 9270, 
  "dor": 9271, 
  "spokes@@": 9272, 
  "fare": 9273, 
  "weal@@": 9274, 
  "corpor@@": 9275, 
  "taneously": 9276, 
  "245": 9277, 
  "ue": 9278, 
  "inhabit@@": 9279, 
  "ands": 9280, 
  "170": 9281, 
  "1969": 9282, 
  "Ri@@": 9283, 
  "occup@@": 9284, 
  "mination": 9285, 
  "inspec@@": 9286, 
  "vul@@": 9287, 
  "annu@@": 9288, 
  "Balfour": 9289, 
  "corn@@": 9290, 
  "Nazis": 9291, 
  "soll": 9292, 
  "lim@@": 9293, 
  "Alger@@": 9294, 
  "awar@@": 9295, 
  "shipo@@": 9296, 
  "Wilhelmshaven": 9297, 
  "fer": 9298, 
  "rigor@@": 9299, 
  "monitor@@": 9300, 
  "Ma@@": 9301, 
  "ories": 9302, 
  "Quecedo": 9303, 
  "ghts": 9304, 
  "Hebron": 9305, 
  "mail": 9306, 
  "hulled": 9307, 
  "foun@@": 9308, 
  "euro@@": 9309, 
  "chap@@": 9310, 
  "cho@@": 9311, 
  "ev@@": 9312, 
  "ater": 9313, 
  "UNIFIL": 9314, 
  "sever@@": 9315, 
  "coura@@": 9316, 
  "tled": 9317, 
  "ress": 9318, 
  "Marseil@@": 9319, 
  "1917": 9320, 
  "Ja@@": 9321, 
  "thin@@": 9322, 
  "Bravery": 9323, 
  "Olympic": 9324, 
  "dun@@": 9325, 
  "I@@": 9326, 
  "edly": 9327, 
  "utter": 9328, 
  "Vendée": 9329, 
  "Resolu@@": 9330, 
  "pain": 9331, 
  "Arab@@": 9332, 
  "rable": 9333, 
  "332": 9334, 
  "248": 9335, 
  "Morbihan": 9336, 
  "noire": 9337, 
  "Marée": 9338, 
  "Besque": 9339, 
  "vet@@": 9340, 
  "Haven": 9341, 
  "Gino": 9342, 
  "Tanio": 9343, 
  "ror": 9344, 
  "pol": 9345, 
  "1948": 9346, 
  "recommen@@": 9347, 
  "tou@@": 9348, 
  "second-@@": 9349, 
  "brie@@": 9350, 
  "agen@@": 9351, 
  "ap": 9352, 
  "hy@@": 9353, 
  "innov@@": 9354, 
  "bottom": 9355, 
  "tics": 9356, 
  "mus@@": 9357, 
  "Palest@@": 9358, 
  "alt": 9359, 
  "Atlantique": 9360, 
  "Lo@@": 9361, 
  "lia@@": 9362, 
  "Bremen": 9363, 
  "Oberbayern": 9364, 
  "hamper@@": 9365, 
  "suspec@@": 9366, 
  "rein": 9367, 
  "critic@@": 9368, 
  "publ@@": 9369, 
  "classi@@": 9370, 
  "Europ@@": 9371, 
  "Wiebenga": 9372, 
  "Kees": 9373, 
  "cross@@": 9374, 
  "dent": 9375, 
  "ites": 9376, 
  "ght@@": 9377, 
  "thou@@": 9378, 
  "tful": 9379, 
  "anticip@@": 9380, 
  "eboard": 9381, 
  "recep@@": 9382, 
  "-state": 9383, 
  "pole": 9384, 
  "Inter@@": 9385, 
  "2000-@@": 9386, 
  "Dru@@": 9387, 
  "Mat@@": 9388, 
  "Mu@@": 9389, 
  "imit@@": 9390, 
  "Qu@@": 9391, 
  "Calvin@@": 9392, 
  "Luther@@": 9393, 
  "Te@@": 9394, 
  "Pur@@": 9395, 
  "sound@@": 9396, 
  "tioning": 9397, 
  "presiden@@": 9398, 
  "cies": 9399, 
  "Chiquita": 9400, 
  "FBI": 9401, 
  "pris@@": 9402, 
  "danger@@": 9403, 
  "distribu@@": 9404, 
  "artic@@": 9405, 
  "Peake": 9406, 
  "52": 9407, 
  "Boetticher": 9408, 
  "repres@@": 9409, 
  "power@@": 9410, 
  "pon@@": 9411, 
  "terri@@": 9412, 
  "dau@@": 9413, 
  "rejec@@": 9414, 
  "auctoritas": 9415, 
  "ende@@": 9416, 
  "derog@@": 9417, 
  "susta@@": 9418, 
  "cir@@": 9419, 
  "cus": 9420, 
  "iden@@": 9421, 
  "tholi@@": 9422, 
  "Kartellamt": 9423, 
  "Ankara": 9424, 
  "Budapest": 9425, 
  "AF@@": 9426, 
  "sla@@": 9427, 
  "modern@@": 9428, 
  "amp@@": 9429, 
  "rendering": 9430, 
  "materi@@": 9431, 
  "ste": 9432, 
  "prefer@@": 9433, 
  "crimin@@": 9434, 
  "susp@@": 9435, 
  "Gemelli": 9436, 
  "Roissy": 9437, 
  "eigh@@": 9438, 
  "Conakry": 9439, 
  "surro@@": 9440, 
  "barbar@@": 9441, 
  "ophob@@": 9442, 
  "restra@@": 9443, 
  "impro@@": 9444, 
  "Huhne": 9445, 
  "arisation": 9446, 
  "lum": 9447, 
  "atient": 9448, 
  "ells": 9449, 
  "Darmstadt": 9450, 
  "A5-@@": 9451, 
  "Urban": 9452, 
  "choo@@": 9453, 
  "transi@@": 9454, 
  "Watson": 9455, 
  "Dan@@": 9456, 
  "question@@": 9457, 
  "see@@": 9458, 
  "0105": 9459, 
  "sse@@": 9460, 
  "0004": 9461, 
  "calculation": 9462, 
  "OISIN": 9463, 
  "SIS": 9464, 
  "0743": 9465, 
  "0101": 9466, 
  "Situation": 9467, 
  "Periodi@@": 9468, 
  "0344": 9469, 
  "accu@@": 9470, 
  "rud@@": 9471, 
  "fat": 9472, 
  "destro@@": 9473, 
  "520": 9474, 
  "Antwer@@": 9475, 
  "Hamburg": 9476, 
  "Hadera": 9477, 
  "urban@@": 9478, 
  "fen@@": 9479, 
  "rin@@": 9480, 
  "Extra@@": 9481, 
  "jo@@": 9482, 
  "essing": 9483, 
  "jun@@": 9484, 
  "posing": 9485, 
  "encoura@@": 9486, 
  "ld": 9487, 
  "Antonio": 9488, 
  "enthusias@@": 9489, 
  "anders": 9490, 
  "0083": 9491, 
  "0158": 9492, 
  "tum": 9493, 
  "yon@@": 9494, 
  "eviden@@": 9495, 
  "Organis@@": 9496, 
  "Cri@@": 9497, 
  "ber": 9498, 
  "absta@@": 9499, 
  "xity": 9500, 
  "zu@@": 9501, 
  "scenari@@": 9502, 
  "os": 9503, 
  "0352": 9504, 
  "Delgado": 9505, 
  "il-@@": 9506, 
  "obles": 9507, 
  "juris@@": 9508, 
  "Sebastian": 9509, 
  "San": 9510, 
  "1977": 9511, 
  "distur@@": 9512, 
  "Trans@@": 9513, 
  "stol@@": 9514, 
  "ECOFIN": 9515, 
  "Jumbo": 9516, 
  "0018": 9517, 
  "0652": 9518, 
  "728": 9519, 
  "0090": 9520, 
  "0212": 9521, 
  "0113": 9522, 
  "138": 9523, 
  "133": 9524, 
  "advo@@": 9525, 
  "EIB": 9526, 
  "Cu@@": 9527, 
  "oms": 9528, 
  "bility": 9529, 
  "effec@@": 9530, 
  "fes@@": 9531, 
  "urgen@@": 9532, 
  "diver@@": 9533, 
  "Galeote": 9534, 
  "Lloyds": 9535, 
  "ab": 9536, 
  "195": 9537, 
  "burg": 9538, 
  "-European": 9539, 
  "Un@@": 9540, 
  "ommis@@": 9541, 
  "Rojo": 9542, 
  "Izquierdo": 9543, 
  "Casaca": 9544, 
  "stac@@": 9545, 
  "enshr@@": 9546, 
  "487": 9547, 
  "aging": 9548, 
  "pression": 9549, 
  "les@@": 9550, 
  "Rom@@": 9551, 
  "4.2": 9552, 
  "Art.": 9553, 
  "paradoxi@@": 9554, 
  "Anti@@": 9555, 
  "wheelch@@": 9556, 
  "assist@@": 9557, 
  "H-@@": 9558, 
  "0006": 9559, 
  "Pla@@": 9560, 
  "temp@@": 9561, 
  "ech@@": 9562, 
  "hesit@@": 9563, 
  "scienti@@": 9564, 
  "conditio": 9565, 
  "SEM": 9566, 
  "privileg@@": 9567, 
  "abinets": 9568, 
  "whistle-@@": 9569, 
  "resign@@": 9570, 
  "0": 9571, 
  "68": 9572, 
  "dedi@@": 9573, 
  "bri@@": 9574, 
  "..": 9575, 
  "Folketing": 9576, 
  "satis@@": 9577, 
  "vil@@": 9578, 
  "Camre": 9579, 
  "Human@@": 9580, 
  "applau@@": 9581, 
  "allevi@@": 9582, 
  "ction": 9583, 
  "predi@@": 9584, 
  "Istanbul": 9585, 
  "ton": 9586, 
  "omes": 9587, 
  "aspi@@": 9588, 
  "NGO": 9589, 
  "ne": 9590, 
  "stan": 9591, 
  "az@@": 9592, 
  "K@@": 9593, 
  "Staes": 9594, 
  "ority": 9595, 
  "lenni@@": 9596, 
  "Barnhill": 9597, 
  "Landis": 9598, 
  "78": 9599, 
  "pin@@": 9600, 
  "ording": 9601, 
  "ack": 9602, 
  "54": 9603, 
  "SYN": 9604, 
  "0318": 9605, 
  "0715": 9606, 
  "06@@": 9607, 
  "justifi@@": 9608, 
  "socio-@@": 9609, 
  "discrimin@@": 9610, 
  "Langenhagen": 9611, 
  "vali@@": 9612, 
  "ctures": 9613, 
  "greements": 9614, 
  "disa@@": 9615, 
  "rati@@": 9616, 
  "evalu@@": 9617, 
  "puter@@": 9618, 
  "ine@@": 9619, 
  "erst@@": 9620, 
  "belon@@": 9621, 
  "ally-@@": 9622, 
  "vable": 9623, 
  "ommission@@": 9624, 
  "anxi@@": 9625, 
  "Mulder": 9626, 
  "Michiel": 9627, 
  "sten@@": 9628, 
  "hun@@": 9629, 
  "ing-down": 9630, 
  "investig@@": 9631, 
  "Audi@@": 9632, 
  "ther": 9633, 
  "water@@": 9634, 
  "fossi@@": 9635, 
  "cem@@": 9636, 
  "leak@@": 9637, 
  "chann@@": 9638, 
  "stric@@": 9639, 
  "ada@@": 9640, 
  "stin@@": 9641, 
  "neutral": 9642, 
  "budsman": 9643, 
  "rie@@": 9644, 
  "abol@@": 9645, 
  "Bri@@": 9646, 
  "Dut@@": 9647, 
  "decentr@@": 9648, 
  "clear@@": 9649, 
  "prev@@": 9650, 
  "exagger@@": 9651, 
  "sage": 9652, 
  "where@@": 9653, 
  "gent": 9654, 
  "intransi@@": 9655, 
  "warn@@": 9656, 
  "iners": 9657, 
  "exam@@": 9658, 
  "Leonardo": 9659, 
  "indepen@@": 9660, 
  "control@@": 9661, 
  "stam@@": 9662, 
  "region@@": 9663, 
  "prescri@@": 9664, 
  "dischar@@": 9665, 
  "volun@@": 9666, 
  "moment@@": 9667, 
  "fairer": 9668, 
  "promo@@": 9669, 
  "val@@": 9670, 
  "ase": 9671, 
  "hol": 9672, 
  "tax-@@": 9673, 
  "arily": 9674, 
  "President-@@": 9675, 
  "chard": 9676, 
  "vigor@@": 9677, 
  "Middelhoek": 9678, 
  "diamet@@": 9679, 
  "gnant": 9680, 
  "mind@@": 9681, 
  "Budget": 9682, 
  "run@@": 9683, 
  "head@@": 9684, 
  "insti@@": 9685, 
  "Pomés": 9686, 
  "gle@@": 9687, 
  "le-@@": 9688, 
  "Fle@@": 9689, 
  "rand@@": 9690, 
  "han@@": 9691, 
  "lass@@": 9692, 
  "GBP": 9693, 
  "apolog@@": 9694, 
  "upheav@@": 9695, 
  "nom@@": 9696, 
  "ED": 9697, 
  "EPP@@": 9698, 
  "ry": 9699, 
  "alous": 9700, 
  "av@@": 9701, 
  "ore": 9702, 
  "peri@@": 9703, 
  "trau@@": 9704, 
  "Berg": 9705, 
  "bed@@": 9706, 
  "five-@@": 9707, 
  "vals": 9708, 
  "efully": 9709, 
  "some@@": 9710, 
  "Fo@@": 9711, 
  "hef@@": 9712, 
  "120": 9713, 
  "of@@": 9714, 
  "yl@@": 9715, 
  "triumph@@": 9716, 
  "pt": 9717, 
  "tag": 9718, 
  "tin@@": 9719, 
  "repa@@": 9720, 
  "log@@": 9721, 
  "phy@@": 9722, 
  "occurr@@": 9723, 
  "sincer@@": 9724, 
  "trou@@": 9725, 
  "860": 9726, 
  "dol@@": 9727, 
  "dam@@": 9728, 
  "-building": 9729, 
  "ctions": 9730, 
  "hr@@": 9731, 
  "mer": 9732, 
  "iously": 9733, 
  "tro@@": 9734, 
  "Venezuela": 9735, 
  "Fontaine": 9736, 
  "Bordeaux": 9737, 
  "Peter": 9738, 
  "mework": 9739, 
  "ake": 9740, 
  "earthqu@@": 9741, 
  "encies": 9742, 
  "risen": 9743, 
  "itly": 9744, 
  "implic@@": 9745, 
  "quiries": 9746, 
  "stuff": 9747, 
  "nat@@": 9748, 
  "ez": 9749, 
  "tical": 9750, 
  "pest": 9751, 
  "1976": 9752, 
  "vention": 9753, 
  "MARPOL": 9754, 
  "SOLAS": 9755, 
  "quick@@": 9756, 
  "pointments": 9757, 
  "Romani@@": 9758, 
  "enger": 9759, 
  "pass@@": 9760, 
  "Urquiola": 9761, 
  "hypothe@@": 9762, 
  "enor@@": 9763, 
  "ried": 9764, 
  "dep@@": 9765, 
  "neighbour@@": 9766, 
  "pessimis@@": 9767, 
  "Neuwerk": 9768, 
  "multi@@": 9769, 
  "De@@": 9770, 
  "istently": 9771, 
  "number@@": 9772, 
  "eter": 9773, 
  "duous": 9774, 
  "Versailles": 9775, 
  "Pal@@": 9776, 
  "park": 9777, 
  "ical": 9778, 
  "ped": 9779, 
  "G": 9780, 
  "FI@@": 9781, 
  "Guatemala": 9782, 
  "hurrican@@": 9783, 
  "trav@@": 9784, 
  "forestation": 9785, 
  "stry": 9786, 
  "Fore@@": 9787, 
  "preci@@": 9788, 
  "rele@@": 9789, 
  "ues": 9790, 
  "urity": 9791, 
  "ield": 9792, 
  "sank": 9793, 
  "mit": 9794, 
  "sionally": 9795, 
  "station@@": 9796, 
  "pel@@": 9797, 
  "Bösch": 9798, 
  "secre@@": 9799, 
  "frame": 9800, 
  "tern": 9801, 
  "inhal@@": 9802, 
  "cou@@": 9803, 
  "Slo@@": 9804, 
  "bid@@": 9805, 
  "install@@": 9806, 
  "ot": 9807, 
  "ada": 9808, 
  "Can@@": 9809, 
  "We@@": 9810, 
  "Adana": 9811, 
  "Ecemis": 9812, 
  "ang": 9813, 
  "ups": 9814, 
  "Himal@@": 9815, 
  "ay@@": 9816, 
  "bitten": 9817, 
  "graphy": 9818, 
  "io@@": 9819, 
  "tob@@": 9820, 
  "dh@@": 9821, 
  "Bud@@": 9822, 
  "Hol@@": 9823, 
  "compassion": 9824, 
  "kens": 9825, 
  "Hilton": 9826, 
  "Tang": 9827, 
  "junction": 9828, 
  "immen@@": 9829, 
  "Imp@@": 9830, 
  "propor@@": 9831, 
  "candi@@": 9832, 
  "asting": 9833, 
  "Director@@": 9834, 
  "ommissioning": 9835, 
  "Karlsson": 9836, 
  "bs": 9837, 
  "spi@@": 9838, 
  "eminent": 9839, 
  "xi@@": 9840, 
  "eil@@": 9841, 
  "surv@@": 9842, 
  "airs": 9843, 
  "deck@@": 9844, 
  "tees": 9845, 
  "Sci@@": 9846, 
  "cer@@": 9847, 
  "ceful": 9848, 
  "Thessaloniki": 9849, 
  "trol@@": 9850, 
  "resu@@": 9851, 
  "BP": 9852, 
  "Spencer": 9853, 
  "Tom": 9854, 
  "performan@@": 9855, 
  "tig@@": 9856, 
  "up-to-@@": 9857, 
  "ping": 9858, 
  "hygi@@": 9859, 
  "ene": 9860, 
  "In@@": 9861, 
  "bench@@": 9862, 
  "Purvis": 9863, 
  "essions": 9864, 
  "oll@@": 9865, 
  "Myller": 9866, 
  "cements": 9867, 
  "pronoun@@": 9868, 
  "bedro@@": 9869, 
  "ode": 9870, 
  "alls": 9871, 
  "Thors": 9872, 
  "thema": 9873, 
  "dance": 9874, 
  "unds": 9875, 
  "infec@@": 9876, 
  "plane": 9877, 
  "Palermo": 9878, 
  "pursu@@": 9879, 
  "5-@@": 9880, 
  "rations": 9881, 
  "Dec@@": 9882, 
  "stim@@": 9883, 
  "well@@": 9884, 
  "mar": 9885, 
  "revit@@": 9886, 
  "ph@@": 9887, 
  "thal@@": 9888, 
  "concent@@": 9889, 
  "trum": 9890, 
  "Elisabeth": 9891, 
  "hormon@@": 9892, 
  "agre@@": 9893, 
  "strategi@@": 9894, 
  "Schörling": 9895, 
  "tations": 9896, 
  "ould": 9897, 
  "hosp@@": 9898, 
  "Goodwill": 9899, 
  "Rio": 9900, 
  "ultra@@": 9901, 
  "selec@@": 9902, 
  "altern@@": 9903, 
  "R": 9904, 
  "fr@@": 9905, 
  "fellow-@@": 9906, 
  "flir@@": 9907, 
  "ison": 9908, 
  "ê@@": 9909, 
  "tally": 9910, 
  "rus@@": 9911, 
  "Vid@@": 9912, 
  "Quadras": 9913, 
  "dish": 9914, 
  "é": 9915, 
  "Ber@@": 9916, 
  "undeni@@": 9917, 
  "Wel@@": 9918, 
  "third-@@": 9919, 
  "evi@@": 9920, 
  "bio": 9921, 
  "tion@@": 9922, 
  "ny": 9923, 
  "masoch@@": 9924, 
  "Hague": 9925, 
  "lean@@": 9926, 
  "plu@@": 9927, 
  "tel@@": 9928, 
  "uniting": 9929, 
  "imm@@": 9930, 
  "une": 9931, 
  "mire": 9932, 
  "gri@@": 9933, 
  "frag@@": 9934, 
  "D": 9935, 
  "56": 9936, 
  "prohibit@@": 9937, 
  "dama@@": 9938, 
  "sceptics": 9939, 
  "consci@@": 9940, 
  "formul@@": 9941, 
  "inadequ@@": 9942, 
  "ern": 9943, 
  "Kaufmann": 9944, 
  "ade": 9945, 
  "lian": 9946, 
  "exerc@@": 9947, 
  "istent": 9948, 
  "14@@": 9949, 
  "sil@@": 9950, 
  "fruit@@": 9951, 
  "advan@@": 9952, 
  "schedul@@": 9953, 
  "rol@@": 9954, 
  "invest@@": 9955, 
  "und-@@": 9956, 
  "ignor@@": 9957, 
  "gne": 9958, 
  "ini": 9959, 
  "ensu@@": 9960, 
  "tis@@": 9961, 
  "constra@@": 9962, 
  "Or@@": 9963, 
  "US@@": 9964, 
  "correctness": 9965, 
  "Onesta": 9966, 
  "ble-@@": 9967, 
  "Dutroux": 9968, 
  "Seppänen": 9969, 
  "Bradbourn": 9970, 
  "tten": 9971, 
  "rac@@": 9972, 
  "prise": 9973, 
  "Je@@": 9974, 
  "prerog@@": 9975, 
  "comprehen@@": 9976, 
  "struc@@": 9977, 
  "provin@@": 9978, 
  "cial": 9979, 
  "cham@@": 9980, 
  "bers": 9981, 
  "alogue": 9982, 
  "deri@@": 9983, 
  "fascist": 9984, 
  "anti": 9985, 
  "Ribeiro": 9986, 
  "Castro": 9987, 
  "atedly": 9988, 
  "Adige": 9989, 
  "scri@@": 9990, 
  "ans@@": 9991, 
  "tho@@": 9992, 
  "existen@@": 9993, 
  "tial": 9994, 
  "ordin@@": 9995, 
  "strations": 9996, 
  "bol@@": 9997, 
  "stered": 9998, 
  "announ@@": 9999, 
  "exten@@": 10000, 
  "continu@@": 10001, 
  "amoun@@": 10002, 
  "cla@@": 10003, 
  "Puerta": 10004, 
  "Stal@@": 10005, 
  "Alto": 10006, 
  "antly": 10007, 
  "infra@@": 10008, 
  "brother": 10009, 
  "pac@@": 10010, 
  "authorit@@": 10011, 
  "lapse": 10012, 
  "disbur@@": 10013, 
  "zi": 10014, 
  "Alp@@": 10015, 
  "Auschwitz": 10016, 
  "fasc@@": 10017, 
  "Wol@@": 10018, 
  "stir@@": 10019, 
  "tan": 10020, 
  "Konrad": 10021, 
  "Adenauer": 10022, 
  "â@@": 10023, 
  "bend": 10024, 
  "Bet@@": 10025, 
  "Pop@@": 10026, 
  "chment": 10027, 
  "day-@@": 10028, 
  "distan@@": 10029, 
  "shif@@": 10030, 
  "tish": 10031, 
  "och@@": 10032, 
  "sprin@@": 10033, 
  "ath@@": 10034, 
  "irrepar@@": 10035, 
  "advers@@": 10036, 
  "aries": 10037, 
  "grav@@": 10038, 
  "20@@": 10039, 
  "lied": 10040, 
  "Represent@@": 10041, 
  "Sichrovsky": 10042, 
  "dr@@": 10043, 
  "consu@@": 10044, 
  "lust": 10045, 
  "dispar@@": 10046, 
  "que": 10047, 
  "dimin@@": 10048, 
  "rei@@": 10049, 
  "oni@@": 10050, 
  "part-@@": 10051, 
  "don@@": 10052, 
  "disgra@@": 10053, 
  "thers": 10054, 
  "energ@@": 10055, 
  "0169": 10056, 
  "itt@@": 10057, 
  "valu@@": 10058, 
  "oun@@": 10059, 
  "gest": 10060, 
  "bit@@": 10061, 
  "ulti@@": 10062, 
  "rich@@": 10063, 
  "matum": 10064, 
  "chair@@": 10065, 
  "fle@@": 10066, 
  "ºC": 10067, 
  "40@@": 10068, 
  "wered": 10069, 
[...]
