{
  "eos": 0, 
  "UNK": 1, 
  ",": 2, 
  "die": 3, 
  ".": 4, 
  "der": 5, 
  "und": 6, 
  "in": 7, 
  "zu": 8, 
  "den": 9, 
  "wir": 10, 
  "das": 11, 
  "daß": 12, 
  "ich": 13, 
  "für": 14, 
  "von": 15, 
  "ist": 16, 
  "nicht": 17, 
  "es": 18, 
  "auf": 19, 
  "eine": 20, 
  "des": 21, 
  "im": 22, 
  "werden": 23, 
  "auch": 24, 
  "mit": 25, 
  "Kommission": 26, 
  "dem": 27, 
  "sich": 28, 
  "ein": 29, 
  "wird": 30, 
  "sind": 31, 
  "wie": 32, 
  "sie": 33, 
  "haben": 34, 
  "-": 35, 
  "hat": 36, 
  "diese": 37, 
  "um": 38, 
  "als": 39, 
  "Herr": 40, 
  "zur": 41, 
  "@-@": 42, 
  "an": 43, 
  "einer": 44, 
  "über": 45, 
  "uns": 46, 
  "bei": 47, 
  "wenn": 48, 
  "aber": 49, 
  "Union": 50, 
  "müssen": 51, 
  "dieser": 52, 
  "möchte": 53, 
  "nach": 54, 
  "Parlament": 55, 
  "einen": 56, 
  "nur": 57, 
  "vor": 58, 
  "so": 59, 
  "muß": 60, 
  "Sie": 61, 
  "können": 62, 
  "Europäischen": 63, 
  "diesem": 64, 
  "noch": 65, 
  "kann": 66, 
  "zum": 67, 
  "aus": 68, 
  "was": 69, 
  "Frau": 70, 
  "sehr": 71, 
  ":": 72, 
  "Präsident": 73, 
  "!": 74, 
  "Bericht": 75, 
  "oder": 76, 
  "dies": 77, 
  "sein": 78, 
  "dieses": 79, 
  "einem": 80, 
  "?": 81, 
  "&quot;": 82, 
  "man": 83, 
  "hier": 84, 
  "durch": 85, 
  "Europa": 86, 
  "Mitgliedstaaten": 87, 
  ")": 88, 
  "er": 89, 
  "mehr": 90, 
  "(": 91, 
  "damit": 92, 
  "wurde": 93, 
  "Frage": 94, 
  "europäischen": 95, 
  "alle": 96, 
  "meine": 97, 
  "denn": 98, 
  "eines": 99, 
  "dann": 100, 
  "heute": 101, 
  "mich": 102, 
  "sondern": 103, 
  "jedoch": 104, 
  "da": 105, 
  "gibt": 106, 
  "ihre": 107, 
  "Herrn": 108, 
  "zwischen": 109, 
  "unsere": 110, 
  "Kollegen": 111, 
  "diesen": 112, 
  "doch": 113, 
  "Rat": 114, 
  "Entwicklung": 115, 
  "am": 116, 
  "mir": 117, 
  "sowie": 118, 
  "geht": 119, 
  "habe": 120, 
  "weil": 121, 
  "Europäische": 122, 
  "bereits": 123, 
  "darauf": 124, 
  "dafür": 125, 
  "deshalb": 126, 
  "unter": 127, 
  "Regionen": 128, 
  "keine": 129, 
  "dazu": 130, 
  "sagen": 131, 
  "anderen": 132, 
  "denen": 133, 
  "unserer": 134, 
  "Präsidentin": 135, 
  "sollten": 136, 
  "EU": 137, 
  "Ihnen": 138, 
  "Maßnahmen": 139, 
  "/": 140, 
  "ganz": 141, 
  "sollte": 142, 
  "gegen": 143, 
  "immer": 144, 
  "vom": 145, 
  "meiner": 146, 
  "Richtlinie": 147, 
  "Fraktion": 148, 
  "Parlaments": 149, 
  "wollen": 150, 
  "jetzt": 151, 
  "also": 152, 
  "einige": 153, 
  "war": 154, 
  "insbesondere": 155, 
  "Bereich": 156, 
  "Rahmen": 157, 
  "Bürger": 158, 
  "nun": 159, 
  "wurden": 160, 
  "Vorschlag": 161, 
  "1999": 162, 
  "bin": 163, 
  "soll": 164, 
  "allem": 165, 
  "ihrer": 166, 
  "ob": 167, 
  "Kommissar": 168, 
  "Programm": 169, 
  "natürlich": 170, 
  "neuen": 171, 
  "wäre": 172, 
  "neue": 173, 
  "daher": 174, 
  "Zeit": 175, 
  "würde": 176, 
  "machen": 177, 
  "Arbeit": 178, 
  "lassen": 179, 
  "ohne": 180, 
  "seine": 181, 
  "Regierungskonferenz": 182, 
  "dabei": 183, 
  "schon": 184, 
  "etwas": 185, 
  "tun": 186, 
  "Zusammenarbeit": 187, 
  "Bedeutung": 188, 
  "Artikel": 189, 
  "bis": 190, 
  "Fall": 191, 
  "viele": 192, 
  "Probleme": 193, 
  "Sicherheit": 194, 
  "betrifft": 195, 
  "2000": 196, 
  "selbst": 197, 
  "Mittel": 198, 
  "zwar": 199, 
  "Ziel": 200, 
  "Initiative": 201, 
  ";": 202, 
  "politischen": 203, 
  "geben": 204, 
  "Thema": 205, 
  "wichtig": 206, 
  "allen": 207, 
  "darüber": 208, 
  "Meinung": 209, 
  "Ausschuß": 210, 
  "europäische": 211, 
  "einmal": 212, 
  "wieder": 213, 
  "Fragen": 214, 
  "ja": 215, 
  "Recht": 216, 
  "Unterstützung": 217, 
  "zwei": 218, 
  "Punkt": 219, 
  "ihren": 220, 
  "Menschen": 221, 
  "Beihilfen": 222, 
  "wirklich": 223, 
  "Debatte": 224, 
  "Kolleginnen": 225, 
  "Erweiterung": 226, 
  "Zusammenhang": 227, 
  "Politik": 228, 
  "Verantwortung": 229, 
  "deren": 230, 
  "andere": 231, 
  "%": 232, 
  "worden": 233, 
  "Unternehmen": 234, 
  "steht": 235, 
  "Tagesordnung": 236, 
  "Programme": 237, 
  "LEADER": 238, 
  "ver@@": 239, 
  "besteht": 240, 
  "kommen": 241, 
  "Jahren": 242, 
  "davon": 243, 
  "nämlich": 244, 
  "bezug": 245, 
  "darf": 246, 
  "viel": 247, 
  "daran": 248, 
  "Europas": 249, 
  "Rolle": 250, 
  "Institutionen": 251, 
  "nationalen": 252, 
  "Problem": 253, 
  "zunächst": 254, 
  "welche": 255, 
  "letzten": 256, 
  "Ebene": 257, 
  "brauchen": 258, 
  "ländlichen": 259, 
  "führen": 260, 
  "ihr": 261, 
  "gegenüber": 262, 
  "stehen": 263, 
  "will": 264, 
  "INTERREG": 265, 
  "Änderungsanträge": 266, 
  "besonders": 267, 
  "Leitlinien": 268, 
  "Jahre": 269, 
  "unterstützen": 270, 
  "wo": 271, 
  "vielen": 272, 
  "während": 273, 
  "Jahr": 274, 
  "Staaten": 275, 
  "wissen": 276, 
  "sollen": 277, 
  "Aussprache": 278, 
  "Zukunft": 279, 
  "liegt": 280, 
  "an@@": 281, 
  "glaube": 282, 
  "Umsetzung": 283, 
  "Präsidentschaft": 284, 
  "Ansicht": 285, 
  "unseren": 286, 
  "sozialen": 287, 
  "politische": 288, 
  "Österreich": 289, 
  "gesagt": 290, 
  "gerade": 291, 
  "stellen": 292, 
  "Herren": 293, 
  "Länder": 294, 
  "Ziele": 295, 
  "un@@": 296, 
  "darum": 297, 
  "nichts": 298, 
  "meines": 299, 
  "großen": 300, 
  "kommt": 301, 
  "Regierung": 302, 
  "Berichterstatter": 303, 
  "seiner": 304, 
  "Abgeordneten": 305, 
  "Wirtschaft": 306, 
  "notwendig": 307, 
  "hoffe": 308, 
  "Möglichkeit": 309, 
  "möglich": 310, 
  "Namen": 311, 
  "Reform": 312, 
  "schaffen": 313, 
  "Rates": 314, 
  "Situation": 315, 
  "ebenso": 316, 
  "Vorschläge": 317, 
  "wirtschaftlichen": 318, 
  "solche": 319, 
  "Lage": 320, 
  "allerdings": 321, 
  "große": 322, 
  "halte": 323, 
  "klar": 324, 
  "Teil": 325, 
  "kein": 326, 
  "Gemeinschaft": 327, 
  "Anwendung": 328, 
  "drei": 329, 
  "gilt": 330, 
  "Land": 331, 
  "Förderung": 332, 
  "Ausdruck": 333, 
  "seit": 334, 
  "nächsten": 335, 
  "darin": 336, 
  "bringen": 337, 
  "Prodi": 338, 
  "halten": 339, 
  "Damen": 340, 
  "Ländern": 341, 
  "außerdem": 342, 
  "ge@@": 343, 
  "weniger": 344, 
  "hinsichtlich": 345, 
  "Ausschusses": 346, 
  "danken": 347, 
  "sowohl": 348, 
  "ten": 349, 
  "angesichts": 350, 
  "Kultur": 351, 
  "beispielsweise": 352, 
  "werde": 353, 
  "finden": 354, 
  "alles": 355, 
  "waren": 356, 
  "sehen": 357, 
  "wichtige": 358, 
  "einigen": 359, 
  "Weise": 360, 
  "dort": 361, 
  "gemacht": 362, 
  "Transparenz": 363, 
  "aller": 364, 
  "erreichen": 365, 
  "System": 366, 
  "gut": 367, 
  "sei": 368, 
  "Kommissarin": 369, 
  "Erachtens": 370, 
  "gemeinsamen": 371, 
  "Schaffung": 372, 
  "unser": 373, 
  "Kontrolle": 374, 
  "Welt": 375, 
  "Standpunkt": 376, 
  "weiter": 377, 
  "en": 378, 
  "er@@": 379, 
  "denke": 380, 
  "dürfen": 381, 
  "einzelnen": 382, 
  "Projekte": 383, 
  "Frauen": 384, 
  "Freiheit": 385, 
  "deutlich": 386, 
  "könnte": 387, 
  "Abstimmung": 388, 
  "URBAN": 389, 
  "Steuer": 390, 
  "meinen": 391, 
  "Kosten": 392, 
  "ihnen": 393, 
  "Dank": 394, 
  "Grundlage": 395, 
  "Entscheidung": 396, 
  "vielleicht": 397, 
  "ebenfalls": 398, 
  "Auswirkungen": 399, 
  "gehen": 400, 
  "dessen": 401, 
  "Ihre": 402, 
  "tragen": 403, 
  "ersten": 404, 
  "Themen": 405, 
  "schließlich": 406, 
  "Raum": 407, 
  "Millionen": 408, 
  "bzw.": 409, 
  "aufgrund": 410, 
  "Art": 411, 
  "Ende": 412, 
  "genau": 413, 
  "Beispiel": 414, 
  "ab": 415, 
  "Hinblick": 416, 
  "sicher": 417, 
  "seinen": 418, 
  "Entschließung": 419, 
  "leider": 420, 
  "Änderungsantrag": 421, 
  "jeder": 422, 
  "k@@": 423, 
  "Aufgabe": 424, 
  "Hilfe": 425, 
  "ein@@": 426, 
  "Weg": 427, 
  "gleichzeitig": 428, 
  "Ver@@": 429, 
  "Gebiete": 430, 
  "te": 431, 
  "erforderlich": 432, 
  "Wettbewerbspolitik": 433, 
  "Region": 434, 
  "nehmen": 435, 
  "Partei": 436, 
  "beiden": 437, 
  "recht": 438, 
  "beim": 439, 
  "Bekämpfung": 440, 
  "verschiedenen": 441, 
  "innerhalb": 442, 
  "fünf": 443, 
  "wer": 444, 
  "Weißbuch": 445, 
  "Euro": 446, 
  "Vertrags": 447, 
  "soziale": 448, 
  "Wort": 449, 
  "Demokratie": 450, 
  "handelt": 451, 
  "keinen": 452, 
  "ihm": 453, 
  "erste": 454, 
  "auf@@": 455, 
  "all": 456, 
  "Erklärung": 457, 
  "Gebiet": 458, 
  "setzen": 459, 
  "bitte": 460, 
  "bisher": 461, 
  "abschließend": 462, 
  "morgen": 463, 
  "ab@@": 464, 
  "gestellt": 465, 
  "Wettbewerb": 466, 
  "1": 467, 
  "Öffentlichkeit": 468, 
  "Umwelt": 469, 
  "Auffassung": 470, 
  "Tatsache": 471, 
  "Grund": 472, 
  "gemeinsame": 473, 
  "Mitteilung": 474, 
  "Kosovo": 475, 
  "indem": 476, 
  "sprechen": 477, 
  "erst": 478, 
  "weiß": 479, 
  "Stellungnahme": 480, 
  "2": 481, 
  "gute": 482, 
  "Programms": 483, 
  "derzeit": 484, 
  "Vertrag": 485, 
  "wichtigen": 486, 
  "besser": 487, 
  "Vorschriften": 488, 
  "EQUAL": 489, 
  "eigenen": 490, 
  "Behörde": 491, 
  "Strukturfonds": 492, 
  "erhalten": 493, 
  "gen": 494, 
  "Beschäftigung": 495, 
  "zu@@": 496, 
  "würden": 497, 
  "Beitrag": 498, 
  "richtig": 499, 
  "statt": 500, 
  "Interessen": 501, 
  "Lösung": 502, 
  "t@@": 503, 
  "weiteren": 504, 
  "zweitens": 505, 
  "Bereichen": 506, 
  "bedeutet": 507, 
  "solchen": 508, 
  "Interesse": 509, 
  "berücksichtigt": 510, 
  "übrigen": 511, 
  "eindeutig": 512, 
  "be@@": 513, 
  "hatte": 514, 
  "weitere": 515, 
  "Verfahren": 516, 
  "gegeben": 517, 
  "gehört": 518, 
  "begrüße": 519, 
  "liebe": 520, 
  "An@@": 521, 
  "Verhandlungen": 522, 
  "Mitgliedstaat": 523, 
  "ihrem": 524, 
  "aus@@": 525, 
  "Konferenz": 526, 
  "bereit": 527, 
  "hatten": 528, 
  "bleiben": 529, 
  "Abgeordnete": 530, 
  "stellt": 531, 
  "getan": 532, 
  "mein": 533, 
  "Rechte": 534, 
  "Gemeinschaftsinitiative": 535, 
  "staatlichen": 536, 
  "Verbraucher": 537, 
  "öffentlichen": 538, 
  "regionalen": 539, 
  "Schutz": 540, 
  "vor@@": 541, 
  "prüfen": 542, 
  "gesamten": 543, 
  "heißt": 544, 
  "Hersteller": 545, 
  "völlig": 546, 
  "macht": 547, 
  "meinem": 548, 
  "Mehrheit": 549, 
  "warum": 550, 
  "wohl": 551, 
  "t": 552, 
  "Möglichkeiten": 553, 
  "Bürgern": 554, 
  "Vertrauen": 555, 
  "eigentlich": 556, 
  "äußerst": 557, 
  "­": 558, 
  "Berichts": 559, 
  "jeden": 560, 
  "findet": 561, 
  "eben": 562, 
  "Gefahr": 563, 
  "wenig": 564, 
  "erinnern": 565, 
  "Behörden": 566, 
  "über@@": 567, 
  "Notwendigkeit": 568, 
  "kurz": 569, 
  "obwohl": 570, 
  "Anfrage": 571, 
  "Form": 572, 
  "weiterhin": 573, 
  "liegen": 574, 
  "Lebensmittelsicherheit": 575, 
  "Antrag": 576, 
  "fordern": 577, 
  "hätte": 578, 
  "lediglich": 579, 
  "Bevölkerung": 580, 
  "unserem": 581, 
  "Ergebnis": 582, 
  "Ergebnisse": 583, 
  "vier": 584, 
  "hinaus": 585, 
  "Gebieten": 586, 
  "Regierungen": 587, 
  "erstens": 588, 
  "Entscheidungen": 589, 
  "bestehen": 590, 
  "Grenzen": 591, 
  "+": 592, 
  "Verträge": 593, 
  "wegen": 594, 
  "gar": 595, 
  "Kommissionspräsident": 596, 
  "angenommen": 597, 
  "Prozeß": 598, 
  "gemeinsam": 599, 
  "hätten": 600, 
  "unterstützt": 601, 
  "Zeitpunkt": 602, 
  "Regionalpolitik": 603, 
  "hin": 604, 
  "Initiativen": 605, 
  "begrüßen": 606, 
  "bekannt": 607, 
  "tatsächlich": 608, 
  "Bestimmungen": 609, 
  "oft": 610, 
  "hingewiesen": 611, 
  "fördern": 612, 
  "Änderung": 613, 
  "Tobin": 614, 
  "bestimmte": 615, 
  "endlich": 616, 
  "europäischer": 617, 
  "wobei": 618, 
  "vertreten": 619, 
  "Vergangenheit": 620, 
  "Informationen": 621, 
  "sogar": 622, 
  "Ihrer": 623, 
  "Jahres": 624, 
  "internationalen": 625, 
  "Vereinigten": 626, 
  "Verbesserung": 627, 
  "könnten": 628, 
  "Verfügung": 629, 
  "arbeiten": 630, 
  "Sache": 631, 
  "ter": 632, 
  "ermöglichen": 633, 
  "Haus": 634, 
  "vorgesehen": 635, 
  "Änderungen": 636, 
  "h.": 637, 
  "Einführung": 638, 
  "dar": 639, 
  "d.": 640, 
  "Bedingungen": 641, 
  "A5": 642, 
  "Haider": 643, 
  "sagte": 644, 
  "Ausrichtung": 645, 
  "Landwirtschaft": 646, 
  "hinweisen": 647, 
  "eren": 648, 
  "leisten": 649, 
  "Antwort": 650, 
  "II": 651, 
  "portugiesischen": 652, 
  "Vertreter": 653, 
  "Autos": 654, 
  "Aufgaben": 655, 
  "geführt": 656, 
  "vorgelegt": 657, 
  "allein": 658, 
  "Punkte": 659, 
  "Menschenrechte": 660, 
  "bitten": 661, 
  "1997": 662, 
  "vergangenen": 663, 
  "ungen": 664, 
  "sicherlich": 665, 
  "portugiesische": 666, 
  "Arbeitslosigkeit": 667, 
  "van": 668, 
  "sorgen": 669, 
  "stärker": 670, 
  "Ihren": 671, 
  "Solidarität": 672, 
  "durchaus": 673, 
  "Erfolg": 674, 
  "weit": 675, 
  "gemäß": 676, 
  "enthalten": 677, 
  "Sicht": 678, 
  "voll": 679, 
  "Gemeinsamen": 680, 
  "erster": 681, 
  "läßt": 682, 
  "erreicht": 683, 
  "Monaten": 684, 
  "Zustimmung": 685, 
  "ung": 686, 
  "Nationen": 687, 
  "verhindern": 688, 
  "vergessen": 689, 
  "berücksichtigen": 690, 
  "unternehmen": 691, 
  "künftig": 692, 
  "finanziellen": 693, 
  "Arbeitnehmer": 694, 
  "treffen": 695, 
  "entschieden": 696, 
  "Binnenmarkt": 697, 
  "Verordnung": 698, 
  "staatliche": 699, 
  "Abgeordneter": 700, 
  "Seite": 701, 
  "Reformen": 702, 
  "zweite": 703, 
  "Berichterstatterin": 704, 
  "wesentlichen": 705, 
  "wirtschaftliche": 706, 
  "gerecht": 707, 
  "Werte": 708, 
  "entwickeln": 709, 
  "angesprochen": 710, 
  "Katastrophe": 711, 
  "Ausführungen": 712, 
  "beitragen": 713, 
  "Nr.": 714, 
  "bewußt": 715, 
  "Verwendung": 716, 
  "unbedingt": 717, 
  "ihn": 718, 
  "stimmen": 719, 
  "verstehen": 720, 
  "Durchführung": 721, 
  "danke": 722, 
  "Sinne": 723, 
  "großer": 724, 
  "Tat": 725, 
  "Frankreich": 726, 
  "einfach": 727, 
  "Gelegenheit": 728, 
  "sch@@": 729, 
  "selbstverständlich": 730, 
  "trotz": 731, 
  "somit": 732, 
  "ziehen": 733, 
  "Reihe": 734, 
  "Hinsicht": 735, 
  "gefordert": 736, 
  "Schwierigkeiten": 737, 
  "Rechts": 738, 
  "fragen": 739, 
  "seinem": 740, 
  "führt": 741, 
  "österreichischen": 742, 
  "Verwaltung": 743, 
  "vorliegenden": 744, 
  "Vorsorgeprinzip": 745, 
  "dadurch": 746, 
  "Gründen": 747, 
  "Bemühungen": 748, 
  "Bereiche": 749, 
  "Arbeitsplätze": 750, 
  "Angelegenheiten": 751, 
  "99": 752, 
  "Diskussion": 753, 
  "gebracht": 754, 
  "zudem": 755, 
  "ge": 756, 
  "möglichst": 757, 
  "Entlastung": 758, 
  "entsprechenden": 759, 
  "Zahl": 760, 
  "fest": 761, 
  "7": 762, 
  "Mitglieder": 763, 
  "freue": 764, 
  "enden": 765, 
  "heutigen": 766, 
  "zweiten": 767, 
  "Richtung": 768, 
  "Kollege": 769, 
  "Uhr": 770, 
  "Schiffe": 771, 
  "Absatz": 772, 
  "konkreten": 773, 
  "b@@": 774, 
  "bleibt": 775, 
  "leben": 776, 
  "zumindest": 777, 
  "gleichen": 778, 
  "1998": 779, 
  "Tätigkeit": 780, 
  "dennoch": 781, 
  "gewährleisten": 782, 
  "Forderung": 783, 
  "Zeitraum": 784, 
  "eingehen": 785, 
  "genommen": 786, 
  "Regelungen": 787, 
  "Woche": 788, 
  "gegenwärtig": 789, 
  "gesamte": 790, 
  "Bedenken": 791, 
  "Integration": 792, 
  "erneut": 793, 
  "Plenum": 794, 
  "kleinen": 795, 
  "g@@": 796, 
  "zurück@@": 797, 
  "Markt": 798, 
  "geschlossen": 799, 
  "Fahrzeuge": 800, 
  "en@@": 801, 
  "allgemeinen": 802, 
  "neuer": 803, 
  "Beifall": 804, 
  "Haltung": 805, 
  "Ansatz": 806, 
  "lokalen": 807, 
  "Aus@@": 808, 
  "Kommissionsmitglied": 809, 
  "folgt": 810, 
  "erwarten": 811, 
  "OLAF": 812, 
  "gesprochen": 813, 
  "übernehmen": 814, 
  "Entwurf": 815, 
  "akzeptieren": 816, 
  "unseres": 817, 
  "entsprechende": 818, 
  "Text": 819, 
  "Fortschritte": 820, 
  "Geld": 821, 
  "Absicht": 822, 
  "scheint": 823, 
  "frage": 824, 
  "ische": 825, 
  "Beziehungen": 826, 
  "Aufmerksamkeit": 827, 
  "sage": 828, 
  "entsprechend": 829, 
  "nimmt": 830, 
  "Angelegenheit": 831, 
  "andererseits": 832, 
  "Ein@@": 833, 
  "Sch@@": 834, 
  "ent@@": 835, 
  "durchgeführt": 836, 
  "in@@": 837, 
  "Globalisierung": 838, 
  "Koordinierung": 839, 
  "diejenigen": 840, 
  "verfügen": 841, 
  "Organe": 842, 
  "offensichtlich": 843, 
  "Grundsatz": 844, 
  "Veränderungen": 845, 
  "neu": 846, 
  "Gesellschaft": 847, 
  "achten": 848, 
  "000": 849, 
  "Beginn": 850, 
  "2006": 851, 
  "ins": 852, 
  "bedarf": 853, 
  "überhaupt": 854, 
  "gestimmt": 855, 
  "wichtigsten": 856, 
  "demokratischen": 857, 
  "Ab@@": 858, 
  "legen": 859, 
  "fast": 860, 
  "Randlage": 861, 
  "Hause": 862, 
  "Amsterdam": 863, 
  "Geschichte": 864, 
  "zahlreiche": 865, 
  "Sinn": 866, 
  "Rechtsvorschriften": 867, 
  "aufgenommen": 868, 
  "jede": 869, 
  "bessere": 870, 
  "besondere": 871, 
  "Grunde": 872, 
  "Agenda": 873, 
  "lange": 874, 
  "schnell": 875, 
  "betroffenen": 876, 
  "Gerichtshof": 877, 
  "vorgeschlagen": 878, 
  "gehören": 879, 
  "Strategie": 880, 
  "meisten": 881, 
  "konzentrieren": 882, 
  "etwa": 883, 
  "Falle": 884, 
  "zweifellos": 885, 
  "Prinzip": 886, 
  "Währung": 887, 
  "6": 888, 
  "darstellt": 889, 
  "Brüssel": 890, 
  "Instrument": 891, 
  "Grundsätze": 892, 
  "tes": 893, 
  "Projekten": 894, 
  "Prioritäten": 895, 
  "besten": 896, 
  "Politiken": 897, 
  "Hulten": 898, 
  "vielmehr": 899, 
  "jedes": 900, 
  "stets": 901, 
  "Ratspräsidentschaft": 902, 
  "10": 903, 
  "umgesetzt": 904, 
  "ende": 905, 
  "Rede": 906, 
  "Leben": 907, 
  "Türkei": 908, 
  "Verkehr": 909, 
  "stark": 910, 
  "Tag": 911, 
  "Fonds": 912, 
  "st@@": 913, 
  "ergreifen": 914, 
  "Dialog": 915, 
  "gab": 916, 
  "Fraktionen": 917, 
  "sechs": 918, 
  "Aspekte": 919, 
  "Auf@@": 920, 
  "letzte": 921, 
  "gern": 922, 
  "unter@@": 923, 
  "Richtlinien": 924, 
  "behandelt": 925, 
  "de": 926, 
  "nochmals": 927, 
  "Analyse": 928, 
  "Anstrengungen": 929, 
  "z@@": 930, 
  "Israel": 931, 
  "gestern": 932, 
  "weder": 933, 
  "konnte": 934, 
  "Raums": 935, 
  "H@@": 936, 
  "Umwelt@@": 937, 
  "befinden": 938, 
  "ert": 939, 
  "Kontrollen": 940, 
  "bestimmten": 941, 
  "4": 942, 
  "B@@": 943, 
  "Vorschlägen": 944, 
  "Dokument": 945, 
  "Effizienz": 946, 
  "S@@": 947, 
  "Sorge": 948, 
  "helfen": 949, 
  "beschlossen": 950, 
  "Inhalt": 951, 
  "feststellen": 952, 
  "e": 953, 
  "nachdem": 954, 
  "Ort": 955, 
  "Vor@@": 956, 
  "Abschluß": 957, 
  "guten": 958, 
  "K@@": 959, 
  "Erika": 960, 
  "verbessern": 961, 
  "Ihr": 962, 
  "ändern": 963, 
  "Monate": 964, 
  "geäußert": 965, 
  "Justiz": 966, 
  "dringend": 967, 
  "Gesundheit": 968, 
  "derartige": 969, 
  "Normen": 970, 
  "Empfehlungen": 971, 
  "Dimension": 972, 
  "Anerkennung": 973, 
  "Problemen": 974, 
  "50": 975, 
  "Frieden": 976, 
  "jeweiligen": 977, 
  "Finanz@@": 978, 
  "verehrte": 979, 
  "Folgen": 980, 
  "Regelung": 981, 
  "erwähnt": 982, 
  "Zweifel": 983, 
  "Beteiligung": 984, 
  "entspricht": 985, 
  "gemeinschaftlichen": 986, 
  "Prüfung": 987, 
  "Einsatz": 988, 
  "anderer": 989, 
  "festgelegt": 990, 
  "politik": 991, 
  "erfolgreich": 992, 
  "äußerster": 993, 
  "entwickelt": 994, 
  "Schritt": 995, 
  "Februar": 996, 
  "bekommen": 997, 
  "dienen": 998, 
  "liche": 999, 
  "Linie": 1000, 
  "Mal": 1001, 
  "Ihrem": 1002, 
  "Irland": 1003, 
  "konkrete": 1004, 
  "beginnen": 1005, 
  "Qualität": 1006, 
  "braucht": 1007, 
  "Un@@": 1008, 
  "schwer": 1009, 
  "eingesetzt": 1010, 
  "absolut": 1011, 
  "vorzulegen": 1012, 
  "sten": 1013, 
  "Stimme": 1014, 
  "erklären": 1015, 
  "Zugang": 1016, 
  "ungs@@": 1017, 
  "erkennen": 1018, 
  "um@@": 1019, 
  "Arbeits@@": 1020, 
  "s": 1021, 
  "Hauses": 1022, 
  "hinter": 1023, 
  "Regeln": 1024, 
  "Worte": 1025, 
  "einiger": 1026, 
  "Landes": 1027, 
  "geworden": 1028, 
  "Maße": 1029, 
  "Sitzung": 1030, 
  "Schlußfolgerungen": 1031, 
  "ausreichend": 1032, 
  "Kenntnis": 1033, 
  "eher": 1034, 
  "Tampere": 1035, 
  "Bemerkungen": 1036, 
  "Maßnahme": 1037, 
  "finanzielle": 1038, 
  "kommenden": 1039, 
  "Geschäftsordnung": 1040, 
  "diskutieren": 1041, 
  "verantwortlich": 1042, 
  "letztendlich": 1043, 
  "jedem": 1044, 
  "Wettbewerbsfähigkeit": 1045, 
  "weshalb": 1046, 
  "ländliche": 1047, 
  "F@@": 1048, 
  "beglückwünschen": 1049, 
  "französischen": 1050, 
  "Milliarden": 1051, 
  "Gesetzgebung": 1052, 
  "EG": 1053, 
  "gesetzt": 1054, 
  "genannten": 1055, 
  "denken": 1056, 
  "versuchen": 1057, 
  "Bewertung": 1058, 
  "Präsidenten": 1059, 
  "Zielen": 1060, 
  "verpflichtet": 1061, 
  "Protokoll": 1062, 
  "15": 1063, 
  "Arbeitsplätzen": 1064, 
  "Rechts@@": 1065, 
  "Erfahrungen": 1066, 
  "Verpflichtungen": 1067, 
  "Osten": 1068, 
  "Erklärungen": 1069, 
  "betonen": 1070, 
  "spielen": 1071, 
  "kaum": 1072, 
  "Annahme": 1073, 
  "enthält": 1074, 
  "deswegen": 1075, 
  "kulturellen": 1076, 
  "Wunsch": 1077, 
  "gelten": 1078, 
  "hoffen": 1079, 
  "lichen": 1080, 
  "5": 1081, 
  "Anforderungen": 1082, 
  "Automobilindustrie": 1083, 
  "Voraussetzung": 1084, 
  "Eindruck": 1085, 
  "beteiligt": 1086, 
  "Nutzen": 1087, 
  "Mitteln": 1088, 
  "gewesen": 1089, 
  "wissenschaftlichen": 1090, 
  "Ausbildung": 1091, 
  "Hand": 1092, 
  "daraus": 1093, 
  "vorlegen": 1094, 
  "darstellen": 1095, 
  "einsetzen": 1096, 
  "s@@": 1097, 
  "möchten": 1098, 
  "Überwachung": 1099, 
  "Gründe": 1100, 
  "Unterschiede": 1101, 
  "zeigt": 1102, 
  "Minister": 1103, 
  "ferner": 1104, 
  "gesehen": 1105, 
  "insofern": 1106, 
  "Dienstleistungen": 1107, 
  "3": 1108, 
  "aufmerksam": 1109, 
  "insgesamt": 1110, 
  "konnten": 1111, 
  "derzeitigen": 1112, 
  "Kraft": 1113, 
  "nunmehr": 1114, 
  "entscheiden": 1115, 
  "Position": 1116, 
  "Herausforderung": 1117, 
  "überzeugt": 1118, 
  "demokratische": 1119, 
  "bestehenden": 1120, 
  "rasch": 1121, 
  "einverstanden": 1122, 
  "Änderungsanträgen": 1123, 
  "Priorität": 1124, 
  "Aspekt": 1125, 
  "Bildung": 1126, 
  "genug": 1127, 
  "Kinnock": 1128, 
  "Widerspruch": 1129, 
  "vorgeschlagenen": 1130, 
  "R@@": 1131, 
  "zusammen": 1132, 
  "Dinge": 1133, 
  "Bestandteil": 1134, 
  "bald": 1135, 
  "Einrichtung": 1136, 
  "gekommen": 1137, 
  "C5": 1138, 
  "Anspruch": 1139, 
  "getroffen": 1140, 
  "Österreichs": 1141, 
  "einschließlich": 1142, 
  "gt": 1143, 
  "drittens": 1144, 
  "Einfluß": 1145, 
  "gestalten": 1146, 
  "Syrien": 1147, 
  "ern": 1148, 
  "Forderungen": 1149, 
  "Steuer@@": 1150, 
  "Nahen": 1151, 
  "Macht": 1152, 
  "lich": 1153, 
  "Armut": 1154, 
  "stimme": 1155, 
  "Charta": 1156, 
  "Kriterien": 1157, 
  "Grundrechte": 1158, 
  "g": 1159, 
  "wahrscheinlich": 1160, 
  "Patten": 1161, 
  "Ressourcen": 1162, 
  "stehenden": 1163, 
  "80": 1164, 
  "bezüglich": 1165, 
  "politisch": 1166, 
  "ständig": 1167, 
  "beschränken": 1168, 
  "Stellung": 1169, 
  "mit@@": 1170, 
  "danach": 1171, 
  "geschaffen": 1172, 
  "13": 1173, 
  "Diskriminierung": 1174, 
  "Binnenmarktes": 1175, 
  "wiederholen": 1176, 
  "end": 1177, 
  "bar": 1178, 
  "versucht": 1179, 
  "Schritte": 1180, 
  "zeigen": 1181, 
  "Rechtssicherheit": 1182, 
  "notwendigen": 1183, 
  "Souveränität": 1184, 
  "damals": 1185, 
  "Gruppe": 1186, 
  "nie": 1187, 
  "vorschlagen": 1188, 
  "Er@@": 1189, 
  "25": 1190, 
  "vermeiden": 1191, 
  "geehrte": 1192, 
  "wichtiger": 1193, 
  "Dezember": 1194, 
  "festgestellt": 1195, 
  "Idee": 1196, 
  "Wirtschafts@@": 1197, 
  "erfüllen": 1198, 
  "gelangen": 1199, 
  "Übereinkommen": 1200, 
  "teile": 1201, 
  "geleistet": 1202, 
  "licher": 1203, 
  "Mitarbeiter": 1204, 
  "Haushalt": 1205, 
  "III": 1206, 
  "isch": 1207, 
  "erklärt": 1208, 
  "Subsidiarität": 1209, 
  "fällt": 1210, 
  "Gruppen": 1211, 
  "Programmen": 1212, 
  "offen": 1213, 
  "Personen": 1214, 
  "Dänemark": 1215, 
  "gleiche": 1216, 
  "tigen": 1217, 
  "Wochen": 1218, 
  "verfolgen": 1219, 
  "fallen": 1220, 
  "B.": 1221, 
  "Balkan": 1222, 
  "nutzen": 1223, 
  "Verständnis": 1224, 
  "Aktionen": 1225, 
  "Moment": 1226, 
  "verbunden": 1227, 
  "Schluß": 1228, 
  "teilen": 1229, 
  "Ratspräsident": 1230, 
  "Einbeziehung": 1231, 
  "warten": 1232, 
  "zustimmen": 1233, 
  "zugunsten": 1234, 
  "Staat": 1235, 
  "Anfang": 1236, 
  "eigene": 1237, 
  "Übereinstimmung": 1238, 
  "möglicherweise": 1239, 
  "Worten": 1240, 
  "Ausgrenzung": 1241, 
  "Recycling": 1242, 
  "Völker": 1243, 
  "technische": 1244, 
  "größte": 1245, 
  "Flexibilität": 1246, 
  "sagt": 1247, 
  "Donnerstag": 1248, 
  "Vereinbarung": 1249, 
  "diskutiert": 1250, 
  "ganze": 1251, 
  "Vertrages": 1252, 
  "Krise": 1253, 
  "wären": 1254, 
  "betrachtet": 1255, 
  "Zusammenhalt": 1256, 
  "Gegenteil": 1257, 
  "positiven": 1258, 
  "Projekt": 1259, 
  "ischen": 1260, 
  "passiert": 1261, 
  "Gelder": 1262, 
  "nationale": 1263, 
  "internationale": 1264, 
  "Barnier": 1265, 
  "lösen": 1266, 
  "regionale": 1267, 
  "D@@": 1268, 
  "aussprechen": 1269, 
  "mehrere": 1270, 
  "Januar": 1271, 
  "Wahlen": 1272, 
  "Rassismus": 1273, 
  "Gemeinschafts@@": 1274, 
  "Berücksichtigung": 1275, 
  "spielt": 1276, 
  "alten": 1277, 
  "wenigen": 1278, 
  "12": 1279, 
  "re@@": 1280, 
  "Kompromiß": 1281, 
  "Flüchtlinge": 1282, 
  "Finanzierung": 1283, 
  "weltweit": 1284, 
  "ausdrücklich": 1285, 
  "richtige": 1286, 
  "spreche": 1287, 
  "länger": 1288, 
  "gelungen": 1289, 
  "welches": 1290, 
  "her@@": 1291, 
  "jene": 1292, 
  "positive": 1293, 
  "Praxis": 1294, 
  "positiv": 1295, 
  "Vereinten": 1296, 
  "einbezogen": 1297, 
  "Herzen": 1298, 
  "weisen": 1299, 
  "eingegangen": 1300, 
  "zuständig": 1301, 
  "persönlich": 1302, 
  "geschehen": 1303, 
  "Modernisierung": 1304, 
  "Kampf": 1305, 
  "Behandlung": 1306, 
  "nach@@": 1307, 
  "weise": 1308, 
  "niemand": 1309, 
  "verteidigen": 1310, 
  "FPÖ": 1311, 
  "1996": 1312, 
  "zugleich": 1313, 
  "wesentlich": 1314, 
  "anderem": 1315, 
  "Herausforderungen": 1316, 
  "umfassende": 1317, 
  "reden": 1318, 
  "grenzüberschreitende": 1319, 
  "begrüßt": 1320, 
  "ihres": 1321, 
  "ens": 1322, 
  "A@@": 1323, 
  "September": 1324, 
  "Umfang": 1325, 
  "erwähnen": 1326, 
  "schwierig": 1327, 
  "ausgesprochen": 1328, 
  "Mio.": 1329, 
  "T@@": 1330, 
  "einzige": 1331, 
  "kam": 1332, 
  "freuen": 1333, 
  "Helsinki": 1334, 
  "KMU": 1335, 
  "H": 1336, 
  "größeren": 1337, 
  "außerhalb": 1338, 
  "Abkommen": 1339, 
  "z.": 1340, 
  "verfahren": 1341, 
  "Redner": 1342, 
  "Delegation": 1343, 
  "zahlreichen": 1344, 
  "fehlt": 1345, 
  "1994": 1346, 
  "Katastrophen": 1347, 
  "Kritik": 1348, 
  "20": 1349, 
  "gegenwärtigen": 1350, 
  "Erwartungen": 1351, 
  "ch@@": 1352, 
  "bevor": 1353, 
  "herzlich": 1354, 
  "fen": 1355, 
  "gezogen": 1356, 
  "Zusatzstoffe": 1357, 
  "erinnert": 1358, 
  "Gemeinden": 1359, 
  "handeln": 1360, 
  "erte": 1361, 
  "Rechnung": 1362, 
  "Anliegen": 1363, 
  "Institution": 1364, 
  "eingebracht": 1365, 
  "ganzen": 1366, 
  "f@@": 1367, 
  "dagegen": 1368, 
  "usw.": 1369, 
  "ger": 1370, 
  "Augen": 1371, 
  "Wettbewerbs@@": 1372, 
  "zurück": 1373, 
  "internationaler": 1374, 
  "sofort": 1375, 
  "Opfer": 1376, 
  "Güter": 1377, 
  "Fremdenfeindlichkeit": 1378, 
  "Einrichtungen": 1379, 
  "gefördert": 1380, 
  "Erhöhung": 1381, 
  "öffentliche": 1382, 
  "Forschung": 1383, 
  "Portugal": 1384, 
  "Entschließungsantrag": 1385, 
  "Struktur": 1386, 
  "Vorhaben": 1387, 
  "Revision": 1388, 
  "Die": 1389, 
  "weiterer": 1390, 
  "müßte": 1391, 
  "Liste": 1392, 
  "Stelle": 1393, 
  "mag": 1394, 
  "je": 1395, 
  "schwierigen": 1396, 
  "Sektor": 1397, 
  "mehrfach": 1398, 
  "Aktivitäten": 1399, 
  "Tibet": 1400, 
  "fordere": 1401, 
  "außerordentlich": 1402, 
  "Industrie": 1403, 
  "sichern": 1404, 
  "Bürgerinnen": 1405, 
  "kontrolliert": 1406, 
  "einzigen": 1407, 
  "bekanntlich": 1408, 
  "einheitliche": 1409, 
  "Punkten": 1410, 
  "m@@": 1411, 
  "schlagen": 1412, 
  "el": 1413, 
  "rechtlichen": 1414, 
  "verleihen": 1415, 
  "Gleichstellung": 1416, 
  "Gebietskörperschaften": 1417, 
  "Aufnahme": 1418, 
  "ausschließlich": 1419, 
  "Zuständigkeit": 1420, 
  "lokale": 1421, 
  "Wogau": 1422, 
  "Gerechtigkeit": 1423, 
  "Fremdenverkehr": 1424, 
  "aufnehmen": 1425, 
  "Lösungen": 1426, 
  "abgeschlossen": 1427, 
  "betroffen": 1428, 
  "neben": 1429, 
  "verstärken": 1430, 
  "hervorheben": 1431, 
  "Städte": 1432, 
  "allgemein": 1433, 
  "sehe": 1434, 
  "Langen": 1435, 
  "Bürokratie": 1436, 
  "Diskussionen": 1437, 
  "Florenz": 1438, 
  "bilden": 1439, 
  "Erarbeitung": 1440, 
  "März": 1441, 
  "befassen": 1442, 
  "beschäftigen": 1443, 
  "Straße": 1444, 
  "Bemerkung": 1445, 
  "beziehen": 1446, 
  "Stabilität": 1447, 
  "l@@": 1448, 
  "jüngsten": 1449, 
  "solange": 1450, 
  "gewisse": 1451, 
  "verweisen": 1452, 
  "Finanzkontrolle": 1453, 
  "österreichische": 1454, 
  "A": 1455, 
  "klare": 1456, 
  "Freizügigkeit": 1457, 
  "Überlegungen": 1458, 
  "vollständig": 1459, 
  "stimmt": 1460, 
  "finde": 1461, 
  "Theato": 1462, 
  "hält": 1463, 
  "Engagement": 1464, 
  "Folge": 1465, 
  "wichtigste": 1466, 
  "Lesung": 1467, 
  "Mut": 1468, 
  "n": 1469, 
  "Achtung": 1470, 
  "ges": 1471, 
  "Funktionieren": 1472, 
  "verabschiedet": 1473, 
  "Schäden": 1474, 
  "Aufbau": 1475, 
  "Stärkung": 1476, 
  "au@@": 1477, 
  "nationaler": 1478, 
  "behandeln": 1479, 
  "trotzdem": 1480, 
  "Festlegung": 1481, 
  "Palacio": 1482, 
  "betont": 1483, 
  "gefunden": 1484, 
  "40": 1485, 
  "Beschlüsse": 1486, 
  "Schroedter": 1487, 
  "verfolgt": 1488, 
  "entscheidenden": 1489, 
  "bietet": 1490, 
  "Betrug": 1491, 
  "L@@": 1492, 
  "größere": 1493, 
  "I": 1494, 
  "kulturelle": 1495, 
  "wirklichen": 1496, 
  "bestätigen": 1497, 
  "einig": 1498, 
  "entscheidende": 1499, 
  "ausgehen": 1500, 
  "unterstütze": 1501, 
  "keinerlei": 1502, 
  "Lebensmittelbehörde": 1503, 
  "Sprache": 1504, 
  "el@@": 1505, 
  "nächste": 1506, 
  "hohe": 1507, 
  "treten": 1508, 
  "Städten": 1509, 
  "E@@": 1510, 
  "städtischen": 1511, 
  "Unter@@": 1512, 
  "beschränkt": 1513, 
  "sinnvoll": 1514, 
  "Energien": 1515, 
  "Rechtsgrundlage": 1516, 
  "Vorbereitung": 1517, 
  "Be@@": 1518, 
  "bezeichnet": 1519, 
  "fordert": 1520, 
  "Berichte": 1521, 
  "Pflicht": 1522, 
  "tete": 1523, 
  "hin@@": 1524, 
  "bringt": 1525, 
  "Höhe": 1526, 
  "früheren": 1527, 
  "Italien": 1528, 
  "komme": 1529, 
  "versichern": 1530, 
  "wünschen": 1531, 
  "Besorgnis": 1532, 
  "Akteure": 1533, 
  "hohen": 1534, 
  "konkret": 1535, 
  "deutschen": 1536, 
  "Parteien": 1537, 
  "vorgeschlagene": 1538, 
  "Investitionen": 1539, 
  "Verhältnis": 1540, 
  "Friedensprozeß": 1541, 
  "notwendige": 1542, 
  "akzeptiert": 1543, 
  "Ausarbeitung": 1544, 
  "verwendet": 1545, 
  "Altfahrzeuge": 1546, 
  "14": 1547, 
  "G@@": 1548, 
  "sieht": 1549, 
  "Einhaltung": 1550, 
  "bereich": 1551, 
  "W@@": 1552, 
  "gestaltet": 1553, 
  "Systems": 1554, 
  "le@@": 1555, 
  "genügend": 1556, 
  "ä@@": 1557, 
  "auszu@@": 1558, 
  "M@@": 1559, 
  "Wissenschaft": 1560, 
  "ging": 1561, 
  "Über@@": 1562, 
  "strategischen": 1563, 
  "tätig": 1564, 
  "Sorgen": 1565, 
  "Minderheiten": 1566, 
  "gleich@@": 1567, 
  "ter@@": 1568, 
  "Stellen": 1569, 
  "Einigung": 1570, 
  "starke": 1571, 
  "spricht": 1572, 
  "Information": 1573, 
  "tig": 1574, 
  "bestätigt": 1575, 
  "Kriminalität": 1576, 
  "Umweltschutz": 1577, 
  "är@@": 1578, 
  "wirtschaftlich": 1579, 
  "aufzu@@": 1580, 
  "Natur": 1581, 
  "ischer": 1582, 
  "bemüht": 1583, 
  "Botschaft": 1584, 
  "Gespräche": 1585, 
  "Anzahl": 1586, 
  "werte": 1587, 
  "ts": 1588, 
  "Ihres": 1589, 
  "direkt": 1590, 
  "allgemeine": 1591, 
  "wirtschaftlicher": 1592, 
  "gebeten": 1593, 
  "acht": 1594, 
  "folgen": 1595, 
  "Stahlindustrie": 1596, 
  "Vorsitzenden": 1597, 
  "Wert": 1598, 
  "Seiten": 1599, 
  "unterstreichen": 1600, 
  "hinzufügen": 1601, 
  "ten@@": 1602, 
  "ere": 1603, 
  "KOM": 1604, 
  "Vielfalt": 1605, 
  "Sektoren": 1606, 
  "Jonckheer": 1607, 
  "Wirklichkeit": 1608, 
  "Nachdruck": 1609, 
  "vorstellen": 1610, 
  "speziellen": 1611, 
  "manchmal": 1612, 
  "geprüft": 1613, 
  "losen": 1614, 
  "P@@": 1615, 
  "Willen": 1616, 
  "schlägt": 1617, 
  "Fällen": 1618, 
  "zugrunde": 1619, 
  "glauben": 1620, 
  "PPE": 1621, 
  "Ursachen": 1622, 
  "Gegensatz": 1623, 
  "gte": 1624, 
  "ergeben": 1625, 
  "Befugnisse": 1626, 
  "vorliegende": 1627, 
  "kleine": 1628, 
  "gleich": 1629, 
  "GAP": 1630, 
  "lichkeit": 1631, 
  "wirksame": 1632, 
  "Kohäsionsfonds": 1633, 
  "eingeführt": 1634, 
  "1.": 1635, 
  "Arbeitsmarkt": 1636, 
  "Markt@@": 1637, 
  "al@@": 1638, 
  "Beschäftigungs@@": 1639, 
  "Beförderung": 1640, 
  "erzielen": 1641, 
  "Offenheit": 1642, 
  "diesbezüglich": 1643, 
  "wünsche": 1644, 
  "ökologischen": 1645, 
  "anzu@@": 1646, 
  "betrachten": 1647, 
  "sämtliche": 1648, 
  "gestatten": 1649, 
  "Fehler": 1650, 
  "d": 1651, 
  "Anlaß": 1652, 
  "gewährleistet": 1653, 
  "politischer": 1654, 
  "Gerichte": 1655, 
  "vorgesehenen": 1656, 
  "Harmonisierung": 1657, 
  "schen": 1658, 
  "11": 1659, 
  "Königreich": 1660, 
  "or@@": 1661, 
  "Vorlage": 1662, 
  "durchzuführen": 1663, 
  "jemand": 1664, 
  "besseren": 1665, 
  "Kohäsion": 1666, 
  "suchen": 1667, 
  "ges@@": 1668, 
  "em": 1669, 
  "Monti": 1670, 
  "übrigens": 1671, 
  "zahlen": 1672, 
  "Genehmigung": 1673, 
  "außer": 1674, 
  "sicherzustellen": 1675, 
  "Deutschland": 1676, 
  "Stürme": 1677, 
  "grenzüberschreitenden": 1678, 
  "vorgelegten": 1679, 
  "künftigen": 1680, 
  "dürfte": 1681, 
  "Landwirte": 1682, 
  "Waffen": 1683, 
  "Sachverständiger": 1684, 
  "Wege": 1685, 
  "besonderen": 1686, 
  "nachhaltige": 1687, 
  "Diskriminierungen": 1688, 
  "wirken": 1689, 
  "gefährlicher": 1690, 
  "N@@": 1691, 
  "äußern": 1692, 
  "neues": 1693, 
  "Zu@@": 1694, 
  "gewiß": 1695, 
  "durch@@": 1696, 
  "unternommen": 1697, 
  "unabhängig": 1698, 
  "mal": 1699, 
  "richten": 1700, 
  "Pläne": 1701, 
  "anwesend": 1702, 
  "erten": 1703, 
  "später": 1704, 
  "is@@": 1705, 
  "Geist": 1706, 
  "Gedanken": 1707, 
  "beide": 1708, 
  "Energieträger": 1709, 
  "annehmen": 1710, 
  "auswirken": 1711, 
  "trägt": 1712, 
  "effektiv": 1713, 
  "mitteilen": 1714, 
  "gerichtet": 1715, 
  "ben": 1716, 
  "erfahren": 1717, 
  "Verbindung": 1718, 
  "letzter": 1719, 
  "erneuerbarer": 1720, 
  "Chance": 1721, 
  "Nutzung": 1722, 
  "Liberalen": 1723, 
  "gesch@@": 1724, 
  "Glaubwürdigkeit": 1725, 
  "Wirtschafts-": 1726, 
  "ste": 1727, 
  "befaßt": 1728, 
  "gehalten": 1729, 
  "verdient": 1730, 
  "häufig": 1731, 
  "sen": 1732, 
  "lokaler": 1733, 
  "Gemeinschaftsinitiativen": 1734, 
  "vorangegangenen": 1735, 
  "Berichten": 1736, 
  "bekämpfen": 1737, 
  "anstatt": 1738, 
  "ak@@": 1739, 
  "Hinweis": 1740, 
  "Fälle": 1741, 
  "ar@@": 1742, 
  "Mittelausstattung": 1743, 
  "abgesehen": 1744, 
  "Instrumente": 1745, 
  "beantragt": 1746, 
  "keiner": 1747, 
  "Gericht": 1748, 
  "Fischerei": 1749, 
  "tige": 1750, 
  "ellen": 1751, 
  "gezeigt": 1752, 
  "Wiederaufbau": 1753, 
  "USA": 1754, 
  "gewährt": 1755, 
  "gegebenenfalls": 1756, 
  "November": 1757, 
  "finanziert": 1758, 
  "k": 1759, 
  "schafft": 1760, 
  "inzwischen": 1761, 
  "welcher": 1762, 
  "Frist": 1763, 
  "seien": 1764, 
  "Ausweitung": 1765, 
  "Wachstum": 1766, 
  "tet": 1767, 
  "genauso": 1768, 
  "zugelassen": 1769, 
  "Druck": 1770, 
  "vorhin": 1771, 
  "überall": 1772, 
  "Beschluß": 1773, 
  "nachhaltigen": 1774, 
  "Kollegin": 1775, 
  "erhält": 1776, 
  "funktioniert": 1777, 
  "gung": 1778, 
  "Kon@@": 1779, 
  "bei@@": 1780, 
  "sogenannten": 1781, 
  "Konzentration": 1782, 
  "einerseits": 1783, 
  "Wettbewerbs": 1784, 
  "Betrügereien": 1785, 
  "gen@@": 1786, 
  "Organisationen": 1787, 
  "verlangen": 1788, 
  "rufen": 1789, 
  "Lissabon": 1790, 
  "maßnahmen": 1791, 
  "bare": 1792, 
  "debattieren": 1793, 
  "nennen": 1794, 
  "weist": 1795, 
  "Schengen": 1796, 
  "Umständen": 1797, 
  "aufgefordert": 1798, 
  "1995": 1799, 
  "sagten": 1800, 
  "verlangt": 1801, 
  "reichen": 1802, 
  "Binnenmarkts": 1803, 
  "schwierige": 1804, 
  "Ereignisse": 1805, 
  "u.": 1806, 
  "französische": 1807, 
  "Re@@": 1808, 
  "Unabhängigkeit": 1809, 
  "zukommen": 1810, 
  "zentrale": 1811, 
  "bezieht": 1812, 
  "gedenkt": 1813, 
  "neun": 1814, 
  "hierzu": 1815, 
  "bildet": 1816, 
  "Fortschritt": 1817, 
  "COS": 1818, 
  "entscheidend": 1819, 
  "übernommen": 1820, 
  "lautet": 1821, 
  "Volkspartei": 1822, 
  "wesentliche": 1823, 
  "jedenfalls": 1824, 
  "stärksten": 1825, 
  "kürzlich": 1826, 
  "d@@": 1827, 
  "übertragen": 1828, 
  "Jörg": 1829, 
  "hoch": 1830, 
  "wann": 1831, 
  "zehn": 1832, 
  "bißchen": 1833, 
  "men": 1834, 
  "angeht": 1835, 
  "Infrastruktur": 1836, 
  "vorliegen": 1837, 
  "Daten": 1838, 
  "Abbau": 1839, 
  "Gipfel": 1840, 
  "kt": 1841, 
  "einführen": 1842, 
  "Staatsanwaltschaft": 1843, 
  "beabsichtigt": 1844, 
  "soeben": 1845, 
  "betreffenden": 1846, 
  "Niveau": 1847, 
  "nein": 1848, 
  "Jahrhundert": 1849, 
  "ts@@": 1850, 
  "Reaktion": 1851, 
  "Ordnung": 1852, 
  "falsch": 1853, 
  "Blick": 1854, 
  "Angst": 1855, 
  "Vergleich": 1856, 
  "Ge@@": 1857, 
  "Verpflichtung": 1858, 
  "Charakter": 1859, 
  "Instanz": 1860, 
  "le": 1861, 
  "informieren": 1862, 
  "Neu@@": 1863, 
  "verstehe": 1864, 
  "zuständigen": 1865, 
  "ke": 1866, 
  "starken": 1867, 
  "verhindert": 1868, 
  "angewandt": 1869, 
  "erneuerbaren": 1870, 
  "praktisch": 1871, 
  "Dienste": 1872, 
  "abgelehnt": 1873, 
  "Beweis": 1874, 
  "B": 1875, 
  "solcher": 1876, 
  "beigetragen": 1877, 
  "umzusetzen": 1878, 
  "Anfragen": 1879, 
  "heit": 1880, 
  "benachteiligten": 1881, 
  "erarbeitet": 1882, 
  "legislativen": 1883, 
  "ti@@": 1884, 
  "gerne": 1885, 
  "überaus": 1886, 
  "welchen": 1887, 
  "frei": 1888, 
  "offenbar": 1889, 
  "Rechten": 1890, 
  "sonst": 1891, 
  "entweder": 1892, 
  "Papier": 1893, 
  "mittleren": 1894, 
  "endgültigen": 1895, 
  "wieder@@": 1896, 
  "langfristig": 1897, 
  "volle": 1898, 
  "reicht": 1899, 
  "akzeptabel": 1900, 
  "verurteilen": 1901, 
  "Juni": 1902, 
  "O@@": 1903, 
  "jährlich": 1904, 
  "regeln": 1905, 
  "Arbeiten": 1906, 
  "speziell": 1907, 
  "w@@": 1908, 
  "Wiederbelebung": 1909, 
  "entscheidender": 1910, 
  "Volk": 1911, 
  "30": 1912, 
  "folgendes": 1913, 
  "nachzudenken": 1914, 
  "100": 1915, 
  "unterbreiten": 1916, 
  "Parlamente": 1917, 
  "Energie": 1918, 
  "lang": 1919, 
  "Lebensqualität": 1920, 
  "hervorgehoben": 1921, 
  "tut": 1922, 
  "reagieren": 1923, 
  "FR": 1924, 
  "wer@@": 1925, 
  "tern": 1926, 
  "wollte": 1927, 
  "grundlegende": 1928, 
  "betreffen": 1929, 
  "ähnlich": 1930, 
  "zählen": 1931, 
  "nachdrücklich": 1932, 
  "abzu@@": 1933, 
  "britischen": 1934, 
  "Sozialisten": 1935, 
  "angebracht": 1936, 
  "stelle": 1937, 
  "bedeuten": 1938, 
  "alte": 1939, 
  "spät": 1940, 
  "erfolgen": 1941, 
  "angewendet": 1942, 
  "pro": 1943, 
  "Praktiken": 1944, 
  "bestimmter": 1945, 
  "klaren": 1946, 
  "Hohen": 1947, 
  "Argumente": 1948, 
  "enen": 1949, 
  "Steuerzahler": 1950, 
  "vorliegt": 1951, 
  "ß@@": 1952, 
  "Dienstleistungsausweis": 1953, 
  "ale": 1954, 
  "eingereicht": 1955, 
  "17": 1956, 
  "Durchsetzung": 1957, 
  "aktiv": 1958, 
  "Sitzungsperiode": 1959, 
  "geschieht": 1960, 
  "hoch@@": 1961, 
  "kon@@": 1962, 
  "Zuständigkeiten": 1963, 
  "unterzeichnet": 1964, 
  "schlage": 1965, 
  "Politiker": 1966, 
  "Haushaltslinie": 1967, 
  "ausschuß": 1968, 
  "fortsetzen": 1969, 
  "Gemeinsame": 1970, 
  "Vermittlung": 1971, 
  "Internationalen": 1972, 
  "ausge@@": 1973, 
  "kurzem": 1974, 
  "Risiko": 1975, 
  "einzuführen": 1976, 
  "Vermittlungsausschuß": 1977, 
  "Auto": 1978, 
  "Dienststellen": 1979, 
  "Anpassung": 1980, 
  "Männern": 1981, 
  "BIP": 1982, 
  "Wohlstand": 1983, 
  "2002": 1984, 
  "In@@": 1985, 
  "Decourrière": 1986, 
  "her": 1987, 
  "Koch": 1988, 
  "Beiträge": 1989, 
  "Haftung": 1990, 
  "9": 1991, 
  "Raumes": 1992, 
  "paar": 1993, 
  "vernünftig": 1994, 
  "zen": 1995, 
  "spezielle": 1996, 
  "Kommissare": 1997, 
  "Unsicherheit": 1998, 
  "ergriffen": 1999, 
  "wiederum": 2000, 
  "Europol": 2001, 
  "überzeugen": 2002, 
  "vorzunehmen": 2003, 
  "aufzunehmen": 2004, 
  "Konzept": 2005, 
  "zuletzt": 2006, 
  "gründlich": 2007, 
  "weitgehend": 2008, 
  "Rats": 2009, 
  "teten": 2010, 
  "bewältigen": 2011, 
  "m": 2012, 
  "Volkes": 2013, 
  "gutes": 2014, 
  "len": 2015, 
  "festhalten": 2016, 
  "gemeinschaftliche": 2017, 
  "Um@@": 2018, 
  "alen": 2019, 
  "begrenzt": 2020, 
  "negativen": 2021, 
  "et@@": 2022, 
  "Teilen": 2023, 
  "benötigen": 2024, 
  "dänischen": 2025, 
  "Entwicklungs@@": 2026, 
  "Beitrittskandidaten": 2027, 
  "Regierungsbildung": 2028, 
  "Formen": 2029, 
  "sicherstellen": 2030, 
  "beweist": 2031, 
  "erzielt": 2032, 
  "Minuten": 2033, 
  "Stunden": 2034, 
  "Kopf": 2035, 
  "bevorstehenden": 2036, 
  "35": 2037, 
  "Ablehnung": 2038, 
  "Aspekten": 2039, 
  "erleben": 2040, 
  "lieber": 2041, 
  "Tage": 2042, 
  "Empfehlung": 2043, 
  "Anreize": 2044, 
  "der@@": 2045, 
  "Verwaltungs@@": 2046, 
  "freien": 2047, 
  "teilweise": 2048, 
  "Marktes": 2049, 
  "ender": 2050, 
  "Vorredner": 2051, 
  "Gesetze": 2052, 
  "niemals": 2053, 
  "Häfen": 2054, 
  "weiter@@": 2055, 
  "Einschränkung": 2056, 
  "setzt": 2057, 
  "wirtschaft": 2058, 
  "sobald": 2059, 
  "erforderlichen": 2060, 
  "wichtiges": 2061, 
  "abgestimmt": 2062, 
  "vernünftige": 2063, 
  "Mitentscheidung": 2064, 
  "garantieren": 2065, 
  "Element": 2066, 
  "Untersuchung": 2067, 
  "Erfahrung": 2068, 
  "Erinnerung": 2069, 
  "Wahl": 2070, 
  "demokratisch": 2071, 
  "zusammen@@": 2072, 
  "erhöht": 2073, 
  "erwartet": 2074, 
  "Basis": 2075, 
  "Tagen": 2076, 
  "wenige": 2077, 
  "hinweg": 2078, 
  "Planung": 2079, 
  "inhaltlich": 2080, 
  "verstanden": 2081, 
  "Meer": 2082, 
  "mehreren": 2083, 
  "Grünen": 2084, 
  "be": 2085, 
  "u@@": 2086, 
  "erteilen": 2087, 
  "Mittelpunkt": 2088, 
  "dankbar": 2089, 
  "bisherigen": 2090, 
  "Beseitigung": 2091, 
  "Afrika": 2092, 
  "unmittelbar": 2093, 
  "Wissenschaftler": 2094, 
  "verloren": 2095, 
  "St@@": 2096, 
  "ei@@": 2097, 
  "Internet": 2098, 
  "stand": 2099, 
  "aktive": 2100, 
  "abstimmen": 2101, 
  "bieten": 2102, 
  "ernsthaft": 2103, 
  "Seattle": 2104, 
  "Z@@": 2105, 
  "ft": 2106, 
  "Vereinbarungen": 2107, 
  "Überzeugung": 2108, 
  "Klarheit": 2109, 
  "Bereitschaft": 2110, 
  "gewählten": 2111, 
  "sofern": 2112, 
  "angenommenen": 2113, 
  "Unterlagen": 2114, 
  "spezifischen": 2115, 
  "Preis": 2116, 
  "einstimmig": 2117, 
  "Vertretern": 2118, 
  "frei@@": 2119, 
  "genutzt": 2120, 
  "erhöhen": 2121, 
  "gehe": 2122, 
  "Gegenstand": 2123, 
  "stärkere": 2124, 
  "Ent@@": 2125, 
  "trifft": 2126, 
  "Partnerschaft": 2127, 
  "Griechenland": 2128, 
  "jegliche": 2129, 
  "Vitorino": 2130, 
  "Staates": 2131, 
  "Marktwirtschaft": 2132, 
  "stattfinden": 2133, 
  "chen": 2134, 
  "verb@@": 2135, 
  "verbundenen": 2136, 
  "Entschließungsentwurf": 2137, 
  "ermöglicht": 2138, 
  "Groß@@": 2139, 
  "umfaßt": 2140, 
  "eng": 2141, 
  "zusammenarbeiten": 2142, 
  "größten": 2143, 
  "erfolgt": 2144, 
  "h@@": 2145, 
  "gelingen": 2146, 
  "interessiert": 2147, 
  "Geber": 2148, 
  "gesichert": 2149, 
  "entstehen": 2150, 
  "technischen": 2151, 
  "anzunehmen": 2152, 
  "Verbreitung": 2153, 
  "Dollar": 2154, 
  "ung@@": 2155, 
  "Realität": 2156, 
  "verletzt": 2157, 
  "ziemlich": 2158, 
  "unterschiedlichen": 2159, 
  "and": 2160, 
  "geändert": 2161, 
  "öffentlich": 2162, 
  "erwähnten": 2163, 
  "allzu": 2164, 
  "z": 2165, 
  "schließen": 2166, 
  "Ideen": 2167, 
  "Reichtum": 2168, 
  "ko@@": 2169, 
  "r@@": 2170, 
  "Chancengleichheit": 2171, 
  "Kouchner": 2172, 
  "parlamentarischen": 2173, 
  "großem": 2174, 
  "Zweck": 2175, 
  "verabschieden": 2176, 
  "Vorsorgeprinzips": 2177, 
  "geltenden": 2178, 
  "erscheinen": 2179, 
  "Auftrag": 2180, 
  "fehlen": 2181, 
  "Treffen": 2182, 
  "Partner": 2183, 
  "tung": 2184, 
  "mögliche": 2185, 
  "07@@": 2186, 
  "schriftlich": 2187, 
  "Maß": 2188, 
  "Prinzipien": 2189, 
  "Stand": 2190, 
  "derer": 2191, 
  "eigentlichen": 2192, 
  "liches": 2193, 
  "Überprüfung": 2194, 
  "veränderten": 2195, 
  "entsprechen": 2196, 
  "Stunde": 2197, 
  "anhand": 2198, 
  "italienischen": 2199, 
  "Voraussetzungen": 2200, 
  "geb@@": 2201, 
  "Zusammenhalts": 2202, 
  "respektieren": 2203, 
  "Ziels": 2204, 
  "Garantie": 2205, 
  "Finanzmittel": 2206, 
  "zufolge": 2207, 
  "privaten": 2208, 
  "Gleichgewicht": 2209, 
  "Kultur@@": 2210, 
  "Wales": 2211, 
  "Vorrang": 2212, 
  "Königreichs": 2213, 
  "Untersuchungen": 2214, 
  "geboten": 2215, 
  "Entwicklungen": 2216, 
  "Austausch": 2217, 
  "anwenden": 2218, 
  "erlassen": 2219, 
  "e@@": 2220, 
  "tungs@@": 2221, 
  "entwickelten": 2222, 
  "ÖVP": 2223, 
  "betreffend": 2224, 
  "Nichtregierungsorganisationen": 2225, 
  "Elemente": 2226, 
  "hierfür": 2227, 
  "37": 2228, 
  "Aktion": 2229, 
  "überlassen": 2230, 
  "gkeit": 2231, 
  "geregelt": 2232, 
  "Einklang": 2233, 
  "beschäftigt": 2234, 
  "Reform@@": 2235, 
  "Arbeitnehmern": 2236, 
  "Beamte": 2237, 
  "erarbeiten": 2238, 
  "grundsätzlich": 2239, 
  "Ministerrat": 2240, 
  "folgende": 2241, 
  "Juli": 2242, 
  "langen": 2243, 
  "dasselbe": 2244, 
  "ansprechen": 2245, 
  "wenden": 2246, 
  "zwangsläufig": 2247, 
  "weiteres": 2248, 
  "wenngleich": 2249, 
  "Entsorgung": 2250, 
  "Nach@@": 2251, 
  "a.": 2252, 
  "Strategien": 2253, 
  "12.00": 2254, 
  "großes": 2255, 
  "enthaltenen": 2256, 
  "Verhalten": 2257, 
  "Rapkay": 2258, 
  "zufrieden": 2259, 
  "verschiedene": 2260, 
  "inneren": 2261, 
  "gewinnen": 2262, 
  "Auswahl": 2263, 
  "Abhängigkeit": 2264, 
  "Grund@@": 2265, 
  "umfassenden": 2266, 
  "gefährlich": 2267, 
  "Abfälle": 2268, 
  "Futtermittel": 2269, 
  "ausgehend": 2270, 
  "abend": 2271, 
  "Hintergrund": 2272, 
  "widmen": 2273, 
  "könne": 2274, 
  "Verlauf": 2275, 
  "Fragestunde": 2276, 
  "zutiefst": 2277, 
  "nötig": 2278, 
  "ens@@": 2279, 
  "Rücknahme": 2280, 
  "festgelegten": 2281, 
  "p@@": 2282, 
  "fest@@": 2283, 
  "gearbeitet": 2284, 
  "anzuwenden": 2285, 
  "schweren": 2286, 
  "beraten": 2287, 
  "erscheint": 2288, 
  "Wahlperiode": 2289, 
  "seines": 2290, 
  "angemessen": 2291, 
  "Rück@@": 2292, 
  "n@@": 2293, 
  "Vordergrund": 2294, 
  "internen": 2295, 
  "Strukturen": 2296, 
  "Phase": 2297, 
  "Freude": 2298, 
  "Mitglied": 2299, 
  "innere": 2300, 
  "Fehlen": 2301, 
  "zählt": 2302, 
  "Costa": 2303, 
  "dung": 2304, 
  "tiger": 2305, 
  "wesentlicher": 2306, 
  "zunehmende": 2307, 
  "Ausschüssen": 2308, 
  "hierbei": 2309, 
  "verlassen": 2310, 
  "obgleich": 2311, 
  "Amsterdamer": 2312, 
  "ation": 2313, 
  "gelegt": 2314, 
  "gende": 2315, 
  "Vorsitzende": 2316, 
  "Gesamt@@": 2317, 
  "Feststellung": 2318, 
  "Arbeitsweise": 2319, 
  "strategische": 2320, 
  "McCarthy": 2321, 
  "Märkte": 2322, 
  "Verbot": 2323, 
  "Risiken": 2324, 
  "interne": 2325, 
  "demokratischer": 2326, 
  "elle": 2327, 
  "wirksam": 2328, 
  "Unabhängiger": 2329, 
  "deutliche": 2330, 
  "eln": 2331, 
  "festzulegen": 2332, 
  "einziges": 2333, 
  "riesige": 2334, 
  "baren": 2335, 
  "ergänzen": 2336, 
  "Jahrhunderts": 2337, 
  "Altfahrzeugen": 2338, 
  "kämpfen": 2339, 
  "Lange": 2340, 
  "Fahrzeugen": 2341, 
  "jetzigen": 2342, 
  "strafrechtlichen": 2343, 
  "Dingen": 2344, 
  "programme": 2345, 
  "zugute": 2346, 
  "Gewährleistung": 2347, 
  "bestimmt": 2348, 
  "erfordern": 2349, 
  "praktische": 2350, 
  "l": 2351, 
  "umfassend": 2352, 
  "erweisen": 2353, 
  "institutionellen": 2354, 
  "abgeben": 2355, 
  "bes@@": 2356, 
  "bedauere": 2357, 
  "Dienstleistungsausweises": 2358, 
  "echte": 2359, 
  "Generaldirektion": 2360, 
  "beinhaltet": 2361, 
  "Änderungsvorschläge": 2362, 
  "verwirklicht": 2363, 
  "Zeitplan": 2364, 
  "ursprünglich": 2365, 
  "Hoffnung": 2366, 
  "da@@": 2367, 
  "es@@": 2368, 
  "Urteil": 2369, 
  "EUR": 2370, 
  "Freiheitlichen": 2371, 
  "hinausgehen": 2372, 
  "tiges": 2373, 
  "cht": 2374, 
  "Themas": 2375, 
  "Handeln": 2376, 
  "angewiesen": 2377, 
  "China": 2378, 
  "erweitert": 2379, 
  "unabhängigen": 2380, 
  "ernst": 2381, 
  "rechnen": 2382, 
  "entgegen@@": 2383, 
  "herzustellen": 2384, 
  "derart": 2385, 
  "enormen": 2386, 
  "Berger": 2387, 
  "Ausnahmen": 2388, 
  "Finanzmärkte": 2389, 
  "erfolgreiche": 2390, 
  "Drittländern": 2391, 
  "Kohärenz": 2392, 
  "Richter": 2393, 
  "Mittel@@": 2394, 
  "untersucht": 2395, 
  "Rechtsprechung": 2396, 
  "verständlich": 2397, 
  "Gemeinschaftsebene": 2398, 
  "Bezug": 2399, 
  "Ausweises": 2400, 
  "Wille": 2401, 
  "gs": 2402, 
  "programmen": 2403, 
  "18": 2404, 
  "Uran": 2405, 
  "ra@@": 2406, 
  "vorgenommen": 2407, 
  "einzusetzen": 2408, 
  "unterbreitet": 2409, 
  "Erster": 2410, 
  "Ansichten": 2411, 
  "eindeutige": 2412, 
  "Bürger@@": 2413, 
  "Angaben": 2414, 
  "Eisen-": 2415, 
  "entschlossen": 2416, 
  "stärken": 2417, 
  "rein": 2418, 
  "erfüllt": 2419, 
  "Haushalts@@": 2420, 
  "fahren": 2421, 
  "Grundsätzen": 2422, 
  "Schiffen": 2423, 
  "soweit": 2424, 
  "verwenden": 2425, 
  "Malta": 2426, 
  "jenen": 2427, 
  "Schaden": 2428, 
  "befindlichen": 2429, 
  "Währungs@@": 2430, 
  "Besteuerung": 2431, 
  "lung": 2432, 
  "Verletzung": 2433, 
  "bedaure": 2434, 
  "möglichen": 2435, 
  "eingeleitet": 2436, 
  "darunter": 2437, 
  "rechtlich": 2438, 
  "Umweltfragen": 2439, 
  "Kommissionsmitglieder": 2440, 
  "künftige": 2441, 
  "gewisser": 2442, 
  "Währungsunion": 2443, 
  "sprach": 2444, 
  "Sozialfonds": 2445, 
  "innen": 2446, 
  "stellung": 2447, 
  "Vorstellung": 2448, 
  "Hindernisse": 2449, 
  "ß": 2450, 
  "Sozialdemokratischen": 2451, 
  "müßten": 2452, 
  "Grundlagen": 2453, 
  "arbeit": 2454, 
  "effektive": 2455, 
  "ch": 2456, 
  "konsequent": 2457, 
  "ausgezeichneten": 2458, 
  "hinnehmbar": 2459, 
  "Altener": 2460, 
  "unterstrichen": 2461, 
  "bislang": 2462, 
  "Selbst@@": 2463, 
  "kennen": 2464, 
  "Verringerung": 2465, 
  "haften": 2466, 
  "00@@": 2467, 
  "bewirken": 2468, 
  "mußten": 2469, 
  "anschließen": 2470, 
  "politisches": 2471, 
  "weg@@": 2472, 
  "entsteht": 2473, 
  "laufen": 2474, 
  "Mitgefühl": 2475, 
  "kontrollieren": 2476, 
  "begonnen": 2477, 
  "ften": 2478, 
  "Belgien": 2479, 
  "erfordert": 2480, 
  "Beamten": 2481, 
  "gelingt": 2482, 
  "CEN": 2483, 
  "Niederlanden": 2484, 
  "Angriff": 2485, 
  "Einkommen": 2486, 
  "sp@@": 2487, 
  "PSE": 2488, 
  "gestärkt": 2489, 
  "Berichterstatters": 2490, 
  "Vorgehen": 2491, 
  "dank": 2492, 
  "unabhängige": 2493, 
  "davor": 2494, 
  "Sozialdemokraten": 2495, 
  "schwerwiegende": 2496, 
  "ange@@": 2497, 
  "Organisation": 2498, 
  "bel@@": 2499, 
  "eingehalten": 2500, 
  "laufenden": 2501, 
  "Laufe": 2502, 
  "3.": 2503, 
  "nehme": 2504, 
  "ü@@": 2505, 
  "jener": 2506, 
  "Rechtsstaatlichkeit": 2507, 
  "ergibt": 2508, 
  "programm": 2509, 
  "Beteiligten": 2510, 
  "verteilt": 2511, 
  "Fassung": 2512, 
  "gel@@": 2513, 
  "anerkannt": 2514, 
  "befürwortet": 2515, 
  "beantworten": 2516, 
  "anderes": 2517, 
  "beschließen": 2518, 
  "kurzfristigen": 2519, 
  "nachmittag": 2520, 
  "erlauben": 2521, 
  "gegenwärtige": 2522, 
  "Vorsitz": 2523, 
  "erung": 2524, 
  "israelischen": 2525, 
  "Schiff": 2526, 
  "Kodex": 2527, 
  "Zusammen@@": 2528, 
  "Verwirklichung": 2529, 
  "Respekt": 2530, 
  "Ausstellung": 2531, 
  "greifen": 2532, 
  "beeinträchtigt": 2533, 
  "verändert": 2534, 
  "Definition": 2535, 
  "Stoffe": 2536, 
  "Stadt": 2537, 
  "Justiz@@": 2538, 
  "Gesellschaften": 2539, 
  "Stenzel": 2540, 
  "konstitutionelle": 2541, 
  "genetisch": 2542, 
  "Tätigkeiten": 2543, 
  "möglichkeiten": 2544, 
  "Haushaltskontrolle": 2545, 
  "1993": 2546, 
  "Toleranz": 2547, 
  "Grundwerte": 2548, 
  "gten": 2549, 
  "Europäer": 2550, 
  "Beachtung": 2551, 
  "wollten": 2552, 
  "men@@": 2553, 
  "Bes@@": 2554, 
  "Plan": 2555, 
  "messen": 2556, 
  "zukünftigen": 2557, 
  "Tierernährung": 2558, 
  "wirksamer": 2559, 
  "Entwicklungspolitik": 2560, 
  "Dauer": 2561, 
  "Bediensteten": 2562, 
  "Entschließungen": 2563, 
  "Medien": 2564, 
  "Sozial@@": 2565, 
  "Reformprozeß": 2566, 
  "ausgeschlossen": 2567, 
  "möge": 2568, 
  "Zivilgesellschaft": 2569, 
  "Ungleichheiten": 2570, 
  "Organismen": 2571, 
  "vorzu@@": 2572, 
  "Minderheit": 2573, 
  "Sanktionen": 2574, 
  "Agrar@@": 2575, 
  "Polizei": 2576, 
  "stehende": 2577, 
  "Gremium": 2578, 
  "Byrne": 2579, 
  "Schüssel": 2580, 
  "einzubeziehen": 2581, 
  "sozusagen": 2582, 
  "April": 2583, 
  "erstes": 2584, 
  "erörtern": 2585, 
  "Einzel@@": 2586, 
  "la@@": 2587, 
  "versch@@": 2588, 
  "darlegen": 2589, 
  "Sturm": 2590, 
  "besch@@": 2591, 
  "gefragt": 2592, 
  "seiten": 2593, 
  "14.": 2594, 
  "stolz": 2595, 
  "zugänglich": 2596, 
  "behaupten": 2597, 
  "Veränderung": 2598, 
  "sieben": 2599, 
  "Argument": 2600, 
  "vornehmen": 2601, 
  "Kompetenzen": 2602, 
  "nicht@@": 2603, 
  "Einzelheiten": 2604, 
  "beeinträchtigen": 2605, 
  "wiederhole": 2606, 
  "anders": 2607, 
  "leicht": 2608, 
  "gewähren": 2609, 
  "gerechtfertigt": 2610, 
  "81": 2611, 
  "erheblich": 2612, 
  "Stahlbeihilfenkodex": 2613, 
  "ausgerichtet": 2614, 
  "Pro": 2615, 
  "bedroht": 2616, 
  "benötigt": 2617, 
  "Gewerkschaften": 2618, 
  "Einwanderung": 2619, 
  "de@@": 2620, 
  "rechtliche": 2621, 
  "Resolution": 2622, 
  "vorrangig": 2623, 
  "schwere": 2624, 
  "wettbewerbs@@": 2625, 
  "Mensch": 2626, 
  "Abkommens": 2627, 
  "lage": 2628, 
  "Tisch": 2629, 
  "palästinensischen": 2630, 
  "Einberufung": 2631, 
  "Bau": 2632, 
  "Nicht@@": 2633, 
  "Antworten": 2634, 
  "willkommen": 2635, 
  "gefährdet": 2636, 
  "bemühen": 2637, 
  "auftreten": 2638, 
  "stre@@": 2639, 
  "Volks@@": 2640, 
  "ersetzt": 2641, 
  "Mitgliedern": 2642, 
  "hingegen": 2643, 
  "Funktion": 2644, 
  "Mitwirkung": 2645, 
  "Gemeinschaftsrecht": 2646, 
  "gemeinsamer": 2647, 
  "umsetzen": 2648, 
  "Verlaufe": 2649, 
  "kritischen": 2650, 
  "Garantien": 2651, 
  "Vorgaben": 2652, 
  "europäisches": 2653, 
  "Sicherheits@@": 2654, 
  "verlieren": 2655, 
  "los": 2656, 
  "zwei@@": 2657, 
  "strukturen": 2658, 
  "ausgesetzt": 2659, 
  "zi@@": 2660, 
  "Dienst": 2661, 
  "einzelstaatlichen": 2662, 
  "Abschaffung": 2663, 
  "Renationalisierung": 2664, 
  "Wahl@@": 2665, 
  "isches": 2666, 
  "zwingen": 2667, 
  "genehmigt": 2668, 
  "wodurch": 2669, 
  "unmöglich": 2670, 
  "fe": 2671, 
  "Modell": 2672, 
  "gelöst": 2673, 
  "Wahrung": 2674, 
  "Beispiele": 2675, 
  "getragen": 2676, 
  "Ausgaben": 2677, 
  "angemessene": 2678, 
  "Organen": 2679, 
  "Ernennung": 2680, 
  "Augenblick": 2681, 
  "Al@@": 2682, 
  "finnischen": 2683, 
  "fassen": 2684, 
  "Gefahren": 2685, 
  "gefallen": 2686, 
  "Standpunkte": 2687, 
  "Zuge": 2688, 
  "8": 2689, 
  "Immigranten": 2690, 
  "transnationalen": 2691, 
  "legt": 2692, 
  "hängt": 2693, 
  "Kontinent": 2694, 
  "Kapital": 2695, 
  "müsse": 2696, 
  "Arbeitsprogramm": 2697, 
  "geschrieben": 2698, 
  "geographischen": 2699, 
  "ger@@": 2700, 
  "integriert": 2701, 
  "wiederholt": 2702, 
  "gegebenen": 2703, 
  "überdenken": 2704, 
  "früher": 2705, 
  "ene": 2706, 
  "Identität": 2707, 
  "oftmals": 2708, 
  "einheitlichen": 2709, 
  "st": 2710, 
  "erörtert": 2711, 
  "Signal": 2712, 
  "Konsens": 2713, 
  "einbeziehen": 2714, 
  "Quästoren": 2715, 
  "wirkliche": 2716, 
  "Bereitstellung": 2717, 
  "Mittwoch": 2718, 
  "seitens": 2719, 
  "Umstrukturierung": 2720, 
  "definiert": 2721, 
  "i": 2722, 
  "schneller": 2723, 
  "dritten": 2724, 
  "hervor@@": 2725, 
  "tax": 2726, 
  "zuzustimmen": 2727, 
  "Wichtigkeit": 2728, 
  "ers": 2729, 
  "gewählte": 2730, 
  "liegenden": 2731, 
  "all@@": 2732, 
  "hei@@": 2733, 
  "Lasten": 2734, 
  "drängen": 2735, 
  "genden": 2736, 
  "sorgfältig": 2737, 
  "genannt": 2738, 
  "bedauern": 2739, 
  "Geld@@": 2740, 
  "Schwerpunkt": 2741, 
  "Verantwortlichen": 2742, 
  "entgegen": 2743, 
  "Verbindungen": 2744, 
  "gleichermaßen": 2745, 
  "angeblich": 2746, 
  "tisch": 2747, 
  "Verbraucherpolitik": 2748, 
  "interinstitutionellen": 2749, 
  "Volksgesundheit": 2750, 
  "Aussagen": 2751, 
  "diesbezüglichen": 2752, 
  "Handel": 2753, 
  "letztlich": 2754, 
  "Beitritt": 2755, 
  "ell": 2756, 
  "eingehend": 2757, 
  "ir@@": 2758, 
  "verehrten": 2759, 
  "ausgezeichnete": 2760, 
  "wahren": 2761, 
  "Ziffer": 2762, 
  "Zielsetzung": 2763, 
  "kleineren": 2764, 
  "bedanken": 2765, 
  "amtierenden": 2766, 
  "grundlegender": 2767, 
  "Mechanismen": 2768, 
  "Roma": 2769, 
  "zer@@": 2770, 
  "schaft": 2771, 
  "zentralen": 2772, 
  "Berend": 2773, 
  "bedürfen": 2774, 
  "denjenigen": 2775, 
  "Gerichten": 2776, 
  "verschiedener": 2777, 
  "Haushaltsjahr": 2778, 
  "Leistungen": 2779, 
  "geraten": 2780, 
  "vorab": 2781, 
  "Verschmutzung": 2782, 
  "Haushaltsordnung": 2783, 
  "Dokumenten": 2784, 
  "untersuchen": 2785, 
  "Beratung": 2786, 
  "wachsam": 2787, 
  "voll@@": 2788, 
  "Welthandelsorganisation": 2789, 
  "derartigen": 2790, 
  "Fusionen": 2791, 
  "Führung": 2792, 
  "überwachen": 2793, 
  "gebildet": 2794, 
  "zuvor": 2795, 
  "ausgearbeitet": 2796, 
  "isten": 2797, 
  "Bürgerbeauftragten": 2798, 
  "Schwerpunkte": 2799, 
  "wünschenswert": 2800, 
  "Entsendung": 2801, 
  "wählen": 2802, 
  "äre": 2803, 
  "gerufen": 2804, 
  "hilfreich": 2805, 
  "fa@@": 2806, 
  "isierung": 2807, 
  "Programmplanungszeitraum": 2808, 
  "zurückzuführen": 2809, 
  "Konservativen": 2810, 
  "Problems": 2811, 
  "miß@@": 2812, 
  "läuft": 2813, 
  "bewegen": 2814, 
  "Verwaltungen": 2815, 
  "bereitgestellt": 2816, 
  "inakzeptabel": 2817, 
  "Entwicklungspartnerschaften": 2818, 
  "grundlegenden": 2819, 
  "verwiesen": 2820, 
  "beweisen": 2821, 
  "unzureichend": 2822, 
  "generell": 2823, 
  "barer": 2824, 
  "gender": 2825, 
  "formuliert": 2826, 
  "Konsequenzen": 2827, 
  "enorme": 2828, 
  "barkeit": 2829, 
  "herrscht": 2830, 
  "rich@@": 2831, 
  "erteilt": 2832, 
  "Finnland": 2833, 
  "heraus@@": 2834, 
  "vorhandenen": 2835, 
  "Erfolge": 2836, 
  "Ich": 2837, 
  "22": 2838, 
  "inwieweit": 2839, 
  "bevorstehende": 2840, 
  "alisierung": 2841, 
  "di@@": 2842, 
  "Inselregionen": 2843, 
  "Anhörung": 2844, 
  "Strafrecht": 2845, 
  "Kooperations@@": 2846, 
  "Sachverständigen": 2847, 
  "Fristen": 2848, 
  "miteinander": 2849, 
  "nachdenken": 2850, 
  "befürchten": 2851, 
  "erhebliche": 2852, 
  "Weisen": 2853, 
  "Vorbehalte": 2854, 
  "dieselben": 2855, 
  "besitzen": 2856, 
  "Schlußfolgerung": 2857, 
  "veröffentlicht": 2858, 
  "Mißwirtschaft": 2859, 
  "ökonomische": 2860, 
  "beruht": 2861, 
  "finanziell": 2862, 
  "verschoben": 2863, 
  "Friedens": 2864, 
  "israelische": 2865, 
  "ähnliche": 2866, 
  "Agrarpolitik": 2867, 
  "Autorität": 2868, 
  "che": 2869, 
  "befindet": 2870, 
  "Errichtung": 2871, 
  "beziehe": 2872, 
  "at": 2873, 
  "Regierungschefs": 2874, 
  "komplizierten": 2875, 
  "vorher": 2876, 
  "erläutern": 2877, 
  "Barak": 2878, 
  "Israelis": 2879, 
  "gebiet": 2880, 
  "Anteil": 2881, 
  "nen": 2882, 
  "Ansätze": 2883, 
  "beibehalten": 2884, 
  "vorankommen": 2885, 
  "Steigerung": 2886, 
  "demzufolge": 2887, 
  "geeignete": 2888, 
  "befürworte": 2889, 
  "hohes": 2890, 
  "sozialer": 2891, 
  "mindestens": 2892, 
  "ischem": 2893, 
  "Wirtschaftspolitik": 2894, 
  "organisierten": 2895, 
  "EUROPOL": 2896, 
  "schreiben": 2897, 
  "aler": 2898, 
  "spüren": 2899, 
  "ernste": 2900, 
  "ken": 2901, 
  "tungen": 2902, 
  "ohnehin": 2903, 
  "Artikels": 2904, 
  "Gewicht": 2905, 
  "fes@@": 2906, 
  "vollständige": 2907, 
  "bezahlen": 2908, 
  "derzeitige": 2909, 
  "appelliere": 2910, 
  "effizienter": 2911, 
  "leiden": 2912, 
  "gewählt": 2913, 
  "ist@@": 2914, 
  "Großteil": 2915, 
  "legitim": 2916, 
  "durchsetzen": 2917, 
  "einzelne": 2918, 
  "bereitgestellten": 2919, 
  "gedacht": 2920, 
  "vorbereitet": 2921, 
  "gestellten": 2922, 
  "Studien": 2923, 
  "überlegen": 2924, 
  "Verabschiedung": 2925, 
  "aktuellen": 2926, 
  "schließe": 2927, 
  "Reformierung": 2928, 
  "bedenken": 2929, 
  "unterschiedliche": 2930, 
  "ökologische": 2931, 
  "richtigen": 2932, 
  "ni@@": 2933, 
  "Einwohner": 2934, 
  "bt": 2935, 
  "ne": 2936, 
  "leiten": 2937, 
  "schwerwiegenden": 2938, 
  "bereiten": 2939, 
  "auseinandersetzen": 2940, 
  "erläutert": 2941, 
  "Werten": 2942, 
  "beendet": 2943, 
  "festzustellen": 2944, 
  "V@@": 2945, 
  "Leute": 2946, 
  "Akzeptanz": 2947, 
  "grenz@@": 2948, 
  "Vorstellungen": 2949, 
  "at@@": 2950, 
  "enttäuscht": 2951, 
  "aufge@@": 2952, 
  "integrierten": 2953, 
  "höchste": 2954, 
  "Übertragung": 2955, 
  "Förder@@": 2956, 
  "Ölpest": 2957, 
  "Subventionen": 2958, 
  "kompliziert": 2959, 
  "nachvollziehen": 2960, 
  "Ratspräsidenten": 2961, 
  "Zielsetzungen": 2962, 
  "Umweltkatastrophe": 2963, 
  "menschlichen": 2964, 
  "Ideologie": 2965, 
  "Wettbewerbsrecht": 2966, 
  "ben@@": 2967, 
  "pro@@": 2968, 
  "erwarte": 2969, 
  "Umfeld": 2970, 
  "höhere": 2971, 
  "Kommunikation": 2972, 
  "Rahmenbedingungen": 2973, 
  "Perspektive": 2974, 
  "historische": 2975, 
  "EGKS": 2976, 
  "Wiederaufnahme": 2977, 
  "Tausende": 2978, 
  "Schreiben": 2979, 
  "verursachen": 2980, 
  "viel@@": 2981, 
  "glichen": 2982, 
  "Verzögerungen": 2983, 
  "umgehend": 2984, 
  "PHARE": 2985, 
  "wissenschaftliche": 2986, 
  "auffordern": 2987, 
  "übermitteln": 2988, 
  "mündlichen": 2989, 
  "zweiter": 2990, 
  "al": 2991, 
  "zei@@": 2992, 
  "innovative": 2993, 
  "ESF": 2994, 
  "Haupt@@": 2995, 
  "Erreichung": 2996, 
  "Menge": 2997, 
  "regelmäßig": 2998, 
  "Angleichung": 2999, 
  "Unfälle": 3000, 
  "Unternehmer": 3001, 
  "hören": 3002, 
  "Umstände": 3003, 
  "zuzu@@": 3004, 
  "einräumen": 3005, 
  "Material": 3006, 
  "konstruktiven": 3007, 
  "Verteilung": 3008, 
  "festlegen": 3009, 
  "spezifische": 3010, 
  "Schulung": 3011, 
  "aufgegriffen": 3012, 
  "gelangt": 3013, 
  "Betracht": 3014, 
  "Schiene": 3015, 
  "Sicherheitsberater": 3016, 
  "Verkehrs@@": 3017, 
  "ro@@": 3018, 
  "vertrete": 3019, 
  "niederländischen": 3020, 
  "gewaltigen": 3021, 
  "Inkrafttreten": 3022, 
  "ausgewogene": 3023, 
  "Abänderungsantrag": 3024, 
  "Oktober": 3025, 
  "ern@@": 3026, 
  "Schweden": 3027, 
  "verbindliche": 3028, 
  "tä@@": 3029, 
  "Zahlen": 3030, 
  "94": 3031, 
  "Finanzierungs@@": 3032, 
  "überprüft": 3033, 
  "relativ": 3034, 
  "britische": 3035, 
  "vereinbart": 3036, 
  "Oldtimer": 3037, 
  "gespielt": 3038, 
  "ausschusses": 3039, 
  "-@@": 3040, 
  "belgischen": 3041, 
  "Entwurfs": 3042, 
  "Rande": 3043, 
  "Mai": 3044, 
  "Beschlüssen": 3045, 
  "Freitag": 3046, 
  "Ma@@": 3047, 
  "eigentliche": 3048, 
  "Jahres@@": 3049, 
  "GVO": 3050, 
  "Antibiotika": 3051, 
  "begründen": 3052, 
  "förderfähigen": 3053, 
  "falls": 3054, 
  "EURODAC": 3055, 
  "Roth": 3056, 
  "ausreichen": 3057, 
  "istischen": 3058, 
  "anstreben": 3059, 
  "ignorieren": 3060, 
  "angekündigt": 3061, 
  "verstärkt": 3062, 
  "Lehren": 3063, 
  "Monat": 3064, 
  "Behrendt": 3065, 
  "ums": 3066, 
  "Gegen@@": 3067, 
  "fand": 3068, 
  "Sitz": 3069, 
  "getreten": 3070, 
  "ö@@": 3071, 
  "Mängel": 3072, 
  "anerkennt": 3073, 
  "juristischen": 3074, 
  "Annäherung": 3075, 
  "gebraucht": 3076, 
  "Erwägung": 3077, 
  "Ausschüsse": 3078, 
  "abgegeben": 3079, 
  "Welt@@": 3080, 
  "vorherigen": 3081, 
  "i@@": 3082, 
  "Meeres@@": 3083, 
  "stes": 3084, 
  "Haushaltsausschuß": 3085, 
  "Unzulänglichkeiten": 3086, 
  "Betrieb": 3087, 
  "Finanzkontrolleur": 3088, 
  "Wasser": 3089, 
  "welchem": 3090, 
  "Auffassungen": 3091, 
  "Ausbau": 3092, 
  "Effektivität": 3093, 
  "interregionale": 3094, 
  "Konsultationen": 3095, 
  "isolieren": 3096, 
  "BSE": 3097, 
  "Auto@@": 3098, 
  "verhalten": 3099, 
  "erweitern": 3100, 
  "willen": 3101, 
  "27": 3102, 
  "dient": 3103, 
  "Amt": 3104, 
  "Zentralbank": 3105, 
  "unerläßlich": 3106, 
  "tion": 3107, 
  "Recht@@": 3108, 
  "tritt": 3109, 
  "gend": 3110, 
  "2@@": 3111, 
  "praktischen": 3112, 
  "21.": 3113, 
  "hervor": 3114, 
  "entsorgt": 3115, 
  "überprüfen": 3116, 
  "Auslaufen": 3117, 
  "gründet": 3118, 
  "voller": 3119, 
  "unverzichtbar": 3120, 
  "regionaler": 3121, 
  "96": 3122, 
  "Leistung": 3123, 
  "stärkeren": 3124, 
  "zügig": 3125, 
  "geblieben": 3126, 
  "dargelegt": 3127, 
  "klarstellen": 3128, 
  "teil@@": 3129, 
  "dauerhaften": 3130, 
  "Spiel": 3131, 
  "emp@@": 3132, 
  "a": 3133, 
  "reagiert": 3134, 
  "viertens": 3135, 
  "ärmsten": 3136, 
  "Verfahrens@@": 3137, 
  "verbessert": 3138, 
  "lesen": 3139, 
  "C": 3140, 
  "echten": 3141, 
  "verstärkte": 3142, 
  "Überwindung": 3143, 
  "Status": 3144, 
  "Protokolls": 3145, 
  "geplanten": 3146, 
  "hoffentlich": 3147, 
  "Hälfte": 3148, 
  "Bestrebungen": 3149, 
  "bereichen": 3150, 
  "enorm": 3151, 
  "klären": 3152, 
  "Zeitraums": 3153, 
  "ausgeht": 3154, 
  "Büros": 3155, 
  "gewidmet": 3156, 
  "geltende": 3157, 
  "grundlegend": 3158, 
  "industrie": 3159, 
  "Angebot": 3160, 
  "Wissenschaftlern": 3161, 
  "interregionalen": 3162, 
  "Energie@@": 3163, 
  "gebe": 3164, 
  "zusätzliche": 3165, 
  "zollen": 3166, 
  "Großbritannien": 3167, 
  "derartiger": 3168, 
  "li@@": 3169, 
  "aufs": 3170, 
  "gste": 3171, 
  "Platz": 3172, 
  "außen": 3173, 
  "82": 3174, 
  "Finanztransaktionen": 3175, 
  "Öl": 3176, 
  "tigkeit": 3177, 
  "höheren": 3178, 
  "Beobachtungsstelle": 3179, 
  "jeweils": 3180, 
  "funktionieren": 3181, 
  "Ber@@": 3182, 
  "Anträge": 3183, 
  "freiheit": 3184, 
  "In": 3185, 
  "weg": 3186, 
  "Wandel": 3187, 
  "keinesfalls": 3188, 
  "prozeß": 3189, 
  "si@@": 3190, 
  "ausführliche": 3191, 
  "tem": 3192, 
  "herausstellen": 3193, 
  "heißen": 3194, 
  "Betrag": 3195, 
  "Pfeiler": 3196, 
  "bewertet": 3197, 
  "anerkennen": 3198, 
  "beizutragen": 3199, 
  "genaue": 3200, 
  "grundsätzliche": 3201, 
  "erter": 3202, 
  "Professor": 3203, 
  "ausführlich": 3204, 
  "Problem@@": 3205, 
  "Tonnen": 3206, 
  "Betroffenen": 3207, 
  "scoreboard": 3208, 
  "ma@@": 3209, 
  "heutige": 3210, 
  "Liberalisierung": 3211, 
  "englischen": 3212, 
  "zumal": 3213, 
  "tre@@": 3214, 
  "j@@": 3215, 
  "J@@": 3216, 
  "Alter": 3217, 
  "istische": 3218, 
  "verk@@": 3219, 
  "ordnungsgemäße": 3220, 
  "Inseln": 3221, 
  "kritisch": 3222, 
  "ker": 3223, 
  "chte": 3224, 
  "Flagge": 3225, 
  "beantwortet": 3226, 
  "Berlin": 3227, 
  "Aktionsplan": 3228, 
  "ler": 3229, 
  "bewiesen": 3230, 
  "Vorschlags": 3231, 
  "erinnere": 3232, 
  "DE": 3233, 
  "bauen": 3234, 
  "Fischler": 3235, 
  "1992": 3236, 
  "mündliche": 3237, 
  "Sp@@": 3238, 
  "Sicherung": 3239, 
  "Automobilhersteller": 3240, 
  "Rechtsausschuß": 3241, 
  "diesmal": 3242, 
  "Küsten": 3243, 
  "fer@@": 3244, 
  "Arbeitsgruppe": 3245, 
  "Strukturpolitik": 3246, 
  "extremen": 3247, 
  "stätigkeit": 3248, 
  "Poettering": 3249, 
  "Wurtz": 3250, 
  "it@@": 3251, 
  "Küste": 3252, 
  "private": 3253, 
  "Wettbewerbsregeln": 3254, 
  "Handlungs@@": 3255, 
  "mangelt": 3256, 
  "grenzen": 3257, 
  "folgenden": 3258, 
  "Entschließungsanträge": 3259, 
  "Ausnahme": 3260, 
  "ie": 3261, 
  "Gesamtheit": 3262, 
  "betone": 3263, 
  "Schwächen": 3264, 
  "amtierende": 3265, 
  "Äußerungen": 3266, 
  "solches": 3267, 
  "gleichwohl": 3268, 
  "Stellungnahmen": 3269, 
  "keineswegs": 3270, 
  "Hoch@@": 3271, 
  "unverzüglich": 3272, 
  "85": 3273, 
  "Familien": 3274, 
  "Küstenregionen": 3275, 
  "Aktionsprogramm": 3276, 
  "See": 3277, 
  "Gestaltung": 3278, 
  "Kooperation": 3279, 
  "Regierungs@@": 3280, 
  "rä@@": 3281, 
  "erweist": 3282, 
  "weitem": 3283, 
  "Karas": 3284, 
  "mittel": 3285, 
  "rechtzeitig": 3286, 
  "Studie": 3287, 
  "Mitgliedstaats": 3288, 
  "einfachen": 3289, 
  "Regelwerk": 3290, 
  "Taten": 3291, 
  "Brok": 3292, 
  "Personal@@": 3293, 
  "niveau": 3294, 
  "versteht": 3295, 
  "verwirklichen": 3296, 
  "Problematik": 3297, 
  "Abstimmungen": 3298, 
  "hinfällig": 3299, 
  "fragt": 3300, 
  "34": 3301, 
  "sogenannte": 3302, 
  "auferlegt": 3303, 
  "groß": 3304, 
  "folglich": 3305, 
  "f": 3306, 
  "70": 3307, 
  "Fehl@@": 3308, 
  "aufbauen": 3309, 
  "alt": 3310, 
  "mußte": 3311, 
  "stützt": 3312, 
  "45": 3313, 
  "Mobilität": 3314, 
  "Termin": 3315, 
  "Dokumente": 3316, 
  "Ur@@": 3317, 
  "Zulassung": 3318, 
  "betreiben": 3319, 
  "Kompromiß@@": 3320, 
  "Subsidiaritätsprinzip": 3321, 
  "anschließend": 3322, 
  "Gewalt": 3323, 
  "Futtermitteln": 3324, 
  "Naturkatastrophen": 3325, 
  "automatisch": 3326, 
  "erfaßt": 3327, 
  "vollem": 3328, 
  "tiert": 3329, 
  "Seele": 3330, 
  "Grenz@@": 3331, 
  "ethnischen": 3332, 
  "Zunahme": 3333, 
  "einfache": 3334, 
  "Christdemokraten": 3335, 
  "Leinen": 3336, 
  "eingebrachten": 3337, 
  "Evans": 3338, 
  "Personal": 3339, 
  "streng": 3340, 
  "Spanien": 3341, 
  "beklagen": 3342, 
  "Klima": 3343, 
  "Beschäftigungspolitik": 3344, 
  "UN": 3345, 
  "dänische": 3346, 
  "gestattet": 3347, 
  "gefährden": 3348, 
  "ber@@": 3349, 
  "Tod": 3350, 
  "zuständige": 3351, 
  "Versuch": 3352, 
  "gezahlt": 3353, 
  "Kinder": 3354, 
  "Reding": 3355, 
  "Haushalts": 3356, 
  "worum": 3357, 
  "Parlamenten": 3358, 
  "Produkt": 3359, 
  "international": 3360, 
  "alität": 3361, 
  "ausüben": 3362, 
  "alismus": 3363, 
  "Presse": 3364, 
  "Rechnungshof": 3365, 
  "informiert": 3366, 
  "sozio": 3367, 
  "det": 3368, 
  "eb@@": 3369, 
  "Verbrechen": 3370, 
  "Verbesserungen": 3371, 
  "Erstellung": 3372, 
  "uneingeschränkte": 3373, 
  "Programm@@": 3374, 
  "schützen": 3375, 
  "breiten": 3376, 
  "liefern": 3377, 
  "erwiesen": 3378, 
  "rech@@": 3379, 
  "erleichtern": 3380, 
  "tatsächlichen": 3381, 
  "fährt": 3382, 
  "ratifiziert": 3383, 
  "Kern@@": 3384, 
  "Frei@@": 3385, 
  "Einwände": 3386, 
  "Man@@": 3387, 
  "schenken": 3388, 
  "einzugehen": 3389, 
  "Bewußtsein": 3390, 
  "geltend": 3391, 
  "keinem": 3392, 
  "geplant": 3393, 
  "verteidigt": 3394, 
  "droht": 3395, 
  "effiziente": 3396, 
  "offen@@": 3397, 
  "gebilligt": 3398, 
  "Quote": 3399, 
  "interessanten": 3400, 
  "Miß@@": 3401, 
  "chten": 3402, 
  "nukleare": 3403, 
  "gesellschaftlichen": 3404, 
  "überwunden": 3405, 
  "16": 3406, 
  "unklar": 3407, 
  "bestimmungen": 3408, 
  "Situationen": 3409, 
  "Prozesses": 3410, 
  "hinzu": 3411, 
  "Märkten": 3412, 
  "Betrugsbekämpfung": 3413, 
  "Herstellung": 3414, 
  "historischen": 3415, 
  "vernommen": 3416, 
  "ehe": 3417, 
  "Gemeinschaftspolitiken": 3418, 
  "fonds": 3419, 
  "Freiheiten": 3420, 
  "zuerst": 3421, 
  "transnationale": 3422, 
  "tagtäglich": 3423, 
  "Wirkung": 3424, 
  "Gang": 3425, 
  "min@@": 3426, 
  "verzeichnen": 3427, 
  "o@@": 3428, 
  "gefährliche": 3429, 
  "Technologien": 3430, 
  "Österreicher": 3431, 
  "Kräfte": 3432, 
  "Kapitel": 3433, 
  "Wasser@@": 3434, 
  "Register": 3435, 
  "kurzen": 3436, 
  "wert": 3437, 
  "rechte": 3438, 
  "nt": 3439, 
  "geleistete": 3440, 
  "Innovation": 3441, 
  "ca.": 3442, 
  "Zeichen": 3443, 
  "Liberale": 3444, 
  "Ebenen": 3445, 
  "wertvolle": 3446, 
  "deutsche": 3447, 
  "gungen": 3448, 
  "ff@@": 3449, 
  "Swoboda": 3450, 
  "Männer": 3451, 
  "bedingungen": 3452, 
  "Mindest@@": 3453, 
  "Stimmen": 3454, 
  "Vermittlungsverfahren": 3455, 
  "jederzeit": 3456, 
  "stellte": 3457, 
  "Einschätzung": 3458, 
  "legislative": 3459, 
  "Belastung": 3460, 
  "Gerichtshofs": 3461, 
  "Bedürfnisse": 3462, 
  "Vizepräsident": 3463, 
  "Vetternwirtschaft": 3464, 
  "Demontage": 3465, 
  "Vertrags@@": 3466, 
  "gefaßt": 3467, 
  "SV": 3468, 
  "tenden": 3469, 
  "interessant": 3470, 
  "behörden": 3471, 
  "abhängig": 3472, 
  "Drittstaaten": 3473, 
  "amerikanischen": 3474, 
  "Standards": 3475, 
  "ausgelöst": 3476, 
  "fördert": 3477, 
  "Vertraulichkeit": 3478, 
  "Parlamentarier": 3479, 
  "liberalen": 3480, 
  "Mißbrauch": 3481, 
  "mittels": 3482, 
  "gliche": 3483, 
  "persönliche": 3484, 
  "stattfindet": 3485, 
  "terung": 3486, 
  "lagen": 3487, 
  "Experten": 3488, 
  "ausgeführt": 3489, 
  "Bereichs": 3490, 
  "realen": 3491, 
  "anderthalb": 3492, 
  "überarbeitet": 3493, 
  "benutzen": 3494, 
  "Programmplanung": 3495, 
  "tlichen": 3496, 
  "Gleichbehandlung": 3497, 
  "schlecht": 3498, 
  "lernen": 3499, 
  "gezielt": 3500, 
  "Einwanderer": 3501, 
  "Kommunen": 3502, 
  "zunehmen": 3503, 
  "Zeiten": 3504, 
  "knappen": 3505, 
  "sämtlichen": 3506, 
  "ökonomischen": 3507, 
  "Verursacherprinzip": 3508, 
  "verweist": 3509, 
  "Behinderten": 3510, 
  "il@@": 3511, 
  "gewünscht": 3512, 
  "ALTENER": 3513, 
  "Informationsgesellschaft": 3514, 
  "oben": 3515, 
  "Periodischen": 3516, 
  "voraus": 3517, 
  "tere": 3518, 
  "Funktionsweise": 3519, 
  "Fisch@@": 3520, 
  "globale": 3521, 
  "Bolkestein": 3522, 
  "punkten": 3523, 
  "immerhin": 3524, 
  "Produkte": 3525, 
  "standen": 3526, 
  "fall": 3527, 
  "Beschreibung": 3528, 
  "Inter@@": 3529, 
  "Rahmen@@": 3530, 
  "ordnung": 3531, 
  "ungsin@@": 3532, 
  "Erfassung": 3533, 
  "Systeme": 3534, 
  "Fortsetzung": 3535, 
  "Übergang": 3536, 
  "offenen": 3537, 
  "geschenkt": 3538, 
  "Reduzierung": 3539, 
  "Ausgleich": 3540, 
  "ales": 3541, 
  "geklärt": 3542, 
  "Lama": 3543, 
  "Positionen": 3544, 
  "lege": 3545, 
  "Kürze": 3546, 
  "fassung": 3547, 
  "Kontakte": 3548, 
  "chinesischen": 3549, 
  "anten": 3550, 
  "möglicher": 3551, 
  "besorgt": 3552, 
  "spekulative": 3553, 
  "bedeutende": 3554, 
  "langem": 3555, 
  "tische": 3556, 
  "hervorgeht": 3557, 
  "Monopole": 3558, 
  "beteiligen": 3559, 
  "am@@": 3560, 
  "sprachen": 3561, 
  "Orientierung": 3562, 
  "vertritt": 3563, 
  "größer": 3564, 
  "befürchte": 3565, 
  "vermitteln": 3566, 
  "erstellen": 3567, 
  "Aktionsgruppen": 3568, 
  "kurze": 3569, 
  "Unions@@": 3570, 
  "lungs@@": 3571, 
  "stoßen": 3572, 
  "lichem": 3573, 
  "mittelständischen": 3574, 
  "Grenzregionen": 3575, 
  "Wähler": 3576, 
  "beunruhigt": 3577, 
  "bestand": 3578, 
  "vorgestellt": 3579, 
  "dritte": 3580, 
  "Partnerschaften": 3581, 
  "kosten": 3582, 
  "ur@@": 3583, 
  "Lebensmittel": 3584, 
  "&apos;": 3585, 
  "Sonder@@": 3586, 
  "Informations@@": 3587, 
  "den@@": 3588, 
  "Anlage": 3589, 
  "ations@@": 3590, 
  "Finanzhilfe": 3591, 
  "Zusammensetzung": 3592, 
  "scher": 3593, 
  "externen": 3594, 
  "effizienten": 3595, 
  "Wortlaut": 3596, 
  "ster": 3597, 
  "lich@@": 3598, 
  "bekräftigt": 3599, 
  "Verlust": 3600, 
  "Albaner": 3601, 
  "Serben": 3602, 
  "29": 3603, 
  "Weißbuchs": 3604, 
  "Mindestnormen": 3605, 
  "fällen": 3606, 
  "tion@@": 3607, 
  "gratulieren": 3608, 
  "Einstimmigkeit": 3609, 
  "Verteidigung": 3610, 
  "schließt": 3611, 
  "wachsen": 3612, 
  "gelesen": 3613, 
  "ri@@": 3614, 
  "werten": 3615, 
  "Geltungsbereich": 3616, 
  "Unterschied": 3617, 
  "rede": 3618, 
  "räumen": 3619, 
  "abgereichertem": 3620, 
  "Verfahrens": 3621, 
  "erlebt": 3622, 
  "per": 3623, 
  "endgültige": 3624, 
  "gungs@@": 3625, 
  "Völkern": 3626, 
  "Verwaltungspraxis": 3627, 
  "erneuerbare": 3628, 
  "lt": 3629, 
  "Verbraucherschutz": 3630, 
  "systematisch": 3631, 
  "begründet": 3632, 
  "geehrten": 3633, 
  "Stabilisierung": 3634, 
  "Genugtuung": 3635, 
  "Anschluß": 3636, 
  "Bevölkerungsgruppen": 3637, 
  "gekennzeichnet": 3638, 
  "lehnt": 3639, 
  "Sozialistischen": 3640, 
  "Aussage": 3641, 
  "sche": 3642, 
  "Texte": 3643, 
  "400": 3644, 
  "Methoden": 3645, 
  "angeführt": 3646, 
  "Hürden": 3647, 
  "Finanzmärkten": 3648, 
  "ck@@": 3649, 
  "zugestimmt": 3650, 
  "vorzuschlagen": 3651, 
  "tr@@": 3652, 
  "weltweiten": 3653, 
  "froh": 3654, 
  "Verkehrssicherheit": 3655, 
  "genügen": 3656, 
  "angekündigten": 3657, 
  "Ruf": 3658, 
  "Beschäftigungsfähigkeit": 3659, 
  "Forstwirtschaft": 3660, 
  "eventuelle": 3661, 
  "Fünfjahresprogramm": 3662, 
  "vonnöten": 3663, 
  "wahrnehmen": 3664, 
  "Aktionspläne": 3665, 
  "Kohäsionspolitik": 3666, 
  "a@@": 3667, 
  "Grundfreiheiten": 3668, 
  "Sozialpolitik": 3669, 
  "Mainstreaming": 3670, 
  "erweiterten": 3671, 
  "logisch": 3672, 
  "Streit@@": 3673, 
  "präzise": 3674, 
  "flexibel": 3675, 
  "Gleichstellungs@@": 3676, 
  "33": 3677, 
  "Bitte": 3678, 
  "erhoben": 3679, 
  "parlamentarische": 3680, 
  "Moura": 3681, 
  "schwieriger": 3682, 
  "Person": 3683, 
  "nahm": 3684, 
  "aktiven": 3685, 
  "Mann": 3686, 
  "tief@@": 3687, 
  "Gesundheits@@": 3688, 
  "Jahrzehnt": 3689, 
  "flexibler": 3690, 
  "EVP": 3691, 
  "hinnehmen": 3692, 
  "Kapitalsteuer": 3693, 
  "Désir": 3694, 
  "Ehre": 3695, 
  "Grenze": 3696, 
  "äch@@": 3697, 
  "globalen": 3698, 
  "Dimitrakopoulos": 3699, 
  "interessieren": 3700, 
  "liefert": 3701, 
  "Vereinfachung": 3702, 
  "Hinweise": 3703, 
  "kleinere": 3704, 
  "gelassen": 3705, 
  "momentan": 3706, 
  "verkehr": 3707, 
  "to@@": 3708, 
  "fort@@": 3709, 
  "gebaut": 3710, 
  "Klassifizierungsgesellschaften": 3711, 
  "Libanon": 3712, 
  "anbelangt": 3713, 
  "Nachbarn": 3714, 
  "ersuchen": 3715, 
  "Mitgliedstaates": 3716, 
  "Veröffentlichung": 3717, 
  "En": 3718, 
  "begrenzen": 3719, 
  "vierzehn": 3720, 
  "fremdenfeindliche": 3721, 
  "ausgewogenen": 3722, 
  "on@@": 3723, 
  "Einmischung": 3724, 
  "Rats@@": 3725, 
  "geh@@": 3726, 
  "Rechtsakte": 3727, 
  "einzubringen": 3728, 
  "Jahrzehnten": 3729, 
  "Stadt@@": 3730, 
  "normalerweise": 3731, 
  "strenge": 3732, 
  "Straßburg": 3733, 
  "aten": 3734, 
  "Ergebnissen": 3735, 
  "Indikatoren": 3736, 
  "plötzlich": 3737, 
  "wenigstens": 3738, 
  "Europe": 3739, 
  "vollen": 3740, 
  "gezwungen": 3741, 
  "ss@@": 3742, 
  "unbe@@": 3743, 
  "leistet": 3744, 
  "zeit": 3745, 
  "zukommt": 3746, 
  "Wahrheit": 3747, 
  "hervorragende": 3748, 
  "Verantwortlichkeiten": 3749, 
  "Regierungshandeln": 3750, 
  "vorhanden": 3751, 
  "lose": 3752, 
  "WTO": 3753, 
  "Verfassung": 3754, 
  "ließen": 3755, 
  "Hafen": 3756, 
  "sicheren": 3757, 
  "Hafenstaatenkontrolle": 3758, 
  "Rednern": 3759, 
  "Sach@@": 3760, 
  "sel@@": 3761, 
  "Ereignis": 3762, 
  "Teile": 3763, 
  "überein": 3764, 
  "18.": 3765, 
  "ber": 3766, 
  "Anhang": 3767, 
  "Begriff": 3768, 
  "konkreter": 3769, 
  "Stärke": 3770, 
  "hergestellt": 3771, 
  "mitunter": 3772, 
  "durchgesetzt": 3773, 
  "Enttäuschung": 3774, 
  "Brüsseler": 3775, 
  "Wertegemeinschaft": 3776, 
  "Parlaments@@": 3777, 
  "Mangel": 3778, 
  "schutzes": 3779, 
  "vorgesehene": 3780, 
  "Demokraten": 3781, 
  "Eröffnung": 3782, 
  "berechtigt": 3783, 
  "durchgeführten": 3784, 
  "Kernaufgaben": 3785, 
  "Existenz": 3786, 
  "reich@@": 3787, 
  "größerer": 3788, 
  "hohem": 3789, 
  "Mission": 3790, 
  "eins": 3791, 
  "sicherer": 3792, 
  "ligen": 3793, 
  "werfen": 3794, 
  "Unregelmäßigkeiten": 3795, 
  "Bestandteile": 3796, 
  "zunehmenden": 3797, 
  "Rechtsrahmen": 3798, 
  "aktuelle": 3799, 
  "niedrige": 3800, 
  "schi@@": 3801, 
  "bürokratische": 3802, 
  "errichten": 3803, 
  "Vielzahl": 3804, 
  "empfehlen": 3805, 
  "persönlichen": 3806, 
  "festen": 3807, 
  "Auslegung": 3808, 
  "gerechte": 3809, 
  "erenden": 3810, 
  "breite": 3811, 
  "kritische": 3812, 
  "Linken": 3813, 
  "Auskunft": 3814, 
  "tisches": 3815, 
  "Bau@@": 3816, 
  "Entscheidungs@@": 3817, 
  "veranlaßt": 3818, 
  "unabhängiger": 3819, 
  "existiert": 3820, 
  "Vernetzung": 3821, 
  "einheitliches": 3822, 
  "wiederaufgenommen": 3823, 
  "Dafürhalten": 3824, 
  "verbergen": 3825, 
  "Kette": 3826, 
  "nachhaltig": 3827, 
  "gentechnisch": 3828, 
  "Tierfutter": 3829, 
  "umfangreiche": 3830, 
  "Weiterentwicklung": 3831, 
  "gebiete": 3832, 
  "fühlen": 3833, 
  "älteren": 3834, 
  "Ausübung": 3835, 
  "einiges": 3836, 
  "modernen": 3837, 
  "qualifizierte": 3838, 
  "fer": 3839, 
  "achtet": 3840, 
  "Aussetzung": 3841, 
  "Entscheidungsfindung": 3842, 
  "Formulierung": 3843, 
  "Teilnahme": 3844, 
  "Ministerpräsident": 3845, 
  "Schlüssel@@": 3846, 
  "sk@@": 3847, 
  "erlaubt": 3848, 
  "ta@@": 3849, 
  "im@@": 3850, 
  "hiermit": 3851, 
  "Rußland": 3852, 
  "tin@@": 3853, 
  "form@@": 3854, 
  "Gesetz": 3855, 
  "ausreichende": 3856, 
  "appellieren": 3857, 
  "r": 3858, 
  "zurückkommen": 3859, 
  "wofür": 3860, 
  "abzuschließen": 3861, 
  "aufgeworfen": 3862, 
  "erklärte": 3863, 
  "Koalition": 3864, 
  "bezahlt": 3865, 
  "Lebensmitteln": 3866, 
  "mu@@": 3867, 
  "Fischereipolitik": 3868, 
  "trag@@": 3869, 
  "steuer": 3870, 
  "CO2": 3871, 
  "gebunden": 3872, 
  "abzubauen": 3873, 
  "dritter": 3874, 
  "ebensowenig": 3875, 
  "I@@": 3876, 
  "brachte": 3877, 
  "Straftatbestände": 3878, 
  "Beschäftigungsstrategie": 3879, 
  "2001": 3880, 
  "einge@@": 3881, 
  "vertrauen": 3882, 
  "beeinflussen": 3883, 
  "erk@@": 3884, 
  "liber@@": 3885, 
  "zahlt": 3886, 
  "Kennzeichnung": 3887, 
  "Hoffnungen": 3888, 
  "Gemeinschaftsrechts": 3889, 
  "mi@@": 3890, 
  "verschaffen": 3891, 
  "heraus": 3892, 
  "Bedingung": 3893, 
  "decken": 3894, 
  "Asyl": 3895, 
  "entscheidungen": 3896, 
  "langsam": 3897, 
  "uneingeschränkt": 3898, 
  "Premierminister": 3899, 
  "Obergrenze": 3900, 
  "übernimmt": 3901, 
  "nachkommen": 3902, 
  "herangezogen": 3903, 
  "Handels@@": 3904, 
  "ich@@": 3905, 
  "birgt": 3906, 
  "Verhaltenskodex": 3907, 
  "betrieben": 3908, 
  "elt": 3909, 
  "offiziell": 3910, 
  "Widerstand": 3911, 
  "lieben": 3912, 
  "Terrón": 3913, 
  "teren": 3914, 
  "denkt": 3915, 
  "Vertiefung": 3916, 
  "sichergestellt": 3917, 
  "ziele": 3918, 
  "geprägt": 3919, 
  "unmittelbare": 3920, 
  "laut": 3921, 
  "beschleunigen": 3922, 
  "unabhängiges": 3923, 
  "eröffnen": 3924, 
  "Willens": 3925, 
  "Tragweite": 3926, 
  "behält": 3927, 
  "gebilligten": 3928, 
  "Verteidigungs@@": 3929, 
  "woran": 3930, 
  "beinhalten": 3931, 
  "Kontroll@@": 3932, 
  "dlichen": 3933, 
  "laden": 3934, 
  "erer": 3935, 
  "Barón": 3936, 
  "genauer": 3937, 
  "mögen": 3938, 
  "21": 3939, 
  "Licht": 3940, 
  "tischen": 3941, 
  "Sonderbeauftragten": 3942, 
  "Zivilisation": 3943, 
  "geäußerten": 3944, 
  "Dialogs": 3945, 
  "jungen": 3946, 
  "dürften": 3947, 
  "Bundeskanzler": 3948, 
  "begünstigt": 3949, 
  "se": 3950, 
  "jährigen": 3951, 
  "Sachkenntnis": 3952, 
  "Nationalstaaten": 3953, 
  "rechtlicher": 3954, 
  "schrittweise": 3955, 
  "schlechte": 3956, 
  "Dalai": 3957, 
  "Strafverfolgung": 3958, 
  "tra@@": 3959, 
  "teilt": 3960, 
  "Rechenschaftspflicht": 3961, 
  "hand@@": 3962, 
  "Hände": 3963, 
  "ziert": 3964, 
  "betrachte": 3965, 
  "relativen": 3966, 
  "grundsätzlichen": 3967, 
  "Erhalt": 3968, 
  "irgendwann": 3969, 
  "verbindlich": 3970, 
  "vermu@@": 3971, 
  "Sprachen": 3972, 
  "lan@@": 3973, 
  "üblich": 3974, 
  "Mandat": 3975, 
  "Sitzungen": 3976, 
  "COD": 3977, 
  "Nielson": 3978, 
  "verurteilt": 3979, 
  "ban@@": 3980, 
  "schieben": 3981, 
  "vereinbarten": 3982, 
  "tionen": 3983, 
  "Drittel": 3984, 
  "Ratifizierung": 3985, 
  "Tagung": 3986, 
  "tiv": 3987, 
  "98": 3988, 
  "entziehen": 3989, 
  "geringer": 3990, 
  "aussehen": 3991, 
  "Europawahlen": 3992, 
  "Vision": 3993, 
  "Außen-": 3994, 
  "greift": 3995, 
  "Verteidigungspolitik": 3996, 
  "angemessener": 3997, 
  "strenger": 3998, 
  "Reaktoren": 3999, 
  "hen": 4000, 
  "Grad": 4001, 
  "Beratungen": 4002, 
  "blicken": 4003, 
  "Außenminister": 4004, 
  "En@@": 4005, 
  "kritisieren": 4006, 
  "strategie": 4007, 
  "direkten": 4008, 
  "gegenseitige": 4009, 
  "Zwecke": 4010, 
  "zufriedenstellend": 4011, 
  "Dezentralisierung": 4012, 
  "Kandidatenländer": 4013, 
  "Protokolle": 4014, 
  "Kategorien": 4015, 
  "Grenzkontrollen": 4016, 
  "wozu": 4017, 
  "türkischen": 4018, 
  "legte": 4019, 
  "höchster": 4020, 
  "Pro@@": 4021, 
  "Task": 4022, 
  "darzulegen": 4023, 
  "Ausbildungs@@": 4024, 
  "aufkommen": 4025, 
  "et": 4026, 
  "amtierender": 4027, 
  "Bestätigung": 4028, 
  "c": 4029, 
  "Wettbewerbsbehörden": 4030, 
  "Haup@@": 4031, 
  "Montag": 4032, 
  "fe@@": 4033, 
  "begangen": 4034, 
  "Gleichgewichts": 4035, 
  "teils": 4036, 
  "Augenmerk": 4037, 
  "Friedens@@": 4038, 
  "Anmerkungen": 4039, 
  "erfolgte": 4040, 
  "b": 4041, 
  "enn@@": 4042, 
  "verstärkten": 4043, 
  "untereinander": 4044, 
  "potentielle": 4045, 
  "Datum": 4046, 
  "italienische": 4047, 
  "bewe@@": 4048, 
  "neu@@": 4049, 
  "imstande": 4050, 
  "nachgedacht": 4051, 
  "Rechenschaft": 4052, 
  "Teil@@": 4053, 
  "zurückzu@@": 4054, 
  "28": 4055, 
  "gefährlichen": 4056, 
  "beste": 4057, 
  "dern": 4058, 
  "mehr@@": 4059, 
  "geringen": 4060, 
  "unweigerlich": 4061, 
  "ebene": 4062, 
  "Boden": 4063, 
  "Konflikts": 4064, 
  "ssystem": 4065, 
  "tiven": 4066, 
  "Erkenntnisse": 4067, 
  "WWU": 4068, 
  "lä@@": 4069, 
  "zahlreicher": 4070, 
  "Valentinstag": 4071, 
  "mitteln": 4072, 
  "ehrgeizig": 4073, 
  "Seixas": 4074, 
  "geforderten": 4075, 
  "dien@@": 4076, 
  "Außengrenzen": 4077, 
  "entscheidung": 4078, 
  "Graça": 4079, 
  "zielen": 4080, 
  "ran@@": 4081, 
  "sichere": 4082, 
  "Generationen": 4083, 
  "C@@": 4084, 
  "ank@@": 4085, 
  "systems": 4086, 
  "eingeschränkt": 4087, 
  "programms": 4088, 
  "90": 4089, 
  "Op@@": 4090, 
  "Verträgen": 4091, 
  "Erneuerung": 4092, 
  "Autoindustrie": 4093, 
  "kra@@": 4094, 
  "tlicher": 4095, 
  "vermittelt": 4096, 
  "gestehen": 4097, 
  "vollkommen": 4098, 
  "genen": 4099, 
  "ungsverfahren": 4100, 
  "detaillierten": 4101, 
  "Berichterstattern": 4102, 
  "verweigert": 4103, 
  "Vorfälle": 4104, 
  "Einnahmen": 4105, 
  "verweise": 4106, 
  "runde": 4107, 
  "Erfahrungsaustausch": 4108, 
  "Budget": 4109, 
  "widerspricht": 4110, 
  "äu@@": 4111, 
  "führte": 4112, 
  "Unternehmergeist": 4113, 
  "hingenommen": 4114, 
  "angehört": 4115, 
  "entscheidet": 4116, 
  "verteilen": 4117, 
  "angehen": 4118, 
  "agieren": 4119, 
  "rechts": 4120, 
  "Konsequenz": 4121, 
  "Generalstaatsanwaltschaft": 4122, 
  "finanzieren": 4123, 
  "bewegt": 4124, 
  "Begrenzung": 4125, 
  "zulassen": 4126, 
  "Verfasser": 4127, 
  "Straßen": 4128, 
  "Hilfs@@": 4129, 
  "zusammenfassen": 4130, 
  "behindern": 4131, 
  "Unionsbürger": 4132, 
  "Betriebs@@": 4133, 
  "etzen": 4134, 
  "negative": 4135, 
  "vermögen": 4136, 
  "Konsultations@@": 4137, 
  "scheinen": 4138, 
  "eventuell": 4139, 
  "Besonderheiten": 4140, 
  "Privatwirtschaft": 4141, 
  "Faktor": 4142, 
  "erkläre": 4143, 
  "bewerten": 4144, 
  "Erwähnung": 4145, 
  "Einzelnen": 4146, 
  "hinaus@@": 4147, 
  "Inneres": 4148, 
  "Kommunikations@@": 4149, 
  "ismus": 4150, 
  "ähnlichen": 4151, 
  "Straf@@": 4152, 
  "ihrerseits": 4153, 
  "SAVE": 4154, 
  "beitreten": 4155, 
  "entschlossene": 4156, 
  "Schritten": 4157, 
  "Rahmenprogramm": 4158, 
  "ansonsten": 4159, 
  "op@@": 4160, 
  "Spitze": 4161, 
  "einzu@@": 4162, 
  "alisiert": 4163, 
  "De": 4164, 
  "y@@": 4165, 
  "Beweislast": 4166, 
  "rassistische": 4167, 
  "willens": 4168, 
  "At@@": 4169, 
  "bereitet": 4170, 
  "erungen": 4171, 
  "Zweiten": 4172, 
  "begnügen": 4173, 
  "95": 4174, 
  "bestimmen": 4175, 
  "enheit": 4176, 
  "Erfordernisse": 4177, 
  "stützen": 4178, 
  "24": 4179, 
  "absoluten": 4180, 
  "bau@@": 4181, 
  "Stadtpolitik": 4182, 
  "Beziehung": 4183, 
  "beimißt": 4184, 
  "tive": 4185, 
  "freie": 4186, 
  "system": 4187, 
  "veränderte": 4188, 
  "erende": 4189, 
  "irgend": 4190, 
  "arbeitenden": 4191, 
  "verringern": 4192, 
  "stehe": 4193, 
  "extrem": 4194, 
  "Friedensprozesses": 4195, 
  "moderne": 4196, 
  "Wirksamkeit": 4197, 
  "vorschlägt": 4198, 
  "ing@@": 4199, 
  "Projekt@@": 4200, 
  "Übernahmen": 4201, 
  "TACIS": 4202, 
  "berührt": 4203, 
  "gi@@": 4204, 
  "trä@@": 4205, 
  "armen": 4206, 
  "war@@": 4207, 
  "ats": 4208, 
  "Haiders": 4209, 
  "täglich": 4210, 
  "sin@@": 4211, 
  "ex": 4212, 
  "beschlossenen": 4213, 
  "ignoriert": 4214, 
  "verwaltung": 4215, 
  "Kommissions@@": 4216, 
  "Ausmaß": 4217, 
  "tei@@": 4218, 
  "zitiere": 4219, 
  "einfacher": 4220, 
  "Zeit@@": 4221, 
  "Bedrohung": 4222, 
  "schnellen": 4223, 
  "menschliche": 4224, 
  "Strukturfondsmittel": 4225, 
  "38": 4226, 
  "Gemeinschaften": 4227, 
  "Rücktritt": 4228, 
  "obliegt": 4229, 
  "Ansehen": 4230, 
  "gabe": 4231, 
  "Entschädigung": 4232, 
  "te@@": 4233, 
  "Departements": 4234, 
  "aufgreifen": 4235, 
  "Aufstockung": 4236, 
  "gruppe": 4237, 
  "48": 4238, 
  "erledigt": 4239, 
  "lehnen": 4240, 
  "Geldwäsche": 4241, 
  "Betriebe": 4242, 
  "mäßige": 4243, 
  "Hitler": 4244, 
  "Torf": 4245, 
  "Rent@@": 4246, 
  "haft": 4247, 
  "eingereichten": 4248, 
  "unannehmbar": 4249, 
  "beimessen": 4250, 
  "ters": 4251, 
  "as": 4252, 
  "Gedächtnis": 4253, 
  "Konvention": 4254, 
  "juristisch": 4255, 
  "EAGFL": 4256, 
  "Staatsangehörigkeit": 4257, 
  "Überlegung": 4258, 
  "Dänemarks": 4259, 
  "Lücken": 4260, 
  "Bei@@": 4261, 
  "zeichnen": 4262, 
  "dige": 4263, 
  "Ausdehnung": 4264, 
  "jeglicher": 4265, 
  "Verstärkung": 4266, 
  "zuweilen": 4267, 
  "stattgefunden": 4268, 
  "zieren": 4269, 
  "Erde": 4270, 
  "abgesetzt": 4271, 
  "Wieder@@": 4272, 
  "erfreulicherweise": 4273, 
  "örtlichen": 4274, 
  "abgebaut": 4275, 
  "häufiger": 4276, 
  "bekannten": 4277, 
  "umwelt@@": 4278, 
  "Stadtviertel": 4279, 
  "abge@@": 4280, 
  "Konzepte": 4281, 
  "Jahrtausend": 4282, 
  "ut": 4283, 
  "ehr@@": 4284, 
  "gebührend": 4285, 
  "Ahern": 4286, 
  "antworten": 4287, 
  "We@@": 4288, 
  "ür@@": 4289, 
  "benachteiligt": 4290, 
  "orientierte": 4291, 
  "Durch@@": 4292, 
  "Öl@@": 4293, 
  "durchführen": 4294, 
  "Fest@@": 4295, 
  "Dienstleistungsfreiheit": 4296, 
  "Zustand": 4297, 
  "Erfüllung": 4298, 
  "grün@@": 4299, 
  "Mandats": 4300, 
  "kennt": 4301, 
  "zulässigen": 4302, 
  "bedauerlich": 4303, 
  "Kenntnisse": 4304, 
  "entzieht": 4305, 
  "Vorteil": 4306, 
  "Gama": 4307, 
  "of": 4308, 
  "Kan@@": 4309, 
  "Genuß": 4310, 
  "gegenseitigen": 4311, 
  "Vertragsänderungen": 4312, 
  "the": 4313, 
  "Vollbeschäftigung": 4314, 
  "Logik": 4315, 
  "starkes": 4316, 
  "Bi@@": 4317, 
  "tieren": 4318, 
  "entnehmen": 4319, 
  "tau@@": 4320, 
  "schau@@": 4321, 
  "ul@@": 4322, 
  "innovativen": 4323, 
  "lag": 4324, 
  "Recycling@@": 4325, 
  "Kommissionsvorschlag": 4326, 
  "kriminalität": 4327, 
  "Demokratien": 4328, 
  "verbreitet": 4329, 
  "drängt": 4330, 
  "Gipfeltreffen": 4331, 
  "wahr": 4332, 
  "kostenlos": 4333, 
  "rechtfertigen": 4334, 
  "erhielt": 4335, 
  "paßt": 4336, 
  "Handlungen": 4337, 
  "Schicksal": 4338, 
  "Lebensbedingungen": 4339, 
  "kohärenten": 4340, 
  "fortzusetzen": 4341, 
  "Bourlanges": 4342, 
  "ie@@": 4343, 
  "Verursacher": 4344, 
  "selbst@@": 4345, 
  "kommentieren": 4346, 
  "Lebens": 4347, 
  "200": 4348, 
  "Flut": 4349, 
  "Gedanke": 4350, 
  "Arten": 4351, 
  "Impulse": 4352, 
  "Tiefe": 4353, 
  "endgültig": 4354, 
  "weis@@": 4355, 
  "steckt": 4356, 
  "erstmals": 4357, 
  "schätzen": 4358, 
  "Holz@@": 4359, 
  "getroffenen": 4360, 
  "steigern": 4361, 
  "Mitbürger": 4362, 
  "Gewerbe": 4363, 
  "kre@@": 4364, 
  "wirft": 4365, 
  "unde": 4366, 
  "sensible": 4367, 
  "besonderer": 4368, 
  "soziales": 4369, 
  "Außenhaut": 4370, 
  "fang": 4371, 
  "Verantwortlichkeit": 4372, 
  "Summen": 4373, 
  "anmerken": 4374, 
  "tischer": 4375, 
  "regionen": 4376, 
  "700": 4377, 
  "Verlängerung": 4378, 
  "Blickwinkel": 4379, 
  "verschärfen": 4380, 
  "anzugehen": 4381, 
  "Gültigkeitsdauer": 4382, 
  "verhandelt": 4383, 
  "erheblichen": 4384, 
  "andernfalls": 4385, 
  "Maßstab": 4386, 
  "vollständigen": 4387, 
  "MEDA": 4388, 
  "verwässern": 4389, 
  "irischen": 4390, 
  "Ungleichgewichte": 4391, 
  "entschuldigen": 4392, 
  "Kyoto": 4393, 
  "lü@@": 4394, 
  "koordiniert": 4395, 
  "externe": 4396, 
  "herauszu@@": 4397, 
  "einnehmen": 4398, 
  "Vorgehensweisen": 4399, 
  "fach@@": 4400, 
  "sinnvoller": 4401, 
  "wa@@": 4402, 
  "sichtbar": 4403, 
  "erkennt": 4404, 
  "hört": 4405, 
  "ele@@": 4406, 
  "tende": 4407, 
  "beiträgt": 4408, 
  "hervorragend": 4409, 
  "Ru@@": 4410, 
  "kraft": 4411, 
  "Schutzes": 4412, 
  "Plath": 4413, 
  "Randzio": 4414, 
  "integrieren": 4415, 
  "86": 4416, 
  "Schande": 4417, 
  "Wälder": 4418, 
  "Schul@@": 4419, 
  "Legalausnahme": 4420, 
  "iert": 4421, 
  "aufhören": 4422, 
  "Wahrnehmung": 4423, 
  "wonach": 4424, 
  "tl@@": 4425, 
  "quote": 4426, 
  "raums": 4427, 
  "Sektors": 4428, 
  "Verwertung": 4429, 
  "Kambodscha": 4430, 
  "zusätzlich": 4431, 
  "führung": 4432, 
  "und@@": 4433, 
  "verpflichten": 4434, 
  "Rückgang": 4435, 
  "gebieten": 4436, 
  "schreibt": 4437, 
  "unlängst": 4438, 
  "Erwägungen": 4439, 
  "nahezu": 4440, 
  "Dublin": 4441, 
  "Landwirtschafts@@": 4442, 
  "Verbrechens": 4443, 
  "Transpor@@": 4444, 
  "chs": 4445, 
  "Gefahrguttransport": 4446, 
  "verfügt": 4447, 
  "gewahrt": 4448, 
  "tsch@@": 4449, 
  "tens": 4450, 
  "Faktoren": 4451, 
  "Entsorgungskosten": 4452, 
  "Zusammenhänge": 4453, 
  "versichere": 4454, 
  "Fakten": 4455, 
  "Verfolgung": 4456, 
  "ablehnen": 4457, 
  "entwurf": 4458, 
  "Allianz": 4459, 
  "ausmacht": 4460, 
  "hierher": 4461, 
  "geänderten": 4462, 
  "Fernseh@@": 4463, 
  "mangelnden": 4464, 
  "technisch": 4465, 
  "einzurichten": 4466, 
  "bewirkt": 4467, 
  "Gesam@@": 4468, 
  "Überarbeitung": 4469, 
  "Koalitionsregierung": 4470, 
  "Fach@@": 4471, 
  "ober@@": 4472, 
  "tions@@": 4473, 
  "Brief": 4474, 
  "verursacht": 4475, 
  "nördlichen": 4476, 
  "vorgehen": 4477, 
  "austausch": 4478, 
  "passieren": 4479, 
  "Auge": 4480, 
  "62": 4481, 
  "arabischen": 4482, 
  "Mitgliedsländer": 4483, 
  "Bildungs-": 4484, 
  "kten": 4485, 
  "Befürchtungen": 4486, 
  "empfangen": 4487, 
  "Beweise": 4488, 
  "Detail": 4489, 
  "Auseinandersetzung": 4490, 
  "Eigen@@": 4491, 
  "zwingt": 4492, 
  "Mehrheitsentscheidungen": 4493, 
  "dar@@": 4494, 
  "ausgestattet": 4495, 
  "vorgetragen": 4496, 
  "einzuhalten": 4497, 
  "bu@@": 4498, 
  "Öffnung": 4499, 
  "manche": 4500, 
  "erlangen": 4501, 
  "angehören": 4502, 
  "deten": 4503, 
  "Ergänzung": 4504, 
  "Debatten": 4505, 
  "verzögert": 4506, 
  "Tragen": 4507, 
  "zustande": 4508, 
  "punkte": 4509, 
  "steigen": 4510, 
  "legal": 4511, 
  "höchstens": 4512, 
  "erkannt": 4513, 
  "Bel@@": 4514, 
  "gruppen": 4515, 
  "BBC": 4516, 
  "arbeitet": 4517, 
  "Literatur": 4518, 
  "Tranche": 4519, 
  "Fähigkeit": 4520, 
  "übermittelt": 4521, 
  "75": 4522, 
  "begrenzte": 4523, 
  "Haushaltsmittel": 4524, 
  "auswirkt": 4525, 
  "potentiellen": 4526, 
  "ne@@": 4527, 
  "Partnern": 4528, 
  "kräf@@": 4529, 
  "mer@@": 4530, 
  "Argumenten": 4531, 
  "gegangen": 4532, 
  "fähigkeit": 4533, 
  "rück@@": 4534, 
  "wissenschaftlicher": 4535, 
  "zugesagt": 4536, 
  "Palästinenser": 4537, 
  "dahingehend": 4538, 
  "Rechtsordnung": 4539, 
  "zentralisierten": 4540, 
  "voran": 4541, 
  "des@@": 4542, 
  "großzügig": 4543, 
  "Stahl@@": 4544, 
  "Störungen": 4545, 
  "Mitgliedschaft": 4546, 
  "analysieren": 4547, 
  "notwendigerweise": 4548, 
  "stellten": 4549, 
  "ment@@": 4550, 
  "legten": 4551, 
  "geleisteten": 4552, 
  "Wettbewerbsbericht": 4553, 
  "befürworten": 4554, 
  "versprochen": 4555, 
  "o": 4556, 
  "längst": 4557, 
  "moralische": 4558, 
  "ziehe": 4559, 
  "verarbeitenden": 4560, 
  "vorsch@@": 4561, 
  "übrig": 4562, 
  "sh@@": 4563, 
  "kte": 4564, 
  "Elles": 4565, 
  "rückwirkend": 4566, 
  "gespannt": 4567, 
  "beträchtlich": 4568, 
  "spürbar": 4569, 
  "zugeben": 4570, 
  "ente": 4571, 
  "ständigen": 4572, 
  "Letztbesitzer": 4573, 
  "Gefahrguttransporte": 4574, 
  "spekt": 4575, 
  "Tages": 4576, 
  "würdigen": 4577, 
  "recycelt": 4578, 
  "verantwortlichen": 4579, 
  "ehrgeizigen": 4580, 
  "Pranger": 4581, 
  "Finanzverwaltung": 4582, 
  "Flug@@": 4583, 
  "fähig": 4584, 
  "Beurteilung": 4585, 
  "mittlere": 4586, 
  "Golanhöhen": 4587, 
  "Ar@@": 4588, 
  "ks": 4589, 
  "mehrmals": 4590, 
  "gemessen": 4591, 
  "Schuld": 4592, 
  "übergeben": 4593, 
  "beitrittswilligen": 4594, 
  "klug": 4595, 
  "mon@@": 4596, 
  "Hohe": 4597, 
  "Israels": 4598, 
  "Mindestanforderungen": 4599, 
  "verankerten": 4600, 
  "Ausschußmitglieder": 4601, 
  "auslaufen": 4602, 
  "gering": 4603, 
  "einander": 4604, 
  "wendung": 4605, 
  "meinte": 4606, 
  "ms": 4607, 
  "Ger@@": 4608, 
  "unvereinbar": 4609, 
  "angekündigte": 4610, 
  "Wettbewerbsbeschränkungen": 4611, 
  "reinen": 4612, 
  "würdig": 4613, 
  "Darstellung": 4614, 
  "ori@@": 4615, 
  "verzerren": 4616, 
  "Verhaltensregeln": 4617, 
  "mente": 4618, 
  "Gremien": 4619, 
  "mitgewirkt": 4620, 
  "Mark@@": 4621, 
  "spartner": 4622, 
  "Kommissionspräsidenten": 4623, 
  "zumeist": 4624, 
  "Mißverständnis": 4625, 
  "Wettbewerbsbedingungen": 4626, 
  "ktu@@": 4627, 
  "bek@@": 4628, 
  "beider": 4629, 
  "deutlicher": 4630, 
  "Sicherheitspolitik": 4631, 
  "Friedensgespräche": 4632, 
  "Kompetenz": 4633, 
  "konzentriert": 4634, 
  "Mo@@": 4635, 
  "herrschen": 4636, 
  "Amerika": 4637, 
  "optimistisch": 4638, 
  "Beförderungen": 4639, 
  "zeichnet": 4640, 
  "est@@": 4641, 
  "Anschuldigungen": 4642, 
  "Stahlunternehmen": 4643, 
  "korrekt": 4644, 
  "Wissen": 4645, 
  "Werkstoffe": 4646, 
  "Beamter": 4647, 
  "vermieden": 4648, 
  "str@@": 4649, 
  "Verhinderung": 4650, 
  "zugelassenen": 4651, 
  "anfangen": 4652, 
  "Wurzeln": 4653, 
  "endet": 4654, 
  "letz@@": 4655, 
  "technologischen": 4656, 
  "Werkstoffen": 4657, 
  "ag@@": 4658, 
  "klargestellt": 4659, 
  "Spiel@@": 4660, 
  "tigenden": 4661, 
  "vorzustellen": 4662, 
  "ell@@": 4663, 
  "anspruchsvollen": 4664, 
  "staatlicher": 4665, 
  "Produktion": 4666, 
  "Beihilfe@@": 4667, 
  "Republik": 4668, 
  "werter": 4669, 
  "Bewegung": 4670, 
  "konfrontiert": 4671, 
  "Mitte": 4672, 
  "Wiederverwendung": 4673, 
  "ökologischer": 4674, 
  "teilnehmen": 4675, 
  "esten": 4676, 
  "Autohersteller": 4677, 
  "gewonnen": 4678, 
  "interpretiert": 4679, 
  "Änderungsvorschlag": 4680, 
  "Minute": 4681, 
  "kri@@": 4682, 
  "ausgegeben": 4683, 
  "Erleichterung": 4684, 
  "Hüterin": 4685, 
  "Se@@": 4686, 
  "spanischen": 4687, 
  "ständige": 4688, 
  "Bretagne": 4689, 
  "allemal": 4690, 
  "Katholiken": 4691, 
  "Vizepräsidentin": 4692, 
  "Unglück": 4693, 
  "Tiere": 4694, 
  "ausgelegt": 4695, 
  "Lucas": 4696, 
  "Mitarbeitern": 4697, 
  "leute": 4698, 
  "einhalten": 4699, 
  "freier": 4700, 
  "Cadiz": 4701, 
  "Rich@@": 4702, 
  "Total": 4703, 
  "Inspektoren": 4704, 
  "fre@@": 4705, 
  "Wiederherstellung": 4706, 
  "dungen": 4707, 
  "Gefälligkeitsflaggen": 4708, 
  "reale": 4709, 
  "operativen": 4710, 
  "betroffene": 4711, 
  "Gewässern": 4712, 
  "Lynne": 4713, 
  "angeschlossen": 4714, 
  "Amerikaner": 4715, 
  "Krieg": 4716, 
  "is": 4717, 
  "mechanismen": 4718, 
  "Informations-": 4719, 
  "nieder@@": 4720, 
  "qualität": 4721, 
  "ehrlich": 4722, 
  "Ne@@": 4723, 
  "hö@@": 4724, 
  "Verstöße": 4725, 
  "Besorgnisse": 4726, 
  "Tourismus": 4727, 
  "Befrachter": 4728, 
  "Bo@@": 4729, 
  "glicher": 4730, 
  "ob@@": 4731, 
  "Entscheidungsstrukturen": 4732, 
  "man@@": 4733, 
  "Kern": 4734, 
  "genügt": 4735, 
  "dlicher": 4736, 
  "wal@@": 4737, 
  "Legitimation": 4738, 
  "vereinbar": 4739, 
  "verbot": 4740, 
  "Branche": 4741, 
  "nützlich": 4742, 
  "unterhalten": 4743, 
  "baus": 4744, 
  "Verhütung": 4745, 
  "gerechten": 4746, 
  "Konstruktion": 4747, 
  "irgendeiner": 4748, 
  "Seegrenzen": 4749, 
  "zurückgegangen": 4750, 
  "existierenden": 4751, 
  "kostet": 4752, 
  "Preise": 4753, 
  "Inspektionen": 4754, 
  "geschädigten": 4755, 
  "Zufall": 4756, 
  "Eisen": 4757, 
  "Schutz@@": 4758, 
  "Reeder": 4759, 
  "überzeu@@": 4760, 
  "Überleben": 4761, 
  "rund": 4762, 
  "gefaßten": 4763, 
  "geteilt": 4764, 
  "aden": 4765, 
  "wettbewerbspolitischen": 4766, 
  "raum": 4767, 
  "zukünftig": 4768, 
  "eröffnet": 4769, 
  "dig": 4770, 
  "ältere": 4771, 
  "gestrichen": 4772, 
  "Material@@": 4773, 
  "Grundsatz@@": 4774, 
  "ieren": 4775, 
  "1967": 4776, 
  "weltweite": 4777, 
  "Dringlichkeitsdebatte": 4778, 
  "konzipiert": 4779, 
  "gesetzlichen": 4780, 
  "Jahrtausends": 4781, 
  "indi@@": 4782, 
  "Fol@@": 4783, 
  "Versicherungen": 4784, 
  "Sozialdemokratische": 4785, 
  "punkt": 4786, 
  "Energi@@": 4787, 
  "Einstellung": 4788, 
  "Bereicherung": 4789, 
  "Crespo": 4790, 
  "Beitrittsverhandlungen": 4791, 
  "Fahrzeug": 4792, 
  "Gemeinschaftsprogrammen": 4793, 
  "mün@@": 4794, 
  "breit": 4795, 
  "Zusage": 4796, 
  "se@@": 4797, 
  "verbindlicher": 4798, 
  "zieht": 4799, 
  "isiert": 4800, 
  "beg@@": 4801, 
  "Abbruch": 4802, 
  "E": 4803, 
  "füllen": 4804, 
  "Besuch": 4805, 
  "Vereinigung": 4806, 
  "beseitigen": 4807, 
  "Bedauern": 4808, 
  "Unterzeichnung": 4809, 
  "einbringen": 4810, 
  "Kräften": 4811, 
  "Belange": 4812, 
  "friedlichen": 4813, 
  "vorzugehen": 4814, 
  "wär@@": 4815, 
  "reichsten": 4816, 
  "Grundsatzes": 4817, 
  "Straftaten": 4818, 
  "gra@@": 4819, 
  "Schreyer": 4820, 
  "klar@@": 4821, 
  "vorzubeugen": 4822, 
  "CNS": 4823, 
  "befugt": 4824, 
  "Beträge": 4825, 
  "entfernt": 4826, 
  "Statut": 4827, 
  "erfreut": 4828, 
  "ordnungsgemäßen": 4829, 
  "problematisch": 4830, 
  "wehren": 4831, 
  "allgemeiner": 4832, 
  "fra@@": 4833, 
  "Disziplinarverfahren": 4834, 
  "institutionelle": 4835, 
  "gkeiten": 4836, 
  "zuläßt": 4837, 
  "vern@@": 4838, 
  "qu@@": 4839, 
  "Gewal@@": 4840, 
  "Justizminister": 4841, 
  "gehöre": 4842, 
  "Zusatzstoffen": 4843, 
  "Rahmens": 4844, 
  "Futtermittel@@": 4845, 
  "Eurojust": 4846, 
  "ausführ@@": 4847, 
  "gest@@": 4848, 
  "Tür": 4849, 
  "denkbar": 4850, 
  "star@@": 4851, 
  "vernünftigen": 4852, 
  "524": 4853, 
  "gedenken": 4854, 
  "verpflich@@": 4855, 
  "europaweiten": 4856, 
  "erheben": 4857, 
  "ausgewählten": 4858, 
  "Ausschluß": 4859, 
  "Radikalen": 4860, 
  "Integrität": 4861, 
  "Lei@@": 4862, 
  "Rechtsakt": 4863, 
  "Zonen": 4864, 
  "gesellschaftliche": 4865, 
  "Disziplin": 4866, 
  "wahr@@": 4867, 
  "Entwicklungsstrategien": 4868, 
  "rechts@@": 4869, 
  "26": 4870, 
  "Vorbereitungen": 4871, 
  "Tendenzen": 4872, 
  "vorhandene": 4873, 
  "bereitzustellen": 4874, 
  "eller": 4875, 
  "Wirtschaftstätigkeiten": 4876, 
  "eingerichtet": 4877, 
  "vertretenen": 4878, 
  "France": 4879, 
  "welch": 4880, 
  "holen": 4881, 
  "allmählich": 4882, 
  "41": 4883, 
  "länder": 4884, 
  "ausgenommen": 4885, 
  "it": 4886, 
  "reformieren": 4887, 
  "Firmen": 4888, 
  "ati@@": 4889, 
  "Verweis": 4890, 
  "schaften": 4891, 
  "erstellt": 4892, 
  "orientieren": 4893, 
  "rat": 4894, 
  "Amtes": 4895, 
  "wendet": 4896, 
  "Differenzen": 4897, 
  "Der": 4898, 
  "Strafverfolgungsbehörde": 4899, 
  "Struktur@@": 4900, 
  "förder@@": 4901, 
  "Partnerschafts@@": 4902, 
  "konzept": 4903, 
  "Fördermittel": 4904, 
  "garantiert": 4905, 
  "pf@@": 4906, 
  "teilten": 4907, 
  "Fülle": 4908, 
  "Force": 4909, 
  "Umwel@@": 4910, 
  "unterminieren": 4911, 
  "PT": 4912, 
  "Da": 4913, 
  "elles": 4914, 
  "bedauerlicherweise": 4915, 
  "Rechnungshofes": 4916, 
  "42": 4917, 
  "treffend": 4918, 
  "Instruments": 4919, 
  "negativ": 4920, 
  "Kernstück": 4921, 
  "gestoßen": 4922, 
  "fremdenfeindlichen": 4923, 
  "zulässig": 4924, 
  "Mißmanagement": 4925, 
  "unverständlich": 4926, 
  "Südosteuropa": 4927, 
  "Einsatzes": 4928, 
  "Isolation": 4929, 
  "angefangen": 4930, 
  "Adria": 4931, 
  "lebenden": 4932, 
  "Ex@@": 4933, 
  "regierung": 4934, 
  "Tibeter": 4935, 
  "Menschenleben": 4936, 
  "Reaktionen": 4937, 
  "Außenpolitik": 4938, 
  "Konflikt": 4939, 
  "reduzieren": 4940, 
  "Aufwand": 4941, 
  "Wettbewerbsrechts": 4942, 
  "zerstört": 4943, 
  "Kontext": 4944, 
  "Beantwortung": 4945, 
  "32": 4946, 
  "obligatorische": 4947, 
  "Anstieg": 4948, 
  "Reise": 4949, 
  "Besitzstand": 4950, 
  "herrschenden": 4951, 
  "hal@@": 4952, 
  "halbe": 4953, 
  "Gültigkeit": 4954, 
  "Sicherheitsberatern": 4955, 
  "klarer": 4956, 
  "Gespräch": 4957, 
  "worauf": 4958, 
  "vertreter": 4959, 
  "mitzu@@": 4960, 
  "führ@@": 4961, 
  "äußert": 4962, 
  "Einsetzung": 4963, 
  "beginnt": 4964, 
  "Nähe": 4965, 
  "Gütern": 4966, 
  "Werk": 4967, 
  "erdbebengefährdeten": 4968, 
  "höchst": 4969, 
  "Wettbewerbsverzerrungen": 4970, 
  "Vorgänge": 4971, 
  "Drittländer": 4972, 
  "infolge": 4973, 
  "Erteilung": 4974, 
  "Verordnungen": 4975, 
  "nahme": 4976, 
  "legung": 4977, 
  "ergreift": 4978, 
  "hren": 4979, 
  "ßt": 4980, 
  "Kurs": 4981, 
  "beträchtliche": 4982, 
  "geliefert": 4983, 
  "eingestellt": 4984, 
  "abzielen": 4985, 
  "wohl@@": 4986, 
  "vorlegt": 4987, 
  "Absichten": 4988, 
  "fertig@@": 4989, 
  "osteuropäischen": 4990, 
  "19": 4991, 
  "Gewinne": 4992, 
  "Geschäft": 4993, 
  "modell": 4994, 
  "ation@@": 4995, 
  "anwendbar": 4996, 
  "alter": 4997, 
  "Tarifverträge": 4998, 
  "anti@@": 4999, 
  "Steuern": 5000, 
  "zerstören": 5001, 
  "benennen": 5002, 
  "Betrieben": 5003, 
  "dende": 5004, 
  "kümmern": 5005, 
  "intern": 5006, 
  "schwächen": 5007, 
  "erbracht": 5008, 
  "Leitung": 5009, 
  "finanzierten": 5010, 
  "eingeräumt": 5011, 
  "kritisiert": 5012, 
  "weitestgehend": 5013, 
  "Schlüssel": 5014, 
  "Kirgisistan": 5015, 
  "gewaltige": 5016, 
  "Tadschikistan": 5017, 
  "hauptsächlich": 5018, 
  "Ressort": 5019, 
  "Effekte": 5020, 
  "Lücke": 5021, 
  "gaben": 5022, 
  "griechische": 5023, 
  "artige": 5024, 
  "Prüf@@": 5025, 
  "Wohnsitz": 5026, 
  "Wettbewerbskultur": 5027, 
  "faktor": 5028, 
  "übereinstimmen": 5029, 
  "zugeführt": 5030, 
  "Kommissaren": 5031, 
  "mainstreaming": 5032, 
  "Spekulation": 5033, 
  "Asylbewerbern": 5034, 
  "Charakters": 5035, 
  "Asylbewerber": 5036, 
  "ehrgeizige": 5037, 
  "Schwäche": 5038, 
  "mittlerweile": 5039, 
  "ungssystem": 5040, 
  "bil@@": 5041, 
  "erneu@@": 5042, 
  "1990": 5043, 
  "beschreibt": 5044, 
  "cht@@": 5045, 
  "26.": 5046, 
  "heimgesucht": 5047, 
  "bi@@": 5048, 
  "einziger": 5049, 
  "Finanzrahmen": 5050, 
  "tiefgreifende": 5051, 
  "opfer": 5052, 
  "gestellte": 5053, 
  "vorbereiten": 5054, 
  "vernünftiger": 5055, 
  "Forst@@": 5056, 
  "nationales": 5057, 
  "inter@@": 5058, 
  "Japan": 5059, 
  "theit": 5060, 
  "Erbe": 5061, 
  "gemein@@": 5062, 
  "Zeitalter": 5063, 
  "NATO": 5064, 
  "cken": 5065, 
  "kontrolle": 5066, 
  "durchzusetzen": 5067, 
  "ft@@": 5068, 
  "Romano": 5069, 
  "komplex": 5070, 
  "gerichtliche": 5071, 
  "verweigern": 5072, 
  "Kasse": 5073, 
  "liert": 5074, 
  "Verzögerung": 5075, 
  "staaten": 5076, 
  "sozial": 5077, 
  "Zusagen": 5078, 
  "begreifen": 5079, 
  "tak@@": 5080, 
  "ises": 5081, 
  "Mehr@@": 5082, 
  "mittel@@": 5083, 
  "Kontinents": 5084, 
  "Rückforderung": 5085, 
  "regelmäßigen": 5086, 
  "ah@@": 5087, 
  "Werk@@": 5088, 
  "annimmt": 5089, 
  "selber": 5090, 
  "-Programm": 5091, 
  "lass@@": 5092, 
  "rechtfertigt": 5093, 
  "angemessenen": 5094, 
  "beobachten": 5095, 
  "ausgegangen": 5096, 
  "fung": 5097, 
  "erstrecken": 5098, 
  "jenem": 5099, 
  "Kreise": 5100, 
  "isch@@": 5101, 
  "Pinochet": 5102, 
  "abzugeben": 5103, 
  "on": 5104, 
  "Nahrungsmittel@@": 5105, 
  "wen@@": 5106, 
  "ser@@": 5107, 
  "enger": 5108, 
  "erforderliche": 5109, 
  "Donau": 5110, 
  "Befugnissen": 5111, 
  "zusätzlichen": 5112, 
  "Gründung": 5113, 
  "2.": 5114, 
  "aufgeführt": 5115, 
  "Auswahlkriterien": 5116, 
  "Unterpunkt": 5117, 
  "stoffe": 5118, 
  "billigt": 5119, 
  "Vorbehalt": 5120, 
  "Lebensmittel@@": 5121, 
  "Sorgfalt": 5122, 
  "Positivliste": 5123, 
  "Erzeugung": 5124, 
  "Banotti": 5125, 
  "Forum": 5126, 
  "liste": 5127, 
  "Aussicht": 5128, 
  "Procacci": 5129, 
  "ktes": 5130, 
  "Erzeuger": 5131, 
  "widerspiegelt": 5132, 
  "Propaganda": 5133, 
  "städtischer": 5134, 
  "Erdbeben": 5135, 
  "zuviel": 5136, 
  "fragte": 5137, 
  "recht@@": 5138, 
  "unterziehen": 5139, 
  "ersch@@": 5140, 
  "vielfach": 5141, 
  "Entschlossenheit": 5142, 
  "eintreten": 5143, 
  "gerechnet": 5144, 
  "wirksames": 5145, 
  "Wohn@@": 5146, 
  "Schwerpunkt@@": 5147, 
  "förderungswürdigen": 5148, 
  "früherer": 5149, 
  "verkündet": 5150, 
  "dahin": 5151, 
  "schaffenden": 5152, 
  "steuern": 5153, 
  "Subsidiaritätsprinzips": 5154, 
  "fanden": 5155, 
  "GI": 5156, 
  "umfangreichen": 5157, 
  "stammt": 5158, 
  "retten": 5159, 
  "Aid@@": 5160, 
  "alisieren": 5161, 
  "Diktatur": 5162, 
  "Gebrauch": 5163, 
  "verliert": 5164, 
  "junge": 5165, 
  "Viertel": 5166, 
  "dringen": 5167, 
  "Selbstgefälligkeit": 5168, 
  "Methode": 5169, 
  "interessante": 5170, 
  "Zusammenleben": 5171, 
  "Intoleranz": 5172, 
  "beträchtlichen": 5173, 
  "ergänzt": 5174, 
  "vorhaben": 5175, 
  "Mon@@": 5176, 
  "funktionierenden": 5177, 
  "fördernden": 5178, 
  "Interventionen": 5179, 
  "Humanressourcen": 5180, 
  "deckt": 5181, 
  "Bewältigung": 5182, 
  "vorrangige": 5183, 
  "Umweltpolitik": 5184, 
  "fi@@": 5185, 
  "kan@@": 5186, 
  "land@@": 5187, 
  "Ausgewogenheit": 5188, 
  "term": 5189, 
  "Multifunktionalität": 5190, 
  "long": 5191, 
  "lo@@": 5192, 
  "Jugend": 5193, 
  "Vorbereitungsgruppe": 5194, 
  "Wortmeldung": 5195, 
  "Schule": 5196, 
  "hoher": 5197, 
  "Böhm": 5198, 
  "zuerkannt": 5199, 
  "solidarisch": 5200, 
  "Vorrednern": 5201, 
  "projekte": 5202, 
  "Akteuren": 5203, 
  "vollzogen": 5204, 
  "Eindämmung": 5205, 
  "eingebunden": 5206, 
  "Präsenz": 5207, 
  "Stadtentwicklung": 5208, 
  "vorsichtig": 5209, 
  "Besch@@": 5210, 
  "Know": 5211, 
  "Technik": 5212, 
  "Marinho": 5213, 
  "Kapitalverkehr": 5214, 
  "bedeutenden": 5215, 
  "sozialdemokratischen": 5216, 
  "doppelte": 5217, 
  "Regional@@": 5218, 
  "Zentrum": 5219, 
  "Langzeitarbeitslosigkeit": 5220, 
  "Gasòliba": 5221, 
  "angestrebt": 5222, 
  "Titel": 5223, 
  "Mehrzahl": 5224, 
  "tigt": 5225, 
  "Nationalismus": 5226, 
  "Wichtiges": 5227, 
  "steigt": 5228, 
  "verzichten": 5229, 
  "hinzuweisen": 5230, 
  "geehrter": 5231, 
  "Ausbildungsmaßnahmen": 5232, 
  "verdanken": 5233, 
  "best@@": 5234, 
  "Gewährung": 5235, 
  "kleiner": 5236, 
  "Industrie@@": 5237, 
  "Bevölkerungs@@": 5238, 
  "Gargani": 5239, 
  "Vorausschau": 5240, 
  "erschweren": 5241, 
  "Stück": 5242, 
  "verfahrens": 5243, 
  "erungs@@": 5244, 
  "Energieeffizienz": 5245, 
  "158": 5246, 
  "Meinungs@@": 5247, 
  "Hatzidakis": 5248, 
  "vergleichbaren": 5249, 
  "bereiche": 5250, 
  "sinnvolle": 5251, 
  "ze": 5252, 
  "Justiz-": 5253, 
  "anderenfalls": 5254, 
  "Sieg": 5255, 
  "klingen": 5256, 
  "Gesamtfangmenge": 5257, 
  "Quotenübertragung": 5258, 
  "Halbzeitbewertung": 5259, 
  "0107": 5260, 
  "Kompromißentschließung": 5261, 
  "kenne": 5262, 
  "wider": 5263, 
  "Sechsten": 5264, 
  "klein@@": 5265, 
  "Raumordnung": 5266, 
  "Soviel": 5267, 
  "Einwanderungspolitik": 5268, 
  "nei@@": 5269, 
  "jahrelang": 5270, 
  "bewahren": 5271, 
  "Sardellenbestände": 5272, 
  "Mitgliedsland": 5273, 
  "erfolgreichen": 5274, 
  "ün@@": 5275, 
  "solide": 5276, 
  "erst@@": 5277, 
  "Lebens@@": 5278, 
  "gerückt": 5279, 
  "Macht@@": 5280, 
  "griechischen": 5281, 
  "Entwicklung@@": 5282, 
  "Außen@@": 5283, 
  "Arbeit@@": 5284, 
  "Luxemburg": 5285, 
  "Kampagne": 5286, 
  "Verlagerung": 5287, 
  "künftiger": 5288, 
  "Mengen": 5289, 
  "Tanks": 5290, 
  "teilgenommen": 5291, 
  "Redezeit": 5292, 
  "üben": 5293, 
  "Bestreben": 5294, 
  "Wel@@": 5295, 
  "dlich": 5296, 
  "om@@": 5297, 
  "Grundprinzip": 5298, 
  "funktion@@": 5299, 
  "Staats@@": 5300, 
  "fälle": 5301, 
  "zugehört": 5302, 
  "Abänderungsanträge": 5303, 
  "Loyalisten": 5304, 
  "technischer": 5305, 
  "optimale": 5306, 
  "Vergemeinschaftung": 5307, 
  "Hindernis": 5308, 
  "bürokratischen": 5309, 
  "Europäisches": 5310, 
  "anscheinend": 5311, 
  "eintritt": 5312, 
  "Differenzierung": 5313, 
  "tender": 5314, 
  "Realisierung": 5315, 
  "verdienen": 5316, 
  "Erreichen": 5317, 
  "Faschismus": 5318, 
  "positiver": 5319, 
  "behandelten": 5320, 
  "begegnen": 5321, 
  "einheitlicher": 5322, 
  "einzuräumen": 5323, 
  "vertraut": 5324, 
  "Thematik": 5325, 
  "Flüchtlingen": 5326, 
  "hundert": 5327, 
  "Devisen@@": 5328, 
  "diplomatischen": 5329, 
  "ersuche": 5330, 
  "gere": 5331, 
  "Kulturpolitik": 5332, 
  "willkürlich": 5333, 
  "erweiterte": 5334, 
  "Cost": 5335, 
  "gründen": 5336, 
  "geschäfte": 5337, 
  "morgigen": 5338, 
  "Kinder@@": 5339, 
  "annehmbar": 5340, 
  "land": 5341, 
  "Vermittlungs@@": 5342, 
  "Energieeinsparung": 5343, 
  "ante": 5344, 
  "sektor@@": 5345, 
  "hervorzuheben": 5346, 
  "Vereinigte": 5347, 
  "Erbringung": 5348, 
  "Heiligen": 5349, 
  "sah": 5350, 
  "Chancen": 5351, 
  "krise": 5352, 
  "Land@@": 5353, 
  "gewöhnlich": 5354, 
  "Ausgangspunkt": 5355, 
  "Golan": 5356, 
  "produktion": 5357, 
  "zentren": 5358, 
  "ernsthafte": 5359, 
  "Amtszeit": 5360, 
  "Gefühl": 5361, 
  "Projekts": 5362, 
  "zunehmend": 5363, 
  "beizubehalten": 5364, 
  "gele@@": 5365, 
  "dieselbe": 5366, 
  "formen": 5367, 
  "Benefit": 5368, 
  "Verkehrs-": 5369, 
  "vermag": 5370, 
  "stei@@": 5371, 
  "erreichten": 5372, 
  "Infrastrukturen": 5373, 
  "trag": 5374, 
  "sa@@": 5375, 
  "ans": 5376, 
  "Produktivität": 5377, 
  "sechsten": 5378, 
  "Motor": 5379, 
  "ausgewogenes": 5380, 
  "Teilung": 5381, 
  "unsererseits": 5382, 
  "rei@@": 5383, 
  "23": 5384, 
  "Rückgriff": 5385, 
  "Fortführung": 5386, 
  "träge": 5387, 
  "gehenden": 5388, 
  "erarbeiteten": 5389, 
  "einleiten": 5390, 
  "rü@@": 5391, 
  "Kapitalbewegungen": 5392, 
  "gehende": 5393, 
  "Übernahme": 5394, 
  "Bestimmung": 5395, 
  "anhaltenden": 5396, 
  "Transaktionen": 5397, 
  "Ratsvorsitz": 5398, 
  "lenken": 5399, 
  "unmißverständlich": 5400, 
  "Verwaltungsverfahren": 5401, 
  "chter": 5402, 
  "Beschäftigungsmöglichkeiten": 5403, 
  "fehlende": 5404, 
  "Durchschnitt": 5405, 
  "tiefgreifenden": 5406, 
  "ausschließen": 5407, 
  "Spekulationen": 5408, 
  "klarmachen": 5409, 
  "Doppel@@": 5410, 
  "Untersuchungs@@": 5411, 
  "verständlicherweise": 5412, 
  "Legitimität": 5413, 
  "unterliegt": 5414, 
  "Bundesregierung": 5415, 
  "Regierung@@": 5416, 
  "geringsten": 5417, 
  "mp@@": 5418, 
  "ären": 5419, 
  "Behinderung": 5420, 
  "Pilotprojekte": 5421, 
  "us@@": 5422, 
  "Entscheidungsträger": 5423, 
  "setzten": 5424, 
  "Öltanker": 5425, 
  "zahl": 5426, 
  "ungs-": 5427, 
  "isieren": 5428, 
  "bergen": 5429, 
  "dementsprechend": 5430, 
  "Billigflaggen": 5431, 
  "fehlenden": 5432, 
  "Nahrungsmittel": 5433, 
  "Betrachtungen": 5434, 
  "Waffen@@": 5435, 
  "Fina": 5436, 
  "erklärten": 5437, 
  "lu@@": 5438, 
  "selbständigen": 5439, 
  "Symbol": 5440, 
  "transparenten": 5441, 
  "symbol@@": 5442, 
  "angestellt": 5443, 
  "Prävention": 5444, 
  "belastet": 5445, 
  "politiken": 5446, 
  "ment": 5447, 
  "eingestuft": 5448, 
  "norm@@": 5449, 
  "zeichen": 5450, 
  "Lichte": 5451, 
  "Arbeitsplan": 5452, 
  "städtische": 5453, 
  "teilhaben": 5454, 
  "Kann": 5455, 
  "natürliche": 5456, 
  "nahe": 5457, 
  "beglückwünsche": 5458, 
  "verkünden": 5459, 
  "zustimme": 5460, 
  "mo@@": 5461, 
  "frühere": 5462, 
  "Bonde": 5463, 
  "ziel@@": 5464, 
  "Gleiches": 5465, 
  "Flu@@": 5466, 
  "genauen": 5467, 
  "Asyl@@": 5468, 
  "Alternative": 5469, 
  "Scoreboard": 5470, 
  "Grundrechtscharta": 5471, 
  "Vorruhestandsregelung": 5472, 
  "quasi": 5473, 
  "Zug": 5474, 
  "km": 5475, 
  "üh@@": 5476, 
  "Bauern": 5477, 
  "Berufs@@": 5478, 
  "Weiter@@": 5479, 
  "wes@@": 5480, 
  "Anzeigetafel": 5481, 
  "erbringen": 5482, 
  "Ministern": 5483, 
  "abzulehnen": 5484, 
  "reibungslose": 5485, 
  "erzeugt": 5486, 
  "aufgesch@@": 5487, 
  "Volksvertreter": 5488, 
  "arbeiter": 5489, 
  "sinken": 5490, 
  "Regulierung": 5491, 
  "Binnenwasserstraßen": 5492, 
  "stag": 5493, 
  "konstruktive": 5494, 
  "normen": 5495, 
  "genheit": 5496, 
  "Rückverfolgbarkeit": 5497, 
  "080@@": 5498, 
  "ing": 5499, 
  "eintreffen": 5500, 
  "eng@@": 5501, 
  "bewußte": 5502, 
  "enter@@": 5503, 
  "sinstrument": 5504, 
  "2005": 5505, 
  "Geldes": 5506, 
  "Asien": 5507, 
  "berufen": 5508, 
  "aufgeschlossen": 5509, 
  "Vorfall": 5510, 
  "nachweisen": 5511, 
  "sozialpolitischen": 5512, 
  "bedeutsam": 5513, 
  "onen": 5514, 
  "angesetzt": 5515, 
  "Spielraum": 5516, 
  "geholfen": 5517, 
  "13.": 5518, 
  "genießen": 5519, 
  "technologische": 5520, 
  "auer": 5521, 
  "zuhören": 5522, 
  "ed@@": 5523, 
  "Wirtschaftswachstum": 5524, 
  "Voll@@": 5525, 
  "enswerte": 5526, 
  "Richtlinienvorschlag": 5527, 
  "Gegner": 5528, 
  "ausgel@@": 5529, 
  "wunder@@": 5530, 
  "sech@@": 5531, 
  "funktionierende": 5532, 
  "Person@@": 5533, 
  "strukturelle": 5534, 
  "strategisches": 5535, 
  "Laan": 5536, 
  "übertrieben": 5537, 
  "zusammengefaßt": 5538, 
  "Unfall": 5539, 
  "Materialien": 5540, 
  "National@@": 5541, 
  "befreit": 5542, 
  "gebrachte": 5543, 
  "Eigentümer": 5544, 
  "treibt": 5545, 
  "Gebot": 5546, 
  "ili@@": 5547, 
  "ap@@": 5548, 
  "Finanzminister": 5549, 
  "Anzeigepflicht": 5550, 
  "weiterentwickeln": 5551, 
  "eingegangenen": 5552, 
  "Versprechen": 5553, 
  "gemeinsames": 5554, 
  "Rechtskultur": 5555, 
  "eigen@@": 5556, 
  "schlimmsten": 5557, 
  "Anti@@": 5558, 
  "Nation@@": 5559, 
  "dringliche": 5560, 
  "cke": 5561, 
  "vorgetragenen": 5562, 
  "berichten": 5563, 
  "Rau@@": 5564, 
  "planung": 5565, 
  "Seeschiffahrtsorganisation": 5566, 
  "nahen": 5567, 
  "Vermittlungsverfahrens": 5568, 
  "tin": 5569, 
  "entsenden": 5570, 
  "Rechtsunsicherheit": 5571, 
  "ierten": 5572, 
  "trau@@": 5573, 
  "gesellschaft": 5574, 
  "Nich@@": 5575, 
  "en-": 5576, 
  "vorsieht": 5577, 
  "Minimum": 5578, 
  "ungeachtet": 5579, 
  "Paris": 5580, 
  "Österreichische": 5581, 
  "sprech@@": 5582, 
  "gäbe": 5583, 
  "Personalpolitik": 5584, 
  "dargelegten": 5585, 
  "Diensten": 5586, 
  "hebt": 5587, 
  "national": 5588, 
  "stands": 5589, 
  "wirtschaf@@": 5590, 
  "gesetzte": 5591, 
  "Korruption": 5592, 
  "fühlt": 5593, 
  "Santer": 5594, 
  "Regel": 5595, 
  "Hauptstadt": 5596, 
  "Gebäude": 5597, 
  "befördert": 5598, 
  "breit@@": 5599, 
  "aufgegeben": 5600, 
  "reduziert": 5601, 
  "reine": 5602, 
  "Verdienst": 5603, 
  "eingehender": 5604, 
  "halben": 5605, 
  "demonstriert": 5606, 
  "regelungen": 5607, 
  "Ausgaben@@": 5608, 
  "verschlossenen": 5609, 
  "unten": 5610, 
  "unterbrochen": 5611, 
  "Dimensionen": 5612, 
  "präsentieren": 5613, 
  "bürokra@@": 5614, 
  "Absichtserklärungen": 5615, 
  "Berufsgruppen": 5616, 
  "Krisen@@": 5617, 
  "änderungen": 5618, 
  "zuwege": 5619, 
  "schlimm": 5620, 
  "Tankers": 5621, 
  "vollzieht": 5622, 
  "Türen": 5623, 
  "vergangene": 5624, 
  "Appell": 5625, 
  "formelle": 5626, 
  "geringeren": 5627, 
  "stammen": 5628, 
  "Liberalismus": 5629, 
  "verbesser@@": 5630, 
  "begünstigten": 5631, 
  "Wahlkreis": 5632, 
  "Erweiterungsprozeß": 5633, 
  "See@@": 5634, 
  "sterben": 5635, 
  "selben": 5636, 
  "jährlichen": 5637, 
  "spezifischer": 5638, 
  "gehender": 5639, 
  "Amoco": 5640, 
  "verliehen": 5641, 
  "Schiff@@": 5642, 
  "Reichtums": 5643, 
  "nehm@@": 5644, 
  "Alternativen": 5645, 
  "Quelle": 5646, 
  "Inflation": 5647, 
  "43": 5648, 
  "Behinderte": 5649, 
  "zäh@@": 5650, 
  "förderungs@@": 5651, 
  "Feuer@@": 5652, 
  "Einwanderern": 5653, 
  "aufen": 5654, 
  "Pfund": 5655, 
  "täglichen": 5656, 
  "Tanker": 5657, 
  "erzielten": 5658, 
  "London": 5659, 
  "perfekt": 5660, 
  "Gewähr": 5661, 
  "Aktionsprogramms": 5662, 
  "Vorausschauen": 5663, 
  "Versäumnis": 5664, 
  "tragende": 5665, 
  "behauptet": 5666, 
  "Insel@@": 5667, 
  "els": 5668, 
  "Hierarchie": 5669, 
  "gew@@": 5670, 
  "problematik": 5671, 
  "SEK": 5672, 
  "abzuschaffen": 5673, 
  "irgendeinem": 5674, 
  "Freiwilligen": 5675, 
  "vorkommen": 5676, 
  "Hilfsmittel": 5677, 
  "Forschungs@@": 5678, 
  "zwingend": 5679, 
  "Hauptziel": 5680, 
  "doppelwandige": 5681, 
  "berücksich@@": 5682, 
  "Kleinunternehmen": 5683, 
  "anzubieten": 5684, 
  "befördern": 5685, 
  "bewährt": 5686, 
  "ner@@": 5687, 
  "Ausweis": 5688, 
  "Gesch@@": 5689, 
  "Kunden": 5690, 
  "demnächst": 5691, 
  "err@@": 5692, 
  "bezeichnen": 5693, 
  "verboten": 5694, 
  "vorgeschrieben": 5695, 
  "hinausläuft": 5696, 
  "dauern": 5697, 
  "etz@@": 5698, 
  "bet@@": 5699, 
  "möglichkeit": 5700, 
  "and@@": 5701, 
  "fürchte": 5702, 
  "verkaufen": 5703, 
  "zweifelsfrei": 5704, 
  "Peripherie": 5705, 
  "mischen": 5706, 
  "Jugend-": 5707, 
  "Trennung": 5708, 
  "verschwinden": 5709, 
  "Eigeninitiative": 5710, 
  "umfassender": 5711, 
  "eigener": 5712, 
  "gehandelt": 5713, 
  "Vorgänger": 5714, 
  "kleines": 5715, 
  "ordnungsgemäß": 5716, 
  "zog": 5717, 
  "enormer": 5718, 
  "mil@@": 5719, 
  "Bild": 5720, 
  "Urteile": 5721, 
  "verheerenden": 5722, 
  "hinreichend": 5723, 
  "erin": 5724, 
  "ausdehnen": 5725, 
  "Ladung": 5726, 
  "Errungenschaften": 5727, 
  "fern@@": 5728, 
  "Auftreten": 5729, 
  "tliches": 5730, 
  "nis": 5731, 
  "Not@@": 5732, 
  "Vögel": 5733, 
  "naturgemäß": 5734, 
  "welt": 5735, 
  "voranzubringen": 5736, 
  "bekräftigen": 5737, 
  "nennt": 5738, 
  "schlüsse": 5739, 
  "gefahren": 5740, 
  "wünscht": 5741, 
  "Kritiken": 5742, 
  "wachsenden": 5743, 
  "unnötig": 5744, 
  "Reich": 5745, 
  "Lebensmittel-": 5746, 
  "Versuchung": 5747, 
  "Verödung": 5748, 
  "schlimmer": 5749, 
  "lö@@": 5750, 
  "Hektar": 5751, 
  "500": 5752, 
  "fache": 5753, 
  "Bildungs@@": 5754, 
  "Rechtssystems": 5755, 
  "betriebe": 5756, 
  "Investitions@@": 5757, 
  "geeignetes": 5758, 
  "Soforthilfe": 5759, 
  "organisieren": 5760, 
  "wirkliches": 5761, 
  "eingeführte": 5762, 
  "wachsende": 5763, 
  "new": 5764, 
  "kohärente": 5765, 
  "vornherein": 5766, 
  "ssi@@": 5767, 
  "Erzeugnisse": 5768, 
  "ertem": 5769, 
  "Verhaltensweisen": 5770, 
  "ausgebaut": 5771, 
  "praktikabel": 5772, 
  "Risikomanagement": 5773, 
  "Str@@": 5774, 
  "Freigabe": 5775, 
  "Zivilschutz": 5776, 
  "käme": 5777, 
  "beantragen": 5778, 
  "9.": 5779, 
  "dramatischen": 5780, 
  "ländern": 5781, 
  "abzusehen": 5782, 
  "komplexe": 5783, 
  "zweifelsohne": 5784, 
  "besonderem": 5785, 
  "herrschende": 5786, 
  "prozesse": 5787, 
  "Ausmaßes": 5788, 
  "Maß@@": 5789, 
  "Stimm@@": 5790, 
  "Ängste": 5791, 
  "wiederherzustellen": 5792, 
  "Risiko@@": 5793, 
  "Umfangs": 5794, 
  "Kommunal@@": 5795, 
  "meistern": 5796, 
  "Oper@@": 5797, 
  "Einleitung": 5798, 
  "lands": 5799, 
  "Glückwunsch": 5800, 
  "unterbreiteten": 5801, 
  "Beitrags": 5802, 
  "Me@@": 5803, 
  "Beschäftig@@": 5804, 
  "serbischen": 5805, 
  "terin": 5806, 
  "bekunden": 5807, 
  "letztes": 5808, 
  "Standort": 5809, 
  "Gremiums": 5810, 
  "anbieten": 5811, 
  "erleichtert": 5812, 
  "Davies": 5813, 
  "Juristen": 5814, 
  "formal": 5815, 
  "ausmachen": 5816, 
  "fei@@": 5817, 
  "Bestand": 5818, 
  "Spekulations@@": 5819, 
  "Ausschreibungen": 5820, 
  "entgegengesetzte": 5821, 
  "Gefahrgut@@": 5822, 
  "Frankreichs": 5823, 
  "Erscheinungen": 5824, 
  "Kollegium": 5825, 
  "Maastricht": 5826, 
  "Res@@": 5827, 
  "Konkurrenz": 5828, 
  "ermutigend": 5829, 
  "angesprochenen": 5830, 
  "Kapitalströme": 5831, 
  "gr@@": 5832, 
  "Handlungsfähigkeit": 5833, 
  "überdies": 5834, 
  "Römischen": 5835, 
  "Feststellungen": 5836, 
  "verstoßen": 5837, 
  "genehmigungen": 5838, 
  "Wieland": 5839, 
  "Gesetzes@@": 5840, 
  "Verwässerung": 5841, 
  "Instabilität": 5842, 
  "forst@@": 5843, 
  "Ignoranz": 5844, 
  "Anzeichen": 5845, 
  "UNMIK": 5846, 
  "bekommt": 5847, 
  "Beschäftigungsförderung": 5848, 
  "Jugendliche": 5849, 
  "stand@@": 5850, 
  "anstehende": 5851, 
  "Rumänien": 5852, 
  "höre": 5853, 
  "Mühe": 5854, 
  "schlechter": 5855, 
  "Votum": 5856, 
  "Regierungskonferenzen": 5857, 
  "volks@@": 5858, 
  "Grundvoraussetzung": 5859, 
  "Version": 5860, 
  "deutet": 5861, 
  "weite": 5862, 
  "weichen": 5863, 
  "anregen": 5864, 
  "Drei": 5865, 
  "zes": 5866, 
  "Könige": 5867, 
  "ha@@": 5868, 
  "ertes": 5869, 
  "abzusetzen": 5870, 
  "übermäßig": 5871, 
  "gem@@": 5872, 
  "Anmerkung": 5873, 
  "verbinden": 5874, 
  "situationen": 5875, 
  "rücken": 5876, 
  "Ablauf": 5877, 
  "Vollendung": 5878, 
  "fangen": 5879, 
  "sonstige": 5880, 
  "alistische": 5881, 
  "schw@@": 5882, 
  "Air": 5883, 
  "tend": 5884, 
  "Bedarf": 5885, 
  "Staatsangehörige": 5886, 
  "kommuni@@": 5887, 
  "entsprechendes": 5888, 
  "Geduld": 5889, 
  "Begründung": 5890, 
  "Gestalt": 5891, 
  "gegen@@": 5892, 
  "erschöpfende": 5893, 
  "Thyssen": 5894, 
  "präsent": 5895, 
  "zugenommen": 5896, 
  "Agrarregionen": 5897, 
  "fäl@@": 5898, 
  "Rest": 5899, 
  "lte": 5900, 
  "Regional-": 5901, 
  "europäisch": 5902, 
  "re": 5903, 
  "atur": 5904, 
  "wo@@": 5905, 
  "Ausgabe": 5906, 
  "investieren": 5907, 
  "schuld": 5908, 
  "hafte": 5909, 
  "Par@@": 5910, 
  "übergeordnete": 5911, 
  "anspruchs@@": 5912, 
  "entwicklung": 5913, 
  "Maßnahmenpaket": 5914, 
  "gemeldet": 5915, 
  "Freund": 5916, 
  "löst": 5917, 
  "plan@@": 5918, 
  "Verbraucher@@": 5919, 
  "schutz@@": 5920, 
  "leid": 5921, 
  "zentrales": 5922, 
  "Forsch@@": 5923, 
  "Funktionierens": 5924, 
  "Kriterium": 5925, 
  "Verbrauchern": 5926, 
  "Cox": 5927, 
  "Berat@@": 5928, 
  "IWF": 5929, 
  "raumes": 5930, 
  "Wirken": 5931, 
  "th@@": 5932, 
  "jetzige": 5933, 
  "Stil": 5934, 
  "me": 5935, 
  "bilaterale": 5936, 
  "vorher@@": 5937, 
  "Liikanen": 5938, 
  "ckt": 5939, 
  "Strukturfonds@@": 5940, 
  "intensiver": 5941, 
  "Kapital@@": 5942, 
  "mme": 5943, 
  "Krisen": 5944, 
  "au": 5945, 
  "erwägen": 5946, 
  "Drogenabhängigkeit": 5947, 
  "Zusätzlichkeit": 5948, 
  "Landwirt": 5949, 
  "Gelegenheiten": 5950, 
  "brauche": 5951, 
  "zw@@": 5952, 
  "gelitten": 5953, 
  "prä@@": 5954, 
  "US": 5955, 
  "wagen": 5956, 
  "schädliche": 5957, 
  "eingedämmt": 5958, 
  "landes": 5959, 
  "hinter@@": 5960, 
  "unterrichten": 5961, 
  "Rechtsetzung": 5962, 
  "mittelfristig": 5963, 
  "schwerfällig": 5964, 
  "Solana": 5965, 
  "Osterweiterung": 5966, 
  "ressourcen": 5967, 
  "dezentrale": 5968, 
  "Modelle": 5969, 
  "Fischereisektor": 5970, 
  "handels@@": 5971, 
  "Zw@@": 5972, 
  "Anlagen": 5973, 
  "Devisenmärkte": 5974, 
  "por@@": 5975, 
  "the@@": 5976, 
  "glob@@": 5977, 
  "ari@@": 5978, 
  "sorgfältigen": 5979, 
  "gangs": 5980, 
  "Europäern": 5981, 
  "tätigkeit": 5982, 
  "Erhebung": 5983, 
  "drastisch": 5984, 
  "verschmutzungen": 5985, 
  "Ö@@": 5986, 
  "stünde": 5987, 
  "zweimal": 5988, 
  "dulden": 5989, 
  "ungssystems": 5990, 
  "Sjöstedt": 5991, 
  "Lande": 5992, 
  "Sommer": 5993, 
  "investiert": 5994, 
  "Börsen@@": 5995, 
  "Beihilfensystem": 5996, 
  "Weltkrieg": 5997, 
  "sse": 5998, 
  "Nachforschungen": 5999, 
  "ess@@": 6000, 
  "digen": 6001, 
  "ffe": 6002, 
  "terte": 6003, 
  "Fischerei@@": 6004, 
  "derjenigen": 6005, 
  "optimalen": 6006, 
  "len@@": 6007, 
  "losigkeit": 6008, 
  "255": 6009, 
  "ns": 6010, 
  "gewandt": 6011, 
  "mitgeteilt": 6012, 
  "ösen": 6013, 
  "tibetischen": 6014, 
  "rassistischen": 6015, 
  "Kanäle": 6016, 
  "brech@@": 6017, 
  "beseitigt": 6018, 
  "Vorteile": 6019, 
  "Geschlechts": 6020, 
  "übergreifenden": 6021, 
  "gige": 6022, 
  "leistungen": 6023, 
  "Verk@@": 6024, 
  "öffentlicher": 6025, 
  "beheben": 6026, 
  "Aufträge": 6027, 
  "Mar@@": 6028, 
  "multinationalen": 6029, 
  "Versicherungs@@": 6030, 
  "ganzer": 6031, 
  "Gender": 6032, 
  "arbeits@@": 6033, 
  "einzubinden": 6034, 
  "überzeugende": 6035, 
  "lei@@": 6036, 
  "Beeinträchtigung": 6037, 
  "aufgeben": 6038, 
  "ler@@": 6039, 
  "Weltmarkt": 6040, 
  "lobenswerte": 6041, 
  "dienst@@": 6042, 
  "Arbeitsbedingungen": 6043, 
  "Zertifikat": 6044, 
  "Gleichstellungsfragen": 6045, 
  "verbieten": 6046, 
  "v@@": 6047, 
  "we@@": 6048, 
  "Zeitungsmeldungen": 6049, 
  "besitzt": 6050, 
  "vertiefen": 6051, 
  "kenn@@": 6052, 
  "Stadtvierteln": 6053, 
  "deu@@": 6054, 
  "auseinander@@": 6055, 
  "einzuleiten": 6056, 
  "irgendwelche": 6057, 
  "Mit@@": 6058, 
  "Karl": 6059, 
  "zustimmt": 6060, 
  "unterscheiden": 6061, 
  "vier@@": 6062, 
  "hindern": 6063, 
  "Monopol@@": 6064, 
  "erischen": 6065, 
  "Fragesteller": 6066, 
  "Organ": 6067, 
  "abgesch@@": 6068, 
  "wohn@@": 6069, 
  "08@@": 6070, 
  "finanz@@": 6071, 
  "kommens": 6072, 
  "ach": 6073, 
  "explizit": 6074, 
  "tö@@": 6075, 
  "aufzubauen": 6076, 
  "Arbeitsplatz": 6077, 
  "öffnen": 6078, 
  "Mitbürgern": 6079, 
  "Menschen@@": 6080, 
  "Kernwaffen": 6081, 
  "vorn": 6082, 
  "ursprüngliche": 6083, 
  "landen": 6084, 
  "Selbständigen": 6085, 
  "Biskaya": 6086, 
  "angehalten": 6087, 
  "Raumordnungspolitik": 6088, 
  "sei@@": 6089, 
  "Anreiz": 6090, 
  "südlichen": 6091, 
  "zuzulassen": 6092, 
  "ausführte": 6093, 
  "Sti@@": 6094, 
  "ßten": 6095, 
  "irische": 6096, 
  "Tier@@": 6097, 
  "Wallström": 6098, 
  "seits": 6099, 
  "Einreise": 6100, 
  "Rechnungsprüfung": 6101, 
  "vormittag": 6102, 
  "Kommissionsmitglieds": 6103, 
  "zeit@@": 6104, 
  "sphase": 6105, 
  "gewachsen": 6106, 
  "Flughafen": 6107, 
  "umweltfreund@@": 6108, 
  "fünftens": 6109, 
  "Vorsicht": 6110, 
  "Finanz-": 6111, 
  "ökologisch": 6112, 
  "drin@@": 6113, 
  "Einigkeit": 6114, 
  "teilung": 6115, 
  "bedeutete": 6116, 
  "beschneiden": 6117, 
  "schreiten": 6118, 
  "beabsichtige": 6119, 
  "vertikalen": 6120, 
  "verlängern": 6121, 
  "aktuell": 6122, 
  "anhaltende": 6123, 
  "Her@@": 6124, 
  "abhängen": 6125, 
  "isi@@": 6126, 
  "Nachbar@@": 6127, 
  "geringe": 6128, 
  "profitieren": 6129, 
  "Wirtschaften": 6130, 
  "sicher@@": 6131, 
  "Minister@@": 6132, 
  "vorzubereiten": 6133, 
  "motiviert": 6134, 
  "unangemessen": 6135, 
  "faßte": 6136, 
  "solch": 6137, 
  "lan": 6138, 
  "erschwert": 6139, 
  "ris@@": 6140, 
  "Vorsch@@": 6141, 
  "Summe": 6142, 
  "Industriestaaten": 6143, 
  "fachen": 6144, 
  "Optionen": 6145, 
  "komplizierte": 6146, 
  "Block@@": 6147, 
  "bildung": 6148, 
  "rau@@": 6149, 
  "tigere": 6150, 
  "fünf@@": 6151, 
  "dargestellt": 6152, 
  "langfristigen": 6153, 
  "Symptome": 6154, 
  "Klärung": 6155, 
  "rührt": 6156, 
  "Entschuldigung": 6157, 
  "lin@@": 6158, 
  "wächst": 6159, 
  "Mißverständnissen": 6160, 
  "getrennt": 6161, 
  "d.h.": 6162, 
  "endes": 6163, 
  "abkommen": 6164, 
  "defini@@": 6165, 
  "unterschiedlicher": 6166, 
  "Richtlinienentwürfe": 6167, 
  "benutzt": 6168, 
  "Meinungen": 6169, 
  "wirkt": 6170, 
  "erforder@@": 6171, 
  "800": 6172, 
  "ratsam": 6173, 
  "eingreifen": 6174, 
  "problem": 6175, 
  "tier@@": 6176, 
  "Mitteilungen": 6177, 
  "altet": 6178, 
  "territorialen": 6179, 
  "VIII": 6180, 
  "ICES": 6181, 
  "Sardellen": 6182, 
  "niedri@@": 6183, 
  "aufzeigen": 6184, 
  "krieg": 6185, 
  "Organismus": 6186, 
  "unterstreicht": 6187, 
  "Prüfungs@@": 6188, 
  "seinerzeit": 6189, 
  "stra@@": 6190, 
  "Verwaltungsvorschriften": 6191, 
  "Nazismus": 6192, 
  "Bet@@": 6193, 
  "3@@": 6194, 
  "ko": 6195, 
  "tors": 6196, 
  "Gewinn@@": 6197, 
  "bloße": 6198, 
  "Ermittlungen": 6199, 
  "umfassen": 6200, 
  "Gefallen": 6201, 
  "Mitentscheidungsverfahren": 6202, 
  "berat@@": 6203, 
  "allgemein@@": 6204, 
  "intensivieren": 6205, 
  "Übereinkunft": 6206, 
  "halt": 6207, 
  "Prä@@": 6208, 
  "30.": 6209, 
  "Jahresbericht": 6210, 
  "differenzi@@": 6211, 
  "Gebraucht@@": 6212, 
  "organisierte": 6213, 
  "na@@": 6214, 
  "Eisenbahn@@": 6215, 
  "unterschiedlich": 6216, 
  "schädlichen": 6217, 
  "beruflichen": 6218, 
  "Weiterbildung": 6219, 
  "Zuliefer@@": 6220, 
  "sätze": 6221, 
  "verankert": 6222, 
  "netzes": 6223, 
  "versäumen": 6224, 
  "mar@@": 6225, 
  "grünes": 6226, 
  "Ide@@": 6227, 
  "Produktions@@": 6228, 
  "Ersetzung": 6229, 
  "Gruppierungen": 6230, 
  "Epoche": 6231, 
  "üch@@": 6232, 
  "elementaren": 6233, 
  "verhängt": 6234, 
  "rückt": 6235, 
  "wirkung": 6236, 
  "ausführen": 6237, 
  ".@@": 6238, 
  "Handzeichen": 6239, 
  "aufgehoben": 6240, 
  "Phasen": 6241, 
  "Ohren": 6242, 
  "schön": 6243, 
  "nden": 6244, 
  "so@@": 6245, 
  "Schwermetalle": 6246, 
  "lauf@@": 6247, 
  "Umweltanforderungen": 6248, 
  "überwie@@": 6249, 
  "lungen": 6250, 
  "genannte": 6251, 
  "zuwenden": 6252, 
  "Demonstration": 6253, 
  "tlich": 6254, 
  "Anna": 6255, 
  "Verz@@": 6256, 
  "Abfall@@": 6257, 
  "vorgelegte": 6258, 
  "anerkannten": 6259, 
  "bar@@": 6260, 
  "stu@@": 6261, 
  "rütteln": 6262, 
  "Begriffe": 6263, 
  "0018": 6264, 
  "KULTUR": 6265, 
  "Eigenmittel": 6266, 
  "ausgerichteten": 6267, 
  "Haushaltskontrollausschuß": 6268, 
  "Produzentenverantwortung": 6269, 
  "gendes": 6270, 
  "fall@@": 6271, 
  "fern": 6272, 
  "machung": 6273, 
  "Cusí": 6274, 
  "88": 6275, 
  "aufzugreifen": 6276, 
  "gebührende": 6277, 
  "zustellen": 6278, 
  "spe@@": 6279, 
  "partei@@": 6280, 
  "ationen": 6281, 
  "Evaluierung": 6282, 
  "Gegenwart": 6283, 
  "existieren": 6284, 
  "Einstimmigkeitsprinzip": 6285, 
  "sozioökonomischen": 6286, 
  "ausgehöhlt": 6287, 
  "ganzem": 6288, 
  "Struktur-": 6289, 
  "angestrebten": 6290, 
  "manchen": 6291, 
  "Orientierungen": 6292, 
  "bestehende": 6293, 
  "Herstellern": 6294, 
  "Unrecht": 6295, 
  "ermitteln": 6296, 
  "Vertrauens": 6297, 
  "Vorabkontrolle": 6298, 
  "gehabt": 6299, 
  "Demokratie@@": 6300, 
  "ursprünglichen": 6301, 
  "Politik@@": 6302, 
  "einschlägige": 6303, 
  "000@@": 6304, 
  "licherweise": 6305, 
  "Zweckmäßigkeit": 6306, 
  "Auflagen": 6307, 
  "Berufung": 6308, 
  "billige": 6309, 
  "Plenarsitzung": 6310, 
  "Staatsanwalt": 6311, 
  "parallel": 6312, 
  "verständliche": 6313, 
  "schwerlich": 6314, 
  "prüft": 6315, 
  "Mittelbindungen": 6316, 
  "Zahlungen": 6317, 
  "Verschwendung": 6318, 
  "entsprechender": 6319, 
  "Schwer@@": 6320, 
  "Umstand": 6321, 
  "mern": 6322, 
  "gewinnt": 6323, 
  "rückwirkenden": 6324, 
  "1,@@": 6325, 
  "bekennt": 6326, 
  "Entscheidungsprozeß": 6327, 
  "ru@@": 6328, 
  "untergraben": 6329, 
  "vorrangigen": 6330, 
  "Instrumenten": 6331, 
  "realis@@": 6332, 
  "Abschnitt": 6333, 
  "Francis": 6334, 
  "späteren": 6335, 
  "Ty@@": 6336, 
  "Schottland": 6337, 
  "transparent": 6338, 
  "bedenkt": 6339, 
  "ach@@": 6340, 
  "vorschläge": 6341, 
  "tätigen": 6342, 
  "oni@@": 6343, 
  "Demagogie": 6344, 
  "Leader": 6345, 
  "lang@@": 6346, 
  "überwinden": 6347, 
  "verständnis": 6348, 
  "Delors": 6349, 
  "Jacques": 6350, 
  "ol@@": 6351, 
  "gründliche": 6352, 
  "EUROJUST": 6353, 
  "BürgerInnen": 6354, 
  "Di@@": 6355, 
  "integrierte": 6356, 
  "Standpunktes": 6357, 
  "bestmöglichen": 6358, 
  "Irlands": 6359, 
  "justitiellen": 6360, 
  "Kontinuität": 6361, 
  "gene": 6362, 
  "abschaffen": 6363, 
  "ent": 6364, 
  "Zahlungs@@": 6365, 
  "gemeinschaftlicher": 6366, 
  "igen": 6367, 
  "haltung": 6368, 
  "sektor": 6369, 
  "lassung": 6370, 
  "Ban@@": 6371, 
  "Steuerpolitik": 6372, 
  "radikal": 6373, 
  "Pflanzen": 6374, 
  "vorbehaltlos": 6375, 
  "152": 6376, 
  "Ei@@": 6377, 
  "zukünftige": 6378, 
  "Nachricht": 6379, 
  "maximal": 6380, 
  "bedingt": 6381, 
  "schrecklichen": 6382, 
  "strukturell": 6383, 
  "Instrumentarium": 6384, 
  "teuren": 6385, 
  "Kulturen": 6386, 
  "Sta@@": 6387, 
  "zugehen": 6388, 
  "Entwicklungszusammenarbeit": 6389, 
  "küh@@": 6390, 
  "irgendwie": 6391, 
  "ehrgeiziger": 6392, 
  "Flüchtlings@@": 6393, 
  "Morgan": 6394, 
  "Wiederverwertung": 6395, 
  "bekennen": 6396, 
  "Opfern": 6397, 
  "offenkundig": 6398, 
  "tene": 6399, 
  "Ter@@": 6400, 
  "begleitet": 6401, 
  "Aufforderung": 6402, 
  "Polizei@@": 6403, 
  "Positives": 6404, 
  "quellen": 6405, 
  "Moratinos": 6406, 
  "eingesetzten": 6407, 
  "chs@@": 6408, 
  "ität": 6409, 
  "Zulassungen": 6410, 
  "Konvergenz": 6411, 
  "beträgt": 6412, 
  "diplomatische": 6413, 
  "aufweist": 6414, 
  "ssen": 6415, 
  "ration@@": 6416, 
  "Unterrichtung": 6417, 
  "geführten": 6418, 
  "kosten@@": 6419, 
  "wohnen": 6420, 
  "p": 6421, 
  "Franzosen": 6422, 
  "doppelten": 6423, 
  "Aufschub": 6424, 
  "Ratsbeschluß": 6425, 
  "hinterfragt": 6426, 
  "17.": 6427, 
  "ßen": 6428, 
  "Fa@@": 6429, 
  "Ostens": 6430, 
  "Umweltbereich": 6431, 
  "gleichgültig": 6432, 
  "Arbeitslose": 6433, 
  "sinn": 6434, 
  "Stoffen": 6435, 
  "einzuladen": 6436, 
  "reform": 6437, 
  "europaweit": 6438, 
  "Barcelona": 6439, 
  "Rechtssysteme": 6440, 
  "dauer": 6441, 
  "Palästina": 6442, 
  "lierung": 6443, 
  "eingetreten": 6444, 
  "Geldern": 6445, 
  "zurückkehren": 6446, 
  "Prinzips": 6447, 
  "verletzen": 6448, 
  "engagieren": 6449, 
  "Hauptverantwortung": 6450, 
  "leichter": 6451, 
  "seh@@": 6452, 
  "diskrimini@@": 6453, 
  "Höhen": 6454, 
  "voranzukommen": 6455, 
  "eri@@": 6456, 
  "Washington": 6457, 
  "erhebt": 6458, 
  "Entschließungsantrags": 6459, 
  "bestrebt": 6460, 
  "effizient": 6461, 
  "unabdingbar": 6462, 
  "berufliche": 6463, 
  "ersucht": 6464, 
  "atoren": 6465, 
  "auszuarbeiten": 6466, 
  "aufgeführten": 6467, 
  "Gemeinschaft@@": 6468, 
  "bewilligen": 6469, 
  "freut": 6470, 
  "Corpus": 6471, 
  "ernsten": 6472, 
  "Fort@@": 6473, 
  "Juris": 6474, 
  "potential": 6475, 
  "fahrzeuge": 6476, 
  "Verhältnisse": 6477, 
  "Synergien": 6478, 
  "dienst": 6479, 
  "flexible": 6480, 
  "essen": 6481, 
  "baut": 6482, 
  "Pflichten": 6483, 
  "Banken": 6484, 
  "festigen": 6485, 
  "ches": 6486, 
  "bestände": 6487, 
  "bekundet": 6488, 
  "Paket": 6489, 
  "Eigenschaft": 6490, 
  "Kostenlosigkeit": 6491, 
  "Dringlichkeit": 6492, 
  "0104": 6493, 
  "Entschließungsentwurfs": 6494, 
  "durchführbar": 6495, 
  "XXVIII": 6496, 
  "kor@@": 6497, 
  "Nachteil": 6498, 
  "dreht": 6499, 
  "Gesicht": 6500, 
  "kündigt": 6501, 
  "maß@@": 6502, 
  "eh@@": 6503, 
  "Rückwirkung": 6504, 
  "Schengener": 6505, 
  "überläßt": 6506, 
  "Truppen": 6507, 
  "nissen": 6508, 
  "vorgestern": 6509, 
  "verdeutlicht": 6510, 
  "Gesprächen": 6511, 
  "Hand@@": 6512, 
  "sionen": 6513, 
  "unnötige": 6514, 
  "gegründet": 6515, 
  "Lanka": 6516, 
  "Zweideutigkeit": 6517, 
  "Sri": 6518, 
  "Geldgeber": 6519, 
  "Autonomiebehörde": 6520, 
  "Rechtssystem": 6521, 
  "Alt@@": 6522, 
  "Franz": 6523, 
  "Publi@@": 6524, 
  "Refer@@": 6525, 
  "Rückstand": 6526, 
  "generellen": 6527, 
  "Parameter": 6528, 
  "280": 6529, 
  "Populismus": 6530, 
  "B5": 6531, 
  "kamen": 6532, 
  "abel": 6533, 
  "aussch@@": 6534, 
  "Stadium": 6535, 
  "genommenen": 6536, 
  "55": 6537, 
  "Niederschlag": 6538, 
  "mittel-": 6539, 
  "Politikern": 6540, 
  "begleiten": 6541, 
  "erwähnte": 6542, 
  "wirksamen": 6543, 
  "tig@@": 6544, 
  "Friedensabkommen": 6545, 
  "Terrorismus": 6546, 
  "palästinensische": 6547, 
  "Erfordernissen": 6548, 
  "Gesetzgeber": 6549, 
  "beobach@@": 6550, 
  "beschäftigungs@@": 6551, 
  "Grundwerten": 6552, 
  "gn@@": 6553, 
  "Niederlande": 6554, 
  "extreme": 6555, 
  "kapital": 6556, 
  "niedrigeren": 6557, 
  "effektiver": 6558, 
  "enten": 6559, 
  "Einheit": 6560, 
  "kündigen": 6561, 
  "Runde": 6562, 
  "erweise": 6563, 
  "spezielles": 6564, 
  "modernisiert": 6565, 
  "rechten": 6566, 
  "Verb@@": 6567, 
  "womöglich": 6568, 
  "aufgestellt": 6569, 
  "Handhabung": 6570, 
  "Wien": 6571, 
  "Umweltschutz@@": 6572, 
  "Zusicherung": 6573, 
  "Lobby@@": 6574, 
  "skeptisch": 6575, 
  "Nieder@@": 6576, 
  "Wir": 6577, 
  "Verletzungen": 6578, 
  "gegenseitig": 6579, 
  "entfalten": 6580, 
  "1991": 6581, 
  "gewinn@@": 6582, 
  "Abend": 6583, 
  "haftigkeit": 6584, 
  "Bundesländer": 6585, 
  "Dauer@@": 6586, 
  "zeigte": 6587, 
  "inn@@": 6588, 
  "Wissens@@": 6589, 
  "Preis@@": 6590, 
  "sach@@": 6591, 
  "einschränken": 6592, 
  "differenzierte": 6593, 
  "Präzedenzfall": 6594, 
  "umweltpolitisch": 6595, 
  "abwandern": 6596, 
  "Regierungschef": 6597, 
  "bemerkenswert": 6598, 
  "wider@@": 6599, 
  "finnische": 6600, 
  "qualifizierten": 6601, 
  "einmischen": 6602, 
  "jenes": 6603, 
  "gescheitert": 6604, 
  "wettbewerbsfähi@@": 6605, 
  "tenen": 6606, 
  "dachten": 6607, 
  "sam@@": 6608, 
  "bemerken": 6609, 
  "chtet": 6610, 
  "wiederfinden": 6611, 
  "Asylverfahren": 6612, 
  "Herz": 6613, 
  "geschickt": 6614, 
  "Elementen": 6615, 
  "abgeändert": 6616, 
  "Sender": 6617, 
  "machbar": 6618, 
  "wettbewerbsfähige": 6619, 
  "S": 6620, 
  "niemandem": 6621, 
  "staat": 6622, 
  "1986": 6623, 
  "verbraucher@@": 6624, 
  "Moral": 6625, 
  "wieso": 6626, 
  "orientiert": 6627, 
  "transparenter": 6628, 
  "Vallelersundi": 6629, 
  "Ko@@": 6630, 
  "schien": 6631, 
  "än@@": 6632, 
  "einzumischen": 6633, 
  "äußerte": 6634, 
  "grenze": 6635, 
  "Drogen@@": 6636, 
  "Altfahrzeug": 6637, 
  "weiten": 6638, 
  "Niedergang": 6639, 
  "erreichte": 6640, 
  "genehmigen": 6641, 
  "begann": 6642, 
  "schung": 6643, 
  "beihilfen": 6644, 
  "Strategiepapier": 6645, 
  "wovon": 6646, 
  "Entfernungen": 6647, 
  "unterscheidet": 6648, 
  "haf@@": 6649, 
  "landwirtschaftlichen": 6650, 
  "Erweiterungs@@": 6651, 
  "vorigen": 6652, 
  "how": 6653, 
  "unmittelbaren": 6654, 
  "hervorrufen": 6655, 
  "stab": 6656, 
  "Stahlbeihilfekodex": 6657, 
  "gewünschten": 6658, 
  "eil@@": 6659, 
  "vergeben": 6660, 
  "fressen": 6661, 
  "frucht@@": 6662, 
  "Generaldirektionen": 6663, 
  "2,@@": 6664, 
  "Prüfstand": 6665, 
  "Ministerrats": 6666, 
  "lebens": 6667, 
  "minim@@": 6668, 
  "annulliert": 6669, 
  "Amts@@": 6670, 
  "gegriffen": 6671, 
  "Ausstellungen": 6672, 
  "unbestreitbar": 6673, 
  "schlü@@": 6674, 
  "vernich@@": 6675, 
  "förderfähig": 6676, 
  "Zwischenzeit": 6677, 
  "unerläßlichen": 6678, 
  "Or@@": 6679, 
  "Enthaltungen": 6680, 
  "Aufbauwerks": 6681, 
  "anlaufen": 6682, 
  "reichte": 6683, 
  "opfern": 6684, 
  "ppen": 6685, 
  "verschwendet": 6686, 
  "näher": 6687, 
  "Entscheidungsverfahren": 6688, 
  "ven@@": 6689, 
  "ausweiten": 6690, 
  "baldmöglichst": 6691, 
  "jüngster": 6692, 
  "Handels": 6693, 
  "Belang": 6694, 
  "ehemaligen": 6695, 
  "Währungen": 6696, 
  "meinerseits": 6697, 
  "gehörte": 6698, 
  "unterbreitete": 6699, 
  "schwieri@@": 6700, 
  "Interessen@@": 6701, 
  "U.": 6702, 
  "char@@": 6703, 
  "entwickelter": 6704, 
  "Rednerin": 6705, 
  "koordini@@": 6706, 
  "Geste": 6707, 
  "ander@@": 6708, 
  "Oil": 6709, 
  "nah@@": 6710, 
  "Komponente": 6711, 
  "Einwander@@": 6712, 
  "Klima@@": 6713, 
  "Fünftel": 6714, 
  "ELDR": 6715, 
  "geordneten": 6716, 
  "Flugzeug": 6717, 
  "gigantischen": 6718, 
  "Zus@@": 6719, 
  "Klein@@": 6720, 
  "tschaften": 6721, 
  "Monats": 6722, 
  "bekämpft": 6723, 
  "Mischung": 6724, 
  "hinweg@@": 6725, 
  "tisierung": 6726, 
  "eindringlich": 6727, 
  "Ernährungswirtschaft": 6728, 
  "poli@@": 6729, 
  "Theatos": 6730, 
  "Vertre@@": 6731, 
  "Grundprinzipien": 6732, 
  "fühle": 6733, 
  "vorgeben": 6734, 
  "bürger@@": 6735, 
  "Wachstums@@": 6736, 
  "Alltag": 6737, 
  "bitter": 6738, 
  "Kin@@": 6739, 
  "gestrigen": 6740, 
  "bedeutend": 6741, 
  "Geometrie": 6742, 
  "sektors": 6743, 
  "legungen": 6744, 
  "reich": 6745, 
  "leichten": 6746, 
  "uner@@": 6747, 
  "Saal": 6748, 
  "höher": 6749, 
  "unab@@": 6750, 
  "Selbständige": 6751, 
  "zusätzlicher": 6752, 
  "Verdacht": 6753, 
  "schulden": 6754, 
  "bür@@": 6755, 
  "Familie": 6756, 
  "Zentralisierung": 6757, 
  "beauftragt": 6758, 
  "Rückkehr": 6759, 
  "samt": 6760, 
  "Wissens": 6761, 
  "Sprung": 6762, 
  "Meere": 6763, 
  "bewahrt": 6764, 
  "mehrjährige": 6765, 
  "ken@@": 6766, 
  "aufpassen": 6767, 
  "qualitativen": 6768, 
  "Produkten": 6769, 
  "elektronischen": 6770, 
  "kultureller": 6771, 
  "obligatorisch": 6772, 
  "baskischen": 6773, 
  "begründete": 6774, 
  "Versuche": 6775, 
  "Rand@@": 6776, 
  "Kauf@@": 6777, 
  "Finanzinstitutionen": 6778, 
  "gesellschaften": 6779, 
  "Drohungen": 6780, 
  "günsti@@": 6781, 
  "Konflikte": 6782, 
  "fließen": 6783, 
  "kun@@": 6784, 
  "angesehen": 6785, 
  "sion": 6786, 
  "nachgerade": 6787, 
  "anzustreben": 6788, 
  "dieren": 6789, 
  "gewal@@": 6790, 
  "empfehle": 6791, 
  "1.@@": 6792, 
  "Einheitlichkeit": 6793, 
  "General": 6794, 
  "korrigiert": 6795, 
  "Empfangsstaat": 6796, 
  "Unklarheiten": 6797, 
  "Qu@@": 6798, 
  "Stahlwerk": 6799, 
  "nordamerikanischen": 6800, 
  "gkeits@@": 6801, 
  "eh": 6802, 
  "RINA": 6803, 
  "Hau@@": 6804, 
  "tigkeiten": 6805, 
  "gin@@": 6806, 
  "origin@@": 6807, 
  "Staatsanwalts": 6808, 
  "indikative": 6809, 
  "zugrundeliegenden": 6810, 
  "Linke": 6811, 
  "zahlung": 6812, 
  "umgegangen": 6813, 
  "ausgeglichene": 6814, 
  "Ambition": 6815, 
  "festgeschrieben": 6816, 
  "ür": 6817, 
  "Zuschüssen": 6818, 
  "ABB": 6819, 
  "rasche": 6820, 
  "ernsthaften": 6821, 
  "Alsthom": 6822, 
  "Notwendigkeiten": 6823, 
  "samen": 6824, 
  "verantwortungsbewußt": 6825, 
  "Power": 6826, 
  "ständi@@": 6827, 
  "Rechtsvorschrift": 6828, 
  "Waren-": 6829, 
  "Arbeitgeber": 6830, 
  "Barrieren": 6831, 
  "Wachstums": 6832, 
  "Halb@@": 6833, 
  "entgegensehen": 6834, 
  "diszipl@@": 6835, 
  "herrschte": 6836, 
  "ls": 6837, 
  "ermittelt": 6838, 
  "totalitären": 6839, 
  "orie": 6840, 
  "kommun@@": 6841, 
  "Regierungsbeteiligung": 6842, 
  "traditionellen": 6843, 
  "Zuschüsse": 6844, 
  "Fraktionsvorsitzenden": 6845, 
  "abgedeckt": 6846, 
  "Vier@@": 6847, 
  "richtlinie": 6848, 
  "Umweltorganisationen": 6849, 
  "if": 6850, 
  "Gemeinderäten": 6851, 
  "lag@@": 6852, 
  "angerichtet": 6853, 
  "gering@@": 6854, 
  "Integrationsprozeß": 6855, 
  "Kapitalmärkte": 6856, 
  "Kommissars": 6857, 
  "dezentralisiert": 6858, 
  "Nachrichten": 6859, 
  "Pest": 6860, 
  "fähiger": 6861, 
  "dert": 6862, 
  "beenden": 6863, 
  "Tagesordnungspunkt": 6864, 
  "Ölgesellschaften": 6865, 
  "durchsetz@@": 6866, 
  "regierungen": 6867, 
  "gleichkäme": 6868, 
  "stren@@": 6869, 
  "kriminellen": 6870, 
  "stie@@": 6871, 
  "Steuerabkommen": 6872, 
  "gangs@@": 6873, 
  "zweifelhaft": 6874, 
  "vergrößern": 6875, 
  "Zusammenkunft": 6876, 
  "Rechtfertigung": 6877, 
  "abschließ@@": 6878, 
  "protestieren": 6879, 
  "Wirtschaftsgemeinschaft": 6880, 
  "Koalitions@@": 6881, 
  "Streichung": 6882, 
  "ausgezeichnet": 6883, 
  "betriebswirtschaftlichen": 6884, 
  "bewegung": 6885, 
  "ungss@@": 6886, 
  "Seefahrtbehörden": 6887, 
  "Hänsch": 6888, 
  "Drittstaatsbürger": 6889, 
  "Heimat@@": 6890, 
  "Vorverurteilung": 6891, 
  "tiefen": 6892, 
  "beruhigen": 6893, 
  "wacht": 6894, 
  "Vermarktung": 6895, 
  "Betrugs@@": 6896, 
  "national@@": 6897, 
  "rei": 6898, 
  "gewütet": 6899, 
  "äumen": 6900, 
  "erlaube": 6901, 
  "desto": 6902, 
  "EWG": 6903, 
  "Ökonomie": 6904, 
  "Wulf": 6905, 
  "irgendwelchen": 6906, 
  "erschüttert": 6907, 
  "anzen": 6908, 
  "beeindruckt": 6909, 
  "umgeht": 6910, 
  "Aufarbeitung": 6911, 
  "Unfähigkeit": 6912, 
  "akts": 6913, 
  "assen": 6914, 
  "vi@@": 6915, 
  "Weihnachtsmann": 6916, 
  "durfte": 6917, 
  "Flammschutzmittel": 6918, 
  "Nor@@": 6919, 
  "Ri@@": 6920, 
  "gestört": 6921, 
  "Gel@@": 6922, 
  "keines": 6923, 
  "Menschheit": 6924, 
  "Geschenke": 6925, 
  "Wachsamkeit": 6926, 
  "Monopolbildung": 6927, 
  "fu@@": 6928, 
  "umfassenderen": 6929, 
  "Durchbruch": 6930, 
  "Prodis": 6931, 
  "U@@": 6932, 
  "als@@": 6933, 
  "Schwar@@": 6934, 
  "schnell@@": 6935, 
  "Vereinbarkeit": 6936, 
  "kurzer": 6937, 
  "emm@@": 6938, 
  "Räume": 6939, 
  "einschlägigen": 6940, 
  "Einsicht": 6941, 
  "Gesichtspunkte": 6942, 
  "üstung": 6943, 
  "lie@@": 6944, 
  "seri@@": 6945, 
  "hervorragenden": 6946, 
  "zag@@": 6947, 
  "Abwägung": 6948, 
  "ausgestellt": 6949, 
  "Mil@@": 6950, 
  "Mathies": 6951, 
  "gut@@": 6952, 
  "Erschließung": 6953, 
  "riesigen": 6954, 
  "Versch@@": 6955, 
  "Zusammenbruch": 6956, 
  "tour@@": 6957, 
  "schießen": 6958, 
  "schweigen": 6959, 
  "eder": 6960, 
  "Bu@@": 6961, 
  "kriterien": 6962, 
  "primi@@": 6963, 
  "Beste": 6964, 
  "Risikomanagements": 6965, 
  "Katastrophen@@": 6966, 
  "gelegte": 6967, 
  "ökonom@@": 6968, 
  "außergewöhnlich": 6969, 
  "situation": 6970, 
  "gerüttelt": 6971, 
  "Dienstleistungs@@": 6972, 
  "Chemikalien": 6973, 
  "gewillt": 6974, 
  "ps": 6975, 
  "eint": 6976, 
  "hinein@@": 6977, 
  "sches": 6978, 
  "Abwegigkeit": 6979, 
  "unglück@@": 6980, 
  "arbeitende": 6981, 
  "führten": 6982, 
  "unterbrochene": 6983, 
  "Elend": 6984, 
  "erworben": 6985, 
  "Revolution": 6986, 
  "Haf@@": 6987, 
  "PVC": 6988, 
  "verheerende": 6989, 
  "zierten": 6990, 
  "ankommt": 6991, 
  "erhielten": 6992, 
  "netze": 6993, 
  "vorläufige": 6994, 
  "Konfliktverhütung": 6995, 
  "austragen": 6996, 
  "nation@@": 6997, 
  "zweierlei": 6998, 
  "klass@@": 6999, 
  "Mehrwertsteuer": 7000, 
  "Super@@": 7001, 
  "Änderungsantrags": 7002, 
  "dete": 7003, 
  "Golfstrom": 7004, 
  "Arme": 7005, 
  "stabile": 7006, 
  "istisch": 7007, 
  "strebt": 7008, 
  "gelegen": 7009, 
  "widersprechen": 7010, 
  "staates": 7011, 
  "trei@@": 7012, 
  "struktur@@": 7013, 
  "onn@@": 7014, 
  "Wettbewerbsbehörde": 7015, 
  "Farce": 7016, 
  "Zoll@@": 7017, 
  "Treibhauseffekt": 7018, 
  "Verlaub": 7019, 
  "herunter@@": 7020, 
  "Handlungsbedarf": 7021, 
  "Ansteigen": 7022, 
  "audiovisuellen": 7023, 
  "Inten@@": 7024, 
  "kommissar": 7025, 
  "ehemaliger": 7026, 
  "bromierten": 7027, 
  "veränder@@": 7028, 
  "Ausmaße": 7029, 
  "anzukämpfen": 7030, 
  "innov@@": 7031, 
  "demonstrieren": 7032, 
  "Milliarde": 7033, 
  "abgestimmte": 7034, 
  "jährliche": 7035, 
  "Schweiz": 7036, 
  "damalige": 7037, 
  "bildende": 7038, 
  "erkennbar": 7039, 
  "Vermögen": 7040, 
  "diensten": 7041, 
  "passen": 7042, 
  "gel": 7043, 
  "Informationsaustausch": 7044, 
  "deckten": 7045, 
  "wirtschaftliches": 7046, 
  "13.@@": 7047, 
  "1@@": 7048, 
  "Schweigeminute": 7049, 
  "Quali@@": 7050, 
  "5b": 7051, 
  "Abwanderung": 7052, 
  "ausgegrenz@@": 7053, 
  "Angehörige": 7054, 
  "erhobene": 7055, 
  "gens": 7056, 
  "fizieren": 7057, 
  "vorbehalt": 7058, 
  "Vertrag@@": 7059, 
  "ek@@": 7060, 
  "vorhergehende": 7061, 
  "justitielle": 7062, 
  "ebnen": 7063, 
  "Graefe": 7064, 
  "rin@@": 7065, 
  "abzeichnen": 7066, 
  "mter": 7067, 
  "Baringdorf": 7068, 
  "schaftlich": 7069, 
  "gewirkt": 7070, 
  "verträ@@": 7071, 
  "Streit": 7072, 
  "blo@@": 7073, 
  "nachgewiesen": 7074, 
  "umgekehrt": 7075, 
  "Entscheidungsprozesse": 7076, 
  "Fu@@": 7077, 
  "hoben": 7078, 
  "sak@@": 7079, 
  "Havarie": 7080, 
  "engen": 7081, 
  "rass@@": 7082, 
  "Gemeinschaftshaushalt": 7083, 
  "140": 7084, 
  "jed@@": 7085, 
  "immense": 7086, 
  "kräften": 7087, 
  "Versorgungs@@": 7088, 
  "7.": 7089, 
  "hieß": 7090, 
  "setzte": 7091, 
  "Gesundheitswesen": 7092, 
  "ungeheure": 7093, 
  "kräfte": 7094, 
  "traurige": 7095, 
  "verschont": 7096, 
  "blieb": 7097, 
  "Welle": 7098, 
  "Wald": 7099, 
  "Bürgers": 7100, 
  "Materie": 7101, 
  "sorgt": 7102, 
  "empfunden": 7103, 
  "Francs": 7104, 
  "or": 7105, 
  "wieviele": 7106, 
  "1989": 7107, 
  "Strafrechts": 7108, 
  "Staats-": 7109, 
  "Beschleunigung": 7110, 
  "alis@@": 7111, 
  "Saatgutrichtlinie": 7112, 
  "arr@@": 7113, 
  "Rechtsangleichung": 7114, 
  "verbänden": 7115, 
  "fälligen": 7116, 
  "Tieren": 7117, 
  "leitlinien": 7118, 
  "Politikbereichen": 7119, 
  "wechseln": 7120, 
  "Begründungen": 7121, 
  "ise": 7122, 
  "Lothar": 7123, 
  "Inkompetenz": 7124, 
  "vorbehalten": 7125, 
  "bra@@": 7126, 
  "he": 7127, 
  "umgekehrte": 7128, 
  "abhängigen": 7129, 
  "erlangt": 7130, 
  "niedrig": 7131, 
  "leichte": 7132, 
  "gei@@": 7133, 
  "übersehen": 7134, 
  "stabiler": 7135, 
  "Rechtshilfe": 7136, 
  "gingen": 7137, 
  "Entwicklungsprogramme": 7138, 
  "nungs@@": 7139, 
  "ase": 7140, 
  "Befürchtung": 7141, 
  "Entwicklungspotential": 7142, 
  "hoffähig": 7143, 
  "Rand": 7144, 
  "angenommene": 7145, 
  "Instinkt": 7146, 
  "kehren": 7147, 
  "auszugleichen": 7148, 
  "Einheits@@": 7149, 
  "Aufschwung": 7150, 
  "sodann": 7151, 
  "1988": 7152, 
  "wende": 7153, 
  "Lab@@": 7154, 
  "untersagt": 7155, 
  "Austauschs": 7156, 
  "Verknüpfung": 7157, 
  "Verbrechensbekämpfung": 7158, 
  "NL": 7159, 
  "Substanz": 7160, 
  "6.": 7161, 
  "Dienstleistung": 7162, 
  "bli@@": 7163, 
  "abbauen": 7164, 
  "exakten": 7165, 
  "Bewahrung": 7166, 
  "Beihilfepolitik": 7167, 
  "verfahrens@@": 7168, 
  "materielle": 7169, 
  "fizi@@": 7170, 
  "satz": 7171, 
  "nütz@@": 7172, 
  "kamp@@": 7173, 
  "gebäude": 7174, 
  "Fleiß": 7175, 
  "Kauf": 7176, 
  "Wäldern": 7177, 
  "definieren": 7178, 
  "gefällt": 7179, 
  "modells": 7180, 
  "sions@@": 7181, 
  "langfristige": 7182, 
  "esen": 7183, 
  "wir@@": 7184, 
  "laufende": 7185, 
  "Unglücks": 7186, 
  "stünden": 7187, 
  "Zuständigkeitsbereich": 7188, 
  "Vorhandensein": 7189, 
  "wartet": 7190, 
  "haftes": 7191, 
  "kün@@": 7192, 
  "2003": 7193, 
  "derartiges": 7194, 
  "alog": 7195, 
  "Bilanz": 7196, 
  "beobachtet": 7197, 
  "Kraftfahrzeugen": 7198, 
  "heitlichen": 7199, 
  "ou@@": 7200, 
  "äden": 7201, 
  "strukturiert": 7202, 
  "höchstmöglichen": 7203, 
  "Ausland": 7204, 
  "ts-": 7205, 
  "undung": 7206, 
  "abwarten": 7207, 
  "standards": 7208, 
  "EDD": 7209, 
  "zeitraums": 7210, 
  "Planungs@@": 7211, 
  "auszuüben": 7212, 
  "fal@@": 7213, 
  "gesetzliche": 7214, 
  "zweifeln": 7215, 
  "Laufzeit": 7216, 
  "wachen": 7217, 
  "rufe": 7218, 
  "ausgewogen": 7219, 
  "besseres": 7220, 
  "weitaus": 7221, 
  "Sitze": 7222, 
  "fahrenden": 7223, 
  "x": 7224, 
  "leg@@": 7225, 
  "nachfolgenden": 7226, 
  "Erinnerungen": 7227, 
  "berechtigte": 7228, 
  "ablen": 7229, 
  "tliche": 7230, 
  "unerheblich": 7231, 
  "Canyon": 7232, 
  "ren": 7233, 
  "entgegentreten": 7234, 
  "gewähr@@": 7235, 
  "woh@@": 7236, 
  "Ziffern": 7237, 
  "klu@@": 7238, 
  "Fra@@": 7239, 
  "probleme": 7240, 
  "ck": 7241, 
  "schwerwiegend": 7242, 
  "gefähr@@": 7243, 
  "sichtbare": 7244, 
  "lichsten": 7245, 
  "beratenden": 7246, 
  "verw@@": 7247, 
  "mutet": 7248, 
  "Profite": 7249, 
  "Nutz@@": 7250, 
  "Schaden@@": 7251, 
  "kümmert": 7252, 
  "mü@@": 7253, 
  "kürz@@": 7254, 
  "angestrebte": 7255, 
  "TÜV": 7256, 
  "weckt": 7257, 
  "vordringlich": 7258, 
  "kurzfristig": 7259, 
  "Individu@@": 7260, 
  "Entlassungen": 7261, 
  "Shaping": 7262, 
  "Letzten": 7263, 
  "NRO": 7264, 
  "geteilte": 7265, 
  "Beihilfe": 7266, 
  "Druck@@": 7267, 
  "Verzahnung": 7268, 
  "afrikanischen": 7269, 
  "Image": 7270, 
  "grüne": 7271, 
  "Sachen": 7272, 
  "mens": 7273, 
  "geographischer": 7274, 
  "galten": 7275, 
  "üblichen": 7276, 
  "Beitrittsländern": 7277, 
  "gentümer": 7278, 
  "Klassen": 7279, 
  "Sozialwirtschaft": 7280, 
  "konstitutionellen": 7281, 
  "Seegrenze": 7282, 
  "sachen": 7283, 
  "Interesses": 7284, 
  "Südens": 7285, 
  "mel@@": 7286, 
  "Stimmengewichtung": 7287, 
  "Balkan@@": 7288, 
  "Raumordn@@": 7289, 
  "stößt": 7290, 
  "Selbstverwaltung": 7291, 
  "respektiere": 7292, 
  "Weihnachts@@": 7293, 
  "gänzlich": 7294, 
  "Antrag@@": 7295, 
  "macht@@": 7296, 
  "Wohlstands@@": 7297, 
  "nötigen": 7298, 
  "herzlichen": 7299, 
  "Behauptungen": 7300, 
  "Bundesstaaten": 7301, 
  "Kosten@@": 7302, 
  "gesteckt": 7303, 
  "Bil@@": 7304, 
  "bedeutender": 7305, 
  "ses": 7306, 
  "gefolgt": 7307, 
  "bezogen": 7308, 
  "verknüpfen": 7309, 
  "Gemeinplätze": 7310, 
  "Präsiden@@": 7311, 
  "relevante": 7312, 
  "erfahr@@": 7313, 
  "Rechtsausschusses": 7314, 
  "spekulativen": 7315, 
  "Inspektion": 7316, 
  "besorgniserregend": 7317, 
  "Planungszeitraum": 7318, 
  "Vorschrift": 7319, 
  "lige": 7320, 
  "Torrey": 7321, 
  "gewissermaßen": 7322, 
  "hän@@": 7323, 
  "arbei@@": 7324, 
  "bretonische": 7325, 
  "Ausbeutung": 7326, 
  "korrigieren": 7327, 
  "zentralistische": 7328, 
  "Nationalsozialismus": 7329, 
  "Volkswirtschaften": 7330, 
  "good": 7331, 
  "teilnimmt": 7332, 
  "Holocaust": 7333, 
  "ewig": 7334, 
  "strikten": 7335, 
  "produ@@": 7336, 
  "verloren@@": 7337, 
  "nötige": 7338, 
  "Indonesien": 7339, 
  "steuert": 7340, 
  "entwick@@": 7341, 
  "Dikt@@": 7342, 
  "ig": 7343, 
  "vorgegangen": 7344, 
  "rigor@@": 7345, 
  "governance": 7346, 
  "alisierten": 7347, 
  "testen": 7348, 
  "Embargos": 7349, 
  "Stich@@": 7350, 
  "glück@@": 7351, 
  "Vereinheitlichung": 7352, 
  "geraumer": 7353, 
  "entfernen": 7354, 
  "Schwelle": 7355, 
  "Devisenspekulationen": 7356, 
  "geeilt": 7357, 
  "Arlene": 7358, 
  "annt": 7359, 
  "Städteentwicklung": 7360, 
  "nachgeordnete": 7361, 
  "glich": 7362, 
  "merk@@": 7363, 
  "Handel@@": 7364, 
  "Welthandel": 7365, 
  "mann": 7366, 
  "ausgesch@@": 7367, 
  "ette": 7368, 
  "IMO": 7369, 
  "gewertet": 7370, 
  "fü@@": 7371, 
  "Unzufriedenheit": 7372, 
  "setzung": 7373, 
  "integrierter": 7374, 
  "dungs@@": 7375, 
  "gesellschaftlicher": 7376, 
  "ließe": 7377, 
  "eilen": 7378, 
  "Inselgebiete": 7379, 
  "wü@@": 7380, 
  "überarbeiten": 7381, 
  "Aktions@@": 7382, 
  "krisenbetroffenen": 7383, 
  "Stellenwert": 7384, 
  "Lebensräume": 7385, 
  "schwache": 7386, 
  "wert@@": 7387, 
  "abzielt": 7388, 
  "nützen": 7389, 
  "anzulasten": 7390, 
  "wettbewerbsfähig": 7391, 
  "Unionshaushalt": 7392, 
  "Wiederauf@@": 7393, 
  "verabschiedeten": 7394, 
  "Entschädigungen": 7395, 
  "halten@@": 7396, 
  "Anwachsen": 7397, 
  "angelegt": 7398, 
  "geringem": 7399, 
  "umweltpolitischen": 7400, 
  "hr": 7401, 
  "gefügt": 7402, 
  "Kürzung": 7403, 
  "ischt": 7404, 
  "Militär@@": 7405, 
  "Regierungsprogramm": 7406, 
  "hilfe": 7407, 
  "beruft": 7408, 
  "beurteilt": 7409, 
  "Seeverkehr": 7410, 
  "Freiwillige": 7411, 
  "hinnehmbare": 7412, 
  "Untätigkeit": 7413, 
  "eink@@": 7414, 
  "Marktmechanismen": 7415, 
  "erachtet": 7416, 
  "überla@@": 7417, 
  "Vorzug": 7418, 
  "unglaub@@": 7419, 
  "Vorsorge": 7420, 
  "Gewißheit": 7421, 
  "zivil@@": 7422, 
  "ech@@": 7423, 
  "digung": 7424, 
  "Regierungskoalition": 7425, 
  "hersteller": 7426, 
  "überlastet": 7427, 
  "themati@@": 7428, 
  "heimlich": 7429, 
  "Not": 7430, 
  "schmer@@": 7431, 
  "Rindfleisch": 7432, 
  "präzisen": 7433, 
  "gelder": 7434, 
  "wunderbare": 7435, 
  "Binnenmarkt@@": 7436, 
  "Orkan": 7437, 
  "Verantwortungslosigkeit": 7438, 
  "verwässert": 7439, 
  "besonderes": 7440, 
  "Details": 7441, 
  "russischen": 7442, 
  "supranationalen": 7443, 
  "Förderfähigkeit": 7444, 
  "geis@@": 7445, 
  "hielten": 7446, 
  "einzuholen": 7447, 
  "vorherige": 7448, 
  "Minderheitsregierung": 7449, 
  "Anregungen": 7450, 
  "Opposition": 7451, 
  "Brief@@": 7452, 
  "SPÖ": 7453, 
  "illegale": 7454, 
  "Gesetzeskatalog": 7455, 
  "bedauer@@": 7456, 
  "Por@@": 7457, 
  "sch": 7458, 
  "schwar@@": 7459, 
  "Gewässer": 7460, 
  "Einvernehmen": 7461, 
  "abl@@": 7462, 
  "isierten": 7463, 
  "bericht": 7464, 
  "beherrscht": 7465, 
  "wiederholten": 7466, 
  "namentliche": 7467, 
  "verleiht": 7468, 
  "Gott": 7469, 
  "BSP": 7470, 
  "verhelfen": 7471, 
  "terer": 7472, 
  "tum": 7473, 
  "Familien@@": 7474, 
  "Rom@@": 7475, 
  "ansetzen": 7476, 
  "dankt": 7477, 
  "Nachbarländer": 7478, 
  "Vorgehensweise": 7479, 
  "fügen": 7480, 
  "Ir@@": 7481, 
  "schwer@@": 7482, 
  "profi@@": 7483, 
  "wohlhabenden": 7484, 
  "schlagkräf@@": 7485, 
  "Interview": 7486, 
  "Sprachrohr": 7487, 
  "Dilemma": 7488, 
  "verdeutlichen": 7489, 
  "markiert": 7490, 
  "Inanspruchnahme": 7491, 
  "führe": 7492, 
  "Vorurteilen": 7493, 
  "anerkannte": 7494, 
  "Wendepunkt": 7495, 
  "Aufsicht": 7496, 
  "anfällig": 7497, 
  "nahmen": 7498, 
  "erschöpfend": 7499, 
  "sitzen": 7500, 
  "Handelsaustausch": 7501, 
  "unzulässi@@": 7502, 
  "Ingangsetzung": 7503, 
  "Widersprüche": 7504, 
  "15.": 7505, 
  "räume": 7506, 
  "reichlich": 7507, 
  "Sensibilität": 7508, 
  "Affäre": 7509, 
  "Zei@@": 7510, 
  "Entwicklungs": 7511, 
  "Jean": 7512, 
  "produktiven": 7513, 
  "Ganzes": 7514, 
  "transportieren": 7515, 
  "positives": 7516, 
  "reglementiert": 7517, 
  "ökonomischer": 7518, 
  "ße": 7519, 
  "meis@@": 7520, 
  "gebotenen": 7521, 
  "Verhandlungs@@": 7522, 
  "Fortbestand": 7523, 
  "feh@@": 7524, 
  "Totalitarismus": 7525, 
  "Unternehmens": 7526, 
  "schluß": 7527, 
  "gekämpft": 7528, 
  "Vorsitzender": 7529, 
  "anerk@@": 7530, 
  "C4": 7531, 
  "Themenbereiche": 7532, 
  "Politikbereiche": 7533, 
  "wenigsten": 7534, 
  "anforderungen": 7535, 
  "Einsch@@": 7536, 
  "Umsetzungs@@": 7537, 
  "methoden": 7538, 
  "Mittelmeer@@": 7539, 
  "herum@@": 7540, 
  "Beschäftigungsp@@": 7541, 
  "zweckmäßig": 7542, 
  "systematische": 7543, 
  "93": 7544, 
  "Halbinsel": 7545, 
  "gang": 7546, 
  "Euroskeptiker": 7547, 
  "Zufriedenheit": 7548, 
  "landwirtschaftliche": 7549, 
  "beschlossene": 7550, 
  "Mißbrau@@": 7551, 
  "Jugendarbeitslosigkeit": 7552, 
  "faßt": 7553, 
  "zugewiesen": 7554, 
  "SAPARD": 7555, 
  "auseinander": 7556, 
  "Fördermitteln": 7557, 
  "zeichneten": 7558, 
  "Tun": 7559, 
  "Qualitäts@@": 7560, 
  "feststellte": 7561, 
  "urteilen": 7562, 
  "laub@@": 7563, 
  "ein-": 7564, 
  "kt@@": 7565, 
  "respektiert": 7566, 
  "ot@@": 7567, 
  "themen": 7568, 
  "neo@@": 7569, 
  "Wirtschaftsstruktur": 7570, 
  "Entwicklungsniveau": 7571, 
  "Grundsätzliches": 7572, 
  "schüt@@": 7573, 
  "Muster@@": 7574, 
  "zutage": 7575, 
  "Kop@@": 7576, 
  "setz@@": 7577, 
  "indes": 7578, 
  "Wider@@": 7579, 
  "wäl@@": 7580, 
  "Blöcken": 7581, 
  "Schiffskörper": 7582, 
  "harten": 7583, 
  "treffenden": 7584, 
  "zwanzigsten": 7585, 
  "aufrichtig": 7586, 
  "belegt": 7587, 
  "Internationale": 7588, 
  "kol@@": 7589, 
  "geschwächt": 7590, 
  "benachteiligen": 7591, 
  "stä@@": 7592, 
  "erheb@@": 7593, 
  "Infrastruktur@@": 7594, 
  "gültig": 7595, 
  "einver@@": 7596, 
  "Quoten@@": 7597, 
  "flu@@": 7598, 
  "herbeiführen": 7599, 
  "nachkommt": 7600, 
  "verkehrs@@": 7601, 
  "zonen": 7602, 
  "ate": 7603, 
  "akter": 7604, 
  "wußte": 7605, 
  "Fünf": 7606, 
  "tik@@": 7607, 
  "ßi@@": 7608, 
  "Neben@@": 7609, 
  "Begleit@@": 7610, 
  "supranation@@": 7611, 
  "tigte": 7612, 
  "preis@@": 7613, 
  "EEF": 7614, 
  "krimin@@": 7615, 
  "Bank@@": 7616, 
  "Diskussions@@": 7617, 
  "währ@@": 7618, 
  "ungehindert": 7619, 
  "pen@@": 7620, 
  "Demokra@@": 7621, 
  "Gleichberechtigung": 7622, 
  "spezialisierte": 7623, 
  "erlitten": 7624, 
  "Überwachungsausschuß": 7625, 
  "umfangreich@@": 7626, 
  "Initiativ@@": 7627, 
  "autonom@@": 7628, 
  "Bemühen": 7629, 
  "unterzogen": 7630, 
  "anstelle": 7631, 
  "fungen": 7632, 
  "Tatsachen": 7633, 
  "verurteilten": 7634, 
  "erwies": 7635, 
  "irgendwo": 7636, 
  "Lawine": 7637, 
  "spek@@": 7638, 
  "Kenntnissen": 7639, 
  "fließt": 7640, 
  "Weltwirtschaft": 7641, 
  "erstaun@@": 7642, 
  "untermauern": 7643, 
  "physische": 7644, 
  "Reflexion": 7645, 
  "nung": 7646, 
  "Generation": 7647, 
  "ord@@": 7648, 
  "Kontakt": 7649, 
  "tritts@@": 7650, 
  "europä@@": 7651, 
  "vorge@@": 7652, 
  "rechtsextremen": 7653, 
  "verheerend": 7654, 
  "beängsti@@": 7655, 
  "überseeischen": 7656, 
  "Finanzinteressen": 7657, 
  "Wirk@@": 7658, 
  "trug": 7659, 
  "gesetze": 7660, 
  "grü@@": 7661, 
  "Nutzer": 7662, 
  "Mehrwert": 7663, 
  "Föderalisten": 7664, 
  "ansehen": 7665, 
  "terroristischen": 7666, 
  "spanische": 7667, 
  "vertretbar": 7668, 
  "GUE": 7669, 
  "katastrophalen": 7670, 
  "vorbei": 7671, 
  "Größe": 7672, 
  "Suche": 7673, 
  "Gem@@": 7674, 
  "verzögern": 7675, 
  "lohnt": 7676, 
  "föderale": 7677, 
  "Arbeitszeit": 7678, 
  "Tourismus@@": 7679, 
  "Wegfall": 7680, 
  "ergebenden": 7681, 
  "bewilligt": 7682, 
  "äl@@": 7683, 
  "sozialistischen": 7684, 
  "Verkehrspolitik": 7685, 
  "auseinanderzusetzen": 7686, 
  "speisen": 7687, 
  "Seitdem": 7688, 
  "Philosophie": 7689, 
  "ffen": 7690, 
  "Im@@": 7691, 
  "wirksameren": 7692, 
  "branche": 7693, 
  "Schlag": 7694, 
  "Flüchtlingspolitik": 7695, 
  "widerwillig": 7696, 
  "vage": 7697, 
  "Legislativvorschlag": 7698, 
  "Beschäftigungs-": 7699, 
  "etten": 7700, 
  "Zwei@@": 7701, 
  "Corbett": 7702, 
  "bereitstellen": 7703, 
  "abgefaßt": 7704, 
  "wür@@": 7705, 
  "wasser": 7706, 
  "ex@@": 7707, 
  "fundierten": 7708, 
  "Unglücksfälle": 7709, 
  "Durchführungs@@": 7710, 
  "Regelwerks": 7711, 
  "Lektüre": 7712, 
  "Jugendlichen": 7713, 
  "eingegangene": 7714, 
  "Tsatsos": 7715, 
  "Öltankers": 7716, 
  "wel@@": 7717, 
  "Verzug": 7718, 
  "Behauptung": 7719, 
  "Stabilitätspakt": 7720, 
  "errungen": 7721, 
  "tum@@": 7722, 
  "Dritte": 7723, 
  "Meeres": 7724, 
  "Potential": 7725, 
  "verhaftet": 7726, 
  "brem@@": 7727, 
  "UNO": 7728, 
  "Zentren": 7729, 
  "fundierte": 7730, 
  "geschätzten": 7731, 
  "unzureichende": 7732, 
  "Vertretung": 7733, 
  "Finanziellen": 7734, 
  "solidar@@": 7735, 
  "Industri@@": 7736, 
  "67": 7737, 
  "mitmachen": 7738, 
  "veröffentlichten": 7739, 
  "Rechtmäßigkeit": 7740, 
  "Ressource": 7741, 
  "teu@@": 7742, 
  "günstiger": 7743, 
  "Einwohnern": 7744, 
  "schlimm@@": 7745, 
  "stoppen": 7746, 
  "Richt@@": 7747, 
  "Umlauf": 7748, 
  "Hauptaugenmerk": 7749, 
  "ungleich@@": 7750, 
  "ehemalige": 7751, 
  "pre@@": 7752, 
  "seltsame": 7753, 
  "verantworten": 7754, 
  "rechtmäßig": 7755, 
  "Dispositionen": 7756, 
  "absurd": 7757, 
  "erwachsen": 7758, 
  "Genfer": 7759, 
  "Hunder@@": 7760, 
  "vention": 7761, 
  "Felder": 7762, 
  "gestanden": 7763, 
  "Übersicht": 7764, 
  "zurückgetreten": 7765, 
  "Staatsangehörigen": 7766, 
  "Verwaltungsaufwand": 7767, 
  "vernehmen": 7768, 
  "verarbei@@": 7769, 
  "Systemwechsel": 7770, 
  "spekten": 7771, 
  "Entlastungs@@": 7772, 
  "beigemessen": 7773, 
  "Beamtenapparat": 7774, 
  "vorgebrachten": 7775, 
  "gesam@@": 7776, 
  "ator@@": 7777, 
  "Ak@@": 7778, 
  "weitermachen": 7779, 
  "halb": 7780, 
  "erweckt": 7781, 
  "Skandale": 7782, 
  "enswerten": 7783, 
  "Teppich": 7784, 
  "Gegenzug": 7785, 
  "besprochen": 7786, 
  "geräumt": 7787, 
  "Vorfeld": 7788, 
  "Stockholm": 7789, 
  "fun@@": 7790, 
  "größeres": 7791, 
  "integraler": 7792, 
  "isierte": 7793, 
  "Ausgangs@@": 7794, 
  "gehörten": 7795, 
  "binden": 7796, 
  "staat@@": 7797, 
  "abträglich": 7798, 
  "beschaffung": 7799, 
  "zweites": 7800, 
  "unterlagen": 7801, 
  "nenne": 7802, 
  "Kraftstoffverbrauch": 7803, 
  "Reformprogramm": 7804, 
  "vermark@@": 7805, 
  "ehrgeiziges": 7806, 
  "polyzentr@@": 7807, 
  "dringlich": 7808, 
  "Techn@@": 7809, 
  "zusammenzuarbeiten": 7810, 
  "nachgekommen": 7811, 
  "zögert": 7812, 
  "Kabin@@": 7813, 
  "whistleblowers": 7814, 
  "schei@@": 7815, 
  "entschul@@": 7816, 
  "bringe": 7817, 
  "Bewohner": 7818, 
  "elf": 7819, 
  "heutzutage": 7820, 
  "Schi@@": 7821, 
  "versöhnen": 7822, 
  "ht": 7823, 
  "Ansatzes": 7824, 
  "Ermor@@": 7825, 
  "angeführten": 7826, 
  "empfindet": 7827, 
  "niveaus": 7828, 
  "ausdrücken": 7829, 
  "präz@@": 7830, 
  "Wechsel": 7831, 
  "Händen": 7832, 
  "Herstellerverantwortung": 7833, 
  "demokratisches": 7834, 
  "Reformpaket": 7835, 
  "erwar@@": 7836, 
  "Rechtsetzungsverfahren": 7837, 
  "Krankenhaus": 7838, 
  "Außenhilfe": 7839, 
  "Laufbahn@@": 7840, 
  "Desinteresse": 7841, 
  "auftritt": 7842, 
  "teurer": 7843, 
  "Wirtschaftszweig": 7844, 
  "Fahrzeugindustrie": 7845, 
  "sü@@": 7846, 
  "terten": 7847, 
  "bewu@@": 7848, 
  "Ratsverordnung": 7849, 
  "nd": 7850, 
  "stri@@": 7851, 
  "gedeckt": 7852, 
  "zögern": 7853, 
  "Beeinträchtigungen": 7854, 
  "unzureich@@": 7855, 
  "Binnengrenzen": 7856, 
  "Dossiers": 7857, 
  "kompetenz": 7858, 
  "formulieren": 7859, 
  "debatte": 7860, 
  "Verhandlung": 7861, 
  "Finanzielle": 7862, 
  "heiten": 7863, 
  "einzunehmen": 7864, 
  "kostenlose": 7865, 
  "gewonnenen": 7866, 
  "anschauen": 7867, 
  "erteilte": 7868, 
  "Berichtsentwurf": 7869, 
  "gerung": 7870, 
  "raten": 7871, 
  "Computer@@": 7872, 
  "Aufstellung": 7873, 
  "schlechten": 7874, 
  "Kategorie": 7875, 
  "Schwermetallen": 7876, 
  "ks@@": 7877, 
  "verschwunden": 7878, 
  "anlagen": 7879, 
  "Klagen": 7880, 
  "ve": 7881, 
  "3,@@": 7882, 
  "handels": 7883, 
  "Grundlinien": 7884, 
  "kodex": 7885, 
  "Transport@@": 7886, 
  "maßnahmenbezogenen": 7887, 
  "kommen@@": 7888, 
  "tim@@": 7889, 
  "Subventions@@": 7890, 
  "teln": 7891, 
  "Konsolidierung": 7892, 
  "schen@@": 7893, 
  "Ungleichbehandlung": 7894, 
  "falsche": 7895, 
  "verwei@@": 7896, 
  "eigen": 7897, 
  "denden": 7898, 
  "he@@": 7899, 
  "aller@@": 7900, 
  "Bürokraten": 7901, 
  "get@@": 7902, 
  "Budgets": 7903, 
  "Neufahrzeu@@": 7904, 
  "nachteilig": 7905, 
  "vorgegeben": 7906, 
  "alisierungs@@": 7907, 
  "Finanzkontroll@@": 7908, 
  "wahrnimmt": 7909, 
  "aufrichtigen": 7910, 
  "beispiel@@": 7911, 
  "bestimm@@": 7912, 
  "verringert": 7913, 
  "samer": 7914, 
  "rangi@@": 7915, 
  "form": 7916, 
  "steuer@@": 7917, 
  "staatlichkeit": 7918, 
  "stigen": 7919, 
  "tlichkeit": 7920, 
  "kultur": 7921, 
  "wort": 7922, 
  "bevorzugt": 7923, 
  "Scheitern": 7924, 
  "voranschreiten": 7925, 
  "erheblichem": 7926, 
  "europa@@": 7927, 
  "Asylrecht": 7928, 
  "ungsan@@": 7929, 
  "end@@": 7930, 
  "gekürzt": 7931, 
  "stärk@@": 7932, 
  "Mindestmaß": 7933, 
  "Kunststoff": 7934, 
  "Steuersatz": 7935, 
  "lands@@": 7936, 
  "berechtigten": 7937, 
  "fähi@@": 7938, 
  "Laufbahn": 7939, 
  "schwächer": 7940, 
  "geschützt": 7941, 
  "Preisen": 7942, 
  "Demontage@@": 7943, 
  "kar@@": 7944, 
  "einhergehen": 7945, 
  "ausgeschöpft": 7946, 
  "bahn@@": 7947, 
  "Schrift@@": 7948, 
  "mahnen": 7949, 
  "bedacht": 7950, 
  "schlechthin": 7951, 
  "36": 7952, 
  "Musik": 7953, 
  "Fein@@": 7954, 
  "03@@": 7955, 
  "Sen@@": 7956, 
  "material": 7957, 
  "sichtlich": 7958, 
  "aufweisen": 7959, 
  "Anregung": 7960, 
  "Ratsvorsitzes": 7961, 
  "dom@@": 7962, 
  "ergangen": 7963, 
  "übernommenen": 7964, 
  "föderalistischen": 7965, 
  "tan@@": 7966, 
  "vorerst": 7967, 
  "inspiriert": 7968, 
  "Kom@@": 7969, 
  "akets": 7970, 
  "ands": 7971, 
  "Wohnsitz@@": 7972, 
  "Neuauflage": 7973, 
  "Energieeinfuhren": 7974, 
  "arten": 7975, 
  "Finanzausstattung": 7976, 
  "dreizehn": 7977, 
  "Provan": 7978, 
  "Inhalts": 7979, 
  "betragen": 7980, 
  "getötet": 7981, 
  "vergleichbar": 7982, 
  "Schutzniveau": 7983, 
  "Ziel@@": 7984, 
  "Arbeitszeitgestaltung": 7985, 
  "markt": 7986, 
  "maximale": 7987, 
  "baldige": 7988, 
  "bestmögliche": 7989, 
  "Bestehen": 7990, 
  "Lohn@@": 7991, 
  "indirekt": 7992, 
  "Ost@@": 7993, 
  "Verstoßes": 7994, 
  "abschließenden": 7995, 
  "Einigungsprozeß": 7996, 
  "bedeu@@": 7997, 
  "Brasilien": 7998, 
  "ECHO": 7999, 
  "machten": 8000, 
  "Ausnahmeregelungen": 8001, 
  "hinein": 8002, 
  "Zentralasien": 8003, 
  "7,@@": 8004, 
  "Richtlinienentwurf": 8005, 
  "trags": 8006, 
  "vereinbar@@": 8007, 
  "verordnung": 8008, 
  "Frühjahr": 8009, 
  "Selbstbestimmung": 8010, 
  "Nationalität": 8011, 
  "langer": 8012, 
  "mäch@@": 8013, 
  "Konzerne": 8014, 
  "iniert": 8015, 
  "me@@": 8016, 
  "Schiffbau": 8017, 
  "ec@@": 8018, 
  "Dienst@@": 8019, 
  "David": 8020, 
  "Gleichheit": 8021, 
  "bedürftigsten": 8022, 
  "Eng@@": 8023, 
  "walten": 8024, 
  "verschließen": 8025, 
  "abgibt": 8026, 
  "Griechenlands": 8027, 
  "Genüge": 8028, 
  "beschaffen": 8029, 
  "Verurteilung": 8030, 
  "erzielte": 8031, 
  "Indi@@": 8032, 
  "Schlußabstimmung": 8033, 
  "Textes": 8034, 
  "atorischen": 8035, 
  "zusammenzu@@": 8036, 
  "Republiken": 8037, 
  "Steuerfragen": 8038, 
  "beschrän@@": 8039, 
  "vereinbarungen": 8040, 
  "Bewertungen": 8041, 
  "ei": 8042, 
  "ablegen": 8043, 
  "Richtige": 8044, 
  "einzelstaatliche": 8045, 
  "hnung": 8046, 
  "Stürmen": 8047, 
  "Umwelta@@": 8048, 
  "teuer": 8049, 
  "gerichteten": 8050, 
  "umweltfreundlichen": 8051, 
  "4.": 8052, 
  "ilitäts@@": 8053, 
  "McNally": 8054, 
  "Ausstattung": 8055, 
  "unternimmt": 8056, 
  "Fünften": 8057, 
  "verhältnis": 8058, 
  "Schwächsten": 8059, 
  "wendungen": 8060, 
  "ver": 8061, 
  "44": 8062, 
  "V.": 8063, 
  "Gegengewicht": 8064, 
  "erheblicher": 8065, 
  "demographischen": 8066, 
  "Selbstzweck": 8067, 
  "nehmer": 8068, 
  "gsten": 8069, 
  "ungspolitik": 8070, 
  "durchschnit@@": 8071, 
  "Austausch@@": 8072, 
  "Sechste": 8073, 
  "Stu@@": 8074, 
  "abgelaufen": 8075, 
  "jeglichen": 8076, 
  "einheitlich": 8077, 
  "wählt": 8078, 
  "2010": 8079, 
  "andes": 8080, 
  "allgemeinverbindlich": 8081, 
  "allgemeinverbindliche": 8082, 
  "erlegt": 8083, 
  "ergreife": 8084, 
  "Berater": 8085, 
  "Kurzum": 8086, 
  "Tarifver@@": 8087, 
  "Beschäftigungsbedingungen": 8088, 
  "Arbeits-": 8089, 
  "gesonder@@": 8090, 
  "Fremdenhaß": 8091, 
  "00": 8092, 
  "0006": 8093, 
  "Wahlrecht": 8094, 
  "japanischen": 8095, 
  "erschein@@": 8096, 
  "benachteiligte": 8097, 
  "39": 8098, 
  "Festung": 8099, 
  "Wirtschaftssektor": 8100, 
  "Übel": 8101, 
  "nachzuweisen": 8102, 
  "übt": 8103, 
  "2,8": 8104, 
  "Gesamtsumme": 8105, 
  "Straßen@@": 8106, 
  "Benachteiligten": 8107, 
  "gar@@": 8108, 
  "gesund@@": 8109, 
  "Nordirland": 8110, 
  "60": 8111, 
  "harmon@@": 8112, 
  "Gebilde": 8113, 
  "betraf": 8114, 
  "ausgeübt": 8115, 
  "gän@@": 8116, 
  "Bedürfnissen": 8117, 
  "ausgearbeiteten": 8118, 
  "gewissen": 8119, 
  "reisen": 8120, 
  "Duisenberg": 8121, 
  "bewährten": 8122, 
  "weit@@": 8123, 
  "bürgernah": 8124, 
  "Schrecken": 8125, 
  "senken": 8126, 
  "kathol@@": 8127, 
  "mäßigen": 8128, 
  "Zugehörigkeit": 8129, 
  "beruf@@": 8130, 
  "hüten": 8131, 
  "Fähigkeiten": 8132, 
  "homo@@": 8133, 
  "hielt": 8134, 
  "del@@": 8135, 
  "Rettung": 8136, 
  "Holzmann": 8137, 
  "Konz@@": 8138, 
  "Vorzeichen": 8139, 
  "Mantra": 8140, 
  "voraussichtlich": 8141, 
  "tigende": 8142, 
  "VEU": 8143, 
  "erklärung": 8144, 
  "dahinter": 8145, 
  "letzteres": 8146, 
  "entstanden": 8147, 
  "Abfallvermeidung": 8148, 
  "händlern": 8149, 
  "Anbetracht": 8150, 
  "versichert": 8151, 
  "Endstatus": 8152, 
  "Ankündigung": 8153, 
  "zug": 8154, 
  "zuversichtlich": 8155, 
  "Scheich": 8156, 
  "rates": 8157, 
  "transportiert": 8158, 
  "kg": 8159, 
  "wiegt": 8160, 
  "umweltpolitische": 8161, 
  "Friedensverhandlungen": 8162, 
  "Übung": 8163, 
  "sparen": 8164, 
  "nor@@": 8165, 
  "Agentur": 8166, 
  "Nahost": 8167, 
  "Partei@@": 8168, 
  "ös@@": 8169, 
  "gnen": 8170, 
  "Arafat": 8171, 
  "Verhandlungspartnern": 8172, 
  "Gesundheitsschutz": 8173, 
  "vorantreiben": 8174, 
  "Versöhnung": 8175, 
  "Lehre": 8176, 
  "Kooperationsprojekte": 8177, 
  "ungsquoten": 8178, 
  "Völker@@": 8179, 
  "anstehen": 8180, 
  "Temperaturen": 8181, 
  "Menschenwürde": 8182, 
  "streichen": 8183, 
  "bo@@": 8184, 
  "Westjordanland": 8185, 
  "heruntergekommenen": 8186, 
  "minus": 8187, 
  "Ägypten": 8188, 
  "Verun@@": 8189, 
  "20@@": 8190, 
  "ermu@@": 8191, 
  "Friedenslösung": 8192, 
  "geber@@": 8193, 
  "verändern": 8194, 
  "redder@@": 8195, 
  "Neuwagenkäufer": 8196, 
  "industriellen": 8197, 
  "räum@@": 8198, 
  "ül@@": 8199, 
  "zeitige": 8200, 
  "Innenpolitik": 8201, 
  "verwert@@": 8202, 
  "Verwertungs@@": 8203, 
  "0105": 8204, 
  "0078": 8205, 
  "verbrau@@": 8206, 
  "0087": 8207, 
  "sorgfältige": 8208, 
  "zentralisierte": 8209, 
  "denselben": 8210, 
  "mächtig": 8211, 
  "Norwegen": 8212, 
  "Island": 8213, 
  "effektiven": 8214, 
  "Fahrzeugbestand": 8215, 
  "0073": 8216, 
  "Fahrzeug@@": 8217, 
  "Anwesenheit": 8218, 
  "Geschehnisse": 8219, 
  "scheinheilig": 8220, 
  "0069": 8221, 
  "weitergeben": 8222, 
  "zurücknehmen": 8223, 
  "falscher": 8224, 
  "nisse": 8225, 
  "Effekt": 8226, 
  "ermächtigt": 8227, 
  "vertre@@": 8228, 
  "Beamten@@": 8229, 
  "uch": 8230, 
  "beschloß": 8231, 
  "gelobt": 8232, 
  "endlos": 8233, 
  "reiten": 8234, 
  "Desgleichen": 8235, 
  "Gesetzgebungen": 8236, 
  "illegal": 8237, 
  "Zugangs": 8238, 
  "auszusprechen": 8239, 
  "Dritt@@": 8240, 
  "werk": 8241, 
  "erforderlichenfalls": 8242, 
  "Instanzen": 8243, 
  "nirgendwo": 8244, 
  "erscheinenden": 8245, 
  "weitergeführt": 8246, 
  "Südlibanon": 8247, 
  "big": 8248, 
  "partei": 8249, 
  "bewertung": 8250, 
  "Regel@@": 8251, 
  "Experten@@": 8252, 
  "De@@": 8253, 
  "gesich@@": 8254, 
  "vertraglich": 8255, 
  "heits@@": 8256, 
  "Syrern": 8257, 
  "47": 8258, 
  "für@@": 8259, 
  "gerte": 8260, 
  "abschließen": 8261, 
  "Verhältnissen": 8262, 
  "mindert": 8263, 
  "ku@@": 8264, 
  "Ambitionen": 8265, 
  "Senkung": 8266, 
  "hierauf": 8267, 
  "lok@@": 8268, 
  "mengen": 8269, 
  "prosperi@@": 8270, 
  "sen@@": 8271, 
  "Unternehmer@@": 8272, 
  "Terroristen": 8273, 
  "besetzten": 8274, 
  "Rückgabe": 8275, 
  "problemen": 8276, 
  "sinkt": 8277, 
  "verschleppt": 8278, 
  "inner@@": 8279, 
  "aufbringen": 8280, 
  "syrische": 8281, 
  "Sicherheits-": 8282, 
  "rolle": 8283, 
  "as@@": 8284, 
  "womit": 8285, 
  "Völkergemeinschaft": 8286, 
  "Kindern": 8287, 
  "zunimmt": 8288, 
  "Füßen": 8289, 
  "übertragenen": 8290, 
  "teure": 8291, 
  "geboren": 8292, 
  "Oslo": 8293, 
  "schän@@": 8294, 
  "Sicherheitsgarantien": 8295, 
  "Erwägungs@@": 8296, 
  "vorausgesetzt": 8297, 
  "Reformvorschläge": 8298, 
  "hoc": 8299, 
  "ner": 8300, 
  "Ad": 8301, 
  "vers": 8302, 
  "tro@@": 8303, 
  "regelt": 8304, 
  "herrschaft": 8305, 
  "Verschiebung": 8306, 
  "Übergabe": 8307, 
  "streicht": 8308, 
  "Perspektiven": 8309, 
  "entsp@@": 8310, 
  "red@@": 8311, 
  "gegebene": 8312, 
  "genau@@": 8313, 
  "Madrid": 8314, 
  "umhin": 8315, 
  "übergreifend": 8316, 
  "schär@@": 8317, 
  "Übergangs@@": 8318, 
  "verfügbaren": 8319, 
  "verlängert": 8320, 
  "End@@": 8321, 
  "derung": 8322, 
  "satz@@": 8323, 
  "einhei@@": 8324, 
  "GASP": 8325, 
  "Ku@@": 8326, 
  "normale": 8327, 
  "Syriens": 8328, 
  "formulierte": 8329, 
  "Süd": 8330, 
  "Einbindung": 8331, 
  "gener": 8332, 
  "Abhilfe": 8333, 
  "Ausnahme@@": 8334, 
  "kultur@@": 8335, 
  "gestiegen": 8336, 
  "Fortschritten": 8337, 
  "Wye": 8338, 
  "Erlaß": 8339, 
  "lebt": 8340, 
  "innovativer": 8341, 
  "fixiert": 8342, 
  "bestehender": 8343, 
  "los@@": 8344, 
  "Hilfen": 8345, 
  "teilungen": 8346, 
  "Kartellrecht": 8347, 
  "Vis@@": 8348, 
  "alternative": 8349, 
  "anischen": 8350, 
  "Sachverständigenausschuß": 8351, 
  "Male": 8352, 
  "akzeptierten": 8353, 
  "verwirr@@": 8354, 
  "erstenmal": 8355, 
  "transparente": 8356, 
  "erfassen": 8357, 
  "Sport": 8358, 
  "Netzwerke": 8359, 
  "Fahrzeughersteller": 8360, 
  "icht": 8361, 
  "Registers": 8362, 
  "tendes": 8363, 
  "Verfügbarkeit": 8364, 
  "Wandels": 8365, 
  "Festigung": 8366, 
  "ergebnis@@": 8367, 
  "glücklicherweise": 8368, 
  "gek@@": 8369, 
  "bekannt@@": 8370, 
  "sensibler": 8371, 
  "Funktionen": 8372, 
  "zone": 8373, 
  "Neuwagen": 8374, 
  "durchschnittliche": 8375, 
  "Titels": 8376, 
  "Wirtschaft@@": 8377, 
  "veralteten": 8378, 
  "Warnung": 8379, 
  "gewarnt": 8380, 
  "zufälli@@": 8381, 
  "unterstellt": 8382, 
  "greifbar": 8383, 
  "ausnahmslos": 8384, 
  "Proz@@": 8385, 
  "Sichtvermerk": 8386, 
  "gleichgesetzt": 8387, 
  "verzichtet": 8388, 
  "Vorabkontrollen": 8389, 
  "167": 8390, 
  "kehrt": 8391, 
  "Arbeitsdokument": 8392, 
  "ausschließliche": 8393, 
  "mutige": 8394, 
  "bezogenen": 8395, 
  "sebene": 8396, 
  "Fehlverhalten": 8397, 
  "ese": 8398, 
  "Energiepolitik": 8399, 
  "facto": 8400, 
  "freiwillige": 8401, 
  "Gerichts@@": 8402, 
  "Fäl@@": 8403, 
  "Beitrittsländer": 8404, 
  "Auseinandersetzungen": 8405, 
  "Bundesrepublik": 8406, 
  "Imbeni": 8407, 
  "hinterlassen": 8408, 
  "ungerechtfertigt": 8409, 
  "reiche": 8410, 
  "instrument": 8411, 
  "ströme": 8412, 
  "herbei@@": 8413, 
  "Sichtweise": 8414, 
  "länder@@": 8415, 
  "zuwachs": 8416, 
  "auft": 8417, 
  "Freie": 8418, 
  "Zi@@": 8419, 
  "zugeleitet": 8420, 
  "Quecksilber": 8421, 
  "denkens": 8422, 
  "selb@@": 8423, 
  "würdiger": 8424, 
  "gezielte": 8425, 
  "Prüfdienst": 8426, 
  "Fundament": 8427, 
  "2004": 8428, 
  "mehrheitlich": 8429, 
  "Kat@@": 8430, 
  "umgangen": 8431, 
  "Themen@@": 8432, 
  "verschlechtern": 8433, 
  "Rechtstexte": 8434, 
  "ener@@": 8435, 
  "Familienzusammenführung": 8436, 
  "gewicht": 8437, 
  "Unsicherheiten": 8438, 
  "hervorragendes": 8439, 
  "befristete": 8440, 
  "widerspiegeln": 8441, 
  "wundern": 8442, 
  "Auswahlverfahren": 8443, 
  "Verbrechens@@": 8444, 
  "Disziplinar@@": 8445, 
  "betreibt": 8446, 
  "po@@": 8447, 
  "Umgestaltung": 8448, 
  "zurückgenommen": 8449, 
  "enlos": 8450, 
  "Dokumentation": 8451, 
  "Übersetzungen": 8452, 
  "rechnet": 8453, 
  "Zeilen": 8454, 
  "Absätze": 8455, 
  "bricht": 8456, 
  "zeitigen": 8457, 
  "ad": 8458, 
  "Tradition": 8459, 
  "Kompetenz@@": 8460, 
  "fünfzehn": 8461, 
  "Bewerberstaaten": 8462, 
  "betrag": 8463, 
  "Kontrol@@": 8464, 
  "derselben": 8465, 
  "fortfahren": 8466, 
  "zueinander": 8467, 
  "Kil@@": 8468, 
  "les": 8469, 
  "Taktik": 8470, 
  "Bauteile": 8471, 
  "Erfolgs": 8472, 
  "Lob@@": 8473, 
  "Zwischen@@": 8474, 
  "Reformstrategie": 8475, 
  "vertretene": 8476, 
  "mis@@": 8477, 
  "treiben": 8478, 
  "gerech@@": 8479, 
  "vorrangiges": 8480, 
  "Rückschritt": 8481, 
  "Recyclingkosten": 8482, 
  "stellvertre@@": 8483, 
  "erwidern": 8484, 
  "angezeigt": 8485, 
  "Seeverkehrs": 8486, 
  "linie": 8487, 
  "Rat@@": 8488, 
  "glichkeit": 8489, 
  "eit": 8490, 
  "liest": 8491, 
  "erfol@@": 8492, 
  "Le@@": 8493, 
  "offizielle": 8494, 
  "fortgeführt": 8495, 
  "demontiert": 8496, 
  "ausgenutzt": 8497, 
  "Redebeiträge": 8498, 
  "zugelassene": 8499, 
  "Satz": 8500, 
  "Verschrottung": 8501, 
  "Automobilherstellern": 8502, 
  "leich@@": 8503, 
  "abgeschafft": 8504, 
  "Fusions@@": 8505, 
  "Innenminister": 8506, 
  "Du@@": 8507, 
  "einräumt": 8508, 
  "bloßen": 8509, 
  "87": 8510, 
  "Präsidium": 8511, 
  "Präsidiums": 8512, 
  "inne@@": 8513, 
  "verwertung": 8514, 
  "krisen@@": 8515, 
  "nachgeben": 8516, 
  "vestitionen": 8517, 
  "Eingreifen": 8518, 
  "sweise": 8519, 
  "größtenteils": 8520, 
  "Ratsebene": 8521, 
  "dauert": 8522, 
  "spanischer": 8523, 
  "tie@@": 8524, 
  "befindliche": 8525, 
  "Blei": 8526, 
  "Ben@@": 8527, 
  "schuldig": 8528, 
  "gedient": 8529, 
  "unaufhörlich": 8530, 
  "ssystems": 8531, 
  "Bekenntnis": 8532, 
  "eindeutigen": 8533, 
  "Wettbewerbsprinzip": 8534, 
  "flexiblen": 8535, 
  "vielerlei": 8536, 
  "skand@@": 8537, 
  "versagt": 8538, 
  "entlassen": 8539, 
  "Nachfrage": 8540, 
  "Gomes": 8541, 
  "ener": 8542, 
  "Schatten": 8543, 
  "vollendet": 8544, 
  "zweifelt": 8545, 
  "cher": 8546, 
  "einrichten": 8547, 
  "expor@@": 8548, 
  "Umgebung": 8549, 
  "Berechtigung": 8550, 
  "weitreich@@": 8551, 
  "funktionen": 8552, 
  "einzutreten": 8553, 
  "Kontakten": 8554, 
  "Stabilitätsp@@": 8555, 
  "Erläuterungen": 8556, 
  "abzustimmen": 8557, 
  "linke": 8558, 
  "anfälligen": 8559, 
  "Verstößen": 8560, 
  "kts": 8561, 
  "konfli@@": 8562, 
  "normativ": 8563, 
  "Umweltsanierung": 8564, 
  "Einigungs@@": 8565, 
  "fertigte": 8566, 
  "realistische": 8567, 
  "Vorsitzes": 8568, 
  "bisweilen": 8569, 
  "komplexen": 8570, 
  "verwaltet": 8571, 
  "ktionen": 8572, 
  "ineffizienten": 8573, 
  "dringlichen": 8574, 
  "Sozialversicherung": 8575, 
  "Kranken@@": 8576, 
  "Cederschiöld": 8577, 
  "Post@@": 8578, 
  "Geb@@": 8579, 
  "bern": 8580, 
  "anläßlich": 8581, 
  "führenden": 8582, 
  "Zum": 8583, 
  "EFRE": 8584, 
  "Geltung": 8585, 
  "friedliche": 8586, 
  "tungs-": 8587, 
  "IX": 8588, 
  "menten": 8589, 
  "Tendenz": 8590, 
  "Gemeinschaftsrahmen": 8591, 
  "Kernkraftwerk": 8592, 
  "fielen": 8593, 
  "herhalten": 8594, 
  "plant": 8595, 
  "su@@": 8596, 
  "ide@@": 8597, 
  "strument": 8598, 
  "Arm": 8599, 
  "Osteuropa": 8600, 
  "brechen": 8601, 
  "horizontale": 8602, 
  "8@@": 8603, 
  "tiefer": 8604, 
  "kommende": 8605, 
  "vertrags": 8606, 
  "abgereichertes": 8607, 
  "geführte": 8608, 
  "Kosovo@@": 8609, 
  "Protest": 8610, 
  "verbreiten": 8611, 
  "Mehrjahresprogramm": 8612, 
  "erhoffen": 8613, 
  "ktion@@": 8614, 
  "einzig": 8615, 
  "bedenk@@": 8616, 
  "Verwaltungszusammenarbeit": 8617, 
  "verständlicher": 8618, 
  "Anmelde@@": 8619, 
  "warnen": 8620, 
  "verbreiteten": 8621, 
  "Lebensmittelgesetzgebung": 8622, 
  "übermäßigen": 8623, 
  "abgegebenen": 8624, 
  "Ehr@@": 8625, 
  "mitzuarbeiten": 8626, 
  "kommunalen": 8627, 
  "prak@@": 8628, 
  "Pre@@": 8629, 
  "Dringlichkeiten": 8630, 
  "leb@@": 8631, 
  "Wortmeldungen": 8632, 
  "gtes": 8633, 
  "gekostet": 8634, 
  "volles": 8635, 
  "04@@": 8636, 
  "ad@@": 8637, 
  "höchstem": 8638, 
  "stellungs@@": 8639, 
  "strategien": 8640, 
  "größtmögliche": 8641, 
  "einseitige": 8642, 
  "diejenige": 8643, 
  "Synergieeffekte": 8644, 
  "vorangekommen": 8645, 
  "Azoren": 8646, 
  "Inhaftierung": 8647, 
  "gangenen": 8648, 
  "beschränkte": 8649, 
  "stattfand": 8650, 
  "diger": 8651, 
  "Aussöhnung": 8652, 
  "anstellen": 8653, 
  "Schnellwarnsystem": 8654, 
  "Vizepräsidenten": 8655, 
  "zeitliche": 8656, 
  "enge": 8657, 
  "atz@@": 8658, 
  "organe": 8659, 
  "Spannungen": 8660, 
  "engagiert": 8661, 
  "Information@@": 8662, 
  "größter": 8663, 
  "horizontalen": 8664, 
  "medizinische": 8665, 
  "Mod@@": 8666, 
  "verspreche": 8667, 
  "lichkeiten": 8668, 
  "wiederherstellen": 8669, 
  "basiert": 8670, 
  "Risikobewertung": 8671, 
  "diverse": 8672, 
  "entes": 8673, 
  "produzieren": 8674, 
  "spielte": 8675, 
  "spürbare": 8676, 
  "intensiv": 8677, 
  "prinzipiellen": 8678, 
  "Integrationsprozesses": 8679, 
  "Menschenrechtsverletzungen": 8680, 
  "gewöhnlichen": 8681, 
  "beteiligten": 8682, 
  "leben@@": 8683, 
  "Überwachungs@@": 8684, 
  "CSU": 8685, 
  "gerten": 8686, 
  "5@@": 8687, 
  "vorschreiben": 8688, 
  "0108": 8689, 
  "betreffende": 8690, 
  "schädlicher": 8691, 
  "Sozial-": 8692, 
  "Weigerung": 8693, 
  "erteile": 8694, 
  "erwerben": 8695, 
  "Akuyu": 8696, 
  "abhängt": 8697, 
  "angesiedelt": 8698, 
  "PR": 8699, 
  "beträchtliches": 8700, 
  "Befürwor@@": 8701, 
  "Sa@@": 8702, 
  "gang@@": 8703, 
  "Gottes": 8704, 
  "Sonderfinanzhilfe": 8705, 
  "begründeten": 8706, 
  "kürzt": 8707, 
  "Regimes": 8708, 
  "Verheugen": 8709, 
  "ausgibt": 8710, 
  "Norm@@": 8711, 
  "Kernkraftvorhaben": 8712, 
  "Verfahrensregeln": 8713, 
  "Gesetz@@": 8714, 
  "Ökosysteme": 8715, 
  "verurteile": 8716, 
  "alisierungen": 8717, 
  "militärischen": 8718, 
  "Kernkraftwerks": 8719, 
  "realisiert": 8720, 
  "ethnische": 8721, 
  "Plenums": 8722, 
  "spiel@@": 8723, 
  "terungen": 8724, 
  "Veterinäramt": 8725, 
  "Tra@@": 8726, 
  "nähe": 8727, 
  "Vorlagen": 8728, 
  "1244": 8729, 
  "beruhen": 8730, 
  "letztens": 8731, 
  "konsultieren": 8732, 
  "Sympathie": 8733, 
  "glaubwürdig": 8734, 
  "auftraten": 8735, 
  "serbische": 8736, 
  "billigen": 8737, 
  "Säuberung": 8738, 
  "taten": 8739, 
  "dramatisch": 8740, 
  "vorgebracht": 8741, 
  "beschrieben": 8742, 
  "ehr": 8743, 
  "Verwaltungsgremium": 8744, 
  "besprechen": 8745, 
  "met@@": 8746, 
  "tri@@": 8747, 
  "gleicher": 8748, 
  "kler": 8749, 
  "Inhalte": 8750, 
  "Minderheiten@@": 8751, 
  "Territorium": 8752, 
  "digt": 8753, 
  "Beiträgen": 8754, 
  "Diskussionsgrundlage": 8755, 
  "dauerhafte": 8756, 
  "Bestände": 8757, 
  "längerer": 8758, 
  "Entstehung": 8759, 
  "Nachmittag": 8760, 
  "Vorgän@@": 8761, 
  "aufgeb@@": 8762, 
  "Gegebenheiten": 8763, 
  "unterschied@@": 8764, 
  "aufgetreten": 8765, 
  "eben@@": 8766, 
  "zügen": 8767, 
  "Aktivität": 8768, 
  "Kantabrischen": 8769, 
  "Vorab@@": 8770, 
  "Gebiets": 8771, 
  "erstatten": 8772, 
  "schutz": 8773, 
  "Einzelmaßnahmen": 8774, 
  "kohär@@": 8775, 
  "Ausgestaltung": 8776, 
  "Reglementierung": 8777, 
  "sympath@@": 8778, 
  "Beschäftigungschancen": 8779, 
  "Überfischung": 8780, 
  "GD": 8781, 
  "akzeptiere": 8782, 
  "Pack": 8783, 
  "nutz@@": 8784, 
  "Gebern": 8785, 
  "Kluft": 8786, 
  "Zehn@@": 8787, 
  "zulässige": 8788, 
  "provo@@": 8789, 
  "mache": 8790, 
  "bri@@": 8791, 
  "Sardellen@@": 8792, 
  "bedurfte": 8793, 
  "Golf": 8794, 
  "hervorgerufen": 8795, 
  "Mobilisierung": 8796, 
  "Leistungs@@": 8797, 
  "Negativ@@": 8798, 
  "alban@@": 8799, 
  "quoten": 8800, 
  "Hinter@@": 8801, 
  "Deutlichkeit": 8802, 
  "Besitzstandes": 8803, 
  "Stand@@": 8804, 
  "alisten": 8805, 
  "strategisch": 8806, 
  "Anhörungen": 8807, 
  "wesen": 8808, 
  "lösung": 8809, 
  "sor@@": 8810, 
  "81.1": 8811, 
  "Gemeinsamer": 8812, 
  "Atomenergiebehörde": 8813, 
  "Energieerzeugung": 8814, 
  "diesbezügliche": 8815, 
  "fertig": 8816, 
  "mißt": 8817, 
  "kommunistische": 8818, 
  "Bürgermeister": 8819, 
  "hinzu@@": 8820, 
  "beunruhigende": 8821, 
  "Obdachlosigkeit": 8822, 
  "auszuführen": 8823, 
  "31": 8824, 
  "weisung": 8825, 
  "Abwicklung": 8826, 
  "Nährboden": 8827, 
  "fossi@@": 8828, 
  "Verkauf": 8829, 
  "Delegationen": 8830, 
  "prozesses": 8831, 
  "mt": 8832, 
  "behindert": 8833, 
  "eindeutiger": 8834, 
  "Amtsblatt": 8835, 
  "Spielregeln": 8836, 
  "lau@@": 8837, 
  "Schadholz": 8838, 
  "ürzten": 8839, 
  "einbezieht": 8840, 
  "Verseuchung": 8841, 
  "akt": 8842, 
  "Korruptionsaffären": 8843, 
  "Lösungs@@": 8844, 
  "geres": 8845, 
  "Strategie@@": 8846, 
  "ichten": 8847, 
  "Neugestaltung": 8848, 
  "ven": 8849, 
  "Anhän@@": 8850, 
  "Anpassungsfähigkeit": 8851, 
  "zerstör@@": 8852, 
  "knapp": 8853, 
  "beschäftigungspolitischen": 8854, 
  "Einflußnahme": 8855, 
  "Konflikten": 8856, 
  "hol@@": 8857, 
  "höf@@": 8858, 
  "wah@@": 8859, 
  "Tunnel": 8860, 
  "Hauptproblem": 8861, 
  "Dokuments": 8862, 
  "sechs@@": 8863, 
  "Wohlstands": 8864, 
  "Ni@@": 8865, 
  "Äthiopien": 8866, 
  "umgehen": 8867, 
  "Klage": 8868, 
  "ange": 8869, 
  "anderswo": 8870, 
  "gs@@": 8871, 
  "strikt": 8872, 
  "tierten": 8873, 
  "begonnenen": 8874, 
  "Defizite": 8875, 
  "Treibhausgasen": 8876, 
  "Entwicklungsfragen": 8877, 
  "Karte": 8878, 
  "Integri@@": 8879, 
  "inhaltlichen": 8880, 
  "sti@@": 8881, 
  "beschert": 8882, 
  "sein@@": 8883, 
  "massi@@": 8884, 
  "Au@@": 8885, 
  "kurse": 8886, 
  "Volksrepublik": 8887, 
  "wach@@": 8888, 
  "beitrag": 8889, 
  "Wettbewerbsschutz": 8890, 
  "wei@@": 8891, 
  "Meldungen": 8892, 
  "Verwirrung": 8893, 
  "Finanzkapital": 8894, 
  "hel@@": 8895, 
  "obligatorischen": 8896, 
  "explosionsartigen": 8897, 
  "entstehenden": 8898, 
  "vorgesch@@": 8899, 
  "widmet": 8900, 
  "anteil": 8901, 
  "zutreffend": 8902, 
  "effizientere": 8903, 
  "raschen": 8904, 
  "Autob@@": 8905, 
  "harmonische": 8906, 
  "gemeinschaf@@": 8907, 
  "Eingang": 8908, 
  "weitergehende": 8909, 
  "Buch": 8910, 
  "Leiter": 8911, 
  "bescheidenen": 8912, 
  "Büro": 8913, 
  "uni@@": 8914, 
  "BATs": 8915, 
  "verworrenen": 8916, 
  "for@@": 8917, 
  "ausarbeiten": 8918, 
  "ons@@": 8919, 
  "aufgebaut": 8920, 
  "Eink@@": 8921, 
  "analysiert": 8922, 
  "konservativen": 8923, 
  "nungen": 8924, 
  "anstehenden": 8925, 
  "vorsehen": 8926, 
  "Norden": 8927, 
  "eite": 8928, 
  "Nein": 8929, 
  "heiklen": 8930, 
  "zuwiderlaufen": 8931, 
  "sonstigen": 8932, 
  "Wer@@": 8933, 
  "kapitals": 8934, 
  "finanzi@@": 8935, 
  "region": 8936, 
  "voneinander": 8937, 
  "wahre": 8938, 
  "Ausrichtungen": 8939, 
  "Initiativrecht": 8940, 
  "Ja": 8941, 
  "weites": 8942, 
  "handel": 8943, 
  "bürgern": 8944, 
  "Abgabe": 8945, 
  "Reserve": 8946, 
  "teil": 8947, 
  "unwesentlich": 8948, 
  "einmali@@": 8949, 
  "Dioxin": 8950, 
  "AIDS": 8951, 
  "Süden": 8952, 
  "mitglieder": 8953, 
  "leitenden": 8954, 
  "Drogen": 8955, 
  "Handlungsspielraum": 8956, 
  "prinzipiell": 8957, 
  "wälten": 8958, 
  "häufigsten": 8959, 
  "Strafverfahren": 8960, 
  "Spezi@@": 8961, 
  "regen": 8962, 
  "Beihilfenniveau": 8963, 
  "gefür@@": 8964, 
  "Komitologieverfahren": 8965, 
  "2127": 8966, 
  "begrenzten": 8967, 
  "chtete": 8968, 
  "tschafts@@": 8969, 
  "31.": 8970, 
  "auszustatten": 8971, 
  "Fraktions@@": 8972, 
  "Strukturreformen": 8973, 
  "sion@@": 8974, 
  "strategischer": 8975, 
  "Schlagkraft": 8976, 
  "vertrieben": 8977, 
  "Schei@@": 8978, 
  "logi@@": 8979, 
  "zentralisieren": 8980, 
  "Zentral@@": 8981, 
  "veröffentlich@@": 8982, 
  "kontinuierlichen": 8983, 
  "Klartext": 8984, 
  "garantien": 8985, 
  "verlagern": 8986, 
  "Berichts@@": 8987, 
  "belief": 8988, 
  "tivität": 8989, 
  "Kartell-": 8990, 
  "operationelle": 8991, 
  "wirkungen": 8992, 
  "untergeordnete": 8993, 
  "grund@@": 8994, 
  "Petition": 8995, 
  "koppeln": 8996, 
  "zielt": 8997, 
  "Strukturfondsprogramm": 8998, 
  "0122": 8999, 
  "richtungen": 9000, 
  "unannehmbaren": 9001, 
  "Erweiter@@": 9002, 
  "Mitglieds": 9003, 
  "Abstand": 9004, 
  "orientierten": 9005, 
  "trags@@": 9006, 
  "ärer": 9007, 
  "Höhepunkt": 9008, 
  "aufgefallen": 9009, 
  "schlimmere": 9010, 
  "adet": 9011, 
  "Früchte": 9012, 
  "dramatische": 9013, 
  "Verkehrswesen": 9014, 
  "81.3": 9015, 
  "legitimi@@": 9016, 
  "fr@@": 9017, 
  "priorit@@": 9018, 
  "Mann@@": 9019, 
  "größtes": 9020, 
  "rate": 9021, 
  "Legislativ@@": 9022, 
  "Wiedereingliederung": 9023, 
  "Ration@@": 9024, 
  "Gewinnspannen": 9025, 
  "alisi@@": 9026, 
  "Gleich@@": 9027, 
  "übertriebene": 9028, 
  "89": 9029, 
  "Réunion": 9030, 
  "Dokumentes": 9031, 
  "erven": 9032, 
  "Zuweisung": 9033, 
  "vertief@@": 9034, 
  "angewandte": 9035, 
  "Massenarbeitslosigkeit": 9036, 
  "vorlag": 9037, 
  "zweckmäßiger": 9038, 
  "Geschäf@@": 9039, 
  "zeitraum": 9040, 
  "Hut": 9041, 
  "Beginns": 9042, 
  "Präzisierung": 9043, 
  "Rechtsberatern": 9044, 
  "bestanden": 9045, 
  "ständiger": 9046, 
  "intensive": 9047, 
  "Durchführungsbefugnisse": 9048, 
  "anvisi@@": 9049, 
  "iste": 9050, 
  "jawohl": 9051, 
  "mitzuwirken": 9052, 
  "UCLAF": 9053, 
  "unum@@": 9054, 
  "Betrach@@": 9055, 
  "Kommentare": 9056, 
  "freundliche": 9057, 
  "spezi@@": 9058, 
  "Übergangsphase": 9059, 
  "Nikitin": 9060, 
  "kompensieren": 9061, 
  "Gründlichkeit": 9062, 
  "detailli@@": 9063, 
  "Heimat": 9064, 
  "Alexander": 9065, 
  "desselben": 9066, 
  "etzt": 9067, 
  "Krankenhäuser": 9068, 
  "irgendeinen": 9069, 
  "deckte": 9070, 
  "verwaltungs@@": 9071, 
  "großartigen": 9072, 
  "werb@@": 9073, 
  "unheilvolle": 9074, 
  "neulich": 9075, 
  "zeitlich": 9076, 
  "potenzieren": 9077, 
  "anzuhören": 9078, 
  "angeklagt": 9079, 
  "einseitig": 9080, 
  "zurückzufordern": 9081, 
  "Wettbewerbskriterien": 9082, 
  "volkswirtschaftliche": 9083, 
  "ätz@@": 9084, 
  "unrechtmäßig": 9085, 
  "Arbeitsbeschaffungsmaßnahmen": 9086, 
  "verbleiben": 9087, 
  "Bruttoinlands@@": 9088, 
  "Indikator": 9089, 
  "Steuerzahl@@": 9090, 
  "dru@@": 9091, 
  "beauftragten": 9092, 
  "Mißstände": 9093, 
  "stens": 9094, 
  "anschließe": 9095, 
  "überwältigenden": 9096, 
  "Beschränkungen": 9097, 
  "Arbeitslosen@@": 9098, 
  "privilege": 9099, 
  "Bevölkerungsstruktur": 9100, 
  "Transitländer": 9101, 
  "Justitiare": 9102, 
  "initiieren": 9103, 
  "versorgung": 9104, 
  "tragenden": 9105, 
  "kollegen": 9106, 
  "verhängen": 9107, 
  "übermäßige": 9108, 
  "lags@@": 9109, 
  "Überprüfungen": 9110, 
  "ktuelle": 9111, 
  "langwierige": 9112, 
  "dauerte": 9113, 
  "Vollstre@@": 9114, 
  "untergeordneten": 9115, 
  "fragwürdigen": 9116, 
  "hilft": 9117, 
  "Gefolge": 9118, 
  "erfül@@": 9119, 
  "shilfe@@": 9120, 
  "Wirtschaftsstand@@": 9121, 
  "unterzeichnete": 9122, 
  "Kar@@": 9123, 
  "nachfrageorientierte": 9124, 
  "ausrichten": 9125, 
  "regende": 9126, 
  "überzogenen": 9127, 
  "Wertschöpfung": 9128, 
  "steine": 9129, 
  "Formalismus": 9130, 
  "angebotsorientierte": 9131, 
  "gerweise": 9132, 
  "same": 9133, 
  "schöne": 9134, 
  "Stillstand": 9135, 
  "übereinstimmen@@": 9136, 
  "Bin@@": 9137, 
  "erleiden": 9138, 
  "dargestellten": 9139, 
  "Gefälle": 9140, 
  "Todesur@@": 9141, 
  "Binnenwasserstraße": 9142, 
  "strengen": 9143, 
  "prakti@@": 9144, 
  "wurf": 9145, 
  "strafrechtliche": 9146, 
  "betrei@@": 9147, 
  "thodi@@": 9148, 
  "Aufregung": 9149, 
  "spürbaren": 9150, 
  "grenzüberschreit@@": 9151, 
  "organisi@@": 9152, 
  "Verur@@": 9153, 
  "Gemeinschaftspolitik": 9154, 
  "sache": 9155, 
  "vierzig": 9156, 
  "Bewoh@@": 9157, 
  "läne": 9158, 
  "zentralisiert": 9159, 
  "Modalitäten": 9160, 
  "Prüfungen": 9161, 
  "Gute": 9162, 
  "sozial@@": 9163, 
  "produkts": 9164, 
  "180": 9165, 
  "bekla@@": 9166, 
  "harmonisiert": 9167, 
  "schöpfung": 9168, 
  "Beihilfen@@": 9169, 
  "giert": 9170, 
  "institutionell": 9171, 
  "servative": 9172, 
  "rell": 9173, 
  "2108": 9174, 
  "2110": 9175, 
  "radikaler": 9176, 
  "148": 9177, 
  "Medienberichten": 9178, 
  "gewartet": 9179, 
  "Vaku@@": 9180, 
  "angeboten": 9181, 
  "Eigentumsverhältnisse": 9182, 
  "2124": 9183, 
  "Begünsti@@": 9184, 
  "0121": 9185, 
  "vermisse": 9186, 
  "Berenguer": 9187, 
  "verüben": 9188, 
  "Manager": 9189, 
  "wiss@@": 9190, 
  "kunft@@": 9191, 
  "Verantwortungsbereich": 9192, 
  "Fernsehen": 9193, 
  "Programmierung": 9194, 
  "Reformziele": 9195, 
  "durchzu@@": 9196, 
  "Millenniums@@": 9197, 
  "föderalistischer": 9198, 
  "Strukturpolitiken": 9199, 
  "ableiten": 9200, 
  "erachten": 9201, 
  "ergebnisse": 9202, 
  "tretene": 9203, 
  "heranzu@@": 9204, 
  "nutzt": 9205, 
  "Terror": 9206, 
  "herausra@@": 9207, 
  "2496": 9208, 
  "Flot@@": 9209, 
  "Arbeitsplans": 9210, 
  "Sol@@": 9211, 
  "Top@@": 9212, 
  "Kohäsions@@": 9213, 
  "kurbeln": 9214, 
  "Modernisierungsvorhaben": 9215, 
  "iegelt": 9216, 
  "Angebotskatalog": 9217, 
  "Landes@@": 9218, 
  "erfährt": 9219, 
  "staatliches": 9220, 
  "fikationen": 9221, 
  "strukturschwachen": 9222, 
  "unternehmerische": 9223, 
  "Wende": 9224, 
  "Kontrolleur": 9225, 
  "tie": 9226, 
  "richtungs@@": 9227, 
  "Potentiale": 9228, 
  "2107": 9229, 
  "High": 9230, 
  "dran": 9231, 
  "wörtlich": 9232, 
  "widersprüchlichen": 9233, 
  "garan@@": 9234, 
  "ruch": 9235, 
  "maxim@@": 9236, 
  "Tech": 9237, 
  "Unternehmern": 9238, 
  "Bescheid": 9239, 
  "ungsa@@": 9240, 
  "Erwerb@@": 9241, 
  "aufklären": 9242, 
  "hrer": 9243, 
  "Presseberichte": 9244, 
  "angepaßt": 9245, 
  "anschau@@": 9246, 
  "öse": 9247, 
  "festzuhalten": 9248, 
  "Vorrednerin": 9249, 
  "beruh@@": 9250, 
  "lob@@": 9251, 
  "Straft@@": 9252, 
  "fairen": 9253, 
  "entlegenen": 9254, 
  "überflüssige": 9255, 
  "Unregelmäßigkeit": 9256, 
  "nutze": 9257, 
  "aufbau@@": 9258, 
  "halbem": 9259, 
  "ats@@": 9260, 
  "unlauteren": 9261, 
  "laubte": 9262, 
  "Untersuchungsausschuß": 9263, 
  "28.": 9264, 
  "tent@@": 9265, 
  "Toten": 9266, 
  "lehr@@": 9267, 
  "innerstaatlichen": 9268, 
  "immensen": 9269, 
  "Transit@@": 9270, 
  "tsp@@": 9271, 
  "kom@@": 9272, 
  "drucks": 9273, 
  "wohldurch@@": 9274, 
  "ausgeprägt": 9275, 
  "Direktion": 9276, 
  "enti@@": 9277, 
  "sachlicher": 9278, 
  "geahndet": 9279, 
  "folgerich@@": 9280, 
  "gesetz@@": 9281, 
  "legitimiert": 9282, 
  "Herausbildung": 9283, 
  "Rinder@@": 9284, 
  "spre@@": 9285, 
  "heikle": 9286, 
  "konstru@@": 9287, 
  "Telekommunikation@@": 9288, 
  "Strom-": 9289, 
  "Tank@@": 9290, 
  "pflichten": 9291, 
  "Bomben@@": 9292, 
  "bereit@@": 9293, 
  "geldern": 9294, 
  "riecht": 9295, 
  "tritts": 9296, 
  "länger@@": 9297, 
  "Tur@@": 9298, 
  "Anhänge": 9299, 
  "aufgerufen": 9300, 
  "Basken@@": 9301, 
  "absehbarer": 9302, 
  "fün@@": 9303, 
  "reinrichtungen": 9304, 
  "Wahlbeteiligung": 9305, 
  "Ponnambalam": 9306, 
  "reißen": 9307, 
  "verklein@@": 9308, 
  "Investoren": 9309, 
  "schluß@@": 9310, 
  "Klaus@@": 9311, 
  "Texas": 9312, 
  "eingeschlagenen": 9313, 
  "nam@@": 9314, 
  "Diskurs": 9315, 
  "Beschäftigungswachstum": 9316, 
  "Farbe": 9317, 
  "erstellten": 9318, 
  "darstellten": 9319, 
  "jährige": 9320, 
  "gan": 9321, 
  "vieler": 9322, 
  "lor@@": 9323, 
  "weithin": 9324, 
  "stich@@": 9325, 
  "ste@@": 9326, 
  "feindlich": 9327, 
  "Fortschritts": 9328, 
  "mm@@": 9329, 
  "corpus": 9330, 
  "juris": 9331, 
  "folgend": 9332, 
  "Mach@@": 9333, 
  "Zukunftsfähigkeit": 9334, 
  "Exeku@@": 9335, 
  "dien": 9336, 
  "Vorhabens": 9337, 
  "Einwand": 9338, 
  "enzah@@": 9339, 
  "verteilung": 9340, 
  "widrig": 9341, 
  "Wegberei@@": 9342, 
  "kämp@@": 9343, 
  "umfangreich": 9344, 
  "gelenkt": 9345, 
  "Untersuchungstätigkeit": 9346, 
  "4@@": 9347, 
  "Entfernung": 9348, 
  "Kompliment": 9349, 
  "offensiv": 9350, 
  "liegende": 9351, 
  "inakzeptablen": 9352, 
  "Gesetzgebungsverfahren": 9353, 
  "vervollkommnet": 9354, 
  "Dire@@": 9355, 
  "o.": 9356, 
  "Arbeitslosen": 9357, 
  "Detail@@": 9358, 
  "Wesen": 9359, 
  "betro@@": 9360, 
  "Entgegennahme": 9361, 
  "besserer": 9362, 
  "schul@@": 9363, 
  "Liebe": 9364, 
  "ergänzenden": 9365, 
  "gekannten": 9366, 
[...]
