#version: 0.2
e n</w>
e r
i n
t h
c h
e n
e r</w>
u n
a n
t i
th e</w>
r e
d i
s t
o n</w>
o n
a r
l i
o r
e i
e s</w>
r o
s i
a l
i n</w>
d er</w>
c h</w>
i s
e l
e s
di e</w>
w i
an d</w>
a u
o f</w>
a t
un d</w>
e in
t o</w>
o m
e d</w>
a ti
in g</w>
d en</w>
a s</w>
u r
i s</w>
s ch
i t
b e
un g</w>
g e
a n</w>
d e
a t</w>
r a
o r</w>
a s
a l</w>
r i
o u
g en</w>
t en</w>
m en
t e</w>
p o
a b
v er
o l
u s
@ -
@- @</w>
t er
i t</w>
o t
l e
q u
l e</w>
p ro
d er
f ü
n e
a m
a c
v e</w>
t s</w>
h r
e c
g e</w>
ati on</w>
om m
ch en</w>
v i
s p
z u</w>
f or</w>
d e</w>
n i
l y</w>
h i
f f
e m
v on</w>
th at</w>
e t
n o
en t
ch t</w>
l o
u ro
c on
fü r</w>
s u
uro p
z u
w er
qu ot
e h
t h</w>
quot ;</w>
& quot;</w>
po s
c e</w>
f or
g i
l a
c i
men t</w>
ti on</w>
d as</w>
t e
o p
d es</w>
ein e</w>
is t</w>
g en
i l
E urop
ar e</w>
m a
S t
si on</w>
V er
ati on
au f</w>
s e</w>
d en
m it</w>
b er
ch e</w>
b er</w>
h a
b e</w>
ei t</w>
ei n</w>
d a
di es
u l
wi th</w>
un gen</w>
c o
th is</w>
s t</w>
el l
i m</w>
u t
e x
e m</w>
d u
i m
a h
a pos
c om
& apos
e l</w>
a f
r u
f i
a r</w>
omm is
s er
s o</w>
i e</w>
I n
a d
t er</w>
t a
ti on
w e</w>
s o
de m</w>
wi r
c k
p or
un g
s h
z i
an d
w h
R e
ou r</w>
ä n
li ch</w>
w ei
a g
b y</w>
s e
u m</w>
w or
l l</w>
wer den</w>
m o
i ch</w>
wi r</w>
r an
er i
at e</w>
a p
A n
as s</w>
l d</w>
n en</w>
e d
al l</w>
s en</w>
m en</w>
s in
is chen</w>
ommis sion</w>
t ra
w e
2 0
ni cht</w>
al s</w>
p ar
no t</w>
d ass</w>
g h
g es
en t</w>
b u
m e
p re
wi ll</w>
S ie</w>
m e</w>
y o
ung s
ch t
b i
t u
er e</w>
si ch</w>
ha ve</w>
w hi
a li
f in
al l
&apos ;
yo u</w>
sch af
k e</w>
u m
au ch</w>
au s
w as</w>
ou ld</w>
w en
S ch
re i
P ro
t z
i r
e st
b es
ro m</w>
g li
er s</w>
whi ch</w>
f rom</w>
g t</w>
t o
a ch</w>
ü ber</w>
a ch
E n
l u
ei t
e b
wi e</w>
wir d</w>
e an</w>
sin d</w>
h o
e t</w>
g r
s ol
th er</w>
ur e</w>
s ti
l ei
ein er</w>
for m
E U</w>
po li
&apos; s</w>
h ab
P ar
h al
Europ ean</w>
t y</w>
r ä
in ter
h as</w>
p er
in g
p l
a hr
ein en</w>
it y</w>
be i</w>
g an
in i
d ur
es s</w>
20 0
ab le</w>
v or
d s</w>
au s</w>
st en</w>
st ell
A r
ä r
s a
si den
com p
d o
on e</w>
ou t</w>
ü r
t ed</w>
w el
ö n
g u
li e
st a
E r
et z
g el
g ra
c an</w>
ar k
m an
M it
zu r</w>
ge b
v er</w>
s en
U n
B e
o der</w>
A us
al so</w>
er t</w>
t en
U ni
e u
it s</w>
be t
h at</w>
st r
eh r</w>
men ts</w>
au f
k an
o o
hab en</w>
er n</w>
. .
at es</w>
re c
m i
a k
n ation
ti c
sch en</w>
un d
u s</w>
s el
er en</w>
li chen</w>
al ly</w>
A u
e k
H er
m m
at ed</w>
si on
at en</w>
or e</w>
is che</w>
k ön
a m</w>
er ung</w>
ation s</w>
du c
o h
C ommission</w>
l en</w>
n u
d ar
us t</w>
tion s</w>
e y</w>
Uni on</w>
e p
si e</w>
an t</w>
co un
w a
g ro
i e
l in
ti ve</w>
g er</w>
Europ ä
f ol
K ommission</w>
dies e</w>
t ri
re s</w>
r it
m ö
b ei
V or
P re
por t</w>
c es</w>
der n</w>
w ur
em ber</w>
M a
siden t</w>
ti es</w>
y st
b li
w ar
C o
v el
ö r
an ce</w>
d ing</w>
1 9
ü n
a ge</w>
bu t</w>
t s
en d</w>
E in
dur ch</w>
p ri
p e
ar y</w>
ein em</w>
i hr
n ach</w>
p u
f t</w>
in c
t r
&apos ;</w>
m ore</w>
i c
ch ti
ch te</w>
m it
gh t</w>
o ff
k eit</w>
k en</w>
un ser
En t
li che</w>
ne h
c y</w>
b r
fü hr
f er
A b
n ah
t ei
an der
un ter
i li
ge h
o m</w>
th ei
h e</w>
es t</w>
es s
m in
kön nen</w>
thei r</w>
l an
0 0</w>
ar i
h in
u p</w>
pre s
g re
g er
or i
Un ter
ot el</w>
ver y</w>
g h</w>
c k</w>
o b
schaf t</w>
st ru
k ing</w>
p r
ch er
ch er</w>
g o
zu m</w>
v or</w>
y our</w>
s sen</w>
ne u
v en</w>
te t</w>
as t</w>
c omm
p p
st ri
g ung</w>
t ur
K on
es e</w>
m ark
m er</w>
t ro
w ould</w>
F ra
por t
wen n</w>
ü ber
p f
z ei
as e</w>
D i
o ther</w>
th ere</w>
G e
z w
ou s</w>
s on
l ung</w>
omm en</w>
st e</w>
be en</w>
B er
st eh
dies er</w>
sp ec
G es
or d
f re
s ec
w ä
S p
t el
h e
at e
Mit gli
t re
g n
ci al</w>
s am
ac c
G r
di s
ge m
h eit</w>
v ol
ch n
a re
h er
th ey</w>
i f</w>
f ac
ei ten</w>
l t</w>
k t</w>
t ing</w>
nu r</w>
M r</w>
m an</w>
k on
sh ould</w>
a v
wi ck
e ff
kan n</w>
y e
l and</w>
n e</w>
ne w</w>
v en
t ä
a i
w n</w>
b le</w>
en s
& #
a d</w>
f en</w>
b en</w>
us s</w>
as s
al en</w>
j ec
v es</w>
am p
th ese</w>
i el
en s</w>
al e</w>
l ä
t ran
s om
poli ti
un s</w>
s yst
t w
i c</w>
f u
no ch</w>
con c
b le
m ü
st er</w>
b o
m on
en ce</w>
ü ck
is e</w>
b t</w>
In ter
d o</w>
wor k</w>
sch e</w>
F or
di es</w>
an y</w>
f o
ol o
ab er</w>
us am
k l
d ed</w>
or t</w>
wei ter
Co un
re gi
k s</w>
ges ch
men t
d ung</w>
p le
m s</w>
fi r
ati ve</w>
t n
b en
pro duc
vel op
m u
al le</w>
da y</w>
ü tz
ut z
no w</w>
op er
ar d</w>
da ß</w>
ti me</w>
ci l</w>
U m
nation al</w>
Mitgli ed
m ust</w>
wur de</w>
qu i
in n
le g
i h
f ahr
Europä ischen</w>
Coun cil</w>
P rä
M ember</w>
neh men</w>
on ly</w>
D e
ing s</w>
d an
Re gi
d es
pu bli
el t</w>
ch an
pro vi
ein es</w>
P o
s s</w>
f ra
.. .</w>
j e
St ates</w>
ex p
s ein</w>
su p
c u
Mitglied sta
on om
in e</w>
in form
c re
t ung</w>
&# 9
R i
con t
on g</w>
s etz
gra m
f e
on der
or s</w>
c al</w>
en den</w>
er n
an t
b a
Ar b
ation en</w>
Pre sident</w>
usam men
la r</w>
th er
mü ssen</w>
e urop
a ff
A l
de velop
ab out</w>
g y</w>
B es
Au f
wi th
g keit</w>
d a</w>
B eri
li ke</w>
ar s</w>
w s</w>
Her r</w>
st at
de t</w>
m ehr</w>
un i
M e
th o
y s</w>
h er</w>
ser vi
k ommen</w>
re l
pro c
J ahr
n o</w>
un ter</w>
g es</w>
wh at</w>
s ehr</w>
r on
re g
v ed</w>
Europ e</w>
ac e</w>
po si
li ch
man y</w>
Z u
c ri
wa y</w>
im mer</w>
el y</w>
h and
g lei
C omm
sti tu
dies em</w>
f e</w>
ar b
ein i
for e</w>
tri es</w>
ec onom
Mitgliedsta aten</w>
su b
re d</w>
ne t</w>
Par la
eit s
mo st</w>
li a
su ch</w>
sol l
f un
st än
il li
S o
d am
st ütz
an s</w>
pro pos
coun tries</w>
k e
1 0</w>
e ment</w>
em p
t schaf
im port
vi e
M en
Ent wick
ri e
oo d</w>
ti gen</w>
ihr e</w>
wh en</w>
19 9
fin an
H otel</w>
ch ten</w>
S i
v ing</w>
p h
lie ß
b is</w>
eh en</w>
at ing</w>
in to</w>
wh o</w>
el le</w>
w ar</w>
ro u
dies es</w>
en z
op le</w>
ä l
un der
an i
Ü ber
us e</w>
inc lu
h el
I h
r e</w>
ber ei
europ ä
w is
au se</w>
l as
wel l</w>
ab ili
wer e</w>
wi chti
nah men</w>
bes onder
vi el
t or</w>
ti m
zw ischen</w>
com e</w>
so wie</w>
s s
si ble</w>
d r
d re
bi li
pe ople</w>
ag re
en de</w>
L i
stell en</w>
for der
lia ment</w>
li c
spec i
en n
si s</w>
we en</w>
bet ween</w>
hal ten</w>
tion en</w>
di ff
Par liament</w>
m p
v om</w>
C h
en er
l ar
som e</w>
sion s</w>
b re
fir st</w>
Z usammen
sch ließ
th an</w>
l au
m y</w>
j o
F in
ti g</w>
st s</w>
inform ation</w>
ap p
den en</w>
for m</w>
b ar
an n
stell t</w>
l än
c le
ti mm
or y</w>
ag a
a il
ell en</w>
wä hr
re port</w>
t es</w>
ne ed</w>
el e
de ut
In form
r ü
in u
ö ff
hi er</w>
r au
l at
r is
c ent
g lich</w>
an k</w>
m at
t ure</w>
J ah
in v
f ten</w>
f ul
Europä ische</w>
tic al</w>
fi c
o ver</w>
C on
un ity</w>
ac k
in t</w>
h is</w>
ver n
en g
w oh
w er</w>
ge t</w>
it e</w>
c ul
I hr
M ini
R at</w>
geb en</w>
s ch</w>
di rec
st and
in s
st e
qu ali
etz t</w>
tä t</w>
c ause</w>
W ir
ta ke</w>
m is
stru c
gi bt</w>
unser e</w>
u p
syst em</w>
Vor sch
k o
O r
re sp
ß nahmen</w>
mö chte</w>
k te</w>
or gan
gh ts</w>
ma ke</w>
l l
sp e
ar t</w>
sup port</w>
K o
co ur
ge gen</w>
de ci
hal b</w>
sam e</w>
M o
c ur
h eu
i d</w>
gro ß
publi c</w>
ap pro
import ant</w>
it ä
p a
h ere</w>
k om
sh o
b in
z eu
w al
L än
f ur
G em
wh ere</w>
m er
or der</w>
H au
l es</w>
s hi
Ber ei
gel e
el s</w>
r ati
s er</w>
tw o</w>
et t
re as
fu l</w>
es ti
n at
dam it</w>
ge ment</w>
th rou
ex c
th em</w>
sp re
ti ge</w>
in s</w>
wir k
x t</w>
s at
Prä sident</w>
me di
u res</w>
chn olo
gem ein
B ei
poli cy</w>
b ein
ver sch
w ür
mark et</w>
an g</w>
le v
h otel</w>
resp on
s k
G er
ä u
on s</w>
in di
st er
i l</w>
b ar</w>
Europ a</w>
k eine</w>
pro ble
ä tz
ar bei
an ge
ne c
sch ei
par tic
lin e</w>
m uss</w>
g n</w>
ma de</w>
en ti
z ah
us s
ch ä
o k
g s</w>
a ir
con si
ar ly</w>
le tz
Q u
be cause</w>
n ach
f ri
g ab
c ol
t ec
is su
ac k</w>
f all
Gem ein
y p
i el</w>
lo c
M on
gli ch
f t
k eiten</w>
a st
A m
ander en</w>
tra g</w>
z e</w>
V i
n um
lo w
Beri cht</w>
eb en</w>
ye ars</w>
n ung</w>
tho se</w>
el l</w>
cht s
wi e
si ve</w>
af ter</w>
s m
Fin an
y ing</w>
econom ic</w>
un der</w>
P er
r en
ä ch
te l</w>
j ust</w>
lo w</w>
b ot
si te</w>
p en
sol u
th ing</w>
M i
St a
bes ser
aus ge
wur den</w>
lo b
h um
er te</w>
develop ment</w>
wei se</w>
M ark
fin den</w>
Pro du
tr y</w>
Parla ment</w>
be wer
b il
l er</w>
ommis sion
c an
v o
tion al</w>
steh t</w>
ha d</w>
ther e
v al
la ge</w>
em s</w>
n t</w>
g ent
me as
e ti
m ini
ho w</w>
re ad
ß er
stän di
Po li
ye ar</w>
wor ld</w>
vie w</w>
se e</w>
un den</w>
we ver</w>
c er
ho wever</w>
su l
oper ation</w>
ma y</w>
gi e</w>
z en</w>
gen er
2 0</w>
fahr en</w>
k ti
am e</w>
0 00</w>
g a
ac t</w>
B et
s c
st an
T ei
ri ght</w>
dies en</w>
S er
f as
c lo
ci p
dan n</w>
eff ec
Entwick lung</w>
ta in</w>
o ch</w>
Pro ble
mit tel
M ar
öff ent
en en</w>
heu te</w>
be g
n er</w>
j ek
e ven</w>
gram me</w>
te e</w>
si tu
o s</w>
R ah
w är
bein g</w>
T h
c c
Ma ßnahmen</w>
du stri
F ran
Ri cht
th en</w>
ff en</w>
vi ron
B ür
steh en</w>
par t</w>
wir tschaf
neu e</w>
as ed</w>
Gr und
chä f
k tion</w>
throu gh</w>
ä m
g ten</w>
bi e
pro tec
diff er
at er</w>
j ed
n is
ent ly</w>
tran sp
Ih nen</w>
Jah r</w>
u r</w>
er ten</w>
jec t</w>
v e
so ur
T e
pl ace</w>
1 ;</w>
&#9 1;</w>
et y</w>
p la
us in
s or
si gn
s eine</w>
de mo
br au
3 ;</w>
&#9 3;</w>
are a</w>
st re
there fore</w>
d at
pos sible</w>
E x
Unter nehmen</w>
jed och</w>
de l</w>
politi k</w>
ch ts</w>
om s</w>
with in</w>
f f</w>
un kt</w>
tran s
us ed</w>
en z</w>
ter s</w>
ar ds</w>
on en</w>
g ood</w>
S u
abili ty</w>
st and</w>
gen en</w>
h ol
bot h</w>
comp le
d ra
p ra
g ri
ge gen
G ro
nah me</w>
ä h
L u
europä ischen</w>
st o
m al</w>
Si cher
woh l</w>
W e
l ungen</w>
ihr er</w>
20 1
neu en</w>
ö ß
h ö
besonder e</w>
servi ces</w>
ti k
arb eit</w>
to day</w>
inter national</w>
ein f
lo o
im ple
cont inu
k re
qu es
en d
nation alen</w>
der ung</w>
go vern
poli tical</w>
ti al</w>
av ail
se t</w>
lei st
berei ts</w>
las sen</w>
ta in
c ap
p i
au th
so ci
N e
sp iel
unter stütz
s h</w>
conc ern
in st</w>
a u</w>
i ce</w>
th re
ou s
st u
il l
Z eit</w>
S yst
l and
str ate
c li
ro om</w>
aga inst</w>
c or
si cher
wen i
le gen</w>
ch ar
c ould</w>
B u
T o
soll te</w>
s ur
k tion
en viron
ou gh</w>
la g</w>
i de
1 2
bili ty</w>
p er</w>
bes ch
ä hr
en st
R o
te gr
Fra u</w>
U S
l ü
el n</w>
pres ent
read y</w>
führ t</w>
bi et
ul ation</w>
W ei
be d
5 0</w>
f est
cur r
t ors</w>
ad op
z wei
St r
Men schen</w>
g ar
En er
val u
ri ghts</w>
k un
p s</w>
coun try</w>
B il
b ur
der s</w>
ter n</w>
da zu</w>
al o
unser er</w>
im pro
t ly</w>
h än
ö l
Inform ationen</w>
so cial</w>
kl är
in stitu
sel b
ment al</w>
we i</w>
meas ures</w>
er k
ent r
e f
el d</w>
l ungs
sch n
oh ne</w>
as si
ou t
geh en</w>
.. ..
t schaft</w>
s ei
st ar
bu il
ag es</w>
emp lo
per son
in gen</w>
dur ch
be lie
L e
z wei</w>
n te</w>
st au
re qui
h ar
it ed</w>
in de
num ber</w>
at s
hi gh</w>
no v
son dern</w>
rei chen</w>
men d
ne ed
u lar</w>
li cher</w>
Jahr en</w>
sch i
g lob
t t
z us
al le
ation s
ru pp
B o
P ri
o wn</w>
em ber
C ommission
S e
avail able</w>
do es</w>
R ei
hab e</w>
tur al</w>
soll ten</w>
ander e</w>
Her r
pri v
le c
lev el</w>
el ec
mö gli
ch es</w>
K ol
Rah men</w>
si de</w>
ur o</w>
w in
so zi
b usin
w es
en th
sin ce</w>
finan cial</w>
quali ty</w>
wirtschaf t
g o</w>
chan ge</w>
ö s
f ut
comp eti
it al</w>
Ä n
shi p</w>
ar ch</w>
ett bewer
geh t</w>
f am
sel f</w>
n ot
pr in
0 0
b el
ac ti
z ur
de b
it tee</w>
f is
Mini ster</w>
st är
K om
gra mm
C hin
am en</w>
ou se</w>
with out</w>
E R
m ar
3 0</w>
fre e</w>
c ar
lin ie</w>
sat z</w>
ß en</w>
ai d</w>
stell ung</w>
ab li
amp ;</w>
& amp;</w>
hi l
l ast</w>
y ment</w>
c ed</w>
all en</w>
N or
ver si
eb en
setz ung</w>
ter n
produc ts</w>
in ten
Commission er</w>
fi ed</w>
a gement</w>
h in</w>
sh al
i ci
glei ch
fut ure</w>
la gen</w>
zi eh
ins besondere</w>
h en</w>
posi tion</w>
b al
Comm unity</w>
w ol
versch ie
Berei ch</w>
E U
cle ar</w>
mu ch</w>
b oo
führ en</w>
l ong</w>
tra gen</w>
gan g</w>
ur ity</w>
s se</w>
servi ce</w>
viel e</w>
i st
v ari
ges am
for t
ma in</w>
p ec
illi on</w>
w ant</w>
er ungs
dur ing</w>
g ni
in k</w>
Zusammen arbeit</w>
fall s</w>
is l
w n
con di
hi st
T re
g s
be fore</w>
R es
M ö
W or
fur ther</w>
s eit</w>
qu e</w>
s ed</w>
ai r</w>
lie gt</w>
H and
au ßer
ma chen</w>
t om
fin d</w>
gan z</w>
z ep
sti ll</w>
ch ni
ac tion</w>
c ase</w>
ch en
s af
cht ung</w>
gen ommen</w>
k ur
us ti
con tro
c a</w>
regi on
hi gh
proc ess</w>
ne t
ent wick
on d</w>
al ready</w>
z eit</w>
gr öß
gram m</w>
k es</w>
eini ge</w>
st ra
bu d
weiter e</w>
sch ri
m ul
ant wor
Arb eits
ch ter
stau ran
h eiten</w>
Fra ge</w>
ge stellt</w>
m ich</w>
d ru
ommis s
h eits
währ end</w>
Um wel
l a</w>
ali si
e ts</w>
bie ten</w>
do ch</w>
st al
po int</w>
T a
par tn
ä hi
b ri
at te</w>
F re
ul es</w>
an ti
partic ular</w>
ad t</w>
inclu ding</w>
z el
p ur
est abli
differ ent</w>
f il
j etzt</w>
Re chts
si cht</w>
T ran
o ver
organ is
m ei
l ess</w>
S it
propos al</w>
h ä
Ihr e</w>
dar auf</w>
K in
k ün
ol d</w>
k omm
e ach</w>
biet et</w>
in ing</w>
200 9</w>
or ity</w>
bes timm
b ased</w>
wa ys</w>
N ach
cu st
o b</w>
ut z</w>
te chnolo
k no
ad di
Mö glich
ih r</w>
dat a</w>
d y</w>
T ra
fi c</w>
re spec
o v
s on</w>
e v
gre at</w>
tra c
ener gy</w>
t al
whi le</w>
g in
al th</w>
I N
da her</w>
pro gramme</w>
den n</w>
app lic
h ei
a b</w>
w an
ti z
U N
z un
B eh
ma j
ori ties</w>
ke hr
ihr en</w>
s einer</w>
est s</w>
c ity</w>
t sch
ach ie
Pro jek
vi du
sa id</w>
L and
H o
is ti
ens ure</w>
s y
U S</w>
N i
da für</w>
l ed</w>
B ar
itä t</w>
s ehen</w>
are as</w>
Unter stütz
wä h
Me di
p rä
K ommiss
str y</w>
M an
L age</w>
ch i
e ver
j u
H in
st ance</w>
ful ly</w>
exp eri
agre ement</w>
W ettbewer
f ast</w>
hum an</w>
rit t</w>
de m
sol l</w>
al er</w>
or en</w>
su cc
Hau shal
acc ess</w>
fac t</w>
Wir tschaf
situ ation</w>
ci es</w>
is m</w>
B ed
is cher</w>
W eb
n ten</w>
te xt</w>
es sen
leg al</w>
ti g
wei l</w>
k a</w>
dis c
co operation</w>
f rei
f äl
ra l</w>
da bei</w>
ta ken</w>
c all
low ing</w>
B el
Aus sch
ad v
W elt</w>
con su
b ro
ck en</w>
gen den</w>
D at
ut es</w>
nec ess
f er</w>
In v
T er
rei ch
ac coun
fin det</w>
Län der</w>
l uss</w>
pu t</w>
indi vidu
St ra
ember s</w>
hel p</w>
in f
wen di
comm on</w>
ord nung</w>
E C
Th em
o d</w>
vel y</w>
b it
leg isl
cour se</w>
Unterstütz ung</w>
se arch</w>
schaf t
Bes ch
sp ra
nu n</w>
ro oms</w>
I s
ob jec
zei ch
f tw
i es</w>
gro w
k ey</w>
St and
1 5</w>
p eri
op e</w>
ftw are</w>
s si
k now</w>
be gr
ah l</w>
solu tion</w>
St ate</w>
sa y</w>
wie der</w>
w ach
Jahr e</w>
re qu
f ör
selb st</w>
k ten</w>
sch en
ass ung</w>
20 10</w>
m eine</w>
Än der
gr und</w>
c l
la w</w>
por ts</w>
H il
to o</w>
Par tn
busin ess</w>
ur s</w>
S te
provi de</w>
al y
thre e</w>
war d</w>
A N
ci tiz
J u
ma cht</w>
Arb eit
ra p
führ ung</w>
t yp
e very</w>
F un
b an
Z eit
on i
inv est
tu r</w>
f te</w>
o c
t ary</w>
Richt linie</w>
wor den</w>
can not</w>
De ut
wür de</w>
pro du
inc reas
at t
G re
dar über</w>
sch on</w>
bes t</w>
str eng
Comm ittee</w>
Am eri
pr ü
Finan z
som e
at ely</w>
T he</w>
n or
pro f
k er</w>
ch il
necess ary</w>
sm all</w>
g le</w>
D em
a z
t rä
w o</w>
amp le</w>
1 .
belie ve</w>
mö glich</w>
en ts</w>
x i
E N
syst ems</w>
m ä
par ti
V ol
ges etzt</w>
po in
n ing</w>
comp ani
bei m</w>
et ing</w>
n is</w>
de fin
kun ft</w>
D is
ver fü
me ans</w>
in nen</w>
en e</w>
aff en</w>
L and</w>
Z iel
Str ate
con tri
gen d</w>
si mp
tra de</w>
un ic
t ru
Arb eit</w>
politi schen</w>
tra di
d ri
ti k</w>
sec urity</w>
d ungen</w>
g ed</w>
r ules</w>
P or
us si
citiz ens</w>
alle m</w>
g rei
nat ür
k ed</w>
Z iel</w>
p unkt</w>
vi si
w o
vi ce</w>
B a
schließ lich</w>
r in
si gn</w>
Inter net</w>
ar t
is ch</w>
ei li
h an
b s
Chin a</w>
U r
pres ent</w>
W i
F lu
ques tion</w>
spe zi
ne xt</w>
ini ti
i zi
Vorsch lag</w>
200 0</w>
en ces</w>
lich keit</w>
protec tion</w>
1 2</w>
mi r</w>
ex ample</w>
E S
n am
di g
issu e</w>
ü h
P al
L eb
Di rec
war en</w>
th ink</w>
deb ate</w>
200 7</w>
z ü
Per son
200 8</w>
Wirtschaf ts
si c</w>
er fol
br ingen</w>
si chti
wen dung</w>
A T
vi el</w>
lo ssen</w>
di re
ven tion</w>
off ers</w>
gi ven</w>
g ing</w>
m a</w>
pra c
gab en</w>
Län dern</w>
G u
wh e
1 8
in tegr
g eri
de li
z ed</w>
th ough</w>
ali tät</w>
L ei
k tur
cust om
tro l
Ent schei
p t
de u
f ähi
d ate</w>
ment ation</w>
tei lung</w>
demo c
Ener gi
d ings</w>
im p
C om
1 0
comm it
e k</w>
f le
spre ch
schaf ten</w>
gn is
C O
th ir
sa gen</w>
a de</w>
ation al</w>
l s</w>
es en</w>
Or gan
deci sion</w>
lar ge</w>
wol len</w>
geh ör
den ti
eit ung</w>
T i
G ener
ar o
acc ep
consi der
war ds</w>
vol l
si cht
ess es</w>
L ös
rec ei
loc ated</w>
establi sh
S a
st en
des halb</w>
Herr n</w>
wh y</w>
in vol
tei l</w>
sec tor</w>
re co
gu t</w>
er halten</w>
v öl
nis se</w>
as es</w>
dre i</w>
F is
der t</w>
arbei ten</w>
men te</w>
r än
si bility</w>
op port
ti n</w>
pres s</w>
b in</w>
comp any</w>
ch tet</w>
d el
b ack</w>
ec t</w>
ta li
st ate</w>
co m</w>
gen de</w>
p as
B est
St u
rit te</w>
ur al</w>
c o</w>
R om
sch er</w>
me work</w>
sp ar
em e</w>
ful l</w>
f a
sam en</w>
z o
gre ss</w>
E uro</w>
ge führt</w>
es sen</w>
man agement</w>
ti eren</w>
Er geb
gi ve</w>
conc lu
er sten</w>
au en</w>
all er</w>
de c
inn er
ti c</w>
da m</w>
f ar</w>
A R
ever y
cul tural</w>
at s</w>
Fra gen</w>
curr ent</w>
re m</w>
ß t</w>
fol lowing</w>
m or
M r
si tz
ba sis</w>
zu g</w>
us ing</w>
Tei l</w>
g ar</w>
b lei
gab e</w>
me hr
E N</w>
ma in
al t</w>
finan zi
unser en</w>
all er
wel che</w>
or ts</w>
sa m</w>
er forder
der en</w>
R ol
Pro z
ul arly</w>
Un ited</w>
bet ter</w>
fer ence</w>
proble m</w>
pl an
M illi
B i
m illion</w>
ing ungen</w>
a k</w>
compani es</w>
l er
e qui
off er</w>
k ra
o l</w>
un ser</w>
op p
om en</w>
Bür ger</w>
mo der
ie der
te chni
t z</w>
i ly</w>
proble ms</w>
wor king</w>
du stry</w>
s es</w>
h om
äm pf
go ti
need s</w>
in nov
in dustri
Be deut
Ver fü
ß e</w>
ver wen
l ab
se qu
B r
Sicher heit</w>
d ge</w>
Men schen
se ver
v ot
f li
N utz
to ge
adop ted</w>
ro ss</w>
produc tion</w>
E R</w>
li fe</w>
s ure</w>
ell schaft</w>
r ise</w>
toge ther</w>
we gen</w>
Bedeut ung</w>
setz en</w>
r y</w>
o ur
C ent
sour ces</w>
su pp
us e
tre ten</w>
A ut
E I
h ang</w>
sti mm
geb o
re sul
F rei
be steht</w>
an other</w>
enst leist
condi tions</w>
ver k
ti gung</w>
ti ves</w>
fe w</w>
he alth</w>
at y</w>
ß i
For sch
w w
ge währ
in es</w>
g ation</w>
et was</w>
as k</w>
k tionen</w>
jec ts</w>
is m
wei ter</w>
issu es</w>
do wn</w>
c tion</w>
whe ther</w>
Mit tel
sch ein
cer tain</w>
emplo yment</w>
enz en</w>
ur t</w>
t ot
L o
g te</w>
g än
gele gt</w>
hän gi
a in</w>
ne goti
re su
de ta
cht ungen</w>
ord in
j a</w>
le a
ent schei
g ran
F all</w>
Syst em</w>
d i</w>
k t
R u
ti ert</w>
re al</w>
et er</w>
Ver brau
ma king</w>
M u
R O
ad dre
so li
Re cht</w>
letz ten</w>
n on</w>
Ar tik
G o
wichti g</w>
op en</w>
F o
T ur
200 6</w>
au tom
lo s</w>
al ten</w>
parti cip
Ar t</w>
um fas
Re gel
gro up</w>
In stitu
schaf ts
ei te</w>
ali ty</w>
g ern</w>
aga in</w>
re s
ti gt</w>
men s</w>
regi on</w>
re search</w>
pro gramm
v is
priv ate</w>
h ör
s einen</w>
grow th</w>
l ing</w>
re duc
ro le</w>
d u</w>
EU R</w>
US A</w>
le t</w>
hal f</w>
t ation</w>
sp ek
gu ar
Parla ments</w>
h au
un de</w>
Z immer</w>
w rit
sec ond</w>
H ot
rau m</w>
mat eri
ol e</w>
gi en</w>
W in
we b
C H
es se</w>
b is
con nec
ter m</w>
p ack
th s</w>
re chte</w>
n ess</w>
ch o
c ing</w>
G eri
J un
K re
ate g
ou th</w>
D aten</w>
Regi erung</w>
2 5</w>
D ur
Gro up</w>
ic al</w>
transp ort</w>
on ds</w>
fac ili
at ten
sh all</w>
Ges und
so wohl</w>
k ämpf
aro und</w>
ben e</w>
air s</w>
inner halb</w>
Gemein schaft</w>
s ha
er mögli
a mend
tei l
n äch
in dustry</w>
ec k</w>
den t</w>
stauran t</w>
L an
st ed</w>
komm t</w>
stri c
Sta aten</w>
ge w
ple ase</w>
is h</w>
Leb ens
contro l</w>
A fri
P ol
lo cal</w>
ti l</w>
gener al</w>
er st
da ys</w>
speci al</w>
di d</w>
l en
re cht
zur ück
pl ac
en nen</w>
wär e</w>
en jo
speci fic</w>
accoun t</w>
partic ularly</w>
ec ted</w>
ati ves</w>
1 1</w>
vie ws</w>
acti vi
contri bu
12 4
continu e</w>
ben ef
gni fic
es sion</w>
organ i
Ger many</w>
ous ly</w>
I P</w>
Pro gramm</w>
ab o
y er</w>
groß e</w>
u al</w>
natür lich</w>
. com</w>
G rupp
st ä
ver b
fi zi
bur g</w>
g sten</w>
es sion
thir d</w>
t ungs
ati ven</w>
d ungs
I tali
inc re
ap pe
gen heit</w>
bli ck</w>
An t
außer dem</w>
inter nation
n a
zei gt</w>
kön nte</w>
In dustri
I S
O p
ag t</w>
si eh
reg ul
vo te</w>
s ing</w>
environ ment</w>
ver besser
cul ture</w>
K ar
be kan
e p</w>
W el
R ussi
L is
a gen
Ste u
fra mework</w>
F ol
mä ßi
S ec
en ter
tu n</w>
k ung</w>
ex ten
i ous</w>
ter ms</w>
w ater</w>
sta in
F ör
G ar
glei ch</w>
mini str
hand elt</w>
I I</w>
dr en</w>
Co urt</w>
po wer</w>
auth orities</w>
al es</w>
com es</w>
Gr ün
govern ment</w>
z usammen
B an
124 ;</w>
&# 124;</w>
4 0</w>
x im
besonder s</w>
spre chen</w>
gen e</w>
Kommiss ar</w>
Entwick lungs
Änder ungs
d ly</w>
at er
G eb
Flu g
activi ties</w>
S k
re f
rei gn</w>
an zu
resu lt</w>
glob al</w>
en cy</w>
t on</w>
sta at
wis sen</w>
bud get</w>
Verfü gung</w>
Prä siden
y ed</w>
gr und
inter nationalen</w>
ic ul
com ing</w>
En de</w>
ser v
da von</w>
wor k
sta y</w>
h and</w>
not wendi
po ten
L a
ri chti
Tre aty</w>
z e
n al</w>
sp iel</w>
Hau pt
w a</w>
einf ach</w>
pro gress</w>
diff icul
B en
gu e</w>
Poli tik</w>
T ex
R ates</w>
fic ation</w>
Artik el</w>
1 00</w>
Möglich keit</w>
Proble m</w>
W oh
t ungen</w>
al ways</w>
f y</w>
bit te</w>
land s</w>
v ement</w>
m ers</w>
Inv esti
wi de</w>
be come</w>
s ation</w>
de st
F rau
itä ten</w>
M E
200 5</w>
Rol le</w>
in st
K li
go ing</w>
R ück
2 .
pro jects</w>
in a</w>
groß en</w>
respec t</w>
ni ti
politi sche</w>
w eit</w>
ein mal</w>
N amen</w>
Hil fe</w>
ß en
viel en</w>
i eren</w>
sch ie
er ungen</w>
ein zel
unterstütz en</w>
g lau
O ff
clo se</w>
Dur ch
maj or</w>
ab hängi
ex ist
ent sprech
wir tschaft</w>
legisl ation</w>
ent ru
ha pp
r or
bet ri
in tro
E i
St adt</w>
F ahr
ein zi
i ert</w>
des sen</w>
E uro
er h
chil dren</w>
loc ation</w>
I niti
pro ject</w>
o gra
tim es</w>
ba u</w>
li n</w>
on ce</w>
f ood</w>
Deut sch
Bes chäf
h ope</w>
f an
E m
t an
th em
lie gen</w>
P u
Regi on</w>
P i
imple mentation</w>
c el
k m</w>
k in
zw ar</w>
at or</w>
b or
M ein
F am
rü h
europä ische</w>
er zi
h atte</w>
w omen</w>
t ar
S eite</w>
d ür
Ges chäf
ü hr
Proble me</w>
p t</w>
fü l
w ahr
pec i
200 4</w>
gegen über</w>
do cu
tur n</w>
op en
guar an
ism us</w>
A S
ff t</w>
eff ici
ran ge</w>
S y
are d</w>
ta king</w>
k ein</w>
Zusammen hang</w>
gen ann
Ger man</w>
experi ence</w>
So zi
t lich</w>
por te
ü ck</w>
n utz
er klär
ein bar
vari ous</w>
chter stat
all es</w>
f ar
cri sis</w>
sever al</w>
v al</w>
i a</w>
öffent lichen</w>
es peci
gro und</w>
li ght</w>
Wei se</w>
m einer</w>
G en
r a</w>
lan g</w>
ak tu
auf ge
r o</w>
W er
di en
&apos; t</w>
bi et</w>
bre it
competi tion</w>
Di enstleist
1 6
si gnific
to wards</w>
peri od</w>
Them a</w>
Zu kunft</w>
Te chnolo
re present
mu ß</w>
ff e</w>
G i
pl at
ur y</w>
e duc
N at
af f</w>
h r</w>
loo k</w>
op ini
wei sen</w>
especi ally</w>
200 3</w>
verschie denen</w>
incre ase</w>
o th
rit eri
in e
el s
ex tre
m ot
Mit tel</w>
H e
de sign
J usti
D ec
ach st
Um setzung</w>
u e</w>
n ei
st ei
For tsch
region al</w>
den ce</w>
sin gle</w>
du e</w>
zi ehen</w>
ab ly</w>
Sp iel
p at
er reichen</w>
zah l
per f
dar f</w>
cre ate</w>
m et
de f
t able</w>
ir e</w>
vi l
J an
sub ject</w>
begr ü
W o
re gel
vi sion</w>
Organ is
institu tions</w>
be l</w>
ent fer
St ru
3 2</w>
I r
s ci
ei genen</w>
In di
call ed</w>
H ouse</w>
su chen</w>
co ver
i denti
St ell
ge l</w>
comm unic
f lo
fi eld</w>
lan g
lan gu
wi eri
forder ungen</w>
sol len</w>
w are</w>
2 4</w>
effec tive</w>
vi a</w>
Sch l
P ra
for t</w>
ih nen</w>
Kol legen</w>
wh ole</w>
lä ge</w>
E bene</w>
1 5
fo und</w>
f av
lei sten</w>
19 8
su ff
stand ards</w>
Sch utz</w>
adv an
to ur
Wir tschaft</w>
F u
schri ften</w>
econom y</w>
re it
c ally</w>
d ort</w>
proc e
a si
cent re</w>
poli cies</w>
f ris
1 7
d ou
d on</w>
Ver hand
bei den</w>
st aff</w>
p hi
weiter hin</w>
sel ves</w>
in stru
mit tel</w>
g l
an it
B al
ell er</w>
st art</w>
ag ri
b ank</w>
i ma
zun eh
mi li
ut er</w>
au m</w>
e li
inn en
th ank</w>
rei cht</w>
provi ded</w>
K ul
.... ....
appro ach</w>
wor ks</w>
ein ge
m b
d lich</w>
Ver tra
r ate</w>
200 2</w>
200 1</w>
är e</w>
W achst
fo c
ver s
all gem
mark t</w>
er ste</w>
pf li
siden cy</w>
A ff
y et</w>
Beri chterstat
o un
W ar
is ed</w>
c a
form s</w>
or ding</w>
aller dings</w>
We g</w>
ti schen</w>
propos als</w>
uss es</w>
sicht lich</w>
su stain
re sources</w>
an aly
aus sch
propos ed</w>
l an</w>
T ag
prof ession
bet re
Ver besser
ad ing</w>
P lat
Frau en</w>
Direc tive</w>
mat ter</w>
zei tig</w>
k ri
ra cht</w>
pro mo
A L
N ov
te chn
l ini
reg ard</w>
je der</w>
m embers</w>
di sp
ter min
p age</w>
Deutsch land</w>
saf ety</w>
K unden</w>
A d
exc ell
Fam ili
e ven
re li
Ver eini
tr on
pri ce</w>
d om
mo dern</w>
B eit
lä u
rap porte
all en
kün f
K ap
s ätz
Mr s</w>
requi re
Sit u
pl es</w>
ein zu
auf grund</w>
mul ti
as ser
P h
inter est</w>
ger e
er st</w>
ück sichti
k rati
for ward</w>
en ten</w>
W est
z ation</w>
transp ar
d one</w>
le ben</w>
wirtschaft lichen</w>
fac e</w>
ges t</w>
bre ak
M in
ar ch
ti v
t a</w>
I C
rei b
f ung</w>
ad ministr
appro pri
re com
dru ck</w>
m el
for ce</w>
entru m</w>
con struc
hist or
zus ätz
gu i
b ut
Bei spiel</w>
ge f
environ mental</w>
her vor
ol s</w>
si erung</w>
wel come</w>
ver fahren</w>
li st</w>
lei ch
me tho
ö h
an im
ne ten</w>
ck s</w>
gr ün
Fra ktion</w>
schi ed
Dem ok
am ong</w>
neh mer</w>
I T
st ing</w>
pl an</w>
e qu
ge ord
völ k
O R
strate gy</w>
st off
di o</w>
lich es</w>
si ert</w>
Sch i
S ep
Milli onen</w>
concern ed</w>
be au
Sch ul
Haushal ts
be findet</w>
le ast</w>
w le
pr o</w>
Ser vice</w>
der zeit</w>
le ar
M är
S ek
1 3</w>
in gt</w>
zieh ungen</w>
sa ge</w>
ges ehen</w>
ei g
L in
en der</w>
f l
et wa</w>
e ar
lo s
sion en</w>
prin cip
st ers</w>
un til</w>
ori es</w>
re cht</w>
sp r
G ä
hi er
f all</w>
K un
C ar
S eiten</w>
gen d
inclu de</w>
invest ment</w>
us sel
wes ent
spra che</w>
er ing</w>
Ver fahren</w>
chn ung</w>
direc tive</w>
berei ch</w>
Strate gie</w>
il s</w>
A t
m ati
th e
Geschäf ts
Beh ör
man u
m ember</w>
ge t
fe at
f el
J o
0 .
an der</w>
autom ati
hin aus</w>
ah n
wis h</w>
t te</w>
it self</w>
te te</w>
and s</w>
web site</w>
gem ä
vor schriften</w>
und ing</w>
weni ger</w>
o ften</w>
verschie den
ed ure</w>
N ot
För derung</w>
mark ets</w>
eff orts</w>
sp ä
wirk lich</w>
a im
l on
re ally</w>
gi cal</w>
posi tive</w>
mer k
tra ining</w>
B innen
fra ge</w>
k u
g al</w>
dr ück
1 4</w>
b lo
Sicher heits
stat t</w>
struc ture</w>
In stru
tic le</w>
Ver wal
buil ding</w>
Pro gramme</w>
import ance</w>
di c
an s
mö chten</w>
1 4
1 8</w>
z entr
co sts</w>
dire kt</w>
ge wi
ha ving</w>
tu res</w>
valu e</w>
Web site</w>
unterstütz t</w>
z er
en te</w>
n ame</w>
g keiten</w>
us er</w>
auf en</w>
al low</w>
po p
o ff</w>
me eting</w>
er war
in dem</w>
Ver k
Me hr
O N</w>
wie der
mon ey</w>
mit t
pla y</w>
Sp ra
an y
at ten</w>
M al
en i
Ihr er</w>
f ron
s ön
Mitgli e
k ul
on line</w>
Aff airs</w>
sh e</w>
Finan zi
stimm ung</w>
produc t</w>
An gele
wor d</w>
ti gkeit</w>
at ors</w>
per form
ständi g</w>
um s</w>
re du
el ek
li es</w>
6 0</w>
applic ation</w>
D u
sti m
h eri
3 .
Wettbewer bs
individu al</w>
uni ties</w>
Ta g</w>
Ziel e</w>
resul ts</w>
ah r</w>
Zu gang</w>
B au
Grund lage</w>
I m
pos e</w>
con fi
ver sion</w>
L ie
- -
Sep t
S ü
inv esti
so ftware</w>
alisi erung</w>
Lös ung</w>
be deu
excell ent</w>
wirk ungen</w>
R E
acc ording</w>
h ing</w>
am oun
h t</w>
vor gesch
A C
F ir
reg ar
sch affen</w>
gi lt</w>
gesch lossen</w>
E le
col lec
E C</w>
ch s</w>
Sept ember</w>
person al</w>
to ber</w>
z ö
entfer nt</w>
me chan
gr enz
soci ety</w>
kno wn</w>
ta ge</w>
Ch ar
at ory</w>
rä ge</w>
re st</w>
gu te</w>
o k</w>
e hr
opini on</w>
to p</w>
re solution</w>
Europ as</w>
provi des</w>
Demok rati
ai l</w>
hom e</w>
fra gen</w>
ber i
fam ily</w>
b ack
Sozi al
fle xi
re form</w>
re le
B ank</w>
o bli
intro duc
up s</w>
j e</w>
D ok
di t</w>
e der
pro z
tot al</w>
f ang</w>
gi es</w>
dar in</w>
Fran ce</w>
tic s</w>
al though</w>
Partn er
ei cht</w>
si schen</w>
eben falls</w>
S T
oo l</w>
si ch
aus zu
pf eh
Jan u
some thing</w>
sh ort</w>
z eit
on n
Z i
opport unity</w>
A s
Produ kte</w>
dar an</w>
h eit
N a
P ak
m ate</w>
impro ve</w>
ra ft</w>
ci vi
ch allen
s weise</w>
G el
Sta ats
technolo gy</w>
Situ ation</w>
an c
ak ti
Go vern
a way</w>
T V</w>
Is ra
Mark t</w>
enn tn
Ver antwor
kti v
abo ve</w>
Ver tre
o wn
1 6</w>
k ol
inter nal</w>
imple men
z eh
er a</w>
techni cal</w>
B .</w>
. .</w>
bar en</w>
e ver</w>
us sion</w>
ur ing</w>
pre v
etz en</w>
addi tion</w>
ro ad</w>
B em
tei len</w>
ra ther</w>
rapporte ur</w>
c all</w>
aff ung</w>
ti ce</w>
mar k</w>
l ack</w>
Inter national</w>
custom ers</w>
Por tu
W is
re lev
e as
Er fahr
Wor ld</w>
T O</w>
ch ung</w>
th us</w>
ris k</w>
ari an</w>
Bei hil
par ties</w>
ac tions</w>
li tt
Umwel t
do wn
vol l</w>
ac tu
enjo y</w>
rec ent</w>
z usam
te x
h under
c s</w>
G ra
Dat en
b zw
educ ation</w>
cont act</w>
K omm
bzw .</w>
kämpf ung</w>
rei ben</w>
ori gin
lo ws</w>
vi ol
kehr s
in ed</w>
a y</w>
umfas sen
An wendung</w>
lo t</w>
regi ons</w>
mö glich
hal t</w>
zu stellen</w>
z a</w>
st eu
re ali
unter schied
ra cy</w>
zusam men</w>
programm es</w>
J ap
da r</w>
äch lich</w>
on es</w>
le men</w>
Lei st
negoti ations</w>
forder t</w>
respon sible</w>
exc lu
o d
curr ently</w>
O b
ad s</w>
ta x</w>
N eu
le t
Person en</w>
ta ins</w>
bei spiel
gemein samen</w>
ex am
hal tung</w>
litt le</w>
respon sibility</w>
ag ed</w>
pro per
ge macht</w>
to wn</w>
d lichen</w>
rati c</w>
H an
mon ths</w>
versi ty</w>
Fis cher
Ihr en</w>
alo g</w>
tei le</w>
is es</w>
F il
un ver
trol le</w>
poin ts</w>
de sign</w>
ri cht</w>
ck t</w>
mo d
li g</w>
la dies</w>
Mein ung</w>
con trac
St abili
gleich zeitig</w>
Regi onen</w>
er neu
y a</w>
solu tions</w>
ste p</w>
zah l</w>
eini gen</w>
si tion</w>
gent lemen</w>
Be zug</w>
fin ally</w>
k o</w>
Z ah
th ings</w>
d ro
ü l
cri min
D rit
m om
Berei chen</w>
u te</w>
par t
Aus wirkungen</w>
vol u
e ments</w>
For m</w>
betri fft</w>
uni k
ten s</w>
L eben</w>
di stri
den ken</w>
Dok u
Kon ta
wor t</w>
Ver trag</w>
w ing</w>
bin dung</w>
so gar</w>
arbei tet</w>
Ver ordnung</w>
mon it
zeich net</w>
agre e</w>
C or
lini en</w>
U hr</w>
un kte</w>
k rä
ag o</w>
Ih r</w>
ri chtung</w>
ep t</w>
fre ed
wichti ge</w>
h ouse</w>
rel ated</w>
g ischen</w>
e i</w>
sol che</w>
ex pres
Ko sten</w>
require ments</w>
geb racht</w>
fer enz</w>
hum anit
vi er</w>
ges agt</w>
ber u
ac tive</w>
Ab kommen</w>
chan ges</w>
Nov ember</w>
fun da
ih rem</w>
th an
f our</w>
eff izi
princip le</w>
i r</w>
or d</w>
v el</w>
on a</w>
B ri
Tei l
199 9</w>
Be völk
lin es</w>
alo gue</w>
fähi gkeit</w>
requi red</w>
Re chte</w>
c ases</w>
Behör den</w>
mei sten</w>
con sul
län dern</w>
unter nehmen</w>
j usti
an ts</w>
w ün
ac i
Ent schließ
i er
Arbeit sp
In tegr
So ftware</w>
A N</w>
proc edure</w>
unser em</w>
cont ent</w>
c ro
appropri ate</w>
or ing</w>
D eb
gro ups</w>
qu ite</w>
g rupp
mi ght</w>
en cour
gre ater</w>
addre ss</w>
am eri
Qu alität</w>
K ö
nach hal
b are</w>
oo ds</w>
H ar
ne te</w>
Wel t
p ic
Ne w</w>
Verbesser ung</w>
A gen
mm t</w>
develop ing</w>
z es</w>
ani a</w>
demo krati
succ ess
d ent
hi m</w>
Vorsch ri
tion s
per sön
manu fac
k tur</w>
ger ade</w>
por ted</w>
Er klär
beg inn
Hot els</w>
si tes</w>
fü n
Lu x
reg ulation</w>
ari a</w>
nutz en</w>
mo sp
näch sten</w>
exist ing</w>
in o</w>
Kin der</w>
Bür ger
K an
indi c
li mit
at h</w>
E S</w>
ran k
1 .</w>
Gr und</w>
n äm
F l
fun c
gi c</w>
pro gra
gen au</w>
gemein same</w>
steh enden</w>
näm lich</w>
Ver pfli
t ten</w>
ho li
F rüh
car ri
Ab geord
el li
essen tial</w>
F est
re ach
bo dy</w>
ge geben</w>
Er fol
A ir
po wer
se i</w>
ques tions</w>
zei gen</w>
tei lt</w>
Au ßen
Verhand lungen</w>
oth ers</w>
au t</w>
amend ments</w>
an stal
K ü
d y
b ed</w>
li ber
ar ti
sozi alen</w>
o p</w>
Kli ma
t em
need ed</w>
comple te</w>
inde pen
Vorsch läge</w>
y ers</w>
atten tion</w>
Ge gen
c ame</w>
A k
sp ru
p ass
ci r
do ws</w>
z ung</w>
sho w</w>
wür den</w>
Entschei dung</w>
Ab sch
direc t</w>
Ma dam</w>
Rei he</w>
mittel n</w>
M at
t ats
te ten</w>
imp act</w>
Pre sidency</w>
br ing</w>
achie ve</w>
fun ds</w>
Präsiden tin</w>
ni mmt</w>
co st</w>
po l
ho ch
f ern</w>
pre c
s einem</w>
fi le</w>
vi c
C hi
än der
gnis se</w>
b s</w>
ma kes</w>
n er
pri ces</w>
k li
dür fen</w>
a th
A pri
Mark t
setz t</w>
h ed</w>
bes ser</w>
Bes timm
difficul t</w>
ma ßnahmen</w>
concern ing</w>
vor sch
eas y</w>
publi k</w>
net work</w>
f ail
gel ei
Au ff
en ds</w>
H ei
ur en</w>
tion ed</w>
ih m</w>
cer tain
ktion s
m ed</w>
wis sen
h u
Hin blick</w>
Pri v
ne ben</w>
li ve</w>
sa che</w>
ver fol
l ö
r ates</w>
wle dge</w>
si cher</w>
Bed ingungen</w>
lo ad</w>
stand ing</w>
beispiel sweise</w>
addi tional</w>
p tion</w>
T ür
pos ed</w>
sustain able</w>
W ah
Vorschri ften</w>
str ong</w>
Apri l</w>
se k
1 3
a de
gli chen</w>
on g
ven ess</w>
Gro ß
Ber lin</w>
8 0</w>
gre ich</w>
F i
st ates</w>
B ul
ta x
gemä ß</w>
brau chen</w>
char ac
as pec
nat ural</w>
Aus sprache</w>
cle arly</w>
F rie
C an
Er weiter
le ft</w>
Dienstleist ungen</w>
sub stan
en sive</w>
beau ti
Russi a</w>
su cht</w>
f eh
ber ücksichti
Her aus
H aus</w>
Inter esse</w>
an gem
je wei
gen heiten</w>
pre sen
no te</w>
ad a</w>
z immer</w>
mit ted</w>
A D
ag ing</w>
schn it
direc tly</w>
her r
M is
objec tives</w>
Be ziehungen</w>
o w</w>
visi t</w>
po ol</w>
eben so</w>
Ges ellschaft</w>
low ed</w>
develop ed</w>
1 ,
erforder lich</w>
ges timm
deut lich</w>
kön nten</w>
Unter neh
st y
ma ch
reas on</w>
w and
li ed</w>
ber eit
yo ung</w>
fav our</w>
Au stri
län der</w>
li eren</w>
al tern
O L
c le</w>
Ge biet</w>
sp ort</w>
con f
W ieder
be tra
simp ly</w>
Ö ff
li gen</w>
op s</w>
cap ital</w>
h y
H i
H inter
rel ations</w>
c are</w>
C ol
G ol
lu b</w>
u n</w>
ser ious</w>
K l
con text</w>
am bi
cli mate</w>
re ma
har mon
t in
P la
H al
d au
e th
k einen</w>
hä lt</w>
ih n</w>
for men</w>
ell eicht</w>
t or
inde ed</w>
re la
ap er</w>
gen eh
In nov
1 7</w>
kom men
E L
und ed</w>
z ent
M embers</w>
D ru
b an</w>
pro gramm</w>
vi elleicht</w>
M or
dr in
tern al</w>
cent ral</w>
de al</w>
fre und
kom ple
ob s</w>
A spek
je den</w>
wel t
Steu er
de pen
S lo
be half</w>
signific ant</w>
wer t</w>
mis sion</w>
assi stance</w>
wirtschaft liche</w>
ap art
medi a</w>
c al
ver s</w>
O n
An sicht</w>
z äh
inter est
Grupp e</w>
Ri si
d d
su g
s et
bi le</w>
min utes</w>
co ordin
Re g
Or t</w>
ch ed</w>
e di
ani en</w>
H ol
gehör t</w>
wor ds</w>
bedeu tet</w>
ein ander</w>
mo ve</w>
D ie</w>
ex per
er reicht</w>
T at
se a</w>
re fer
erh eb
ou ght</w>
fort able</w>
ach ten</w>
en ing</w>
de o</w>
bo ur
I S</w>
Fortsch ritte</w>
c y
zü glich</w>
arb eitung</w>
k lar</w>
ange si
pe ace</w>
pre vi
concern s</w>
sh are</w>
me et</w>
an trag</w>
Com p
al ong</w>
I T</w>
O N
agre ed</w>
ac ross</w>
invol ved</w>
Ges am
N etz
bil dung</w>
us es</w>
up on</w>
ma il</w>
En gli
stat t
fri end
ben ö
pre p
min im
deci sions</w>
p ast</w>
con sequ
Ar ticle</w>
kon kre
ni chts</w>
Di en
s ab
bu s</w>
loo king</w>
P unkt</w>
H ö
Menschen rechte</w>
fü r
be hin
hel d</w>
we der</w>
ec e</w>
gr ation</w>
di st
2 2
lä tz
lo k
ob wohl</w>
7 0</w>
ün sti
I ra
gesam t</w>
ide al</w>
initi ative</w>
zo gen</w>
ti veness</w>
ko sten
kin d</w>
S al
langu age</w>
hal te</w>
ing ly</w>
Kö ni
poten tial</w>
k ar
äch st</w>
e asi
wer de</w>
com bin
break fast</w>
ma xim
pro mis
pro chen</w>
work ers</w>
b ark
Bes u
ti sche</w>
r ing
lon ger</w>
er fül
U kra
F äl
s po
e uro</w>
B ra
si eren</w>
ge ts</w>
establish ed</w>
ati sti
inter ests</w>
Z us
B li
ac ts</w>
mo un
b ra
m ing</w>
de termin
Möglich keiten</w>
Bei trag</w>
it ali
av o
Ab stimmung</w>
tu rel
ass er</w>
U N</w>
des cri
zun ächst</w>
Ges etz
ins gesamt</w>
bet eili
as soci
si a</w>
blei ben</w>
st ation</w>
stand ard</w>
stru ktur
er hö
fo reign</w>
internation ale</w>
ch s
De velop
freed om</w>
ant ly</w>
sion s
N ä
nat ure</w>
S in
g ische</w>
Gemein schafts
ro w</w>
St ad
integr ation</w>
Pri or
ass ess
acti v
ren ch</w>
Be wer
a di
ni en</w>
them selves</w>
be sten</w>
fi ve</w>
Ein zel
s wi
Forsch ung</w>
beauti ful</w>
em is
geb ung</w>
objec tive</w>
sch ul
gesam ten</w>
ne l</w>
pp ed</w>
Pro to
kom p
gemein sam</w>
st ly</w>
fre u
An gebo
bal d</w>
kre ich</w>
Umwel t</w>
v a</w>
S ol
einzel nen</w>
m ut
at trac
requ est</w>
gestimm t</w>
an a</w>
A c
tre at
agre ements</w>
m il
ges etz
h äl
communic ation</w>
. e
ri st
vel s</w>
c ar</w>
Ben utz
ben utz
ber eit</w>
democ racy</w>
Vereini gten</w>
Initi ative</w>
20 0</w>
v o</w>
stauran ts</w>
EI B</w>
I tal
se en</w>
Mu si
to ok</w>
p an
ent er</w>
Re public</w>
vot ed</w>
W TO</w>
gr at
ver stär
a vi
ac y</w>
comm er
Fran kreich</w>
Jahr hunder
facili ties</w>
angesi chts</w>
g as</w>
consu mers</w>
Ho ch
partn ers</w>
b order</w>
com b
Ges chi
se par
To ur
throu gh
ati s
F rench</w>
5 00</w>
un a</w>
a im</w>
g in</w>
tain ed</w>
si tz</w>
k s
N o
fin al</w>
f onds</w>
democ ratic</w>
Kom p
fam ili
sch utz
em er
r .</w>
pa y</w>
notwendi g</w>
Geri cht
ri chtungen</w>
tw eit</w>
su mm
glau be</w>
E G</w>
W ähr
di gen</w>
sh of</w>
Ergeb nisse</w>
schließ en</w>
wi ll
Demokrati e</w>
inst all
Institu tionen</w>
ab les</w>
ver stän
g ungs
consi der</w>
Justi ce</w>
Mitglie der</w>
f est</w>
even ts</w>
Pro gramm
wel tweit</w>
ser ve</w>
dan ken</w>
d on
sp ace</w>
e ch
per son</w>
ww w
schn ell</w>
st ate
Stru ktur
vor zu
1 9</w>
re ly</w>
e arly</w>
Verantwor tung</w>
n ed</w>
so on</w>
B ro
St re
de mon
et te</w>
verwen det</w>
situ ated</w>
c aus
sei ts</w>
stan den</w>
prü fen</w>
F eh
för dern</w>
st et</w>
Inform ations
h ot
he art</w>
m ern</w>
op tim
P f
ständi gen</w>
A G</w>
Ital y</w>
K at
R at
Sch affung</w>
j obs</w>
T ä
app ly</w>
ta kes</w>
C as
Gener al</w>
5 .
bekan nt</w>
je des</w>
al most</w>
li k
jo int</w>
hö ch
t liche</w>
c la
in te
le ad</w>
ke ep</w>
weiter en</w>
cor rec
Dis k
ne g
sm us</w>
di alogue</w>
m es</w>
enn ung</w>
sicher heit</w>
fall en</w>
S ti
P lan
N ieder
partn er</w>
z one</w>
ak zep
c ateg
ver antwor
Verbrau cher</w>
Investi tionen</w>
ne ar</w>
fü h
vi ces</w>
Richt ung</w>
Off ice</w>
P rü
ä d
con om
dar um</w>
S or
en lar
effec t</w>
f ran
ch e
c op
ev ent</w>
re staurant</w>
funda mental</w>
through out</w>
ni ght</w>
wi l
gu ests</w>
tä ts
je de</w>
design ed</w>
s eh
Sp ain</w>
T H
bed ingungen</w>
Be kämpfung</w>
le b
p ment</w>
Develop ment</w>
2 1</w>
grei fen</w>
Re publik</w>
t i</w>
a gi
benef it</w>
entwick elt</w>
ermögli cht</w>
ter ror
sch t</w>
mb H</w>
gen u
amoun t</w>
pri ority</w>
www .
zu dem</w>
lan ge</w>
E conom
hin sichtlich</w>
verbesser n</w>
ac ity</w>
en ough</w>
relev ant</w>
D ank</w>
Land wirtschaft</w>
verschieden e</w>
sieh t</w>
K ommission
Govern ment</w>
glei chen</w>
ei ther</w>
ti vely</w>
h on
S pe
off en
E M
in fra
D ar
lu s</w>
t est</w>
4 .
co ver</w>
R A
Lu ft
st adt</w>
Energi e
Wachst um</w>
da durch</w>
Bul g
bi g</w>
mo di
la un
f air</w>
j eni
im medi
emp ha
vel op</w>
tr au
t ory</w>
deci ded</w>
K ur
fe el</w>
tr a</w>
Sch ritt</w>
spe ak
W asser
Über ein
entschei den
un abhängi
N et
hel fen</w>
ges ellschaft</w>
Ge f
ger ä
regar ding</w>
zi el
cre ated</w>
min d</w>
friend ly</w>
gegen wär
s atis
de velop</w>
ger ungen</w>
M inu
ell ing</w>
an genommen</w>
häl tn
fun ktion
ru n</w>
V iel
hist ory</w>
Ergeb nis</w>
promo te</w>
cent ury</w>
lat er</w>
spiel en</w>
sch wieri
wes en</w>
an o</w>
kno wledge</w>
pop ulation</w>
extre m
Bevölk erung</w>
p ages</w>
I M
con ven
ga b</w>
0 ,
sch utz</w>
materi al</w>
agri cultural</w>
O c
tre ffen</w>
Portu gal</w>
Win dows</w>
wichti gsten</w>
G mbH</w>
Hand els
A P</w>
Inform ation</w>
ment ary</w>
g ations</w>
out side</w>
Ges ch
de p
ent sp
lä ssi
ne ver</w>
sta ge</w>
L on
maj ority</w>
r und</w>
K oh
sh ed</w>
R uss
gen ie
f unding</w>
K amp
g oods</w>
ge stal
t är
Ein k
ord ini
we den</w>
fol low</w>
b on</w>
g ungen</w>
ex change</w>
s st</w>
bo ard</w>
le ading</w>
f s
succ ess</w>
an nu
sp or
D E</w>
sour c
sch ö
m al
commit ment</w>
Mit arbei
Tur key</w>
Angele genheiten</w>
2 7</w>
Ukra ine</w>
201 3</w>
Kon trolle</w>
par ts</w>
Wis sen
f rie
Z w
Lux em
er ed</w>
ri ch</w>
fer ner</w>
Gesund heits
schein t</w>
Er zeu
le vels</w>
zuneh men</w>
o ft</w>
eb ru
Jah res</w>
lin ks</w>
Deb atte</w>
g ei
ständi ge</w>
S am
pra kti
Wettbewer b</w>
sp rä
ref lec
re p
Ge or
I de
Änderungs ant
ci ples</w>
kl einen</w>
sour ce</w>
ke i</w>
än de</w>
li ving</w>
su per
T ri
Rechts vorschriften</w>
Bestimm ungen</w>
inclu ded</w>
Beschäf tigung</w>
rei che</w>
ter rit
ic s</w>
W il
Li ste</w>
Ma il</w>
19 7
every thing</w>
ein schließlich</w>
An wen
cap acity</w>
Gesund heit</w>
s ent</w>
re main</w>
tats ächlich</w>
ar ing</w>
sub si
b au
increas ed</w>
du res</w>
K rie
re ach</w>
st ep
f lu
schri ft
recei ve</w>
be w
Erweiter ung</w>
F ebru
c amp
Jap an</w>
Nä he</w>
te am</w>
ag er</w>
con fir
trä ge</w>
Re staurant</w>
typ e</w>
F ühr
bark eit</w>
wichti gen</w>
us ers</w>
sam keit</w>
än dern</w>
D ol
K or
k er
am es</w>
Isra el</w>
pl ann
ges prochen</w>
in ation</w>
use um</w>
lo se</w>
S an
ar ri
et c</w>
ot s</w>
än dert</w>
ho ffe</w>
Integr ation</w>
mehr ere</w>
geri chtet</w>
betre ff
Kol leg
Aussch uss</w>
ge eig
ä lt</w>
F er
sci enti
li cht</w>
gef ähr
cher weise</w>
sch ön
Tür kei</w>
w at
wo bei</w>
com fortable</w>
fo re
off i
foc us</w>
ah n</w>
er seits</w>
K rise</w>
h atten</w>
ch ern</w>
Par is</w>
Nutz ung</w>
boo k</w>
extrem ely</w>
gan genen</w>
prac tice</w>
h ard</w>
proce dures</w>
Mo d
ver ur
me t</w>
st elle</w>
re a</w>
perform ance</w>
limit ed</w>
d ele
Projek t</w>
pack age</w>
bu tion</w>
tru e</w>
ta g</w>
E l
ss el</w>
ter ran
p e</w>
s la
P at
g a</w>
H af
conf lic
in en</w>
Li ber
fort un
ri gen</w>
Han del</w>
kan ischen</w>
gri ff</w>
äu ßer
199 8</w>
Pre is</w>
acc ord
civi l</w>
st ern</w>
jeni gen</w>
9 0</w>
te m</w>
provi sions</w>
high er</w>
ro ati
F ri
be hör
Jun e</w>
som it</w>
A gre
P rin
prin ciples</w>
c ru
guaran tee</w>
Herr en</w>
si dent
verfü gt</w>
Ver einbar
Projek te</w>
gehör en</w>
sen d</w>
gan gen</w>
v in
Geschi chte</w>
st a</w>
than ks</w>
tion ing</w>
ch eck</w>
inclu des</w>
verk ehr</w>
comm unity</w>
G ele
G leich
weni g</w>
ex ternal</w>
ander er</w>
sor gen</w>
fi ght</w>
y si
C hr
h tt
s sel
ck ing</w>
th ern</w>
is ches</w>
g ers</w>
Em pfeh
H om
2 2</w>
men d</w>
li ance</w>
pre par
construc tion</w>
is en</w>
si bili
tu al</w>
c at
S outh</w>
ber g</w>
R au
sur ro
ne u</w>
treat ment</w>
sp i
ch oo
bi r
ba sic</w>
Industri e</w>
bel ow</w>
redu ce</w>
c are
ermögli chen</w>
be finden</w>
enth ält</w>
gewähr leisten</w>
gen der</w>
Pu bli
bet ro
H a
und es
kom mens</w>
g ur
genann ten</w>
A ktiv
ali sation</w>
ri chten</w>
is ing</w>
we ek
ar in</w>
F lü
consu mer</w>
sozi ale</w>
syst em
lei der</w>
mini ster</w>
öffent liche</w>
den ts</w>
blei bt</w>
Ameri can</w>
uni que</w>
pr ise</w>
zi ert</w>
z .
s ag
Erklär ung</w>
ac comm
conc ern</w>
ab zu
Ver sion</w>
j äh
Lis bon</w>
supp ly</w>
wer k</w>
Ver wendung</w>
a da
D I
A T</w>
opport unities</w>
W al
s em
buil t</w>
mo bili
mu sic</w>
Arbeitsp lätz
pre h
B re
F ern
z en
j un
Auf gabe</w>
über sch
actu ally</w>
organis ation</w>
men tioned</w>
ch em
an ish</w>
S at
le gung</w>
s m</w>
K enntn
f al
ti v</w>
b ly</w>
hä tte</w>
o se</w>
lä sst</w>
kon nte</w>
sieh e</w>
K am
ati v</w>
T he
war um</w>
cre ation</w>
Z ei
partn er
fol ge</w>
m as
dem and</w>
manufac tur
industri al</w>
P a
Su b
Mitgli ed</w>
in tel
Erfol g</w>
demon str
uni on</w>
Ein satz</w>
achie ved</w>
stat tet</w>
Ih rem</w>
Ein führung</w>
G lob
bestimm te</w>
Ant wort</w>
Öff ent
suff ici
f s</w>
schaft lichen</w>
Lis sab
je dem</w>
Qu ali
fün f</w>
Itali en</w>
ür z
present ed</w>
Tat sache</w>
cli ck</w>
S el
ver bin
recei ved</w>
h ous
wen den</w>
Regi on
B ur
re stric
htt p</w>
Aus druck</w>
ei gent
un ds</w>
P e
Jun i</w>
plat z</w>
ast ro
tei en</w>
equi pment</w>
mili tary</w>
port ing</w>
M et
it ing</w>
ab led</w>
provi ding</w>
ung sp
c ross</w>
reco gni
rä u
u ally</w>
connec tion</w>
K ri
li gh
M as
D amen</w>
con stitu
rec ently</w>
bes u
contribu tion</w>
ep tion</w>
be deut
Mit teilung</w>
ge ments</w>
Al l
Ver kehrs
a den</w>
we ek</w>
cent er</w>
do ing</w>
Stell ung
profession al</w>
gli che</w>
k or
col le
tradi tional</w>
ad ded</w>
Con vention</w>
kl eine</w>
ser ved</w>
innov ative</w>
b l
C u
bis her</w>
ss es</w>
ide a</w>
el ess</w>
h äu
Woh n
Ameri ca</w>
k i</w>
w ahl</w>
carri ed</w>
el ten</w>
Ver f
enth alten</w>
l d
di gung</w>
re ports</w>
pf lich
inter net</w>
20 20</w>
man n</w>
tra ff
Partn er</w>
J oh
vol le</w>
rele ase</w>
er c
men ten</w>
increas ing</w>
an no
Berichterstat ter</w>
ru hi
f rü
su m
sen den</w>
c ard</w>
lang fris
er inn
li ert</w>
under stand</w>
E ff
am a</w>
be ach</w>
sourc en</w>
mi gration</w>
ver hin
gen t</w>
I L
bei tragen</w>
ph ot
Bet eili
Bil dung</w>
m als</w>
tig ungs
t ent</w>
al lows</w>
for dern</w>
proc ess
set ting</w>
Lon don</w>
gar anti
f lä
accep t</w>
ve hi
Kon zep
dra ft</w>
ad d</w>
feat ures</w>
n s</w>
geh end</w>
Komm unik
lan gen</w>
Mi ch
b illion</w>
Wei ter
ne w
E ast</w>
er le
4 5</w>
er lau
Lan des</w>
A gr
consider ed</w>
Bar cel
des p
par ty</w>
ste ad</w>
Regi erungen</w>
x ed</w>
jo b</w>
effici ent</w>
Z ahl</w>
De z
ver ti
en or
bal ance</w>
vi r
s mo
Dec ember</w>
B undes
z. B.</w>
success ful</w>
me an
certain ly</w>
defin i
B us
K ir
S an</w>
c riteri
E ra
3 0
applic ations</w>
respon se</w>
ke y
guaran te
h or
annu al</w>
Unter su
Sp anien</w>
Re form</w>
Di alog</w>
st ability</w>
H ung
we b</w>
w ed</w>
effec ts</w>
be züglich</w>
G rie
re view</w>
heri es</w>
ein g</w>
K rank
inte gri
Re cht
re ich</w>
reas ons</w>
ru s</w>
reli gi
qui ck
g ol
Z entrum</w>
pur ch
z z
re turn</w>
B rü
ch ter</w>
fam ous</w>
ho urs</w>
D en
s ett
wei s</w>
Cent ral</w>
prev ent</w>
enlar gement</w>
progra m</w>
Minu ten</w>
Früh st
ver einbar
Ver bindung</w>
e e</w>
c am
ti ger</w>
3 5</w>
199 7</w>
pro mot
l ation</w>
d or
201 1</w>
C D</w>
speci ali
Not wendi
en able</w>
2 3</w>
Vor aus
an ischen</w>
st or
z er</w>
sch le
se ts</w>
Au g
ha ps</w>
Auff assung</w>
ati c</w>
2 9
com preh
sätz e</w>
Mini ster
in stead</w>
re ad</w>
nation ale</w>
Z im
le h
g ül
sch es</w>
valu es</w>
per haps</w>
ei en</w>
Ir an</w>
a ware</w>
auf zu
S E</w>
wä l
Afri ca</w>
Russ land</w>
Bli ck</w>
d est</w>
do m</w>
bi an</w>
äh n
ver öffent
bestimm ten</w>
si ze</w>
kul turel
pl ant</w>
syst eme</w>
ut y</w>
custom er</w>
Dez ember</w>
grund le
form er</w>
g t
dd le</w>
Bem üh
govern ments</w>
de ten</w>
I ON</w>
wur f</w>
le gi
St är
be stä
On line</w>
is on</w>
wäh len</w>
P an
de si
ei gen
in ge</w>
aspec ts</w>
Par k</w>
län di
In n
Agre ement</w>
j ün
So li
sel ec
L eit
cho ice</w>
back ground</w>
ver pflich
E W
mo del</w>
inten si
fi k
b a</w>
Hinter grund</w>
no thing</w>
p le</w>
ür f
über zeu
l auf
ren e
Ener gie</w>
rit ts
lab our</w>
Lös ungen</w>
cover ed</w>
comp et
m es
j ähr
d aten</w>
lat est</w>
con duc
Organis ation</w>
er wäh
O ber
t oren</w>
stell ungen</w>
n a</w>
co de</w>
inf lu
ra di
deta ils</w>
d ates</w>
M il
Them en</w>
d liche</w>
S en
ko sten</w>
är en</w>
Gr enz
europ a
U R
e chti
so ft</w>
be stehen</w>
c as
re mo
In fra
reach ed</w>
origin al</w>
challen ges</w>
t lichen</w>
Z wei
A f
g ste</w>
M al</w>
am s</w>
setz ungen</w>
sek tor</w>
fil es</w>
n it
lu x
tel y</w>
ar d
t sp
desp ite</w>
en ed</w>
entwick eln</w>
häu fi
Bemüh ungen</w>
verb unden</w>
zus etzen</w>
Econom ic</w>
H um
e vi
Gi pf
Ver anstal
h of</w>
la g
an ten</w>
selb st
fol genden</w>
P C</w>
E F
sub mitted</w>
tim men</w>
F ar
Ko so
verfü g
over all</w>
Ge wal
saf e</w>
rema ins</w>
t ol
par k</w>
it able</w>
er e
mom ent</w>
M ot
F und</w>
dy nam
r un
l y
hand eln</w>
o u</w>
tro tz</w>
perf ect</w>
Aug ust</w>
serv ation</w>
G eld</w>
ar ran
Mitgliedsta at</w>
Änder ungen</w>
hin zu
Lissab on</w>
einf a
sk i</w>
ele gan
Ni cht
olo gical</w>
previ ous</w>
ck e</w>
tradi tion
streng th
elec tri
ges ell
b auen</w>
Notwendi gkeit</w>
nu clear</w>
Bel gi
neu er</w>
li er</w>
Gele genheit</w>
si mi
o .</w>
stell er</w>
Sch wei
disc uss
Kon fli
den ke</w>
comm ittee</w>
Gericht shof</w>
O k
pre ci
bie te</w>
ha f
sti c</w>
innov ation</w>
Reg ulation</w>
F eder
o il</w>
Aussch usses</w>
benef its</w>
mäßi g</w>
m ise</w>
instru ments</w>
recom mend
accomm od
U K</w>
step s</w>
Kommiss arin</w>
rou ght</w>
organis ations</w>
colle ag
zeh n</w>
x is</w>
w under
F ach
commer cial</w>
re chts
Tag es
I D
er sch
Engli sh</w>
po pu
europä ischer</w>
er zeu
Drit t
ge k
sec tors</w>
st eri
Man agement</w>
e valu
frei en</w>
M än
as ked</w>
lo ss</w>
2 5
Öffent lichkeit</w>
Plat z</w>
e y
m ein</w>
terran ean</w>
do or</w>
Nat ur
zur ück</w>
F ot
t ari
sho ws</w>
hr en</w>
an te</w>
ti ven</w>
A ra
Zeit punkt</w>
writ ing</w>
be zieh
u es</w>
boo k
et ary</w>
3 5
Barcel ona</w>
hei ßt</w>
Kul tur
ti sh</w>
medi um</w>
sto p</w>
finan cing</w>
Vol ks
H am
ü bri
anno un
p un
Austri a</w>
fis hing</w>
m em
Kolleg innen</w>
dou ble</w>
richti g</w>
Inter essen</w>
unser es</w>
pur su
St at
p al
N ational</w>
sch ätz
w inn
M ad
pos sibility</w>
r at</w>
fun den</w>
Tran spar
mo vement</w>
Proto kol
di enen</w>
Pro f
acc ession</w>
comple tely</w>
Ur lau
Gre ece</w>
f ru
ser ies</w>
Ma i</w>
every one</w>
ger ne</w>
mat ters</w>
ver letz
wal k</w>
men sion</w>
Kul tur</w>
be kommen</w>
Ber at
con ference</w>
ein heit
Beh and
ach es</w>
fron t</w>
w ise</w>
Z entr
ra ce</w>
mo bile</w>
Rah men
wa ste</w>
zah len</w>
An aly
Agr ar
Kap it
fran zö
er ster</w>
Durch führung</w>
h ung</w>
stru ktur</w>
quick ly</w>
wei ß</w>
sam m
Forsch ungs
L a</w>
eff ek
arch it
simp le</w>
fur ther
D P</w>
ni ce</w>
ant i</w>
g ame</w>
choo se</w>
Grie chen
nach dem</w>
B ar</w>
spezi f
S h
f eld</w>
ple as
Inv est
ni ed
beginn ing</w>
ss em
fre i</w>
ap poin
bil ater
2 8</w>
tra vel</w>
F a
it es</w>
gen au
sen se</w>
stat us</w>
legisl ative</w>
m us
Hö he</w>
schließ end</w>
Änderungsant räge</w>
de te</w>
wan n</w>
con tains</w>
riteri en</w>
sti e
E T
199 6</w>
high ly</w>
ver tre
Finanzi erung</w>
Auf enth
3 00</w>
h es</w>
si x</w>
gesch i
exp ected</w>
los sen
Kommission s
........ ........
reg ards</w>
m einen</w>
g ünsti
u ß</w>
Grün den</w>
Medi terranean</w>
t ritt</w>
t le</w>
o cc
an gebo
äu ß
sch lä
fol gerungen</w>
c les</w>
Schl uss
sec on
enti re</w>
We b</w>
il ed</w>
S P
equi pped</w>
Entschließ ung</w>
pri m
simi lar</w>
fortun ately</w>
tain ing</w>
off ice</w>
ho ben</w>
hau p
amend ment</w>
Regel n</w>
Fischer ei
Koso vo</w>
agen da</w>
Mar ch</w>
6 .
Änderungs antrag</w>
zwei ten</w>
S um
ri eb
Abgeord neten</w>
si sche</w>
bei de</w>
ff enen</w>
holi day</w>
indepen dent</w>
nei gh
protec t</w>
Konta kt</w>
A M
conclu sions</w>
ru le</w>
N o</w>
infra structure</w>
contribu te</w>
ba si
pur pose</w>
verfü gen</w>
ab solu
K u
D ele
C a
E G
ho hen</w>
pro mise</w>
Am ster
Verpfli chtungen</w>
D o
durch geführt</w>
A P
zahl reiche</w>
Ma ß
re land</w>
Tex t</w>
sup ported</w>
gel ten</w>
spru ch</w>
ti mi
b ad</w>
criteri a</w>
pri orities</w>
bili tät</w>
Kon ferenz</w>
on nen</w>
Fo reign</w>
an ge</w>
Binnen markt</w>
E D</w>
sident schaft</w>
k ap
spä ter</w>
Gesam t
del ines</w>
Ma y</w>
ra h
Ar bei
bes chäf
c ou
hot els</w>
activ ity</w>
stim men</w>
ss ed</w>
b it</w>
Ter ror
monit oring</w>
ch sel
I reland</w>
ver ab
cle an</w>
zent ri
st ar</w>
groß er</w>
ill a</w>
fun ction</w>
Ber u
ord n
Schl ussel
Poli cy</w>
disc ussion</w>
gan zen</w>
ba th
m y
Soli dar
Sec re
An fang</w>
ei gene</w>
O S</w>
gt ;</w>
& gt;</w>
verstän dlich</w>
ri eben</w>
201 2</w>
ges p
gel an
in i</w>
e .
Proz ess</w>
so und</w>
further more</w>
mo re
ab ge
con ver
Berei che</w>
let ter</w>
oc cu
la den</w>
reduc tion</w>
verwen den</w>
at ure</w>
s ent
exp lo
busin esses</w>
bour g</w>
aus ch</w>
er enden</w>
l ing
vor han
ur i
wh ose</w>
re in
le di
char ge</w>
T ele
In st
ussel s</w>
be vor</w>
Geb äu
lo g
Entschei dungen</w>
tro ll
Re chn
zeu ge</w>
V en
Mär z</w>
M ul
me an</w>
disp la
ac qu
transpar ency</w>
y l
ni e</w>
Mon aten</w>
sibili ties</w>
s ou
l te</w>
Oc tober</w>
Beihil fen</w>
er kan
Kre di
Wo che</w>
W ert</w>
en gen</w>
wi der
cre ating</w>
sor gung</w>
sty le</w>
re gu
den s</w>
I N</w>
möglich keiten</w>
di ent</w>
Sch wer
integr ated</w>
effici ency</w>
M ic
Pre ise</w>
reib ung</w>
stu dy</w>
Me tho
Br ussels</w>
er ter</w>
is se</w>
zwei te</w>
tr auen</w>
k it
Angebo t</w>
em pf
re si
sh or
B usin
star k</w>
An forderungen</w>
di e
Ö ster
materi als</w>
ledi glich</w>
ast ern</w>
pas sen
prac tic
wir ken</w>
comp uter</w>
L auf
st atisti
ati v
k a
7 5</w>
m eines</w>
distri bution</w>
en di
we g</w>
Mi o.</w>
ver age</w>
presen ts</w>
fol gt</w>
Mat eri
sag te</w>
person s</w>
d .</w>
ima ge</w>
gi e
199 5</w>
s al
s el</w>
more over</w>
Ei gen
cre dit</w>
sp ac
stric t</w>
dis crimin
shi ps</w>
m m</w>
ein deu
pa yment</w>
kon zentri
b rought</w>
n or</w>
ent de
K a
ari es</w>
Spe zi
ec k
R ot
ve ments</w>
jo ur
B ü
d rit
den noch</w>
b ür
Janu ary</w>
at mosp
ri cht
S ter
docu ment</w>
O per
C ap
Vertre ter</w>
se ems</w>
vo c
hal ten
gan ze</w>
implemen ted</w>
Syst ems</w>
W ahr
ori en</w>
con grat
an z</w>
Wettbewerbs fähigkeit</w>
P lan</w>
b ase</w>
19 6
S omm
ac ks</w>
elec tron
ar gu
plac ed</w>
, 000</w>
clo sed</w>
s ex
tä ten</w>
ber s</w>
Aktiv itäten</w>
plac es</w>
An zahl</w>
br ingt</w>
imple ment</w>
St äd
congrat ul
ho he</w>
F ak
genie ßen</w>
A dre
er weiter
R aum</w>
ill s</w>
ec u
zi eren</w>
stell ten</w>
prep ared</w>
call s</w>
publi shed</w>
gesam te</w>
t op
zei chnung</w>
A S</w>
ade qu
can di
ge m</w>
sho wn</w>
Heraus forderungen</w>
appro ved</w>
c um
G eh
pl ans</w>
der zei
A pp
assess ment</w>
Ju ly</w>
au di
s cre
ver gangenen</w>
si t
West ern</w>
A ktion
K ra
comple x</w>
re forms</w>
Agen da</w>
lin k</w>
l ück
behin d</w>
c las
po ver
gi ves</w>
ü b
struc tural</w>
St unden</w>
ih res</w>
ver se</w>
compreh ensive</w>
R a
N ationen</w>
f air
öff net</w>
ter in</w>
dra w</w>
a cht
pres sure</w>
Transpar enz</w>
De sign</w>
k lu
Af gh
hu ge</w>
wichti ger</w>
initi atives</w>
ge tary</w>
w ander
ul i</w>
E st
gu ten</w>
I n</w>
i sts</w>
H el
2 6</w>
writ ten</w>
mit gli
lar gest</w>
kon trol
di se
dig ital</w>
eff ort</w>
angem essen
T ro
st an</w>
pl om
app lied</w>
tig keiten</w>
h äre</w>
F le
ab kommen</w>
völ lig</w>
produc ed</w>
ph ysi
streng ungen</w>
. h
re sol
Über wach
Ok tober</w>
p aid</w>
on t</w>
ein gesch
k at
Ver ein
proper ty</w>
zei chn
Priv at
dis ku
ans wer</w>
an g
proz ess</w>
n ö
k an</w>
direc tion</w>
V o
impro ving</w>
ent ed</w>
Kenntn is</w>
F eri
docu ments</w>
al ing</w>
un e</w>
Mitarbei ter</w>
offi cial</w>
größ ten</w>
vorgesch la
verab schie
emplo ye
analy sis</w>
competi tive</w>
Itali an</w>
sch wer
nah m</w>
ol l
leist et</w>
sch ütz
Produ ktion</w>
C re
7 .
erneu t</w>
k eits
a men
kli cken</w>
Mehr heit</w>
T age</w>
establi sh</w>
requ ire</w>
k i
K ern
att emp
enn t</w>
Gener al
A G
N ation
Y or
po st
as su
Aus wahl</w>
prü ft</w>
A p
Stand punkt</w>
Amster dam</w>
D V
rel ation
reas on
ge funden</w>
y ond</w>
minim um</w>
Bri tish</w>
Ho st
soli dar
ne tz
f alt</w>
Stellung nahme</w>
gu est</w>
Par teien</w>
ver wal
för dert</w>
administr ative</w>
c ell
elek tron
Innov ation</w>
D F</w>
ver treten</w>
Än derung</w>
ti li
pro jek
stell te</w>
spe ed</w>
wei s
besch rän
on y</w>
ob vi
sol chen</w>
T ab
besser e</w>
rel ation</w>
Griechen land</w>
ein gesetzt</w>
T im
Erfahr ung</w>
Poli tik
oper ating</w>
geneh mi
te i</w>
Fol gen</w>
Bil d</w>
p ul
fi el
So cial</w>
ap i
l ate</w>
un mittel
erk ennen</w>
re pe
ter i
Fäl len</w>
Stu di
Per son</w>
geb aut</w>
sign ed</w>
vi deo</w>
Verbrau cher
buil d</w>
Organis ationen</w>
L eu
part ment</w>
K raft</w>
O st
requi res</w>
T it
Sch la
sch luss</w>
Nor th</w>
Er n
regul ations</w>
fre qu
equ al</w>
ve au</w>
pos t</w>
v an</w>
W ort</w>
f lü
E ini
sel y</w>
auf genommen</w>
gn is</w>
st ausch</w>
b ran
Regel ung</w>
sei te</w>
A K
fol gende</w>
te sten</w>
technolo gies</w>
lea ve</w>
K ing
stan ces</w>
m är
lo wer</w>
fas sen</w>
accord ance</w>
si des</w>
pover ty</w>
Kamp f</w>
bal an
all ein</w>
stand s</w>
re views</w>
be yond</w>
Uni versi
M y
Janu ar</w>
ge wis
As soci
scienti fic</w>
äußer st</w>
Wir k
Ser ver</w>
eh em
Nach bar
suffici ent</w>
k am</w>
br ing
Sch utz
opp ing</w>
spr ün
Famili e</w>
St o
ele ments</w>
2 3
comp on
opp el
grow ing</w>
einf ach
altern ative</w>
pos es</w>
H and</w>
W asser</w>
W ahl</w>
hi bi
to ols</w>
se ek
mu t</w>
J uli</w>
kur z</w>
Sp anish</w>
st ung</w>
zi p</w>
ser ver</w>
th y</w>
R ec
competi tiveness</w>
wer s</w>
L es
rie b</w>
wei st</w>
E is
entsprech enden</w>
V is
V al
s äm
ó n</w>
ander em</w>
Pre is
p ing</w>
W erk
Gr enzen</w>
por ate</w>
Te am</w>
Sp ei
en ding</w>
C ity</w>
Ch rist
ge tro
Präsiden ten</w>
le y</w>
li eb
easi ly</w>
un fortunately</w>
t ou
ban ks</w>
e te</w>
stän de</w>
summ er</w>
S onder
An satz</w>
as sen</w>
produ ce</w>
S wi
lik ely</w>
ens uring</w>
kur z
Spra che</w>
E mis
An strengungen</w>
bew us
flo or</w>
kan n
gew öh
gen ce</w>
ph one</w>
ni em
erzi elt</w>
Zeit raum</w>
Verwal tungs
par lia
berücksichti gt</w>
C i
Mic ro
zu führen</w>
pr ises</w>
er ous</w>
bet rä
Vor sitz
kri mini
pa y
C ha
bi a</w>
ek t</w>
ari ly</w>
key word</w>
state ment</w>
2 ,
größ te</w>
fil m</w>
L ab
s us
pro b
popu lar</w>
m and
particip ation</w>
emis sions</w>
D es
H oh
Te chni
h eb
inter pre
li ge</w>
avo id</w>
P ot
C am
cur ren
L inu
B ot
sho p</w>
C ze
.e u</w>
St elle</w>
Ver tei
r ural</w>
ä st
ur ance</w>
ver stehen</w>
bi o
wi esen</w>
geh ö
por ary</w>
facili t
d an</w>
T sch
entsprech end</w>
accommod ation</w>
b and</w>
Gef ahr</w>
instru ment</w>
An nahme</w>
b ahn
Res sourcen</w>
institu tion
Pol and</w>
le gt</w>
gra phi
verpflich tet</w>
c ement</w>
Brü ssel</w>
Gewal t</w>
streng then</w>
agri culture</w>
Ri ghts</w>
us sions</w>
fest gelegt</w>
viol ence</w>
fas st</w>
Mittel me
lat er
n ommen</w>
no ti
Po sition</w>
al lowed</w>
sat z
Sch lü
en se</w>
Fran k
Verwal tung</w>
elec tions</w>
Sel b
P hi
S A</w>
conflic t</w>
ell a</w>
wer t
S c
D ER</w>
v ent
staat lichen</w>
8 .
star ted</w>
besch lossen</w>
H y
be sitz
exp la
en a</w>
D om
ver suchen</w>
Aut om
ver l
lie genden</w>
u l</w>
ill ed</w>
I F
man ent</w>
gen utz
ck er</w>
olo gy</w>
S ing
Sch ritte</w>
sta aten</w>
b all</w>
air port</w>
m einem</w>
gi ving</w>
re ference</w>
il legal</w>
p ati
Sch wieri
ju d
auth or
in en
strate gic</w>
ab sol
vi er
wi d
gesch affen</w>
F ähi
Secre tary</w>
Bu d
W est</w>
allgem einen</w>
ori c</w>
Programm s</w>
is ation</w>
sta g</w>
grupp e</w>
sc ope</w>
Ser vices</w>
aim s</w>
re siden
ur sprün
K op
lich ung</w>
s cri
men sch
En ter
co he
P unkte</w>
di tion</w>
categ ories</w>
z in
Zentr al
st ens</w>
Vertra gs
op tion</w>
inf rin
spe ak</w>
O M
ic k</w>
Wah l
wer te</w>
rel ating</w>
f ts
änder ungen</w>
Auf merk
sen si
tar get</w>
drück lich</w>
2 4
cru cial</w>
gi gen</w>
hol d</w>
institu tional</w>
se chs</w>
kon nten</w>
3 1</w>
lei cht</w>
ir gend
techn ischen</w>
represent atives</w>
um s
Milli ar
wür di
qu ar
bu ff
Fun ktion</w>
Gel d
inter ess
conc entr
Ju gend
ge ogra
o ther
Ger ä
ser i
ck et</w>
ri ge</w>
nis sen</w>
ob il
Bed ürf
Aspek te</w>
Arbeit nehmer</w>
Medi en</w>
Re formen</w>
pro fi
Busin ess</w>
einzi ge</w>
th ous
mp tion</w>
open ing</w>
t al</w>
prac tical</w>
Me er</w>
Um gebung</w>
Al b
ehem ali
vol len</w>
wei ten</w>
z ing</w>
ges sen</w>
stoff e</w>
hervor ra
die jenigen</w>
O pf
si en</w>
vor gelegt</w>
accep table</w>
dam age</w>
De bian</w>
Con ference</w>
wei t
ch ing</w>
wün schen</w>
Her zen</w>
kl ar
cre di
t au
2 9</w>
Aufmerk samkeit</w>
adop tion</w>
län g
se kre
speci fic
humanit arian</w>
Nat ur</w>
ci a</w>
er gän
p lus</w>
eh er</w>
O ri
or g</w>
atmosp here</w>
i erung</w>
Sin ne</w>
u t</w>
King dom</w>
empha si
sch ool</w>
Ein richtung</w>
Behand lung</w>
Linu x</w>
impro ved</w>
st ark
ber t</w>
schrift lich</w>
l ten</w>
typ es</w>
TH E</w>
Hot el
L at
ex tra</w>
techn ische</w>
maxim um</w>
ch em</w>
ob en</w>
krä f
H aus
O S
Stad t
gri ffen</w>
führ te</w>
Gä ste
advan tage</w>
g yp
R O</w>
to ol</w>
for ces</w>
l us
be stehenden</w>
B as
Cent re</w>
ple ased</w>
jewei ligen</w>
ci ties</w>
Sec urity</w>
partner ship</w>
region alen</w>
lab or
es si
fi z
st able</w>
Ne ther
Köni greich</w>
aff ected</w>
re chts</w>
s th
Frei heit</w>
tra g
develop ments</w>
prä sen
far mers</w>
Bür gern</w>
fahr t</w>
Mark et</w>
Lin ie</w>
off izi
a war
trans fer</w>
apart ment</w>
O F</w>
vorgesch lagen</w>
B lu
außer halb</w>
v ali
aim ed</w>
k ro
Cze ch</w>
C li
go sla
Bet rieb
j ahr</w>
terror ism</w>
Schluss folgerungen</w>
l am
ing .com</w>
solidar ity</w>
zwei tens</w>
vor gesehen</w>
ha fen</w>
fäl le</w>
D ro
bud getary</w>
ut ting</w>
vari ety</w>
be ziehen</w>
read ing</w>
ti e
T u
L it
m bo
mes sage</w>
deut schen</w>
A B
hil fe</w>
b y
0 1</w>
zu frie
si gkeit</w>
t ask</w>
Rat sprä
so fern</w>
ateg orien</w>
im pres
is land</w>
cohe sion</w>
consequ ences</w>
st lichen</w>
vic ti
hin ter</w>
Yor k</w>
Pal est
ausge stattet</w>
k en
au er</w>
wahr schein
ei l</w>
car ry</w>
Erfahr ungen</w>
staat liche</w>
cir cum
Beri chts</w>
st ab
star ting</w>
oni a</w>
c r
commit ted</w>
oper ate</w>
sec tion</w>
selbst verständlich</w>
I V</w>
P H
mark s</w>
Vertra gs</w>
gewöh n
M useum</w>
adop t</w>
0 9</w>
ro r</w>
k ein
f ying</w>
off ered</w>
a .</w>
Nether lands</w>
gui delines</w>
high est</w>
tel l</w>
D inge</w>
Tran s
a verage</w>
ell es</w>
b ru
aktu ellen</w>
com promise</w>
conc ept</w>
D or
Verk ehr</w>
19 5
erzi el
Gä ste</w>
übersch reit
cl ass</w>
Z y
S onn
K M
conven i
contro ll
l ös
k ungen</w>
Arbeitsplätz e</w>
establish ment</w>
verhin dern</w>
Me er
encour age</w>
priv aten</w>
erfül len</w>
kon om
K riterien</w>
ätz e</w>
Afgh ani
chan ged</w>
ar a</w>
inten ded</w>
M and
Associ ation</w>
wer k
In sel</w>
en han
t ac
immedi ately</w>
di stance</w>
Beschäf tigungs
-- --
sh ops</w>
fin e</w>
sp rü
down load</w>
Öster reich</w>
ex erc
be mü
s qu
Vereinbar ung</w>
ander s</w>
F inn
sy n
Disk ussion</w>
gan gs
un employment</w>
erk ennung</w>
Tele f
S af
9 .
erfol gt</w>
E mp
employe es</w>
re staurants</w>
J av
erklär te</w>
ent al</w>
gele gten</w>
wor ld
ge biet</w>
Er k
tim ate</w>
r at
Par ty</w>
weni ge</w>
as h
ep h
et z</w>
some times</w>
zusätz liche</w>
Pol en</w>
EC U</w>
sc ale</w>
voll ständig</w>
eigent lich</w>
Unterneh men
cht ens</w>
grupp en</w>
ist an</w>
ass ungs
Sp iel</w>
üh m
en h
s au
G ei
der ungen</w>
e ten</w>
künf tigen</w>
G ed
neu es</w>
ev ent
on s
en er</w>
N AT
Ma sch
lie f
begr enz
Ges prä
u le</w>
bo t</w>
ali st</w>
k ers</w>
g g
h eben</w>
En viron
k rise</w>
book ing.com</w>
be handelt</w>
ne y</w>
Aktion sp
r ing</w>
publi c
Era chtens</w>
as se</w>
Initi ativen</w>
go t</w>
m ac
einzi gar
Uni versity</w>
t t</w>
challen ge</w>
expres sed</w>
per c
bu ch</w>
ab ri
camp ai
demokrati schen</w>
E P
s ales</w>
ru ption</w>
Investi tions
le ge</w>
justi ce</w>
min dest
cont acts</w>
w ine</w>
be came</w>
199 4</w>
all s</w>
Ko ordini
B ran
z t</w>
dri ve</w>
Zi vil
An ti
nor m
Instru ment</w>
häufi g</w>
un er
steh ende</w>
il om
heu tigen</w>
comp ati
lu ß</w>
ate i</w>
gu li
G DP</w>
erwar ten</w>
Stär kung</w>
Wi der
Res er
implemen ting</w>
er o
mindest ens</w>
proc esses</w>
mu si
oper ations</w>
Ver hältn
ori enti
promot ing</w>
fiel ds</w>
struc tures</w>
erklär t</w>
Kin der
sp orts</w>
Ne w
il leg
sec ure</w>
interest ed</w>
A gent
gel ten
disc ussions</w>
um gesetzt</w>
di vi
enter prises</w>
stär k
off ering</w>
be ein
Jahrhunder t</w>
Ar ch
ro und</w>
lö sen</w>
be halten</w>
l o</w>
erwar tet</w>
er ende</w>
Best and
führ ten</w>
lo sigkeit</w>
Gemein samen</w>
Technolo gie</w>
itali en
net works</w>
esti c</w>
main ly</w>
stie g</w>
meas ure</w>
fis heries</w>
benö tigen</w>
fis h</w>
lich keiten</w>
contrac t</w>
w ettbewer
aus reich
deci de</w>
I R
num erous</w>
de gre
a h</w>
li ves</w>
europa .eu</w>
Lie fer
au lt</w>
ca .</w>
alisi ert</w>
B on
volu tion</w>
entwick lung</w>
Prü fung</w>
Beit ritts
reduc ed</w>
Sa che</w>
da ily</w>
Bil d
lea ders</w>
ed s</w>
Ver trauen</w>
sicher zustellen</w>
n ä
ho ch</w>
gen cy</w>
Stabili tät</w>
Grupp en</w>
timm ung</w>
stär ker</w>
D et
G oo
coordin ation</w>
langu ages</w>
provi sion</w>
hel pf
hä tten</w>
H u
cer ti
c raft</w>
s ü
ber ühm
I G
occ a
ic ally</w>
secon dly</w>
regi me</w>
p ass</w>
S up
201 4</w>
R um
Hi gh</w>
lo sen</w>
bor ders</w>
St .</w>
neh m
su b</w>
ris ks</w>
fin ance</w>
E ing
A gri
schaft liche</w>
T or
Lebens mittel
B oo
kra ft
gel ö
off en</w>
bewer tungen</w>
So ci
S ou
M er
ver ring
administr ation</w>
Ba sis</w>
au t
Produ kt
histor ical</w>
Schwieri gkeiten</w>
ti ges</w>
con st
bed ingt</w>
ber echti
a der</w>
r ück
confi dence</w>
ß er</w>
Afghani stan</w>
d ated</w>
o te</w>
est er</w>
de bt</w>
beri cht</w>
ali en</w>
ide as</w>
archit ec
transp or
interest ing</w>
Le hr
Ein richtungen</w>
ex tent</w>
electron ic</w>
gewi esen</w>
l auf</w>
P RO
Ei gent
get an</w>
pla yers</w>
sa chen</w>
di sa
sel ben</w>
cla im
Eini gung</w>
CO 2</w>
power s</w>
Bu ch
C lub</w>
Bürger innen</w>
g .</w>
verbesser t</w>
isti schen</w>
conclu sion</w>
T r
lear n</w>
un sch</w>
S .</w>
E rei
grei f
lar ation</w>
go es</w>
Partner schaft</w>
B lo
Sek tor</w>
Auf gaben</w>
Prior itäten</w>
ge wäh
mon th</w>
ex press</w>
G ot
ör per
ler nen</w>
use ful</w>
N r.</w>
bo x</w>
Be gin
ori z
ge worden</w>
er ung
Woh l
Russi an</w>
I II</w>
An erkennung</w>
deta iled</w>
str ation</w>
Vor teile</w>
S ach
bar er</w>
et ings</w>
re ment</w>
prü fung</w>
Er d
Arbei ten</w>
re ality</w>
com par
world wide</w>
M s</w>
ec ken</w>
. europa.eu</w>
zü gi
kl assi
M us
p ho
M ol
at ur</w>
Nieder lan
M ac
rela x
po or</w>
k ürz
genutz t</w>
ach tet</w>
Bewer tung</w>
ap pl
re fu
Vi ce</w>
hör en</w>
Begin n</w>
A mend
par king</w>
st am
commit ments</w>
gre at
Ir land</w>
neg ative</w>
Ma cht</w>
op tions</w>
de ath</w>
caus ed</w>
gener ation</w>
l esen</w>
wieder hol
E D
li m
d ner</w>
Binnen mark
b es</w>
qui et</w>
Dem oc
cri me</w>
cu t</w>
nah e</w>
P as
bo dies</w>
s a</w>
r aten</w>
zeich nen</w>
s ession</w>
Eink lang</w>
modi fied</w>
B IP</w>
m ess
V öl
F onds</w>
schütz en</w>
Str and</w>
P au
c lu
in stal
Re ak
o t</w>
Pro c
S ite</w>
metho ds</w>
Bar ro
ad ju
Pre mi
En ga
th in
und ation</w>
be auf
Milliar den</w>
en ced</w>
En g
effec tively</w>
sup porting</w>
kommen den</w>
week s</w>
los op
finanzi ellen</w>
Kü che</w>
do w</w>
Ber eit
Technolo gien</w>
bed au
Chr isti
mor gen</w>
it em</w>
erst ens</w>
ad verti
Pra xis</w>
ver mei
G al
process ing</w>
P S</w>
exp ec
n ü
traff ic</w>
ti ous</w>
wahrschein lich</w>
stu dents</w>
Musi k</w>
gre en</w>
Kun st
chil d</w>
ausge zeich
fizi erung</w>
ge tragen</w>
pro por
fir stly</w>
di gt</w>
K ün
l as</w>
w ell
Ch anc
4 8</w>
Re chnung</w>
wach sen
adequ ate</w>
be für
größ ere</w>
entr y</w>
si l
m .</w>
be k
Syst eme</w>
Mini sters</w>
or row</w>
mm ing</w>
happ y</w>
fahr ens</w>
tra in</w>
bil den</w>
N ord
W h
Gäste bewertungen</w>
Flug hafen</w>
tä r</w>
gen s</w>
s eines</w>
gesch ä
Ti er
so fort</w>
gelei tet</w>
Kom promis
Cent er</w>
m in</w>
jo in</w>
exp ect</w>
Tra de</w>
t ations</w>
p ed</w>
bro ad
mechan is
t ter</w>
Me chan
Dru ck</w>
zeu g</w>
practic es</w>
tä tig</w>
Inst all
entsp richt</w>
Feh ler</w>
subsi di
so bald</w>
T el</w>
fol gen</w>
gel t</w>
vil lage</w>
g ment</w>
ter t</w>
inc or
st es</w>
S il
ri d</w>
dig it
9 8</w>
sch ung</w>
la ws</w>
g an</w>
Ar mut</w>
ser ves</w>
In halt</w>
veröffent licht</w>
ju di
be zo
ah l
nachhal tige</w>
N ahr
spi ri
verantwor tlich</w>
Leit linien</w>
zi pi
introduc tion</w>
w onder
V illa</w>
ne ws</w>
anim al</w>
ac qui
K al
vot ing</w>
forder ung</w>
ment ar
main tain</w>
comp ens
simp li
Ges chä
dan ke</w>
Person al</w>
3 3</w>
Frie den</w>
arb eit
satis fac
Regi erungs
entschei den</w>
our selves</w>
erfol greich</w>
he ad</w>
Haushal t</w>
al one</w>
c ast
Min der
ra li
er y</w>
consul tation</w>
deli ver
Ge bieten</w>
eingesch rän
2 8
apart ments</w>
l aufen</w>
ep age</w>
sp er
our able</w>
P en
Fol ge</w>
Di re
Währ ungs
tom orrow</w>
F r
other wise</w>
plann ing</w>
ma sch
Sta at</w>
li a</w>
EU RO
nied ri
Ta gen</w>
00 0
m ous</w>
KM U</w>
se as
li en</w>
m ember
fäl lt</w>
zusätz lich</w>
Fir ma</w>
regu lar</w>
in come</w>
F ron
spe e
Flü cht
Benutz er</w>
An frage</w>
aff t</w>
Wo chen</w>
Par k
Ex per
d nis</w>
ac e
flexi ble</w>
A L</w>
ra ised</w>
hist oric</w>
Prä sidentschaft</w>
Verein ten</w>
Ele k
separ ate</w>
ber eitung</w>
Kredi t
stär ken</w>
letz te</w>
as tic</w>
relation ship</w>
di plom
b lu
introduc ed</w>
ge kommen</w>
gesch ütz
ri es</w>
entsprech ende</w>
Pre ssem
A ction</w>
W a
Empfeh lungen</w>
discuss ed</w>
Produ ktions
for ced</w>
pp ing</w>
part ments</w>
th eless</w>
le ment</w>
Beit ritt</w>
S ie
AN D</w>
ver gessen</w>
D el
intel li
charac ter
ma p</w>
ver theless</w>
it ems</w>
N ations</w>
glob alen</w>
begrü ße</w>
ent lich</w>
Si cht</w>
freu en</w>
go al</w>
sup ports</w>
is hed</w>
W erte</w>
Adre sse</w>
clo sely</w>
as ks</w>
er o</w>
s se
Europ e
hau pt</w>
Ver gan
Mon ate</w>
M ex
M P
di versity</w>
Instru mente</w>
reco gnis
tic ally</w>
Frühst ück</w>
zah lt</w>
schie den</w>
Wah len</w>
transpar ent</w>
deli very</w>
betreff enden</w>
For um</w>
ger ing
M ili
E L</w>
de fic
Fun ktion
&apos; ll</w>
über nehmen</w>
circum stances</w>
sch li
Si gn
G et
Micro soft</w>
su s</w>
gewähr leistet</w>
ne vertheless</w>
helpf ul</w>
fri ends</w>
Fis ch
At mosp
Solidar ität</w>
pr e</w>
stän den</w>
B ahn
qu anti
gram men</w>
gh t
increas ingly</w>
Chin ese</w>
selec tion</w>
metho d</w>
tu de</w>
b rie
kann st</w>
pay ments</w>
201 5</w>
c .</w>
G est
ho st
finanzi elle</w>
tal k</w>
ri chtet</w>
mögli cherweise</w>
min dest</w>
colleag ues</w>
Konzep t</w>
obli gations</w>
M S</w>
Hin sicht</w>
wel ches</w>
M ün
em ail</w>
gran ts</w>
esti val</w>
re agi
r i</w>
D er</w>
zu mindest</w>
conc re
Selb st
Aus gaben</w>
rene w
U p
M ari
st ent</w>
zei ten</w>
li mit</w>
con v
Vergan genheit</w>
v ital</w>
9 9</w>
er ör
l ess
gran ted</w>
Inter net
zahl reichen</w>
B ad</w>
sch o
behör den</w>
exp endi
St and</w>
h op
S weden</w>
E T</w>
w .</w>
A F
A sy
ch ec
curren cy</w>
An gaben</w>
Tages ordnung</w>
Opf er</w>
us ually</w>
dar stellt</w>
wei te</w>
stre ss</w>
strength ening</w>
defin ed</w>
R ats
We ge</w>
mili tär
ra il
brau cht</w>
Luxem bourg</w>
S port
Absch luss</w>
ameri kanischen</w>
ra sse</w>
Tran sport</w>
pla yer</w>
beg in</w>
F alle</w>
re fer</w>
an lage</w>
S ho
getro ffen</w>
cri tical</w>
be darf</w>
ge geb
Rom a</w>
f rüh
Pressem it
Arch it
al te</w>
aktu elle</w>
Überwach ung</w>
richti ge</w>
bath room</w>
c ra
ma ß
f la
c in
Tag ung</w>
l le</w>
O R</w>
p aper</w>
tur ned</w>
discrimin ation</w>
E B
exper ts</w>
allgem eine</w>
wor tern</w>
um fan
or ie</w>
begrü ßt</w>
dom estic</w>
ung s</w>
gegen sei
be ste</w>
c e
lü sse</w>
open ha
prob ably</w>
continu ed</w>
ter en</w>
open ed</w>
ch erung</w>
bre chen</w>
cli ents</w>
sc ap
M c
Protokol l</w>
st abili
disc uss</w>
Dien ste</w>
accep ted</w>
sh opping</w>
ster ed</w>
wan ted</w>
gra du
gel n</w>
aus schließlich</w>
mehr eren</w>
Doku ment</w>
sa ying</w>
berücksichti gen</w>
Beteili gung</w>
ep ing</w>
bi g
C al
fi gu
he al
Bil der</w>
fre ie</w>
Res e
sch reiben</w>
NAT O</w>
Aus bildung</w>
drin gend</w>
mark eting</w>
fu er</w>
Syst em
Belgi um</w>
Rom ania</w>
Al t
region ale</w>
anim als</w>
b ul
Viel falt</w>
dar unter</w>
buff et</w>
Se a</w>
f luss</w>
l ass</w>
besonder en</w>
si chten</w>
h a</w>
sh e
Frie den
schnit t</w>
ver standen</w>
ex ac
kämpf en</w>
ö konom
Enter prise</w>
län dlichen</w>
dru ck
F ac
wor ked</w>
te ach
ni eder
lau t</w>
erforder lichen</w>
moder nen</w>
erfül lt</w>
schö nen</w>
lo st</w>
exc ep
n ern</w>
ge ber</w>
victi ms</w>
ur ch</w>
gener ally</w>
lok alen</w>
ali sm</w>
fü gen</w>
pro per</w>
n om
ge wesen</w>
particip ants</w>
T at</w>
trä gt</w>
dom in
ch ance</w>
her z
Entwick lungen</w>
ori al</w>
bro ad</w>
th i
ap preci
ver sucht</w>
at or
Um fang</w>
ss ing</w>
Urlau b</w>
st ated</w>
M O
li sted</w>
lin ked</w>
Palest ini
leist ung</w>
Schlussel wortern</w>
Comm unic
ed ing</w>
199 2</w>
recommend ations</w>
kl ein
nation aler</w>
genu g</w>
Rese arch</w>
H ä
her aus
ut ely</w>
stu di
son sti
M O</w>
concre te</w>
z y
R en
über haupt</w>
appe ar</w>
end lich</w>
us w.</w>
co l</w>
c on</w>
Vi de
un ten</w>
A le
An teil</w>
ge st
substan tial</w>
influ ence</w>
th ought</w>
k olo
hibi tion</w>
ati vely</w>
breit en</w>
ut ter
Indi a</w>
s eit
ungs -</w>
reduc ing</w>
Sy ri
Goo gle</w>
ste ts</w>
künf tige</w>
Koordini erung</w>
T R
T E</w>
pa ar</w>
nam ely</w>
Kon sul
s un
er greifen</w>
Bo s
g la
A sia</w>
k aum</w>
industri e</w>
comp ared</w>
4 00</w>
Febru ary</w>
9 5</w>
For m
vehi cles</w>
Tä tigkeit</w>
kon stru
spec tive</w>
f it
ver kehr
beg innen</w>
Stand ards</w>
Region al
C amp
erhö hen</w>
en g</w>
com ments</w>
al ter</w>
Sit zung</w>
l ern</w>
besu chen</w>
zep rä
Zus timmung</w>
congratul ate</w>
in si
199 3</w>
ph ase</w>
mach ine</w>
nor mal</w>
Rum ä
Be we
Atmosp häre</w>
tra v
associ ated</w>
an erkan
wach st
ar tige</w>
Feder al</w>
S CH
DV D</w>
bestimm t</w>
S wis
ho od</w>
fol lowed</w>
6 5</w>
histor ischen</w>
k rie
du le</w>
multi later
g ames</w>
protec ted</w>
p unkte</w>
Ein haltung</w>
vi ert</w>
sel ected</w>
W ell
me etings</w>
any thing</w>
cont in
auth ority</w>
visi tors</w>
w ser</w>
qu es</w>
D a
Dat eien</w>
Sü d
kon ferenz</w>
gere cht</w>
re present</w>
establish ing</w>
consider able</w>
Aufenth alt</w>
Re present
umfas st</w>
pur poses</w>
wesent lich</w>
j em
verb un
moun tain</w>
E u
mor ning</w>
dan ach</w>
akti v</w>
re presents</w>
st ore</w>
but ed</w>
Kra ft
medi cal</w>
end gül
b illi
moder ne</w>
min ute</w>
Co de</w>
M inde
under standing</w>
erlau bt</w>
Angele genheit</w>
ins urance</w>
ot h</w>
Re staurants</w>
Ira q</w>
politi scher</w>
Di g
f r
He alth</w>
sp ie
Ba de
er land</w>
3 4</w>
Gebäu de</w>
Stand ard</w>
acc es
sto ck</w>
erst ör
Publi c</w>
L am
zi g</w>
unterschied lichen</w>
em pfeh
verfüg bar</w>
r ats</w>
Terror ismus</w>
T A</w>
sch wer</w>
ber n</w>
eindeu tig</w>
sch eme</w>
Zw eck</w>
ab schließend</w>
respon d</w>
sti t
Frank fur
ter e</w>
tour ism</w>
get ting</w>
3 6</w>
Betrieb s
gre s
Environ ment</w>
w r
D own
j ur
yo ur
stitu tion</w>
an geneh
ver lässi
notwendi gen</w>
w ood</w>
specific ally</w>
T her
W unsch</w>
199 0</w>
stat tung</w>
a cht</w>
and a</w>
Gr öß
conclu ded</w>
e ad</w>
Proz ent</w>
b ung</w>
r ussi
Menschen rechts
Ge biete</w>
plan ts</w>
stre et</w>
dat ab
0 2</w>
E A</w>
collec tion</w>
D oppel
ro s</w>
Pri me</w>
ti ally</w>
est er
d uty</w>
Jah res
inform ed</w>
saf e
P ati
F el
tr ust</w>
konkre te</w>
du m</w>
po l</w>
I I
tiv ity</w>
man aged</w>
refu ge
run ning</w>
an ces</w>
Gar anti
su itable</w>
flä che</w>
Gipf el</w>
Enga gement</w>
en su
fis cal</w>
organis ed</w>
m t</w>
g as
advan ta
comp liance</w>
An spruch</w>
Afri ka</w>
posi tions</w>
recht lichen</w>
f rau
C roati
betro ffenen</w>
Mo der
lau b
Bel ar
spar tn
dem ands</w>
quali tät</w>
sp ir
ein geführt</w>
dien ste</w>
nat ur
impro vement</w>
coun ter
wal king</w>
bewus st</w>
E astern</w>
b ab
O sten</w>
ge ändert</w>
tra ding</w>
Re guli
expendi ture</w>
verfol gen</w>
Fischer ei</w>
fi xed</w>
u fen</w>
investi gation</w>
ge zeigt</w>
D an
ari en</w>
S ci
D r.</w>
Ph ase</w>
Kat astro
pri or</w>
coun t</w>
D atei</w>
f oo
ges eh
W ein
S ME
P l
ru fen</w>
ck ets</w>
Dol lar</w>
poli ce</w>
Aussch uß</w>
sk ills</w>
it en</w>
sch ä
pas sen</w>
S im
10 .
mögli chen</w>
be ha
sin n
glei che</w>
Vi zeprä
derzei tigen</w>
1 50</w>
vir tu
z .</w>
A F</w>
man ner</w>
s i</w>
fo unded</w>
ch ungen</w>
P P
mo tion</w>
peri o
überzeu gt</w>
wär tige</w>
vor aus
an e</w>
at ta
rit an
Pre ss</w>
S tim
B l
men tion</w>
ima ges</w>
Ener gy</w>
in ts</w>
famili es</w>
krä fte</w>
he ard</w>
isti c</w>
grenz überschreit
regul atory</w>
persön lichen</w>
Sch engen</w>
Febru ar</w>
on y
ges und
sch w
Ber g
ten en</w>
Kl ein
un bedingt</w>
erziel en</w>
end or
grei che</w>
hoch wer
Ban ken</w>
SME s</w>
Air port</w>
o ber
ac ci
itä ts
i gn
au ßer</w>
consu mption</w>
ein gerichtet</w>
com fort</w>
oper ators</w>
exten sive</w>
i or</w>
ver an
particip ate</w>
ti sch</w>
gar den</w>
figu res</w>
Gre en</w>
fac ing</w>
swi mming</w>
beauf tra
N ah
correc t</w>
Swi tz
ge grün
begrü ßen</w>
Best ell
Untersu chung</w>
tur ing</w>
ex port</w>
v ul
k am
Comp uter</w>
ear lier</w>
Ent wurf</w>
ha ft</w>
vermei den</w>
Verf assung</w>
P un
pen sion</w>
9 6</w>
spiel e</w>
produc ers</w>
Mul ti
Wirtschafts -</w>
S em
tem per
N u
é s</w>
si zed</w>
mittel t</w>
dan ger
Justi z</w>
abili ties</w>
zu g
be we
tr ying</w>
Vor haben</w>
ori gin</w>
Bel gien</w>
wettbewer bs
refer red</w>
dou bt</w>
beru f
Un gar
appro xim
inn er</w>
ex ist</w>
Au di
Sch weden</w>
tra ck</w>
Mi ddle</w>
Gr and</w>
4 9</w>
speak ing</w>
bor n</w>
eng ine
wesent lichen</w>
lei ten</w>
den e</w>
strate gie</w>
K ris
kan ische</w>
A kti
govern ance</w>
Ab satz</w>
2 7
recogni tion</w>
Zu ständi
openha gen</w>
sa ys</w>
F e
ex pl
Re fer
requ est
Produ kten</w>
sel ect</w>
6 4</w>
k ennen</w>
Unternehmen s
al t
C I
fail ure</w>
tar gets</w>
ungs verfahren</w>
an geb
Umwel tsch
Mär kte</w>
jewei ls</w>
rei bt</w>
ge win
sci ence</w>
ail s</w>
erinn ern</w>
re gre
I denti
el ement</w>
M ei
Analy se</w>
automati sch</w>
f el</w>
ver kehrs
Dele gation</w>
8 00</w>
ent weder</w>
absol utely</w>
men u</w>
Au stra
zentr ale</w>
Krie g</w>
ur ban</w>
Rei se
ch ine
laun ched</w>
St ar</w>
Ster ne</w>
s agt</w>
es tim
säm tliche</w>
3 ,
Bo ard</w>
auf s
comp la
pe ace
br auch</w>
Hand el
he ad
Switz erland</w>
T elek
Bulg aria</w>
an ische</w>
wär en</w>
le av
difficul ties</w>
wor th</w>
V e
Barro so</w>
off ici
M au
fre sh</w>
Im mobili
op timi
umfassen de</w>
Nutz en</w>
da gegen</w>
frei heit</w>
Feri en
möglich st</w>
wor ten</w>
Strate gy</w>
sp ei
Kun den
Quali täts
dra wn</w>
ander erseits</w>
A V
Vol l
un ge</w>
er fahren</w>
Ver bin
ti ef
gnis sen</w>
d ol
a p</w>
12 .
unabhängi g</w>
ci ans</w>
tu red</w>
sp richt</w>
invest ments</w>
Besu ch</w>
gran t</w>
candi date</w>
ru p
. org</w>
Z er
Kommunik ation</w>
M ag
ll a</w>
Afri can</w>
wa gen</w>
comp ly</w>
reco very</w>
crimin al</w>
Leist ungen</w>
k oh
genann t</w>
we chsel
x es</w>
f ant
Schwei z</w>
Berichterstat terin</w>
lear ning</w>
be ob
f und</w>
Teil nehmer</w>
rec ord</w>
lar ger</w>
arran gements</w>
gegenwär tig</w>
Ver gleich</w>
install ation</w>
promo tion</w>
ück e</w>
ap par
4 4</w>
func tions</w>
war m</w>
sekre tär</w>
evi dence</w>
econom ies</w>
G as
N G
B or
Spiel er</w>
power ful</w>
lief ert</w>
Eis en
ordn ungs
Vi deo</w>
pa in
P R
wer ke</w>
rä ger</w>
At lan
h our</w>
comb at</w>
c ore</w>
0 7</w>
te sts</w>
Bed ar
own ed</w>
Pressemit teilung</w>
Al tern
ph en
degre e</w>
0 8</w>
mögli che</w>
gele gen</w>
Nahr ungs
we ak
pop ul
feat ure</w>
S on
p es</w>
b ü
I ch</w>
teil weise</w>
n ischen</w>
b ritan
R ed</w>
s le
gemein sam
Fre m
h und
G N
n ütz
bi en</w>
d ance</w>
de ep
w in</w>
rei ber</w>
ra ise</w>
P DF</w>
presen ce</w>
mon etary</w>
ah ead</w>
L ag
de dic
b eit
si chts
Produ kt</w>
compon ents</w>
is tics</w>
announ ced</w>
wh ite</w>
sp ann
y es</w>
S S
lo ve</w>
u tion</w>
Richt linien</w>
Beri chte</w>
Koh ä
cri pt</w>
steu er
ho sp
zu folge</w>
automati cally</w>
Su per
tour ist</w>
Kün st
si erten</w>
bit ten</w>
con tr
lo yment</w>
ff s</w>
f en
du ce</w>
Ged an
Ar ten</w>
t led</w>
infrin gement</w>
Voraus setzungen</w>
Mad rid</w>
erle i</w>
läu ft</w>
lie fer
im migration</w>
Gu i
glau ben</w>
Infra struktur</w>
ün f
en zi
letz t</w>
Ges ell
profi tieren</w>
ali sten</w>
wel comes</w>
compati ble</w>
M om
un be
str ö
quali fizi
ly mp
Industri e
G ast
ver lei
t our</w>
si an</w>
le uni
genehmi gt</w>
phot ogra
in side</w>
hab it
kar te</w>
Agri culture</w>
4 6</w>
g or
d t</w>
el te</w>
richt linie</w>
mit ten</w>
jün gsten</w>
Somm er</w>
sch ar
am ing</w>
Ira k</w>
jec ted</w>
Entschließ ungs
0 s</w>
0 3</w>
H off
ent schieden</w>
Char ak
an ci
ni cht
tro tz
V il
Land wir
d eine</w>
Li z
wh ere
even ing</w>
Par tei</w>
J our
Auf nahme</w>
Stra ßen
Über prüfung</w>
enn a</w>
form at</w>
Ih res</w>
un less</w>
Kar te</w>
zei chen</w>
member ship</w>
lei chter
L I
internation aler</w>
recom men
pat h</w>
gen om
dar stellen</w>
sch rän
flexi bility</w>
Verpfli chtung</w>
S Q
stu dies</w>
beg an</w>
In halte</w>
Mittel n</w>
Her stellung</w>
verfol gt</w>
tal king</w>
tel eph
e. g.</w>
. m.</w>
propos e</w>
Ver änderungen</w>
li an</w>
künf tig</w>
ni a</w>
samm lung</w>
Fu ß
i erten</w>
Ver tri
An trag</w>
proper ly</w>
pho to</w>
cel eb
st ro
Regel ungen</w>
gelö st</w>
pla ying</w>
konzentri eren</w>
yp e</w>
zu letzt</w>
your self</w>
i k</w>
g rie
p il
Fun ktionen</w>
Besch luss</w>
3 8</w>
t y
dis h</w>
Kin dern</w>
benutz t</w>
k ü
.. ..</w>
p sy
3 7</w>
ck ed</w>
bu y</w>
Kon z
ti se</w>
pla yed</w>
aussch uss</w>
Har mon
eli min
inform ieren</w>
be coming</w>
Überein kommen</w>
schön e</w>
eh mi
li c</w>
ecu tive</w>
cri tic
ausge wo
al tung</w>
re chten</w>
Anwen dungen</w>
balan ced</w>
bar ri
Wieder auf
zu ständigen</w>
St ation</w>
Gen ehmi
0 er</w>
v ac
ther ap
con soli
consider ation</w>
advan ced</w>
be hand
a g</w>
we ap
buil dings</w>
K las
Ide e</w>
Groß britan
par ag
low ak
Leu te</w>
en des</w>
sha red</w>
er leben</w>
pr en
k ö
J e
vot es</w>
M el
zeu gen</w>
Leist ungs
Em pf
Co sta</w>
nach ten</w>
berei tet</w>
stat ten</w>
an lagen</w>
Auf bau</w>
tran si
Ch ance</w>
aus wärtige</w>
In sel
Bem erk
cal cul
at z
zu gän
sch lagen</w>
Sp it
B rit
ha ften</w>
pp e</w>
f and</w>
Europe ans</w>
Agen cy</w>
sug ge
exclu sive</w>
z entrum</w>
vi eren</w>
territ ory</w>
cl ari
Joh n</w>
EC H
ließ en</w>
O lymp
A U
purch ase</w>
Ein wander
ge stellten</w>
Kapit al
Fle xi
r en</w>
Hung ary</w>
Z oll
thous ands</w>
Ter min
C yp
l eit
chti gen</w>
Swis s</w>
Bil dungs
man i
k n
ge plan
poten zi
Ge währ
E AD
erfol gen</w>
ent y</w>
as yl
Rumä nien</w>
contro ls</w>
hier zu</w>
St ro
P ap
ho ffen</w>
Cyp rus</w>
Archit ek
ter race</w>
Her steller</w>
wh om</w>
Ob jek
et c.</w>
trotz dem</w>
übri gen</w>
inde x</w>
geri ch
continu es</w>
def ence</w>
m as</w>
ti erung</w>
han del</w>
e uro
de ck
p assung</w>
P L</w>
tec tion</w>
spiel t</w>
proce ed
Re gel</w>
H or
3 9</w>
appro val</w>
hän gt</w>
zu gleich</w>
tel e
biet er</w>
benutz en</w>
agen cies</w>
wan ts</w>
S ant
Heraus forderung</w>
Sp a
Komp et
mut ual</w>
en ess</w>
geeig net</w>
clo ser</w>
w and</w>
conv inc
H ause</w>
A C</w>
sa ve</w>
5 5</w>
per manent</w>
out come</w>
ge wal
gelan gen</w>
le m</w>
gesell schaften</w>
co ff
Slo v
lin ed</w>
franzö sischen</w>
sicher lich</w>
sat elli
signific antly</w>
zäh len</w>
Vor bereitung</w>
eh ol
ausge wäh
y al</w>
kl are</w>
vorgeschla genen</w>
v ent</w>
star ke</w>
T y
fi gur
app lies</w>
pre ise</w>
Tur k
la gs</w>
asyl um</w>
s anc
näch ste</w>
evalu ation</w>
beteili gt</w>
weiter er</w>
k ategorien</w>
prec is
er stellt</w>
kulturel len</w>
P C
easi er</w>
grund sätz
Dis krimini
Prior ität</w>
m ischen</w>
P aper</w>
Vor sitz</w>
ar ity</w>
differ ences</w>
I D</w>
sur v
ss er</w>
öff nen</w>
ver ein
st one</w>
W ol
Spra chen</w>
vol un
su m</w>
be kräf
&apos; re</w>
ma li
jäh rigen</w>
ic o</w>
cle an
mitt l
D ep
jähr lich</w>
am b
combin ed</w>
Mal ta</w>
ec .europa.eu</w>
ati n</w>
Schlü ssel
bestä tigt</w>
Hom epage</w>
vol ler</w>
sp end</w>
s li
breit ung</w>
Belar us</w>
G ü
Geor gi
Frankfur t</w>
facilit ate</w>
connec ted</w>
immedi ate</w>
f are</w>
zwei fel
s outh</w>
Zei chen</w>
ge fördert</w>
de cor
condi tion</w>
S eh
m ari
zieh ung</w>
en for
än den</w>
gerä um
j et
u tili
Gre ek</w>
est en</w>
A cc
s and
kun fts
I mp
oper ational</w>
Vol k</w>
w on
D ä
cust oms</w>
moder n
ha fte</w>
t abled</w>
it a</w>
Ein fluss</w>
Mich a
las h</w>
j ene</w>
ag no
con ci
T em
Maß nahme</w>
Mit te</w>
ben en</w>
ch ron
Stra ße</w>
8 5</w>
Bet ra
pre fer
respec tive</w>
fo ot
precis ely</w>
spezi ell</w>
la id</w>
di schen</w>
All gem
progra ms</w>
ge halten</w>
ab geschlossen</w>
differ ence</w>
achie ving</w>
ma r</w>
exac tly</w>
bin ding</w>
Fra mework</w>
en en
C E</w>
pre vention</w>
sum mit</w>
ini tial</w>
wirtschaf ts
vers al</w>
w ent</w>
gra de</w>
ec ke</w>
al lowing</w>
Pak istan</w>
I ris
att le</w>
con ten
wr ong</w>
ex isti
Fl or
re member</w>
Su che</w>
form al</w>
electri city</w>
el se</w>
wi der</w>
Ber ücksichti
sy mbo
9 7</w>
0 6</w>
S O
wir kt</w>
mo bility</w>
gen des</w>
mechan ism</w>
Hal tung</w>
ent sprechen</w>
Sum mit</w>
S S</w>
Berücksichti gung</w>
wel cher</w>
Zy per
w indi
de aling</w>
Christi an</w>
pleas ant</w>
exerc ise</w>
Risi ken</w>
2 6
an spru
gen ü
d é
f assung</w>
au ff
Amend ment</w>
Am ts
Se e</w>
unterschied liche</w>
4 2</w>
clas si
land scap
hi r
For mu
Au gen</w>
erwäh nt</w>
defini tion</w>
Be denken</w>
w on</w>
ga ve</w>
Famili en</w>
O m
Ver sch
spee ch</w>
af ter
M L</w>
actu al</w>
P len
Luxem burg</w>
pre sidency</w>
aus ländi
ent stehen</w>
y n
so weit</w>
akzep tieren</w>
betra chtet</w>
e g
chan ging</w>
pe ti
haup ts
fol lows</w>
stei gen</w>
A chtung</w>
si erte</w>
Finan zen</w>
si di
ack no
Eff izi
im m
wichti gste</w>
ö kolo
F R</w>
den k
Ab kommens</w>
gan gs</w>
en heit</w>
p ak
tradi tion</w>
sp ending</w>
dra mati
col labor
wonder ful</w>
it ation</w>
K ab
0 5</w>
any one</w>
fic ations</w>
War en</w>
län e</w>
angebo ten</w>
su r</w>
bre ak</w>
spiri t</w>
Stat us</w>
läu fi
at o</w>
auf merk
l eitung</w>
fre ue</w>
Grund satz</w>
Tei le</w>
lich em</w>
isti sche</w>
lä ss
fo li
war ten</w>
Sto ck
über prüfen</w>
regi ster</w>
acc ur
wat ers</w>
B ru
organis ationen</w>
Ak te
medi c
in ci
i an</w>
De fiz
scre en</w>
ad o</w>
Grund sätze</w>
er stellen</w>
thre at</w>
eri es</w>
Un abhängi
Arbeits losigkeit</w>
hin weisen</w>
fur nis
ben e
w asser
intro duce</w>
Stra f
ch mal</w>
Sit z
funktion iert</w>
rap id</w>
peace ful</w>
Iris h</w>
e f</w>
P L
si vely</w>
Nation al
Disk us
führ er</w>
fest gestellt</w>
sit ting</w>
g ate</w>
ic a</w>
füh l</w>
ko ordini
teleph one</w>
cour t</w>
gro unds</w>
comple ted</w>
and ing</w>
f ers</w>
c ars</w>
heb ung</w>
en gli
p assi
d in
de x</w>
199 1</w>
rah men</w>
fel low</w>
be qu
Tre ffen</w>
gelei stet</w>
a des</w>
Kon troll
fan gen</w>
äst inen
consi ders</w>
win ter</w>
erneu er
elec tion</w>
dar aus</w>
Pf lan
ge fordert</w>
Pak et</w>
num bers</w>
spezif ischen</w>
regel n</w>
SQ L</w>
D avi
regi stered</w>
un ge
Jahr zeh
proceed ings</w>
bet ont</w>
S port</w>
di a</w>
ander es</w>
erheb lich</w>
in form</w>
genom men
führ enden</w>
As sozi
u li
Hum an</w>
en det</w>
räu me</w>
Ungar n</w>
Finan cial</w>
K roati
ordin ary</w>
ern sth
ent sch
di g</w>
h aus</w>
Fin land</w>
D re
dec laration</w>
IN G</w>
tax ation</w>
mark t
in struc
spac ious</w>
schie de</w>
s letter</w>
cli ent</w>
rec eption</w>
at ti
individu als</w>
n ation</w>
guarante es</w>
Croati a</w>
T ER
f ei
di ty</w>
An passung</w>
s ale</w>
r ent</w>
al ty</w>
ä den</w>
Kun st</w>
k on</w>
str on
hous es</w>
le ben
Men ge</w>
sicher ungs
4 3</w>
Sor ge</w>
th u
continu ing</w>
ambi tious</w>
ell s</w>
er hält</w>
di mension</w>
Stim me</w>
cam era</w>
H T
- -</w>
lin ge</w>
S au
ad vice</w>
gestal ten</w>
Prü f
un sten</w>
er tes</w>
um welt
happ en</w>
t asks</w>
govern mental</w>
ti gten</w>
R oh
gewin nen</w>
F A
plann ed</w>
not ed</w>
h oriz
A ir</w>
g erung</w>
A ktionen</w>
r ul
P s</w>
p h</w>
nei ther</w>
be ds</w>
state ments</w>
ra sch</w>
Währ ung</w>
se ek</w>
reason able</w>
tol er
s co
sa w</w>
Sk i
go als</w>
Fern seh
aus drücklich</w>
steri um</w>
besser en</w>
bekan n
UN D</w>
Kap az
Famili en
fol gend</w>
äl fte</w>
pr is
o o</w>
gen er</w>
quali t
.h t
Bet rieb</w>
för der
Fil m</w>
6 00</w>
sch lag</w>
aussch usses</w>
alle l</w>
ho t</w>
w om
.e .</w>
inter vention</w>
R el
zus timmen</w>
us h</w>
n on
Meer es
eini ger</w>
obvi ously</w>
wan del</w>
tex tu
beha vi
in spec
met res</w>
Di mension</w>
Mod ell</w>
sto ff</w>
Tran spor
gewi cht</w>
ven ue</w>
umfassen den</w>
campai gn</w>
Les ung</w>
D e</w>
fli cht</w>
richti gen</w>
represent ed</w>
Slo ven
C he
verstär kt</w>
pos sibilities</w>
C ul
22 9</w>
o re
n un
pro to
lä gen</w>
Re zep
En d
fac tors</w>
Agent ur</w>
ph y</w>
Ver ring
contr ary</w>
rel ate</w>
t inu
a y
Zah lungs
K yo
sp ent</w>
gem ü
Web seite</w>
se em</w>
bilater al</w>
posi tiv</w>
speci es</w>
re struc
grie ch
g ure</w>
a i</w>
as ing</w>
appe ars</w>
k ehr</w>
je derzeit</w>
ali smus</w>
i .e.</w>
fi ci
ex ter
benö tigt</w>
seas on</w>
mal er
l eng
institu tion</w>
Komp on
Di enst
thin king</w>
auf t</w>
Au th
dan k</w>
c arb
Frieden s
vor geseh
Na cht
dele gation</w>
Or d
betre ffen</w>
appoin ted</w>
hand els
N um
Mitglie dern</w>
mit einander</w>
oo m</w>
Bulg arien</w>
j ah
Z eiten</w>
medi zin
Dienstleist ungs
ann t</w>
lie be</w>
n y</w>
S .
berei che</w>
Indi en</w>
str ong
Wir kung</w>
ver sorgung</w>
Po st
pres sion</w>
elegan t</w>
cor porate</w>
in stance</w>
d ware</w>
gegenwär tigen</w>
tic les</w>
größ eren</w>
gan g
p en</w>
Hal b
fir e</w>
deli ver</w>
kit chen</w>
avail ability</w>
ro man
de ep</w>
k tive</w>
fir m</w>
a gen</w>
0 4</w>
vi erung</w>
Empfeh lung</w>
exten ded</w>
enti rely</w>
form ed</w>
es sive</w>
schlä gt</w>
monit or</w>
tru m</w>
er er</w>
av y</w>
Kyo to</w>
1 1.
tä glich</w>
sug gest</w>
f low</w>
ess or</w>
Zim mer
pro spec
dien st</w>
adv ance</w>
För der
sub sequ
tel ec
ot e
Großbritan nien</w>
Strate gien</w>
K enn
zäh lt</w>
S I
Sp a</w>
par allel</w>
attrac tive</w>
up date</w>
vul ner
typ ical</w>
b ahn</w>
bre ite</w>
D as</w>
ma ßen</w>
consi stent</w>
Represent ative</w>
Minde st
mod els</w>
br and</w>
strong ly</w>
se ven</w>
sti schen</w>
Re de</w>
mechanis ms</w>
haupts ächlich</w>
dau er
danger ous</w>
parlia mentary</w>
M ess
qu ote</w>
fi gh
Be ob
eu ch</w>
V ER
ada p
Kan di
fail ed</w>
Bedürf nisse</w>
pr int</w>
ran gi
nachhal tigen</w>
request ed</w>
E ur
Au to</w>
verbun denen</w>
p ap
For derung</w>
S un
erklär en</w>
Ges etz</w>
hö h
woh ner</w>
ernsth af
g no
spezif ische</w>
ein erseits</w>
Unter kategorien</w>
Invest ment</w>
dest ro
Verring erung</w>
Glob alisierung</w>
For men</w>
prepar ation</w>
V AT</w>
ur gent</w>
experi enced</w>
Di alo
func tioning</w>
ek te</w>
inform iert</w>
A ll</w>
dis cover</w>
defic it</w>
T un
deut sche</w>
Ma ße</w>
über all</w>
zuneh men
stim me</w>
ra il</w>
is ine</w>
i al</w>
gr ö
addre ssed</w>
el e</w>
durch aus</w>
d ation</w>
sk i
zi elt</w>
genu ine</w>
deta il</w>
hö hung</w>
des wegen</w>
n ess
ga in</w>
fäl len</w>
ad ul
t ür
un zu
mär kte</w>
J ean</w>
Gemein schaft
cor respon
ger ufen</w>
fu el</w>
poli tics</w>
A D</w>
ris es</w>
succ e
gew ün
di enstleist
x e</w>
pic ture</w>
Phi li
Micha el</w>
fu n</w>
Ch em
Tit el</w>
Sal z
neigh bo
W ar</w>
Inter nationalen</w>
ing ton</w>
adverti sing</w>
O li
D on
t on
datab ase</w>
pas st</w>
M un
Hin weis</w>
men ted</w>
u ten</w>
sto red</w>
ch ert</w>
tel ef
er leich
sho wer</w>
T an
Austri an</w>
ste el</w>
genann te</w>
Zwei fel</w>
tain ment</w>
o w
technolo gical</w>
fü gt</w>
fin i
P eter</w>
be achten</w>
renew able</w>
charac ter</w>
O T
trans lation</w>
T au
Tä tigkeiten</w>
ass es</w>
he ar</w>
Verhältn is</w>
sor g
lim its</w>
bru ch</w>
wel t</w>
i sierung</w>
St ar
D A</w>
ut ch</w>
wei ght</w>
en ables</w>
behör de</w>
wol lte</w>
Universi tät</w>
dis pos
combin ation</w>
ange zeigt</w>
g reichen</w>
zu vor</w>
claim s</w>
b on
erhö ht</w>
applic able</w>
E M</w>
per spective</w>
man chmal</w>
aufge fordert</w>
gegrün det</w>
erleich tern</w>
Bal kan
vorhan den</w>
rela x</w>
il l</w>
be zogen</w>
coff ee</w>
sei en</w>
cover s</w>
ob tain</w>
aus führ
Pra kti
K rä
Europä er</w>
fi l</w>
emplo yed</w>
lea der</w>
kor re
indepen dence</w>
Kon tin
gewähr t</w>
gi ble</w>
Rats vor
M eter</w>
K i
quali fied</w>
laun ch</w>
humanit äre</w>
vo ice</w>
sol cher</w>
Palestini an</w>
sec re
rail way</w>
ein setzen</w>
Städ te</w>
Sing le</w>
Is land</w>
seri ously</w>
perf ec
schri ft</w>
vor liegenden</w>
bring ing</w>
Y u
reli able</w>
sich ern</w>
dise ase</w>
D ra
li sten</w>
N ame</w>
ali zation</w>
Inn en
man age</w>
m uni
bet onen</w>
Stell ung</w>
gel assen</w>
dür fte</w>
Proble men</w>
Den mark</w>
prep are</w>
displa y</w>
V ir
ut ed</w>
y ester
er b
be comes</w>
ar ticle</w>
9 3</w>
i en</w>
Unterneh mens</w>
bri tischen</w>
jun ge</w>
hin gewiesen</w>
c ards</w>
k aufen</w>
tele vision</w>
et ten</w>
da cht</w>
Risi ko</w>
schwieri g</w>
mi d</w>
St ellen</w>
Ko rea</w>
vorsch lag</w>
ge zogen</w>
bil dungs
ali sed</w>
Communic ation</w>
re ise</w>
approxim ately</w>
gr enzen</w>
y e</w>
Sp ec
S we
4 1</w>
de vices</w>
M ü
inten ance</w>
be lieb
ber eiten</w>
cour ses</w>
identi fied</w>
da p
aspec t</w>
sp unkt</w>
C at
statt finden</w>
l st</w>
weni gen</w>
4 7</w>
in zwischen</w>
bi olo
mul ti</w>
p el
Emis sionen</w>
rie si
not es</w>
li ter
mach ines</w>
par te
Ele mente</w>
viel fäl
enti tled</w>
wa it</w>
pre is</w>
1 000</w>
fi f
tra gs
Z wis
ati schen</w>
Pro vin
EURO P
con dem
b at
ne ar
st ein</w>
s an
T ha
inter es
An lagen</w>
neh mern</w>
g ü
Bedar f</w>
es sel
di strict</w>
vehi cle</w>
b un
e z</w>
stoff en</w>
Dritt ländern</w>
For derungen</w>
cy cle</w>
Sy n
zi gen</w>
lan s</w>
f em
Fre e</w>
dor f</w>
aff ec
Ar gu
g ä
St atisti
Effizi enz</w>
pp er</w>
ne arly</w>
impro vements</w>
mo ving</w>
hi m
M obil
care fully</w>
ung sin
nach folgend</w>
li ghts</w>
Haushal tsp
wel com
ri gh
f ro
sensi tive</w>
se arch
am e
geschütz t</w>
der i
C O</w>
über nachten</w>
fil l</w>
betro ffen</w>
ar chi
ziel e</w>
struktur en</w>
o x
finanzi ert</w>
viel mehr</w>
requ ests</w>
bezieh ung</w>
wür dig
exist ence</w>
G ri
alisi eren</w>
zu ständige</w>
frau d</w>
pre mi
Mittelme er
De fini
or der
ok ed</w>
op position</w>
exc e
co her
pl ätze</w>
cont em
comm unities</w>
Leist ung</w>
fe der
hand s</w>
Asy l
stark en</w>
ol a</w>
con tain</w>
Viel zahl</w>
demokrati sche</w>
n ungen</w>
rit t
er geben</w>
regi stration</w>
wen det</w>
welcom ed</w>
exam ples</w>
n ar
Sat elli
Fest legung</w>
kti ven</w>
rele ased</w>
comp li
ali sts</w>
oni en</w>
est ate</w>
H älfte</w>
Ro oms</w>
k as</w>
mittel s</w>
ho st</w>
cu isine</w>
plat form</w>
Ni veau</w>
Kohä sions
programm s</w>
omm unik
ge prüft</w>
gesch rieben</w>
eu r</w>
e quality</w>
be t</w>
refuge es</w>
i erungs
ühr en</w>
ph ra
kon ta
Fäl le</w>
bei zu
rap h</w>
lös ung</w>
ein richtungen</w>
contrac ts</w>
ausreich end</w>
freu t</w>
ph en</w>
ver hältn
Bestand teil</w>
Fortsch ritt</w>
descri ption</w>
Bi o
lu tion</w>
mark ed</w>
Institu te</w>
Er höhung</w>
or ders</w>
s ser
F i</w>
regel mäßig</w>
zu ständig</w>
ein gehen</w>
te sting</w>
De sign
pf en</w>
Dä ne
Wis sen</w>
3 7
ri ch
li e</w>
unter st
h aus
R ou
Gol f</w>
en ni
al b
mitt lung</w>
sti mul
el ing</w>
Ph ot
IS O</w>
accoun ts</w>
stä d
ed ed</w>
Aspek t</w>
it age</w>
Besu cher</w>
offen sichtlich</w>
whi lst</w>
ul l</w>
ent ran
conduc t</w>
ta il</w>
stor age</w>
down lo
rel ativ</w>
Aktionsp lan</w>
Re form
I B
Gar ten</w>
2 .</w>
call ing</w>
be ziehungen</w>
ou l
Stu die</w>
re m
es sions</w>
S P</w>
r ying</w>
ver ei
glob ale</w>
er scheint</w>
Schwer punkt</w>
u .
ex emp
yester day</w>
dam als</w>
über tragen</w>
t old</w>
erforder t</w>
st ag
res ort</w>
f r</w>
at tra
rie be</w>
Er wer
regel mäßi
gesch ehen</w>
be gan
einfa chen</w>
Ver stän
Ö l
Erzeu gnisse</w>
wel chen</w>
sch we
ru m
Liber alisierung</w>
Schi ff
Ide en</w>
Beru fs
coun ter</w>
ar i</w>
restruc turing</w>
ent re
con tra
M aria</w>
si erungs
char ged</w>
sicher stellen</w>
A .</w>
Erklär ungen</w>
f a</w>
determin ed</w>
L atin</w>
dedic ated</w>
fizi ert</w>
mi ddle</w>
k op
ev a</w>
Nor men</w>
L e</w>
Abgeord nete</w>
disku tieren</w>
Schla f
b lack</w>
s sen
obli gation</w>
o de</w>
compens ation</w>
be haup
nam es</w>
s lo
inter ven
aufmerk sam</w>
ob st
hal tet</w>
zug unsten</w>
u .</w>
v an
T S</w>
UN G</w>
big gest</w>
A R</w>
Über nahme</w>
ver lassen</w>
spezi elle</w>
Hin der
A partments</w>
a chtung</w>
im possible</w>
g barkeit</w>
mi cro
al ter
Kommissions mitgli
schi ed</w>
l uss
for get</w>
ad ed</w>
Stre et</w>
führ ungen</w>
f ly</w>
amp i
co s
V ari
Teil nahme</w>
neh mer
confir med</w>
rit ten</w>
f elt</w>
T est
K er
substan ces</w>
ehr te</w>
mü s
out standing</w>
Klima wandel</w>
B est</w>
I ma
resul ting</w>
G az
Deut sche</w>
wa iting</w>
k ts</w>
wachst um</w>
hi elt</w>
wis hes</w>
9 2</w>
j ahr
EAD S</w>
dig ungs
Kom ple
attemp t</w>
am eter</w>
S cript</w>
Install ation</w>
Aus land</w>
Finn land</w>
restric tions</w>
G ran
elec ted</w>
reich ung</w>
gui de</w>
E l</w>
st öß
al a</w>
strate gies</w>
ma intenance</w>
c lub</w>
Ko oper
F it
exten d</w>
eti c</w>
ag ne</w>
beträ cht
Flexi bilität</w>
propos es</w>
nor th</w>
her gestellt</w>
8 6</w>
fähi g</w>
ü nen</w>
on ed</w>
olo gie</w>
y right</w>
tru ly</w>
Telek ommunik
Gener ation</w>
acces sible</w>
Kon fer
grö ßer
Unabhängi gkeit</w>
tra gs</w>
Grün de</w>
Seh ens
hol ung</w>
h .</w>
will kommen</w>
mi grants</w>
I ON
descri bed</w>
bes ei
m utz
kürz lich</w>
Plat t
prim ary</w>
il lu
rä gen</w>
D utch</w>
un eingeschrän
verabschie det</w>
Eng land</w>
g utes</w>
Diskrimini erung</w>
w all</w>
W an
n den</w>
C C
N I
se eing</w>
g st</w>
chti gkeit</w>
satelli te</w>
L ou
industri es</w>
gelten den</w>
Tsch ech
hel ping</w>
zufrie den</w>
ge gangen</w>
garanti ert</w>
ß te</w>
ver i
organi z
mis s
ver trau
San ktionen</w>
sen sus</w>
le ts</w>
Jahrhunder ts</w>
B SE</w>
tri p</w>
ab sichti
respon sibilities</w>
ir y</w>
Tex te</w>
E O</w>
Res ol
persön lich</w>
Er war
wach sen</w>
k ept</w>
inten tion</w>
lan gt</w>
Ver öffent
antwor ten</w>
Mini stry</w>
F eu
e ar</w>
ü ben</w>
zi erung</w>
bud s
E AN</w>
zah lung</w>
su che</w>
des er
situ ations</w>
su n</w>
sc en
Au gen
Pre sse
K ör
architec ture</w>
Re port</w>
3 D</w>
absolu te</w>
E V
tion ally</w>
tem porary</w>
pic tures</w>
identi fy</w>
wahr en</w>
su ite</w>
Ar z
no tice</w>
mari time</w>
fest stellen</w>
ri ver</w>
h inter
du s</w>
ra pi
ü r</w>
ven ts</w>
near by</w>
for th
P T</w>
fir ms</w>
exp an
ein ger
ar ten</w>
voll ständige</w>
Rom e</w>
great est</w>
absolu t</w>
Kom fort</w>
vern ünf
Vi enna</w>
To des
Di stri
manufactur ing</w>
S til</w>
Dru ck
m illi
loo d</w>
komp li
ver tei
ex hibition</w>
be kämpfung</w>
Ern ähr
fo ur
re servation</w>
Op en</w>
kün fte</w>
nö tig</w>
trä gen</w>
there by</w>
sex u
de ad
j ungen</w>
al em</w>
Fo undation</w>
ill ing</w>
Ch am
lich ten</w>
bil d</w>
af ri
Sa int</w>
mand ate</w>
c ent</w>
th or
emer gency</w>
pass ed</w>
be zeichnet</w>
n d</w>
L AN</w>
de h
si eben</w>
ro ll
bur den</w>
Zivil gesellschaft</w>
i ces</w>
el er
obst ac
spra chen</w>
Lauf e</w>
1 00
safe gu
p he</w>
ke eping</w>
occu p
Dien st</w>
con tained</w>
Techni k</w>
Fähi gkeit</w>
win d</w>
P r
inten sive</w>
her unter
eh t</w>
on going</w>
Finanzi erungs
Turk ish</w>
R ent
il ing</w>
Wor te</w>
Mon at</w>
35 2</w>
my self</w>
produ ktion</w>
g ert</w>
sub mit</w>
Am bi
seek ing</w>
sch em
convinc ed</w>
nah me
Man n</w>
heri gen</w>
Haus es</w>
assi st</w>
län ger</w>
a sts</w>
ung ser
invol ving</w>
Bus h</w>
u red</w>
arri val</w>
4 ,
wissen schaftlichen</w>
ar ms</w>
Au stausch</w>
effec tiveness</w>
Hil fs
cho sen</w>
can c
boo king</w>
Kon trol
G od</w>
ne x</w>
issu ed</w>
groß es</w>
Vereinbar ungen</w>
Reak tion</w>
aff ect</w>
f ts</w>
str onom
jour n
sur face</w>
manufactur ers</w>
Ver letz
physi cal</w>
gro ß</w>
pol lution</w>
Mo bilität</w>
Mo un
M erk
Kroati en</w>
weap ons</w>
gel ungen</w>
Vor teil</w>
son st</w>
religi ous</w>
him self</w>
fer tigt</w>
sor gt</w>
anci ent</w>
m ass</w>
contribu tions</w>
nah e
au stausch</w>
An lage</w>
einfa che</w>
vor legen</w>
hol ding</w>
mi sta
Sant a</w>
dou b
Vi er
ac king</w>
sign al</w>
L im
G U
Davi d</w>
tran sition</w>
mom ent
Re chts</w>
regi stri
C D
kra ft</w>
H ü
Tei len</w>
sanc tions</w>
ens wert</w>
Vertrags verletz
P ass
present ation</w>
198 9</w>
Steu ern</w>
T our</w>
fac tor</w>
Medi a</w>
enh ance</w>
ein ander
Sch luss</w>
bri dge</w>
advanta ges</w>
Li thu
gel y</w>
Zyper n</w>
we chs
w as
ME MO</w>
dynam ic</w>
ar en</w>
Ein fu
einzi gen</w>
siden ten</w>
aff airs</w>
ver anstal
Voraus setzung</w>
sat zes</w>
recom mend</w>
durch schnit
Is lam
Pro di</w>
Pati enten</w>
tur ning</w>
de posi
beginn t</w>
avo i
judi cial</w>
Größ e</w>
at ures</w>
previ ously</w>
dispos al</w>
air craft</w>
be st
Ham burg</w>
än gt</w>
fe ar</w>
un acceptable</w>
p utting</w>
da d</w>
würdig keiten</w>
kein erlei</w>
categ ory</w>
be ar</w>
S D
Euro pol</w>
Un gleich
Unter schiede</w>
abo li
CO N
success fully</w>
rou te</w>
li ability</w>
pack ages</w>
sub scri
li br
u de</w>
ul tim
re move</w>
mö gen</w>
w est</w>
etz ung</w>
Prin zip</w>
Ad ministr
niem and</w>
Region al</w>
loo ks</w>
el a</w>
de ckt</w>
bein haltet</w>
betra chten</w>
Ab end</w>
ar di
im ports</w>
c olo
Ter rasse</w>
Metho de</w>
A rea</w>
Net z</w>
z erstör
ren ov
posi tiven</w>
happ ened</w>
ef s</w>
com ment</w>
M es
gesch lossen
ent gegen
harmon i
PH P</w>
W ander
en ge</w>
der ship</w>
é e</w>
be an
Kir che</w>
................ ................
phi losop
Däne mark</w>
sm aller</w>
kon trolle</w>
Pro duc
scho ols</w>
besch leuni
Po si
Niederlan de</w>
erheb liche</w>
b as
Fun ds</w>
swi t
ro l</w>
E li
dri ving</w>
über greif
ti er
boo ks</w>
an ese</w>
P ic
Ge wi
exten sion</w>
Zah len</w>
drit ten</w>
awar eness</w>
be aches</w>
. 000</w>
ap art</w>
Besch reibung</w>
erh äl
D u</w>
den den</w>
Ban k
sug ges
re isen</w>
welt weiten</w>
p et
stär kt</w>
um b
mot or
desi re</w>
deliver ed</w>
tra gung</w>
tex ts</w>
c au
D y
geh ende</w>
Um struktur
ü sse</w>
tig te</w>
S lowak
re ch
m useum</w>
herz lich</w>
fac es</w>
fli ght</w>
Wh ite</w>
la w
G ali
natur ally</w>
An rei
wesent liche</w>
geb il
for um</w>
em o
F lä
associ ation</w>
form ation</w>
agen cy</w>
serv ations</w>
li ation</w>
do c
am i
grund lage</w>
T en
d al
Geri cht</w>
B au</w>
ti s</w>
na vi
politi sch</w>
ges chn
Kom bin
M ill
S ar
italien ischen</w>
as p
Comp any</w>
Bra zi
un able</w>
me ters</w>
ing u
ec kt</w>
enor mous</w>
tal ks</w>
proz esses</w>
Dec i
begr ün
s z
br ings</w>
wa chen</w>
empfeh len</w>
Pro tection</w>
cla im</w>
Cas ino</w>
g keits
an gesprochen</w>
hän gen</w>
ad or</w>
and ed</w>
unmittel bar</w>
gr o</w>
G an
rema ining</w>
wo durch</w>
st ood</w>
Re li
Mittel punkt</w>
unter nommen</w>
t an</w>
Per spek
Fu ß</w>
don e
Stru ktur</w>
P il
cl ing</w>
Bed ro
be zug</w>
Ver b
ex ports</w>
y ang</w>
writ e</w>
Wor ten</w>
Ver träge</w>
art a</w>
leist ungs
be fassen</w>
amoun ts</w>
or gt</w>
mas sive</w>
m ün
surro unding</w>
An sch
nach zu
us ual</w>
parag raph</w>
empha sis</w>
besitz t</w>
aut onom
Nutz er</w>
Mar tin</w>
E Z
bli n</w>
del ay</w>
Con tro
e der</w>
Ab sicht</w>
vali d</w>
la p
ag ue</w>
reagi eren</w>
du mp
b us
P ro</w>
invol vement</w>
Ale x
Verhand lungs
Struktur fonds</w>
sorg fäl
k ilom
garanti eren</w>
Politik er</w>
frü her</w>
re ve
2 50</w>
ma g</w>
ak tive</w>
Projek ten</w>
stell ungs
Br enn
ci ous</w>
bil det</w>
än derung</w>
C y
um zusetzen</w>
so verei
install ed</w>
Sehens würdigkeiten</w>
äu men</w>
s ach
be wäl
Erei gnisse</w>
zeu gung</w>
fe ed</w>
e chte</w>
Kri min
F en
weiter es</w>
ver fahrens</w>
leb ens
expres sion</w>
trans action</w>
f ein
col or</w>
Verstän dnis</w>
wa re
langfris tige</w>
rel atively</w>
no on</w>
dru gs</w>
or ds</w>
Führ ung</w>
soli di
Mom ent</w>
traff i
Na cht</w>
ge stern</w>
communic ations</w>
Entwicklungs ländern</w>
sh ing</w>
comb ating</w>
a ge
mi c</w>
Man ager</w>
hö here</w>
pri vi
wer ten</w>
T ari
í a</w>
spre ad</w>
organi zation</w>
lauf enden</w>
der artige</w>
e en</w>
Sta at
rep ly</w>
prim arily</w>
Frühst ück
Fin ance</w>
t aus
sh es</w>
relax ing</w>
ra dio</w>
f ach</w>
but ton</w>
St off
lux ury</w>
api er</w>
acc o</w>
sa v
opini ons</w>
ei m
Nach frage</w>
ehemali gen</w>
steu er</w>
consi sts</w>
4 5
produ kte</w>
invest ors</w>
wirtschaft licher</w>
pati ents</w>
S pr
Fun da
n ennen</w>
Ein beziehung</w>
ent ing</w>
d den</w>
be absichti
zurück zu
zipi en</w>
oo k</w>
T emp
Rau m
recognis ed</w>
pi ece</w>
exc ept</w>
Wissen schaft</w>
win dow</w>
Verbesser ungen</w>
E duc
ex tra
co ast</w>
E lec
zuneh mend</w>
as king</w>
unter schei
B M
tar ge
conten ts</w>
u lieren</w>
dep th</w>
ö der
Contro l</w>
incor por
ate ver</w>
exp ensive</w>
est e</w>
entde cken</w>
phra se</w>
I P
ei ght</w>
eng ine</w>
ari o</w>
angem essen</w>
Sin n</w>
dist inc
we st
conclu de</w>
ph ar
con sensus</w>
la h</w>
exam ine</w>
cover ing</w>
posi te</w>
le hen</w>
f illed</w>
abhängi g</w>
enter ed</w>
en dum</w>
Grund rechte</w>
wa i
cent res</w>
angemessen e</w>
1 st</w>
Ti ere</w>
am ong
un it</w>
an bieten</w>
ser ving</w>
s ort</w>
recht liche</w>
enfor cement</w>
m ale</w>
ö ster
Ziel en</w>
Ant worten</w>
verl oren</w>
to b
F ood</w>
Con stitution</w>
mean ing</w>
exper tise</w>
among st</w>
S ur
Re du
Moder ni
Char ter</w>
th eit</w>
enti al</w>
verring ern</w>
einzel ne</w>
m ly</w>
An dre
reach ing</w>
poin ted</w>
guarante ed</w>
fo rest</w>
US B</w>
Glob al</w>
fri ed
foo t</w>
wh atever</w>
zieh t</w>
carb on</w>
U .
compet ence</w>
S qu
er r
be glei
ent lichen</w>
p lu
Stru c
wirk sam</w>
stit utes</w>
sel l</w>
be einf
O U
inst all</w>
ti tle</w>
A tom
appe al</w>
sch ir
controll ed</w>
zusätz lichen</w>
in ary</w>
reflec t</w>
dise ases</w>
For t
Lin ks</w>
Be griff</w>
k el</w>
en ab
An liegen</w>
passen gers</w>
komple tt</w>
ha m</w>
trans l
d ler</w>
W ün
gi r
tri fft</w>
we alth</w>
cap able</w>
hol en</w>
Partn ern</w>
w ater
surro unded</w>
fi es</w>
k ali
Le g
M use
prakti sch</w>
rei fen</w>
depen ding</w>
vis a</w>
i erte</w>
B ir
dec ades</w>
ali a</w>
Besch rän
ho her</w>
ut t
ass em
par a</w>
fül lung</w>
teil nehmen</w>
at a</w>
re ck
Z ü
Auf trag</w>
ut ter</w>
tür k
f ting</w>
Metho den</w>
Kri tik</w>
Genehmi gung</w>
mä chti
mini sters</w>
ati sch</w>
to m</w>
för derung</w>
Regi erung
Hoff nung</w>
kosten los</w>
on to</w>
f it</w>
Geschäfts ordnung</w>
vorsch lagen</w>
fac ed</w>
horiz on
dienstleist ungen</w>
tot ally</w>
U l
holi days</w>
k la
f ach
ab gel
Insel n</w>
spezi ellen</w>
allgem ein</w>
Rei se</w>
v it
sch auen</w>
sti sche</w>
k el
un anim
tion ary</w>
fin ding</w>
off enen</w>
d rei
Mich el</w>
statisti cs</w>
Tra dition</w>
st ory</w>
K no
ac ting</w>
ten e
E gyp
bereit gestellt</w>
Om buds
v ous</w>
e b</w>
anerkan nt</w>
hier bei</w>
Bet ru
intel lec
er griffen</w>
caus es</w>
Ur spr
m ung</w>
psy ch
Um ständen</w>
inf lation</w>
Sek toren</w>
sho fs</w>
mei st</w>
Jo int</w>
tax es</w>
schn eller</w>
I A</w>
inter face</w>
att acks</w>
rel ess</w>
F la
L E
c m</w>
Arz nei
ak t</w>
führ ende</w>
Bot schaft</w>
geri cht
ze go
Gegen satz</w>
ban ken</w>
t ment</w>
liber alisation</w>
tre ated</w>
konkre ten</w>
ex plan
w an</w>
offici als</w>
O P
Sch ri
re is
squ are</w>
ehr gei
u si
is ch
beau ty</w>
unterstütz e</w>
bli oth
char ges</w>
Ob ama</w>
zu erst</w>
nun mehr</w>
bis lang</w>
fas hi
gri ffe</w>
Aus sicht</w>
hil fen</w>
b ars</w>
attrac tions</w>
u e
adju st
Arbeitsplätz en</w>
f i</w>
betreff end</w>
F estival</w>
ol der</w>
R in
Her zego
Veranstal tungen</w>
Gu est</w>
bür ger
sol e</w>
nation s</w>
consequ ently</w>
reich s</w>
as sets</w>
C ast
gres sive</w>
Pla yer</w>
Emp loyment</w>
Can ada</w>
st ations</w>
führ ungs
att ack</w>
zugän glich</w>
St or
breit et</w>
ban king</w>
An bieter</w>
über ra
sp anischen</w>
ateg orie</w>
lu ß
il and</w>
tor al</w>
mitt ler
om as</w>
C ro
ni er</w>
ver gleich
lei sch</w>
lea dership</w>
Bereit stellung</w>
I V
sat lan
Sc ot
an hand</w>
Technolo gy</w>
g uter</w>
Vorsch lägen</w>
Entschei dungs
condi tioning</w>
An d</w>
regel ung</w>
her vor</w>
zu legen</w>
ta bel</w>
direc tives</w>
y outh</w>
compet ent</w>
ar m</w>
vis ed</w>
seit ens</w>
einheit lichen</w>
Arbeitsp lat
Sch war
Fir men</w>
Mus li
mem ory</w>
inv ited</w>
wor fen</w>
de vice</w>
li ers</w>
ge biete</w>
g isch</w>
and o</w>
bezieh t</w>
Landwir te</w>
zentr alen</w>
figh ting</w>
iel t</w>
tri ed</w>
Pro grammen</w>
me at</w>
it h</w>
w oo
represent ative</w>
r é
optim al</w>
t ack
Comm on</w>
geogra phi
S M
persön liche</w>
institution ellen</w>
entscheiden d</w>
Z in
struc tion</w>
Netz werk</w>
re place</w>
ne ut
zu verlässi
er öffnet</w>
Lo g
Be sitz
sto ßen</w>
pren e
R ad
ote chnolo
g al
le ads</w>
Swe dish</w>
genau so</w>
blo ck</w>
Hom e</w>
bestimm ter</w>
Musi k
multi ple</w>
Mitglied s
außer ord
verstär ken</w>
beg lück
ung er</w>
Op tion</w>
hon ourable</w>
fru it</w>
win den</w>
n de</w>
c ast</w>
Ur teil</w>
Sonn en
Democ rats</w>
Spra ch
ti ken</w>
conveni ent</w>
äu fer</w>
e c</w>
Mot or
gol f</w>
enth al
omm unic
I C</w>
sur vi
do ku
Stad tz
perfec tly</w>
im posed</w>
sto cks</w>
be wegen</w>
ci pl
ent wurf</w>
bekan nten</w>
Pau l</w>
Beh in
si mul
B ab
Sch ön
N O
S t</w>
ho l</w>
Mär kten</w>
C ard</w>
event u
wichti ges</w>
ge tr
d or</w>
gl ass</w>
he avy</w>
Sit z</w>
S and
Hoch schul
wieder um</w>
lie fern</w>
geschi eht</w>
tack le</w>
k einer</w>
certain ty</w>
grenz ung</w>
determin e</w>
identi ty</w>
an nen</w>
foc used</w>
Kompromis s</w>
Agrar politik</w>
residen ce</w>
arti sts</w>
Ori gin
B ou
Kontrol len</w>
ment ally</w>
enst ein</w>
Sam m
t ab
b ath</w>
ak ia</w>
Ar gent
wün sche</w>
verkehr s</w>
la ke</w>
const antly</w>
au c
gehö rigen</w>
ter s
O ut
li t</w>
.h .</w>
sol ange</w>
jäh rige</w>
zeu g
Doku mente</w>
tradition ellen</w>
tu m
Mis s
ti le</w>
tou ch</w>
ven tionen</w>
dra wing</w>
Down load</w>
ge öffnet</w>
Sch w
Cu st
man gel
d .h.</w>
ch ain</w>
Berat ung</w>
Reli gi
J er
W aff
expec tations</w>
v a
Diskus sionen</w>
Defini tion</w>
lat ter</w>
T al
Mon tene
Li cht</w>
ra d</w>
V an</w>
Com pu
recommen ded</w>
ati ver</w>
wä ch
require ment</w>
m 2</w>
dec la
Entwicklungs länder</w>
ris ing</w>
Beihil fe</w>
form ul
sem in
freund liche</w>
Direc tor</w>
te dly</w>
Du blin</w>
a den
Ver kehr
Grenz e</w>
.ht m</w>
K r
n els</w>
auf zunehmen</w>
an geht</w>
sol d</w>
equ ally</w>
Re alität</w>
füh len</w>
ch urch</w>
up dated</w>
E hr
aller y</w>
s we
recommend ation</w>
Wachst ums
acqui sition</w>
sor gungs
some one</w>
Saf ety</w>
prof it</w>
protec ting</w>
phot os</w>
ex klu
de cre
In n</w>
Fot os</w>
Ord nung</w>
K aff
präsen tiert</w>
stimm t</w>
beschäf tigt</w>
V it
Allgem einen</w>
di schar
Dro gen
Haupt stadt</w>
nit ure</w>
smo king</w>
ma ß</w>
reit er
ta g
val ent</w>
schließ t</w>
We chsel
Fähi gkeiten</w>
ma y
lie gende</w>
ti erte</w>
no ise</w>
R ob
ma g
Pe ople</w>
Män ner</w>
deta illi
gel aden</w>
W es
C F
Sup port</w>
D S
righ tly</w>
fra gt</w>
Deci sion</w>
sha res</w>
In fl
acc ess
beträ gt</w>
lar gely</w>
beein trä
geh enden</w>
fin de</w>
Beit räge</w>
z za</w>
z y</w>
Mein ungs
p our</w>
rau ms</w>
Ein druck</w>
AK P</w>
increas es</w>
di um</w>
wirk lichung</w>
hab er</w>
wirk sam
i sten</w>
. de</w>
S ha
k tor</w>
T ai
Aus bau</w>
invol ve</w>
frei wil
Struktur en</w>
C af
v ar
mi en</w>
Unter kunft</w>
kulturel le</w>
Wer t
Harmon isierung</w>
tä u
gen i
So ft
Poli sh</w>
re den</w>
Educ ation</w>
7 00</w>
kl einer</w>
trans fer
ini ert</w>
f abri
ed ge</w>
min e</w>
ff er</w>
or am
br e</w>
T wi
be u
extre me</w>
wirk ung</w>
A M</w>
Wil len</w>
sen s</w>
ob ject</w>
er läu
Dep uty</w>
grundle genden</w>
en -</w>
Ge gent
ori um</w>
sprü che</w>
moun tains</w>
ell ed</w>
ab road</w>
a qu
Vor gehen</w>
grundsätz lich</w>
o st
mel dung</w>
Exper ten</w>
komp et
li eben</w>
Arbeits markt</w>
stre am</w>
qu ick</w>
Alt stadt</w>
un ch</w>
Verk auf</w>
hand ling</w>
sou thern</w>
Wei ß
s eiten</w>
ver langen</w>
PP E</w>
h ü
Ro yal</w>
ID S</w>
dic t
w asser</w>
mer ely</w>
Qu ar
3 .</w>
mo vi
Hau p
is chem</w>
ein verstanden</w>
wes halb</w>
Charak ter</w>
G ent
Be am
beeinf lus
ati cally</w>
stim mi
Pal ace</w>
R am
depen dent</w>
S C
Er de</w>
Ap parte
re mind</w>
Stu dio</w>
f ak
UN G
Po st</w>
gei sti
Risi ko
gesp ei
an statt</w>
do s</w>
St ein
kurz fris
expla in</w>
er mu
Materi al</w>
berei chen</w>
ga z
foli o</w>
v als</w>
leh nen</w>
Sch nit
Proto col</w>
Con su
ck er
furnis hed</w>
Pre sse</w>
we stlichen</w>
5 2</w>
obvi ous</w>
Ver wirklichung</w>
tion ality</w>
komm erzi
c en
wle d
landscap e</w>
Bes or
ati es</w>
Ba y</w>
Partner ship</w>
gewis se</w>
Z ul
Got t</w>
sta k
m o</w>
gewäh lt</w>
eben e</w>
Anwen dungs
st ol
über nommen</w>
sch te</w>
Ver bot</w>
geb enen</w>
6 7</w>
ov is
Pot enzi
Bei spiele</w>
16 0</w>
ri gi
Hol z
volu me</w>
ni c</w>
indic ated</w>
C ri
Angebo te</w>
system en</w>
Gegent eil</w>
B ahn</w>
can cell
De f
weis ung</w>
be stehende</w>
H än
an schließend</w>
Besch lüsse</w>
a side</w>
Sp ek
Krank heiten</w>
dis cipl
beg onnen</w>
Ver breitung</w>
Sch u
K lar
Aus nahme</w>
ob tained</w>
Staats sekretär</w>
barri ers</w>
Vertei digungs
M EN
Gesprä che</w>
0. 000</w>
priv acy</w>
ã o</w>
La ke</w>
1 20</w>
sch ten</w>
Bra si
lei den</w>
Gesetz gebung</w>
will ing</w>
j i
et t</w>
Res ort</w>
l es
ch ap
Tour ismus</w>
or al</w>
bed ro
a ther</w>
ge arbeitet</w>
di men
Fa x</w>
disa ster</w>
är m
i le</w>
heal thy</w>
l li
traffi cking</w>
rec ord
vorzu legen</w>
T EN</w>
ir s</w>
defin e</w>
Hi gh
B us</w>
Wor k
construc tive</w>
Yu gosla
Mitglied schaft</w>
de cken</w>
resol ved</w>
de alt</w>
Struc tural</w>
Eisen bahn
ide ale</w>
zw an
Rechn ung
Mis sion</w>
ch st
Dat a</w>
O s</w>
Al liance</w>
far m</w>
Ge win
F arb
st ings</w>
is sen</w>
graphi c</w>
Kris en
Jav a
sy mp
ra y</w>
gn e</w>
Wi en</w>
A qu
europ a</w>
contem porary</w>
collec tive</w>
In done
spr ing</w>
passen ger</w>
Ameri ka</w>
Ver halten</w>
19 .</w>
Kooper ations
rapi dly</w>
öffent lich</w>
wel fare</w>
bu re
wer fen</w>
gh ted</w>
än ger</w>
wirk same</w>
pre sident</w>
entwick elten</w>
te es</w>
durch zuführen</w>
Res p
läss lich</w>
ar ticles</w>
Ar chi
encour aging</w>
P act</w>
Gr unde</w>
sp ür
höch ste</w>
l ots</w>
no ch
f esti
disku tiert</w>
natür lichen</w>
experi ences</w>
Entschließungs antrag</w>
Publi k
lok ale</w>
li cherweise</w>
kom b
fi gure</w>
exc essive</w>
be ge
di verse</w>
acti vely</w>
L ink</w>
I K
setz ungs
W ash
Bal tic</w>
sh aring</w>
ein geleitet</w>
oc cur
Staats an
Co operation</w>
Ge winn
ro krati
Grün dung</w>
A i
Sloven ia</w>
R h
began n</w>
vor genommen</w>
ück en</w>
qu is</w>
or a</w>
be stand</w>
Kombin ation</w>
St art</w>
si e
resp ek
main tained</w>
k al
ver lieren</w>
Moderni sierung</w>
u d</w>
ein s</w>
colleag ue</w>
t un
ameri kanische</w>
Verfü gbarkeit</w>
erhäl tlich</w>
Wirtschaf t
OL AF</w>
A dri
5 1</w>
Gesetz e</w>
ri c</w>
produc ing</w>
gn ise</w>
ba siert</w>
m ation</w>
Fak toren</w>
tob acco</w>
resol ve</w>
kurz em</w>
grundle gende</w>
g are
Ein stellung</w>
person ally</w>
Be fu
ren o
öster reich
reco gnise</w>
Kon kur
x en</w>
be währ
jud gment</w>
it ten</w>
ultim ately</w>
sha pe</w>
engine ering</w>
ati sche</w>
Rezep tion</w>
z ell
vorgeseh enen</w>
hel ps</w>
Portu gu
ta k
schem es</w>
mo de</w>
5 ,
au dio</w>
außer gewöhn
Ver einfach
M ak
ti zen</w>
Ne ws</w>
8 8</w>
men ts
cor ruption</w>
&apos; ve</w>
mon o
Vorsch lags</w>
ange wand
gemein schaftlichen</w>
strate gischen</w>
Gesch le
stak ehol
nam ed</w>
In nen</w>
ra in</w>
Bewe gung</w>
vulner able</w>
ac compani
sätz en</w>
sp a</w>
ber at
a ward</w>
Sch ü
mensch lichen</w>
excep tional</w>
Inter ne
loc ations</w>
sett lement</w>
el i</w>
del a
Berat ungen</w>
A ktion</w>
A id</w>
k enn
ur ge</w>
pre is
ein schlä
Verbin dungen</w>
k y</w>
Sch äden</w>
Zu stand</w>
Telef on</w>
zweifel los</w>
imp lic
Erwar tungen</w>
ver langt</w>
er as</w>
eng agi
O M</w>
f ischen</w>
to s</w>
Mi kro
vertre ten
provi ders</w>
bro wser</w>
at oren</w>
dies el
akzep tiert</w>
fahr t
dan ger</w>
beteili gen</w>
un its</w>
dat en
lie f</w>
Daten bank</w>
is s
g one</w>
ö se</w>
An schluss</w>
cop y</w>
effizi enz</w>
Zer ti
Slo weni
hel ped</w>
em ed</w>
t emp
fi cial</w>
po ll
Lithu ania</w>
wat ch</w>
vi sible</w>
es th
cu rement</w>
discuss ing</w>
d ritte</w>
re serve</w>
dest ination</w>
inclu sion</w>
Ge wä
W inter
Sch ule</w>
p ine</w>
net z</w>
e gal</w>
pro vin
estim ated</w>
suff ering</w>
beg ri
vis ory</w>
ex ists</w>
Gol f
leg ungen</w>
conduc ted</w>
Fran c
F lash</w>
Ba si
be handeln</w>
ass ess</w>
wh ol
pl en
E P</w>
si bly</w>
Fis heries</w>
k ern</w>
erlau ben</w>
ari um</w>
Slov akia</w>
g ischer</w>
Fir st</w>
dustri e</w>
t ter
Projek t
bal con
Veranstal tung</w>
Frem den
r auch</w>
behand lung</w>
Gemein schaften</w>
Aut ob
6 8</w>
valu able</w>
politi cians</w>
comp lic
ass ungen</w>
Über gangs
Pu tin</w>
kon tinu
en de
sich erung</w>
berühm ten</w>
Mili tär
out put</w>
def ault</w>
al ed</w>
er ror</w>
ver sions</w>
man che</w>
6 6</w>
milli ons</w>
S hi
b om
Bahn hof</w>
u. a.</w>
we gs</w>
pos ing</w>
G B</w>
sustain ability</w>
i ti
web sites</w>
sch war
main taining</w>
justi fied</w>
Zah lungen</w>
beschrän kt</w>
ar ance</w>
Fra ktionen</w>
streng th</w>
W ür
G laub
wn s</w>
bed ing
unter zeichnet</w>
fis her
Dar lehen</w>
reg ularly</w>
ne ter</w>
la y</w>
bu chen</w>
noch mals</w>
W affen</w>
subsi dies</w>
Land schaft</w>
voll kommen</w>
un to</w>
sen s
high light</w>
ser vers</w>
ing er</w>
chem ical</w>
c ot
Minister in</w>
ö sen</w>
emer ging</w>
Gesell schaften</w>
leng th</w>
drit tens</w>
---- ----
spac es</w>
Bu ch</w>
confi gur
ver mi
N L</w>
Nicht rau
C lu
ver hand
AC P</w>
sta at</w>
pleas ure</w>
stron ger</w>
blu e</w>
Energi ever
vorgeschla gene</w>
di enst
trans actions</w>
nahe zu</w>
Nah en</w>
Gewähr leistung</w>
spo t</w>
ali täten</w>
L E</w>
Eink aufs
schö n</w>
pp en</w>
hin zu</w>
Java Script</w>
celeb r
Frühstück s
r t</w>
k g</w>
Mr .</w>
ori a</w>
R ules</w>
D ay</w>
r uns</w>
kün st
Montene gro</w>
stra ße</w>
cre ative</w>
schn ell
Aut o
mel den</w>
kin ds</w>
acc eler
er ie</w>
on i</w>
kar ten</w>
cht es</w>
stra i
lat t</w>
Poli tiken</w>
s n
p ft</w>
bet t</w>
t ative</w>
b ag
Portugu ese</w>
sk in</w>
g y
schwieri gen</w>
s .
h ence</w>
Re siden
sol ve</w>
aff ir
Squ are</w>
enhan ced</w>
b ing</w>
automati c</w>
nä her</w>
vie wed</w>
pro of</w>
vi lla</w>
ta ste</w>
5 6</w>
feh l
Kommunik ations
C ur
projek te</w>
da fri
zü ge</w>
K en
mo ved</w>
eri or</w>
Stro m
Form at</w>
au x</w>
zusammen arbeiten</w>
zi el</w>
dan s</w>
d ating</w>
b ele
Ru he</w>
w ah
Wissen schaft
Win ter</w>
Stock hol
speak ers</w>
for schung</w>
Nor di
hil ft</w>
Be ach</w>
A IDS</w>
kontinu ier
P eti
Er wachsen
Am t</w>
ti erten</w>
elektron ischen</w>
entre prene
new ly</w>
ge bieten</w>
Ver such</w>
T ie
P ool</w>
neu esten</w>
leav ing</w>
Far ben</w>
K ategorie</w>
ES S
op posite</w>
W äh
Engli sch</w>
Vizeprä sident</w>
Un d</w>
wissen schaftliche</w>
befür wor
Wash ington</w>
8 9</w>
for d</w>
and elt</w>
Untersu chungen</w>
Mex i
B R
uni versal</w>
glich keit</w>
b lin
Ac t</w>
decla red</w>
Slowak ei</w>
Aus fu
ek en</w>
Ser ie</w>
Brit ain</w>
B ör
erinn ert</w>
F as
mot or</w>
ein geb
we g
hö her</w>
bu te</w>
quar ter</w>
be sides</w>
aus gesetzt</w>
Führ ungs
heu tige</w>
E H
ei ra</w>
tur ns</w>
9 4</w>
tats äch
UN ION</w>
fa ßt</w>
Veröffent lichung</w>
th in</w>
occa sion</w>
früh eren</w>
o ten</w>
E ssen</w>
ziel en</w>
ut ing</w>
pro file</w>
West en</w>
7 1</w>
under taken</w>
civi li
S om
re ported</w>
is ol
bel on
vi l</w>
th ers</w>
C L
Regi stri
L t
ei l
constitu te</w>
C openhagen</w>
K auf
pursu e</w>
it i</w>
Jap anese</w>
te ste</w>
S par
sch ritt
B O
schn ei
ab sen
pal ästinen
Daten schutz
ver gen
ni veau</w>
du ties</w>
accompani ed</w>
Twi tter</w>
Klima anlage</w>
herr scht</w>
Gest altung</w>
const ant</w>
7 2</w>
J es
ver änder
ed ly</w>
it al
Beteili gten</w>
li qui
letz tlich</w>
tri eben</w>
Jo se
с т
Spiel e</w>
ad voc
a stri
Binnenmark tes</w>
au shal
sek tors</w>
co ast
In f
fe eling</w>
Geor ge</w>
Kli ma</w>
Resol ution</w>
E ar
bed room</w>
thre at
sch afft</w>
mati c</w>
Premi er
Plan ung</w>
tro u
dist or
op les</w>
Sü den</w>
B ol
Lebens mittel</w>
An griff</w>
be kämpfen</w>
5 3</w>
y r
histor ische</w>
dro p</w>
M em
Ferien woh
Chanc en</w>
en ger</w>
m ur
höch sten</w>
C op
di ge</w>
Nach hal
F on
conci liation</w>
zi em
ent lang</w>
mil k</w>
f ail</w>
v ast</w>
tt able</w>
durch führen</w>
intellec tual</w>
Ak tu
H en
Mun ich</w>
F ein
ver trag</w>
depen ds</w>
Mark tes</w>
supp le
beteili gten</w>
US D</w>
vil le</w>
an gen</w>
th ro
h ungen</w>
organiz ations</w>
Ge fühl</w>
vor an
auth or</w>
Zim mern</w>
A sh
terror ist</w>
ko st
fle et</w>
d ul
A ssi
spra chi
re jected</w>
expl ore</w>
Ma ß</w>
conc ep
20 .</w>
u ung</w>
Aus gang
r ö
em a</w>
dru g</w>
Fri ed
Wirtschafts wachstum</w>
kon zep
ar ischen</w>
T reib
Ratsprä sident</w>
Ex press</w>
betri eb
Ch arta</w>
H öh
9 1</w>
to urs</w>
woh l
An nex</w>
exclu sively</w>
Zus atz
essel s</w>
Rau ms</w>
L O
fl at</w>
comp u
c ab
W e</w>
Stadtz entrum</w>
Sch aden</w>
sk y</w>
ameri ka</w>
K ilom
uni versi
ma gaz
ho ff
Eigen schaften</w>
Tem per
ac tors</w>
verschieden er</w>
g ere</w>
V ic
C AP</w>
Brazi l</w>
ini en</w>
Vi et
B la
k es
hi p</w>
Ma astri
adv is
Li ve</w>
höh eren</w>
gli e
determin ation</w>
in ter</w>
h it</w>
fün f
finan ced</w>
Ko operation</w>
An gel
R et
Po ker</w>
Fre unde</w>
offi ces</w>
f tung</w>
appl ying</w>
Ex ecutive</w>
Energi en</w>
ey e</w>
Organ e</w>
beru ht</w>
prepar ing</w>
high ligh
St unde</w>
B ER
supp liers</w>
Sub sidi
Prakti ken</w>
al d</w>
sicher gestellt</w>
Be dien
sch efs</w>
conflic ts</w>
e chten</w>
Sp ann
organi siert</w>
her aus</w>
Ver brechen</w>
weit gehend</w>
che ap</w>
T P</w>
geri a</w>
de par
AR E</w>
satisfac tory</w>
lo g</w>
Net work</w>
wirk lichen</w>
Stoff e</w>
Er holung</w>
tre aty</w>
c utting</w>
Al ter</w>
m ol
Mr d.</w>
G a
ma ster</w>
Balkan s</w>
schn elle</w>
telec ommunic
k ir
ah nen</w>
Vertri eb
D am
si ed
f ted</w>
Architek tur</w>
re main
w us
T aus
Gä sten</w>
5 0
w u
atti tude</w>
star ten</w>
drück en</w>
zu gang</w>
ursprün glichen</w>
Ser bia</w>
tre at</w>
fest gelegten</w>
char ming</w>
Rom an</w>
bequ em</w>
Leb ens</w>
Betra g</w>
6 ,
dar y</w>
jem and</w>
ECH O</w>
z in</w>
tei lungen</w>
mit tag</w>
entscheiden der</w>
c able</w>
audi ovis
Umweltsch utz</w>
Su ch
Mon etary</w>
at ur
Dialo gs</w>
noti fied</w>
kon textu
M ach
spartn er</w>
ob jek
ge teilt</w>
Hand els</w>
l usses</w>
fu r</w>
d inner</w>
Verf assungs
fa ster</w>
bedeu ten</w>
ro ads</w>
en ded</w>
Kar ten</w>
sch em</w>
objec ts</w>
den de</w>
an i</w>
ec es</w>
EN T
8 1</w>
m l</w>
Sho p</w>
Gei st</w>
elektron ische</w>
collabor ation</w>
Stand ard
techni k</w>
m i</w>
cour ts</w>
akti ven</w>
sex ual</w>
contin ent</w>
par ents</w>
R adi
erst mals</w>
cre ates</w>
R und
Kör per</w>
m essen</w>
P ack
Fi re
Est onia</w>
Rot ary</w>
räu men</w>
lin gen</w>
consider ing</w>
Y ou</w>
volun tary</w>
schätz en</w>
genommen en</w>
d as
zi r
Ma z
Mo bile</w>
stru k
sau ber
begrenz t</w>
Z ur
stra h
erweiter t</w>
connec tions</w>
Inter essen
CO M</w>
sion al</w>
gesp ielt</w>
di agno
bo at</w>
Konta kt
Nor thern</w>
temper ature</w>
her itage</w>
col d</w>
chine sischen</w>
ung st
di r</w>
Bes ei
An hang</w>
ann es</w>
zi p
ens es</w>
wid ely</w>
im port</w>
War en
al co
re d
invol ves</w>
go s</w>
character istics</w>
To d</w>
s é</w>
pro curement</w>
Erk enntn
h i</w>
fant astic</w>
La w</w>
v essels</w>
forth coming</w>
pro ve</w>
not ably</w>
2 1.</w>
Altern ative</w>
servi ert</w>
in er</w>
Det ails</w>
F R
al located</w>
Zwis chen
deb ates</w>
ma kers</w>
ani an</w>
den ten</w>
Vi sion</w>
Get rän
sp on
pro p
ori ent
Inter nal</w>
5 4</w>
supp lies</w>
Sch au
L ord</w>
Kü ste</w>
Hand eln</w>
ge wer
bemü hen</w>
C .</w>
kno ws</w>
er sucht</w>
r ori
Besor gnis</w>
sich ert</w>
Um feld</w>
bemü ht</w>
par la
Nor den</w>
vor her
sa cht</w>
prec ise</w>
b ol
Vereinfach ung</w>
Ombuds man</w>
absen ce</w>
Mas sen
t reiben</w>
re ds</w>
eth nic</w>
Air bus</w>
wer tung</w>
Jour n
Bevölk erungs
ver ändert</w>
Gre at</w>
8 7</w>
zügi gkeit</w>
Jav a</w>
f an</w>
ali zed</w>
ar tigen</w>
vor rangi
aus gerichtet</w>
General dire
Flücht linge</w>
subsidi arity</w>
staat lichkeit</w>
oh n</w>
fur niture</w>
entscheiden de</w>
l ying</w>
hol ders</w>
Völ ker</w>
verur sacht</w>
im pose</w>
remo ved</w>
erfol greiche</w>
Sloweni en</w>
Überein stimmung</w>
kehr en</w>
Subsidi ar
St än
sch la
W C</w>
tu t</w>
boo st</w>
ackno wled
abili tät</w>
Uni ons
Op tionen</w>
notwendi ge</w>
Kon sequ
Fre ude</w>
or ca</w>
em m
aus geschlossen</w>
gram mi
kur ze</w>
f es</w>
äu me</w>
Platt form</w>
K unde</w>
Num mer</w>
tre es</w>
effizi ente</w>
re form
di versi
Min utes</w>
F ischer</w>
ersch einen</w>
ent standen</w>
Mex ico</w>
emphasi se</w>
person en
zu gr
y le</w>
er reich
Zuständi gkeit</w>
Su ite</w>
obstac les</w>
ern st</w>
6 2</w>
P et
G ep
produc tive</w>
Pun kten</w>
sch wei
li sten
jo ined</w>
is hing</w>
entsch lossen</w>
Cham ber</w>
fac ts</w>
6 1</w>
n ische</w>
Nor way</w>
fähi gen</w>
flü ge</w>
New sletter</w>
pf ung</w>
Be weis</w>
Zu griff</w>
U. S.</w>
p .m.</w>
unver züglich</w>
pe oples</w>
bestimm ungen</w>
person nel</w>
gro w</w>
c af
Besei tigung</w>
ein bezogen</w>
Über na
sav ings</w>
Gerä te</w>
Geri chte</w>
bour hood</w>
L au
sich ere</w>
mul tin
li erung</w>
An stieg</w>
gl ück
R an
man ager</w>
ell o</w>
coordin ated</w>
P flicht</w>
avi ation</w>
Materi alien</w>
Er füllung</w>
ti que</w>
hosp it
stakehol ders</w>
ktiv ität</w>
Bo den</w>
funktion ieren</w>
Web sites</w>
ro te</w>
per form</w>
dis covered</w>
Schul en</w>
s ligh
T his</w>
Zw ecke</w>
Vertei digung</w>
m ir
cop yright</w>
besitz en</w>
Konfli kt</w>
v is</w>
ur teilung</w>
Sch ool</w>
Komm un
auf nehmen</w>
glob alisation</w>
Aus führungen</w>
An fragen</w>
Institu tion</w>
Wer bung</w>
we ather</w>
sty li
hi b
te ams</w>
k top</w>
bed rooms</w>
Ver halten
kon sequ
dire kte</w>
n i</w>
la sting</w>
su gar</w>
nieder ländi
Lit auen</w>
zi ge</w>
frequ ently</w>
fe e</w>
eigen es</w>
an nehmen</w>
Ro bert</w>
tei ls</w>
Wer k</w>
Nichtrau cher
where as</w>
op posed</w>
demonstr ate</w>
5 8</w>
sen de</w>
ziem lich</w>
A sien</w>
windi gkeit</w>
Studi en</w>
stre bt</w>
Wohl stand</w>
Aus arbeitung</w>
il fe</w>
Ri ch
Über zeugung</w>
regre t</w>
cas h</w>
Hoh en</w>
wor se</w>
ex ecu
Ara b</w>
ordn ungen</w>
a is</w>
Su dan</w>
ti ckets</w>
t ent
leist ungen</w>
im mer
awar ded</w>
Einwander ung</w>
con taining</w>
produ ziert</w>
hier für</w>
de tec
ange l</w>
Pre isen</w>
G old</w>
kri ti
ber ech
Schi ffe</w>
Kin d</w>
Gemein same</w>
wissen schaft
ge führten</w>
acht eili
Kop f</w>
Bi blioth
interes siert</w>
ei st
H on
zw ungen</w>
sozi aler</w>
m us</w>
happ ens</w>
brie f</w>
. 00</w>
ursprün glich</w>
te en</w>
lab elling</w>
contri but
IS CH
kat astro
tru th</w>
Gedan ken</w>
ran k</w>
T est</w>
inten d</w>
e ast</w>
D oh
li sts</w>
8 2</w>
wirtschaft lich</w>
lo vely</w>
Man u
Ele ment</w>
respec ted</w>
ben den</w>
mutz ung</w>
moder nis
acqu is</w>
stre ssed</w>
Telef on
Ri ver</w>
Sem in
interpre tation</w>
gesetz ten</w>
Fen ster</w>
re serves</w>
produc tivity</w>
ro b
re stri
abgel eh
V I
verhin dert</w>
dire kten</w>
L ett
educ ational</w>
N ein</w>
russi schen</w>
strate gische</w>
appreci ate</w>
stre ets</w>
Lu ft</w>
D auer</w>
ge prä
adop ting</w>
ex por
U M
vi de
dischar ge</w>
Bu dap
5 9</w>
organi zed</w>
lo ans</w>
di tionen</w>
Zu sch
Al li
mo stly</w>
targe ted</w>
dri vers</w>
Er haltung</w>
C S
ot te</w>
ci tizen</w>
hund reds</w>
exper t</w>
Tim e</w>
Kol lege</w>
Ab fall
6 3</w>
Zentral bank</w>
jour ney</w>
berechti gt</w>
Regi me</w>
ä um
we stern</w>
confir m</w>
St ability</w>
län dliche</w>
mus ste</w>
eb ung</w>
appe ared</w>
Mittelme er</w>
Fo to</w>
satisfac tion</w>
un gef
tran satlan
Masch inen</w>
ten si
st ant</w>
re di
lei sure</w>
gli cher</w>
defin iert</w>
verantwor tungs
hervorra gende</w>
di d
Städ ten</w>
k amen</w>
ful fil</w>
M AR
Geschä ft
Geb rauch</w>
sch ule</w>
own ers</w>
on ic</w>
er stre
Auf sichts
sign s</w>
s .</w>
M ur
V .</w>
t wi
g ins</w>
Pla za</w>
è s</w>
R and
Ent la
7 7</w>
nach drücklich</w>
la m</w>
exp lic
einge halten</w>
C R
ex ec
Belgi an</w>
Her b
en kt</w>
dra w
divi ded</w>
impres sive</w>
R oom</w>
Mi gration</w>
w alls</w>
sti sch</w>
rü stung</w>
dump ing</w>
ran g</w>
dis krimini
enen falls</w>
Unter schied</w>
obli g
bekräf tigt</w>
Gleich gewicht</w>
äuß ern</w>
äh r</w>
pf lan
reali stic</w>
masch inen</w>
di shes</w>
c ans</w>
sch ed
gegeb enenfalls</w>
Lat via</w>
Kommissionsmitgli ed</w>
4 .</w>
ar ab
Bemerk ungen</w>
at uren</w>
K ür
Formu lar</w>
eini gung</w>
7 3</w>
s and</w>
klär ung</w>
enth usi
shor t
pat ent</w>
niem als</w>
Wo chen
Krimin alität</w>
programm ing</w>
muni cip
C er
Tra g
Dig ital</w>
te sted</w>
schätz ung</w>
ra w</w>
H IV</w>
hei m</w>
spec tac
z o</w>
mess ages</w>
kti v</w>
klar en</w>
he ating</w>
Proz esses</w>
d ining</w>
ra ising</w>
ze i</w>
geeig nete</w>
Fer r
har m
enter tainment</w>
bo und</w>
f ing</w>
er leichter
e astern</w>
zu lassen</w>
fin ished</w>
dele gations</w>
b ann
Gegen stand</w>
ph s</w>
vent ure</w>
ven tion
si sch</w>
pi eces</w>
in habit
di sche</w>
he ber
bei getragen</w>
R ele
Um gang</w>
Mehr wert
comm and</w>
Kre u
Dy nam
Bes onder
Ven e
pla ys</w>
zus ehen</w>
ori ented</w>
gent ly</w>
ausgezeich nete</w>
ähn liche</w>
zufrie den
Wirk lichkeit</w>
it ely</w>
Vide o
g eren</w>
conver gence</w>
ati k</w>
P lu
sk a</w>
illeg alen</w>
B ack
lo sses</w>
ti cket</w>
oper ative</w>
Ver pack
b lood</w>
U ser</w>
Män nern</w>
Konsul tation</w>
war ran
pro mp
Kapit el</w>
Bet re
dau er</w>
d einer</w>
R om</w>
min ority</w>
Stabili täts
Doh a</w>
sonsti ge</w>
expan sion</w>
G AP</w>
unter sucht</w>
Li fe</w>
vereinbar t</w>
Vertre tern</w>
Fr ist</w>
n ungs
Cul ture</w>
vor anzu
Hung arian</w>
Minister prä
verlei hen</w>
ei ll
ungef ähr</w>
bo ten</w>
bel an
I l
ruhi gen</w>
ow ner</w>
over come</w>
comm un
humanit ären</w>
ehemali ge</w>
ogra fi
critic ism</w>
voll ständigen</w>
sh ar
ch a
My SQL</w>
franzö sische</w>
A ssem
Mün chen</w>
sper ity</w>
provi der</w>
gerä te</w>
Wahr heit</w>
Vertra g
perc ent</w>
bestä tigen</w>
Kur z
in folge</w>
ra c
fli ghts</w>
am m
kein es
es day</w>
b les</w>
Bel ast
out door</w>
grenz e</w>
Sk ype</w>
fül len</w>
AN G
spra ch</w>
rec y
l i</w>
g old</w>
Haf en</w>
satis fied</w>
langfris tig</w>
D R
facili ty</w>
Ratsvor sitz</w>
Ab schnitt</w>
pro ved</w>
ma chte</w>
em en</w>
Kan ada</w>
Ber lin
fo rec
Garanti e</w>
li ste</w>
Ein kommen</w>
enab ling</w>
an n</w>
vorhan denen</w>
geh ens
ou red</w>
as i</w>
tr end</w>
er ce</w>
Kompon enten</w>
Ein schrän
tr e</w>
cast le</w>
Regierungs konferenz</w>
care er</w>
Sch n
Sch ei
inv est</w>
propos ing</w>
Bud get</w>
äuß ert</w>
negoti ating</w>
öffent licher</w>
bri tische</w>
Ä r
sur pr
flo ws</w>
er setzt</w>
Ru le</w>
z au
über nimmt</w>
Tran sa
war ning</w>
sa una</w>
enter prise</w>
n one</w>
dri ver</w>
Th omas</w>
Bei fall</w>
tan e
ab len</w>
Aus stattung</w>
Maastri cht</w>
par ks</w>
er lassen</w>
Jah re
re min
0, 000</w>
re vision</w>
schi cken</w>
erfol greichen</w>
Transpor t
Stockhol m</w>
P A</w>
O EC
mon u
Proble ms</w>
krie g</w>
hab t</w>
fri end</w>
einheit liche</w>
chni k</w>
fa ther</w>
d opp
inf o</w>
behavi our</w>
Vorsitz es</w>
M ens
re source</w>
ro utes</w>
inten ds</w>
lie ß</w>
st opp
re plac
per cent
Minder heiten</w>
j ap
wi tn
top ic</w>
pro sperity</w>
arb eits
Bre ak
fra g
Kon text</w>
E X
soli d</w>
je gliche</w>
L ob
ten e</w>
sup er</w>
US S</w>
Spec ial</w>
transpor tation</w>
Aus führung</w>
Atlan tic</w>
verwal tung</w>
bi ke</w>
Stra ßen</w>
belan gt</w>
equi valent</w>
Auth ority</w>
mean ing
sinn voll</w>
or er</w>
parla mentar
Akte ure</w>
particip ating</w>
investi eren</w>
E EC</w>
Autom obil
the at
strö m</w>
it r
harmon isation</w>
ber aten</w>
N ic
Dele g
h am
n ut
ä fen</w>
pu ts</w>
Ju gend</w>
Redu zierung</w>
Ein w
um geben</w>
aussch uß</w>
legi timate</w>
gew inn
W all
Verhalten s
techni ques</w>
re solutions</w>
demonstr ated</w>
de als</w>
ans wers</w>
Fac ili
hr t</w>
tac kl
men tali
gestal tet</w>
abgeleh nt</w>
leg te</w>
ga p</w>
Quali fik
ver wand
prakti sche</w>
lau tet</w>
Ch eck</w>
ko stet</w>
host els</w>
ism us
exam ined</w>
si m
public ation</w>
wirtschaf ten</w>
verfüg baren</w>
ss on</w>
Mark eting</w>
ver bringen</w>
Re volution</w>
ä r</w>
la y
do ors</w>
cou ple</w>
ot ten</w>
ff er
B C</w>
Ab stimm
def end</w>
stand s
instal liert</w>
Sci ence</w>
A ward</w>
sto ß</w>
exam ination</w>
Fil m
langfris tigen</w>
OEC D</w>
up dates</w>
hei m
col our</w>
stan z</w>
Geschäf te</w>
strength ened</w>
gh ter</w>
por tu
El tern</w>
ro ck</w>
chan nels</w>
verur teilt</w>
R ati
Europ a
o xi
es c
accord ingly</w>
fizi eren</w>
1 1.</w>
sen ding</w>
certi fic
bis herigen</w>
ass ure</w>
Pu er
viel er</w>
sich eren</w>
hous ing</w>
Era smus</w>
St reit
ge statten</w>
Regierung schefs</w>
al ties</w>
ab use</w>
empf oh
Vereini gte</w>
A ktions
mi x</w>
stä tigkeit</w>
fal sch</w>
is er</w>
Reguli erungs
fol glich</w>
ei gh
con fer
man aging</w>
ordin ation</w>
ergän zt</w>
sti ll
g tes</w>
es n</w>
W et
ab and
Chin as</w>
tr y
betri eben</w>
alisi erten</w>
Ambi ente</w>
shi pping</w>
beauftra gten</w>
B at
Konta kte</w>
H ist
addre sses</w>
regar ded</w>
p um
f on
Dire kt
Ausgang spunkt</w>
über prüft</w>
an belangt</w>
ir ing</w>
gewähr en</w>
freund lich</w>
yst em</w>
letz ten
alb um</w>
Rechts staatlichkeit</w>
W are</w>
W F</w>
An n
ut tle</w>
um ini
Y ear</w>
phen om
hin aus
GN U</w>
soci e
proble me</w>
bes timmen</w>
met al</w>
Er stellung</w>
K ing</w>
lo oked</w>
belie ves</w>
ali ties</w>
H it
or ation</w>
eini g</w>
compon ent</w>
Mens ch</w>
stra fe</w>
re in</w>
5 .</w>
num mer</w>
Proc ess</w>
zentr en</w>
pack aging</w>
er in</w>
Haf tung</w>
exc eption</w>
contra st</w>
Proc edure</w>
Prin zipien</w>
y o</w>
four th</w>
Por t
P läne</w>
philosop h
e x</w>
clas sic</w>
an wen
Aus stellung</w>
commit tees</w>
Kom ment
extre m</w>
W ein</w>
U T
Kon sens</w>
multilater al</w>
is ra
di ed</w>
akti vieren</w>
Fron t</w>
ES C</w>
inter nen</w>
in klu
il er</w>
O ne</w>
Ma c</w>
Audi tors</w>
top ics</w>
happ ening</w>
om et
hervor ge
be ten</w>
inv ite</w>
renov ated</w>
Isra eli</w>
bedau er
sho wing</w>
super vision</w>
Nahrungs mittel
repe at</w>
s low</w>
Budap est</w>
par tly</w>
cent rali
übri gens</w>
the ore
sa ving</w>
ey es</w>
Vertragsverletz ungsverfahren</w>
derzei tige</w>
Wirtschafts politik</w>
Ver sicherungs
Gaz a</w>
T isch</w>
leg ally</w>
t ance</w>
se at</w>
ur a</w>
dr ink</w>
DI E</w>
wi reless</w>
vi erte</w>
li ft</w>
gen eri
zi vi
winn ing</w>
ausgezeich neten</w>
Vol k
ur s
op h
fil ms</w>
zi er
tro p
prä sent
l ust</w>
gele gte</w>
Auff or
ste chnolo
kan er</w>
AT ION</w>
pol y
erk ennt</w>
ange kün
ver w
unabhängi gen</w>
re turned</w>
s elling</w>
vi et</w>
sch reit
mensch liche</w>
ban k
In dustry</w>
Immobili en
Be ziehung</w>
An gst</w>
schön sten</w>
nor thern</w>
L y
EW G</w>
verhand lungen</w>
perform ed</w>
trans mission</w>
decor ated</w>
st ück</w>
inhabit ants</w>
bring ung</w>
Bedro hung</w>
wa ff
ed y</w>
aus gesprochen</w>
Wirk samkeit</w>
wei le</w>
ser s</w>
lo h
kti eren</w>
U L
B and</w>
feh lt</w>
eu er</w>
Medi en
Konsul t
ri si
gen s
Lab our</w>
D onn
sorgfäl tig</w>
mat ch</w>
region aler</w>
inform ationen</w>
correspon ding</w>
gn er</w>
Hinder nisse</w>
ste ten</w>
ensu res</w>
Brasi lien</w>
su rely</w>
min orities</w>
co operate</w>
ag ers</w>
vor her</w>
er fahr
do esn</w>
6 9</w>
on ing</w>
blo g</w>
Par ti
.. ...</w>
pass word</w>
Niederlan den</w>
t onn
gener ated</w>
Mi o</w>
Ä gyp
wel chem</w>
wah len</w>
ver än
ou d</w>
isra eli
griech ischen</w>
seh e</w>
perio ds</w>
appl ause</w>
is men</w>
parlia ments</w>
car rying</w>
Priv ate</w>
An hör
star ts</w>
Mill enni
Consu mer</w>
profession als</w>
gemein schaft</w>
ent steht</w>
Künst ler</w>
st em</w>
besonder er</w>
he at</w>
Potenzi al</w>
über ein
Außen politik</w>
zeichn is</w>
effizi ent</w>
To p</w>
Frei zügigkeit</w>
mi d
So viet</w>
verk auft</w>
har dware</w>
h all</w>
pro ud</w>
ada pt</w>
Er leb
safegu ard</w>
prin ting</w>
me ant</w>
Stu denten</w>
introduc ing</w>
ex it</w>
integri erten</w>
verk aufen</w>
tr ends</w>
fest zulegen</w>
W ur
Sta ates</w>
sch einen</w>
re cip
K ro
an wes
redu zieren</w>
plen ary</w>
kon fron
constitu tional</w>
G ut
Soci ety</w>
è re</w>
pre dic
be zahlen</w>
D A
kap az
An lass</w>
stärk ere</w>
remo te</w>
sin stru
ge stärkt</w>
Assem bly</w>
9 ,
komm e</w>
dec line</w>
V ie
urop ä
O F
Host el
por ation</w>
bot tom</w>
d ä
b ou
prev enting</w>
Sach ver
kur zen</w>
sti l
speci fied</w>
over view</w>
clu bs</w>
under stood</w>
forder e</w>
far ming</w>
deci sive</w>
ac ted</w>
NG Os</w>
G R
ti p</w>
Sch wi
autom o
fav ourable</w>
R ural</w>
K as
le u
Georgi a</w>
Bade zimmer</w>
A h
f unded</w>
author ised</w>
th eme</w>
UN O</w>
angebo t</w>
gla d</w>
N I</w>
geplan ten</w>
Hei mat
F ü
ökonom ischen</w>
Konfer enz
A 5</w>
bab we</w>
Klas se</w>
record ed</w>
siden tin</w>
be vorzu
öff nung</w>
steu ern</w>
some what</w>
g ine</w>
Eigent um</w>
zusammen zu
Ver trau
g i</w>
adv ent
Jo sé</w>
und ings</w>
ap p</w>
Gesch m
än gen</w>
vorsch läge</w>
maler weise</w>
appoin tment</w>
C o</w>
w ahl
recei ving</w>
rapporte urs</w>
occu r</w>
n am</w>
aus gaben</w>
S A
Bestell ung</w>
her zustellen</w>
Fahr zeuge</w>
be ur
manufactur er</w>
bedeut ende</w>
Egyp t</w>
p ac
min i</w>
el se
ähn lich</w>
Energie effizienz</w>
Win d
Mini sterium</w>
proper ties</w>
m assi
R unde</w>
N ice</w>
Kor ruption</w>
C C</w>
Bu cht</w>
hum an
deli ghted</w>
Kon vergen
B lack</w>
pos sibly</w>
vol lem</w>
l ac
fre m
d less</w>
cri mes</w>
F ang
Aus bildungs
si t</w>
komm un
fu els</w>
f erung</w>
u a</w>
Kam era</w>
8 ,
star tet</w>
correc tly</w>
st ages</w>
bure auc
anspru chs
won ach</w>
nor malerweise</w>
T el
P O
un möglich</w>
en vis
chec ks</w>
be völk
wil li
Stra ß
Sign al</w>
8 3</w>
ME Ps</w>
Vi a</w>
schli mm
lü ck</w>
in ations</w>
gener ate</w>
ge fügt</w>
auth ori
Est land</w>
T ru
Nach richten</w>
J ac
thir dly</w>
is lands</w>
Per manent</w>
7 6</w>
exclu sion</w>
Arbeitsplat z</w>
bel ast
der e</w>
C le
Bo x</w>
fähi ge</w>
Kohäsions politik</w>
per si
er end</w>
vertre ter</w>
sligh tly</w>
h em</w>
Land es
Dor f</w>
g ut
entde ck
7 ,
vor ange
land s
Hö chst
2. 0</w>
re search
bahn hof</w>
A 3
hervor heben</w>
Aufenth al
unter liegen</w>
würdi gkeit</w>
Mon it
in put</w>
is o
et ed</w>
ges tie
In tel
I mm
portu gie
obli ged</w>
mittl eren</w>
genü gend</w>
Identi tät</w>
Gewi cht</w>
F OR</w>
k enntn
Si cherung</w>
ä t</w>
riesi gen</w>
am az
sho wed</w>
mo tiv
visi ting</w>
gek enn
event ually</w>
lic ense</w>
Feder ation</w>
candi dates</w>
Gep ä
Bran che</w>
ent gegen</w>
balcon y</w>
Euro zone</w>
Deut schen</w>
An la
Sp ace</w>
Über setzung</w>
glau b
angemessen en</w>
ge plant</w>
pen alty</w>
T onnen</w>
Über legungen</w>
visi ted</w>
unabhängi ge</w>
eill ance</w>
Durch setzung</w>
addre ssing</w>
chan nel</w>
im por
Po wer</w>
einzigar tige</w>
dem anding</w>
Ver mö
vers eh
Lu f
ver ändern</w>
umfas sen</w>
resi stance</w>
care ful</w>
promis es</w>
p m</w>
organ ic</w>
institution elle</w>
ges u
sc lub</w>
quar ters</w>
ab sch
konzentri ert</w>
ell ers</w>
r ation
E benen</w>
gän ge</w>
k ter</w>
ate ful</w>
an gesehen</w>
E s</w>
surro undings</w>
blo ck
St eig
Aus gabe</w>
Ra dio</w>
telecommunic ations</w>
fra me</w>
ber ge</w>
to wns</w>
ru f
grat ulieren</w>
cu ts</w>
E d
Medi ka
Er wä
Du sche</w>
überzeu gen</w>
re vised</w>
Hel sin
ausge führt</w>
K üh
J ord
V O</w>
her stellung</w>
Ri o</w>
i gen</w>
System en</w>
individu elle</w>
she et</w>
Wer ke</w>
S m
sub stance</w>
ck en
An pass
jur is
Fisch ler</w>
stre ben</w>
s ac
er rei
de struction</w>
a c</w>
Völ ker
Ver fahrens</w>
no w
Zusammen halt</w>
Lat ein
Rechts grundlage</w>
Ratsprä sidentschaft</w>
re porting</w>
Hostel sclub</w>
ver ehrte</w>
wol lten</w>
else where</w>
einfach er</w>
EZ B</w>
wi ld</w>
de partment</w>
b all
Ant i</w>
be mer
gi o</w>
coher ent</w>
Somm er
pro grammen</w>
ac ade
mor al</w>
interess ante</w>
E IN
D ek
off ene</w>
k ette</w>
ag ent
Vor aussch
tour ists</w>
ar ts</w>
Ein wohner</w>
C oo
zurück zuführen</w>
er wer
n ine</w>
ein zusetzen</w>
be vor
less ons</w>
entsp annen</w>
Lett land</w>
func tional</w>
dist ingu
des k</w>
hin gegen</w>
digit alen</w>
personen bezo
Pra gue</w>
lä ßt</w>
Ver mitt
Di am
stu dio</w>
G lück
so dass</w>
ha ir</w>
gh ly</w>
famili ar</w>
Lou is</w>
V alle
Sch luß
Ab hängi
tim et
impres sion</w>
et h</w>
ent gel
5 7</w>
Sek tors</w>
percent age</w>
j o</w>
ari ties</w>
min uten</w>
co ok
Lan g
re placed</w>
herr sch
arri ve</w>
T ar
steh e</w>
Inform ation
bur ger</w>
Krä fte</w>
Hei m
Tra ining</w>
En gin
E di
territ orial</w>
schle cht</w>
einschlä gigen</w>
ver st
phar mac
S z
Premier minister</w>
vor bereitet</w>
Gent oo</w>
wa ffen</w>
V I</w>
P ort</w>
Aus wei
inter ior</w>
Lie ferung</w>
distri buted</w>
ru f</w>
jo in
prospec ts</w>
displa yed</w>
Con gress</w>
B rie
Gali le
über ein</w>
c i</w>
pa ying</w>
D C</w>
zugr unde</w>
Er reichung</w>
lo an</w>
K urs</w>
gespei chert</w>
H ans</w>
t at</w>
S I</w>
letzten dlich</w>
la ges</w>
geb oren</w>
ver zi
mär kten</w>
socie ties</w>
Wor t
I t</w>
stütz t</w>
stei gern</w>
Ko sten
F assung</w>
rel ative</w>
mar ine</w>
pris on
mittler weile</w>
F OR
ste te</w>
oper ator</w>
masch ine</w>
D G</w>
universi ties</w>
new sp
Q U
Bo den
7 4</w>
ti l
win es</w>
ge zwungen</w>
di n</w>
at z</w>
P op
surv ey</w>
sett ings</w>
e ß</w>
bli che</w>
Über blick</w>
origin ally</w>
Behör de</w>
off ic
militär ischen</w>
unzu reich
struk turel
W LAN</w>
Ser bien</w>
M esse</w>
Mac ed
AN T
gerich tete</w>
ci an</w>
lux uri
ling s
mod ell</w>
t es
quot as</w>
offizi ellen</w>
7 8</w>
ab gestimmt</w>
on te</w>
grenzüberschreit enden</w>
G ö
Er richtung</w>
Ein heit</w>
libr ary</w>
deli ber
aci ón</w>
Nor wegen</w>
Mar ke</w>
Ear th</w>
in sul
Ver arbeitung</w>
O pen
Ent sch
tak ings</w>
bes orgt</w>
Deleg ationen</w>
organi sieren</w>
host el</w>
gelan gt</w>
beob achten</w>
T om
S ony</w>
Mar ina</w>
Krank heit</w>
Cha ir
dep end</w>
assu me</w>
electri c</w>
S C</w>
th ly</w>
konfron tiert</w>
fo undation</w>
ß ten</w>
mo dule</w>
di vision</w>
atta ched</w>
E ri
Far be</w>
pre siden
im migrants</w>
credi bility</w>
O ld</w>
Bereit schaft</w>
t licher</w>
bege g
wom an</w>
vi rus</w>
docu mentation</w>
av ec</w>
jec tion</w>
d sch
contri buted</w>
Bro wser</w>
Über gang</w>
tari at</w>
su ites</w>
Rück kehr</w>
18 .</w>
al location</w>
M A
C l
ic als</w>
S T</w>
I M</w>
enti ves</w>
Finanz krise</w>
mag ne
ed onien</w>
ange geben</w>
au ßen</w>
Wan del</w>
W i</w>
kü mm
Schnit t
Assozi ierungs
re vi
f estival</w>
d un
í n</w>
m ein
größ er</w>
zu lässi
am i</w>
Col om
ru b
supp lier</w>
Stand or
pre fer</w>
mas sage</w>
fashi on</w>
com men
elek tr
Z one</w>
si mil
er hielt</w>
woh nen</w>
neighbo uring</w>
D R</w>
ur ies</w>
in y</w>
sha re
con sent</w>
D N
gestal tung</w>
M utter
Bu chung</w>
bi gen</w>
Schul den
o v</w>
Mechan ismen</w>
wach senden</w>
port al</w>
ni ghts</w>
ti ver</w>
sen ken</w>
fäl lig</w>
Sat ur
Ph one</w>
te a</w>
t ö
Kilom eter</w>
Ber e
st ars</w>
angewand t</w>
EF TA</w>
D anish</w>
zusammen arbeit</w>
ab gesehen</w>
P in
re servations</w>
stei gt</w>
remain ed</w>
kon troll
Steig erung</w>
ES S</w>
Auf trags
ro ot</w>
Ein stellungen</w>
le bt</w>
Nachhal tigkeit</w>
de fiz
Projek ts</w>
fu sion</w>
Bos nien</w>
Vor stellung</w>
8 4</w>
direc ted</w>
ber ühr
ni k</w>
fer tigen</w>
ei b
HT ML</w>
Absch affung</w>
tw enty</w>
ge o
da li
gn ü
ada pt
Vor bereit
in ated</w>
continu ous</w>
ony mous</w>
zent ral</w>
nation als</w>
W illi
cor ner</w>
v est
neh men
ü bt</w>
gew onnen</w>
Ge gend</w>
ange passt</w>
Le gi
as en</w>
Ver zö
Ent fer
Bos nia</w>
sugge sted</w>
wer ken</w>
schrift liche</w>
passi ert</w>
europä isches</w>
effek tiv</w>
Vor lage</w>
tradition elle</w>
sch u
rupp en</w>
ausge stat
after noon</w>
under takings</w>
mo ther</w>
k amp
sol ches</w>
pl ate</w>
Invest oren</w>
Geh eim
fe es</w>
st un
enthal tenen</w>
ar ise</w>
drück t</w>
Gipf el
entran ce</w>
umfan greiche</w>
er setzen</w>
H all</w>
indi re
Sen kung</w>
ol l</w>
norm ally</w>
EC B</w>
gen e
aus ser
uni versity</w>
regar dless</w>
lo unge</w>
Plen um</w>
ten d</w>
represent ation</w>
geographi cal</w>
Tai wan</w>
ul s
coun try
A vi
indic ators</w>
amen ded</w>
Fre it
dis cre
beglück wünschen</w>
Fri day</w>
C H</w>
präsen tieren</w>
gr ateful</w>
gerich teten</w>
compar ison</w>
Person al
consider ably</w>
Y outh</w>
li z
prä z
di ver
competi tors</w>
Poli zei</w>
on al</w>
ch est
K auf</w>
gu n</w>
dies bezüglich</w>
Gra d</w>
Änderungsant rägen</w>
Vier tel</w>
Verbraucher schutz</w>
relax ation</w>
gre en
M M
Helsin ki</w>
wie gend</w>
recht lich</w>
sched ul
fore sts</w>
ear th</w>
6 .</w>
ver halten</w>
auff or
Ge fahren</w>
Waff en
Pal äst
Is lands</w>
fo und
M angel</w>
s ung</w>
re volu
lich sten</w>
ent es</w>
M ass
wirk samen</w>
ra d
la bel</w>
e den</w>
re ject</w>
zer r
illu str
J ames</w>
Überein kommens</w>
an er</w>
L ö
weis ungen</w>
is tic
W OR
R ö
P lus</w>
Staats -</w>
St ück</w>
Sch we
Mo z
k tes</w>
EW SA</w>
Nor d</w>
Break fast</w>
pl enty</w>
koh är
Wachst um
der er</w>
T on
á n</w>
ben achteili
ar med</w>
oh n
Schlaf zimmer</w>
G las
Bestimm ung</w>
vor stellen</w>
versch i
fa vor
Drit tel</w>
win dows</w>
in ser
sever e</w>
M B</w>
Au ge</w>
einger eicht</w>
Tre k</w>
reflec ts</w>
exc iting</w>
dec ade</w>
Phi losop
L en
ver ordnung</w>
liber al</w>
b ungen</w>
produc er</w>
ch air
surv eillance</w>
freed oms</w>
Mu sic</w>
K now</w>
De partment</w>
In kraft
re construction</w>
eth eless</w>
entwick elte</w>
Prof ession
rä um
ran ging</w>
ame ters</w>
gh äfen</w>
eig net</w>
argu ment</w>
Netz e</w>
Frei heiten</w>
concentr ation</w>
sch e
Viet nam</w>
ger ing</w>
erreich bar</w>
encour aged</w>
in ess</w>
v on
non etheless</w>
boo t</w>
Mechan ismus</w>
cos y</w>
B it
mp ft</w>
ab sor
con stitutes</w>
Fir men
üh r</w>
proce ed</w>
to i
sub jects</w>
n ör
hervorge hoben</w>
Pre siden
fit ness</w>
f ot
bot s</w>
graphi cs</w>
ga ined</w>
den kt</w>
A do
k raten</w>
T rau
val ley</w>
me e</w>
Li eb
pre t
lossen heit</w>
gemeinsam er</w>
disp ute</w>
D S</w>
great ly</w>
dom ain</w>
b utes</w>
s u</w>
p ar</w>
Son ne</w>
er gibt</w>
Ver sorgung</w>
e ering</w>
adul ts</w>
ref ers</w>
sel be</w>
ling u
ex trac
Einzel heiten</w>
hy dro
groß em</w>
Er forder
w th</w>
subsequ ent</w>
appe arance</w>
perf ekt</w>
wa ge</w>
Host els</w>
Ar men
mor ali
R est</w>
accur ate</w>
individu ellen</w>
exklu si
verbin den</w>
az za</w>
Gleich stellung</w>
vac ation</w>
configur ation</w>
p ä
meas u
Mitarbei tern</w>
leich ter</w>
Kommission sprä
j enen</w>
instal lieren</w>
es cap
in n</w>
air ports</w>
Wün sche</w>
Ver teilung</w>
wiederhol t</w>
b and
difficul ty</w>
defin itely</w>
Sa una</w>
br ut
ad o
join tly</w>
er schi
A ni
Prof essor</w>
mäßi gen</w>
sugges tions</w>
port folio</w>
gra d</w>
E EA</w>
s ought</w>
erheb lichen</w>
desi red</w>
deposi t</w>
ta gen</w>
t ables</w>
li min
ar ising</w>
L as
kehr t</w>
gesund heit</w>
er fordern</w>
bekan nte</w>
Aus richtung</w>
ma chten</w>
besch rieben</w>
E X</w>
hinzu fügen</w>
we ge</w>
se es</w>
air lines</w>
Pol y
Dem on
ge stattet</w>
Provin z</w>
spo ken</w>
internation ally</w>
con tradi
integri ert</w>
auf s</w>
finanzi erung</w>
bene fici
an halten
D ü
15 .</w>
leg ed</w>
plan et</w>
occa sions</w>
ma gnific
M erc
ru ft</w>
beschäf tigen</w>
bat ter
redu ziert</w>
dis abled</w>
st at</w>
Tha iland</w>
Qu elle</w>
priv ati
mar ri
Commission ers</w>
verring ert</w>
4 0
Öff nung</w>
S U
W äl
verein bar</w>
ter te</w>
mo vements</w>
Web seiten</w>
ta il
Sor gen</w>
р а
enjo yed</w>
vir tual</w>
re store</w>
in mitten</w>
Maz edonien</w>
shor tly</w>
lü ssel
arb our</w>
high lights</w>
extra ordinary</w>
connec t</w>
dafri ka</w>
gebo ten</w>
col lap
as ti
a dem
Gro wth</w>
um setzen</w>
m use
euro s</w>
speak er</w>
so genannten</w>
A l</w>
lo ck</w>
ap s</w>
Ch urch</w>
re tail</w>
einge gangen</w>
Ver ab
ver boten</w>
drin ks</w>
a .
Ver lust</w>
So ur
Beschrän kungen</w>
bud gets</w>
For ce</w>
reflec ted</w>
nut ri
beein druck
Schlü ssel</w>
R ü
fer n
metho den</w>
exclu ded</w>
en abled</w>
Ado be</w>
ha z
comple tion</w>
S ah
gar dens</w>
A partment</w>
app elli
C r
si ght</w>
propor tion</w>
Katastro phe</w>
d ness</w>
land wirtschaftlichen</w>
arbei tete</w>
ll er</w>
a x
Ter rit
Steu erung</w>
Po wer
viel es</w>
sen sible</w>
digit ale</w>
G au
ver mitteln</w>
ut ation</w>
akzep tabel</w>
Nach richt</w>
styli sh</w>
et a</w>
antwor tet</w>
sol ely</w>
constitu tion</w>
tri al</w>
r ental</w>
Rahmen bedingungen</w>
N on</w>
über mittelt</w>
än ge</w>
well en
C N
Lie be</w>
fahr zeuge</w>
analy se</w>
achie vement</w>
ab gesch
Zu ge</w>
UN K
Geri chts
F ru
Verbrau chern</w>
no ver</w>
bewäl tigen</w>
accoun ting</w>
mus sten</w>
sch au
maß geb
Zi ffer</w>
i ge</w>
he aring</w>
Z eu
inc entives</w>
ath ed
eli gible</w>
arti st</w>
tonn es</w>
g lo
ein ma
Qu ellen</w>
E dition</w>
thre sh
ähr t</w>
gleich heit</w>
cl ause</w>
we ak</w>
di ch</w>
S AP</w>
limin ary</w>
erör tert</w>
Recht sa
ver dient</w>
inv ites</w>
geh ol
at tri
stan de</w>
se bene</w>
geräum t</w>
Kon jun
pro ven</w>
der te</w>
Aus maß</w>
dri ven</w>
vereinbar ten</w>
Galile o</w>
ver wei
leh nung</w>
refer endum</w>
re venue</w>
eib .org</w>
Char les</w>
verstär kte</w>
E valu
we ar</w>
politi sches</w>
poli tically</w>
K örper
arri ved</w>
sta un
O n</w>
Elek tro
l unch</w>
jähr lichen</w>
Pat ri
Aut onom
Wal d
implic ations</w>
W H
Syri a</w>
pla y
depar ture</w>
Wiederauf bau</w>
optim ale</w>
et abli
Up date</w>
Tab ak
Cli ent</w>
p or</w>
adjust ment</w>
Mod elle</w>
Kultur en</w>
K openhagen</w>
ver teilt</w>
Ba y
beri chten</w>
Ber n
Z un
qu iry</w>
C S</w>
statt dessen</w>
stri chen</w>
gerä t</w>
Kor re
ti ere</w>
suff er</w>
militär ische</w>
lang sam</w>
Ver sammlung</w>
Austra lia</w>
campai gn
ro lle</w>
g allery</w>
Kap ital</w>
Leg isl
Br un
disa sters</w>
all ed</w>
j ener</w>
Ver lu
Parla ments
vor haben</w>
s k</w>
neu n</w>
gr ati
gener ell</w>
explo itation</w>
chti ge</w>
bra chte</w>
Rechn ungs
fun k
exter nen</w>
every day</w>
M ed
IM F</w>
ta gs</w>
Funktion ieren</w>
scienti sts</w>
highligh ted</w>
Ergeb nissen</w>
Kon figur
versch är
geb rau
F ei
Best eu
conc er
be zü
7 .</w>
pi lot</w>
lau b</w>
us ern</w>
rech nen</w>
Vor der
Nachbar n</w>
Informations gesellschaft</w>
wechs el</w>
uri ties</w>
hä user</w>
ergän zen</w>
K y
umfassen d</w>
staat licher</w>
sh ore</w>
gab en
suffici ently</w>
schwer en</w>
po t</w>
Währungs union</w>
beabsichti gt</w>
al ong
kompli zi
natür liche</w>
bet reiben</w>
Ci vil</w>
seek s</w>
ho hem</w>
chen der</w>
An sichten</w>
belie f</w>
initi ally</w>
am t</w>
Wi r</w>
Perspek tive</w>
st on</w>
restric ted</w>
Reguli erung</w>
finan ces</w>
spectac ular</w>
f ans</w>
ge wissen</w>
adap ted</w>
legi tim
thre ats</w>
er teilt</w>
EW R</w>
C ot
Be wäl
é es</w>
shi ft</w>
canc er</w>
Gem ü
Ex change</w>
A sian</w>
di ction</w>
as sen
Herb st</w>
b latt</w>
auf re
Blo g</w>
r ut
zu tage</w>
st sein</w>
proto col</w>
en cia</w>
A US
fahr er</w>
si ty</w>
or ama</w>
necess arily</w>
conven tional</w>
S how</w>
M all
L ern
A s</w>
gesch ätz
grün den</w>
G ames</w>
Befu gnisse</w>
trav elling</w>
clo sure</w>
Wahr ung</w>
wesent licher</w>
wel coming</w>
ur ious</w>
simul tane
j i</w>
indic ate</w>
Is lam</w>
unterschied lich</w>
kat oren</w>
dep lo
Verletz ung</w>
L IN
ed back</w>
T enn
S timmen</w>
trans fers</w>
t ar</w>
jäh ri
Stra s
D ES</w>
strai ght</w>
einzu führen</w>
her ausge
außerord entlich</w>
Maced onia</w>
Institu t</w>
Bewäl tigung</w>
g gle</w>
T ol
Fak tor</w>
geplan te</w>
Sch ne
week end</w>
reib ungs
d än
S H
every body</w>
Weiter en</w>
Wirtschafts krise</w>
Sp i
expla ined</w>
Auswei tung</w>
mis sions</w>
erzeu gt</w>
Pas sa
in sofern</w>
b attle</w>
p ace</w>
hochwer tige</w>
Stu fe</w>
Poli zei
Glaub würdigkeit</w>
ätz en</w>
aus sprechen</w>
Regional politik</w>
gradu ally</w>
Kamp agne</w>
up gra
se ment</w>
k lear
eh lt</w>
1 1
wi es</w>
ck s
beschrän ken</w>
Ex ist
pre liminary</w>
aus wirken</w>
L os</w>
geb illi
Lie cht
for ts
er richtet</w>
bilater alen</w>
Men sch
pati ent</w>
ge beten</w>
cour age</w>
wa ve</w>
i ed</w>
concep ts</w>
Gericht shofs</w>
Konsequ enzen</w>
suff ered</w>
pri me</w>
oni o</w>
ol o</w>
hoff entlich</w>
Kü sten
con servation</w>
angeb ot
Soft ware
Bet reiber</w>
inklu sive</w>
Th urs
Bal kan</w>
ruhi g</w>
per mitted</w>
Ger echti
Spei cher
zah lungen</w>
ge fallen</w>
auf treten</w>
App le</w>
r on</w>
cent uries</w>
ster ing</w>
L eitung</w>
J a
hi ll</w>
ti er</w>
ausge zeichnet</w>
J acqu
ima gine</w>
hi e</w>
complic ated</w>
Com peti
se g
domin ant</w>
Geb ur
Salz burg</w>
A th
zei ge</w>
mis sing</w>
along side</w>
glei cher
dan k
aff ord
F utter
stol z</w>
7 9</w>
sa h</w>
re st
eng age</w>
pan el</w>
B is
b i</w>
RO M</w>
G ang</w>
vor gelegten</w>
unterschei den</w>
an ni
du l</w>
Na vi
Z ut
Puer to</w>
Investitions bank</w>
9 00</w>
tra de
all ing</w>
prü f
konta ktieren</w>
fü ll
Haushaltsp lan</w>
tor ate</w>
oper ates</w>
i ties</w>
argu ments</w>
pro t
mil es</w>
fa x</w>
S V</w>
M ah
M A</w>
transi tional</w>
fahr ens
Mand at</w>
en cing</w>
s .com</w>
ge fasst</w>
bür ger</w>
ION S</w>
P lätz
B ö
r are</w>
S E
8 .</w>
will ing
In ner
Flu ghäfen</w>
Innov ationen</w>
sp a
O K</w>
un fair</w>
Ver sionen</w>
T ren
S ä
Ma ster</w>
Bal kon</w>
Stras bourg</w>
i ze</w>
To wn</w>
е н
H ab
zu gute</w>
om eter</w>
Ex ternal</w>
w rote</w>
recht zeitig</w>
fest zustellen</w>
F öder
pre ad</w>
spann ung</w>
eini gt</w>
la yer</w>
in er
gebil det</w>
b ai
ange gebenen</w>
sc ene</w>
konkre t</w>
distri but
govern ing</w>
erle bt</w>
tä glichen</w>
moder ni
hund red</w>
Well ness</w>
z enten</w>
territ ori
r h
gre ssi
em bar
wiederhol en</w>
gen eti
aus el</w>
anzu wenden</w>
ma kro
secre t</w>
attemp ts</w>
Tour isten</w>
R E</w>
Chair man</w>
verbin det</w>
h te</w>
Ver änderung</w>
gehens weise</w>
fil ter</w>
er hoben</w>
cir cul
Fre unden</w>
ga ther
CH T</w>
ign ori
Sch aden
Den k
ir re
cap itali
beruf lichen</w>
la stly</w>
religi on</w>
navi gation</w>
Pat ent
Can on</w>
BM W</w>
tradi tions</w>
to ward</w>
W är
tax pa
present ing</w>
enst adt</w>
Y o
hand le</w>
er ship</w>
Stand ort</w>
promis ed</w>
auth enti
Voraussch au</w>
A v
lei sch
ein zur
bein gs</w>
P UNK
Sicherheits politik</w>
Al le</w>
ro ll</w>
hom es</w>
I X</w>
mit zu
author isation</w>
Wer be
Qu art
Chi le</w>
in os</w>
ch ester</w>
cu e</w>
ch am
c as</w>
betra cht</w>
T rin
Doku menten</w>
r d</w>
besei tigen</w>
kl eines</w>
Proz esse</w>
magnific ent</w>
dies bezü
J an</w>
z onen</w>
rei cher</w>
mati k</w>
Chanc en
vi erten</w>
er ra</w>
anti cip
Protokol ls</w>
Person en
associ ations</w>
ann er</w>
pic tu
ter ed</w>
ou b
let ters</w>
Hand lungs
D im
u pper</w>
country side</w>
bon us</w>
P y
sec tions</w>
gel ingt</w>
Gel der</w>
gestie gen</w>
H of</w>
p ure</w>
fir mly</w>
Ge biet
Des k</w>
mi x
environ mentally</w>
succe ed</w>
erleichter t</w>
Ser vic
Ch ampi
An betracht</w>
Posi tionen</w>
hal ts</w>
foot ball</w>
er es</w>
M ann
spar en</w>
ausgewäh lt</w>
ar my</w>
norm alen</w>
Kompet enzen</w>
B ars</w>
läng erung</w>
ca de
P OL
sor ge</w>
P aci
Fran zö
Coo k
h et</w>
fan den</w>
teach ers</w>
mar quis</w>
hol ds</w>
geschi chte</w>
kontrol liert</w>
zi one</w>
res sourcen</w>
effizi enter</w>
be fu
ange wendet</w>
Unter zeichnung</w>
process ed</w>
m outh</w>
grei ft</w>
coun ts</w>
vor gestellt</w>
bewer ten</w>
ali for
pak et</w>
eng aged</w>
d s
compla ints</w>
collec ted</w>
all zu</w>
i k
Woh nung</w>
Krank en
I WF</w>
Gerechti gkeit</w>
B reit
te u
research ers</w>
comb ine</w>
bewer tet</w>
Tschech ische</w>
fem ale</w>
appro aches</w>
krä ften</w>
ge dacht</w>
Stellung nahmen</w>
F al
17 .</w>
spie gelt</w>
ah me</w>
acci dent</w>
accep tance</w>
Ru ß
Ma in</w>
Ham as</w>
A ss
uneingeschrän kt</w>
Imp ul
&apos; m</w>
ge stellte</w>
ck y</w>
St utt
rul ing</w>
did n</w>
Über tragung</w>
Valle y</w>
thous and</w>
Sun day</w>
Rück gang</w>
fer tig</w>
enth alt</w>
Mit entschei
may be</w>
err ors</w>
vor aus</w>
gro ss</w>
Wettbewer bs</w>
mechan ismus</w>
cap abilities</w>
gar ten</w>
N eben
str o</w>
signific ance</w>
supp lied</w>
e ase</w>
Vide os</w>
Konfli kte</w>
x el</w>
ph ones</w>
Samm lung</w>
teach ing</w>
produ kten</w>
pro ze
Le vel</w>
Br ut
8 0
vor läufi
Ver lauf</w>
Bemerk ung</w>
gemeinsam es</w>
Mark en</w>
Compu ter
IN TER
spo ke</w>
netz e</w>
zu zu
un ited</w>
si n</w>
len ding</w>
lab or</w>
fisher men</w>
Weiter entwicklung</w>
Thurs day</w>
flä chen</w>
be stellen</w>
Situ ationen</w>
S D</w>
C it
Deut sch</w>
p us
P apier</w>
H eili
concentr ate</w>
welt weite</w>
voc ational</w>
dis k</w>
lux urious</w>
be steh
wa cht</w>
f illing</w>
der ed</w>
Gen eva</w>
negoti ation</w>
confir mation</w>
vor liegen</w>
spar tei</w>
W ill
clean ing</w>
Sch wä
Inkraft treten</w>
prakti schen</w>
ben ach
Krie gs
Entsch lossenheit</w>
ö l</w>
Ägyp ten</w>
jet zigen</w>
re formen</w>
soverei gn
be antworten</w>
en cies</w>
p o</w>
integr ate</w>
li ked</w>
ir ischen</w>
Ur heber
ren owned</w>
Entla stung</w>
Di ffer
the ory</w>
samm eln</w>
th care</w>
pil lar</w>
transfer red</w>
for ge
entru ms</w>
be stände</w>
Kon to</w>
te ch</w>
essen tially</w>
ein gestellt</w>
mi th
appropri ations</w>
ver tr
Kon zentr
Administr ation</w>
viol ations</w>
Con sul
consul ting</w>
cell s</w>
finanzi eren</w>
ali tion</w>
Host el</w>
00 1</w>
re ti
M .</w>
un like</w>
interess ant</w>
ber gen</w>
Gr an</w>
Bar nier</w>
t ons</w>
no tic
Fit ness
Chancen gleichheit</w>
vide os</w>
gehö ri
Kon zer
ine a</w>
enter ing</w>
L ate
schied ung</w>
Mexi ko</w>
Bür o</w>
ll s</w>
individu ell</w>
be fasst</w>
Islam ic</w>
ô tel</w>
unter suchen</w>
ssi g</w>
erh eben</w>
st y</w>
recogni zed</w>
per man
müs sten</w>
gleicher maßen</w>
Justi z
Beri chten</w>
s low
Wes entlichen</w>
behaup ten</w>
ba res</w>
arti stic</w>
V el
R ab
Ge werk
S timm
L as</w>
Konkur ren
kontrol lieren</w>
au dit</w>
rati fication</w>
I cel
Abhängi gkeit</w>
uni form</w>
Er inn
Auffor derung</w>
Agent uren</w>
fin ish</w>
C lau
Bild schir
ges s
R em
P age</w>
B lan
Verab schiedung</w>
Oper ation</w>
heri ge</w>
erzi elten</w>
ener gie</w>
ue ber</w>
stärk sten</w>
kilom et
16 .</w>
vers ary</w>
sign ing</w>
re publik</w>
fo ssi
D rin
telef on
leav es</w>
vi c</w>
be endet</w>
se x</w>
Ash ton</w>
ve get
s q
Statisti ken</w>
ur gently</w>
d ges</w>
regul ated</w>
k ä
bur gh</w>
D un
se kt
ari b
air e</w>
T AC
P eri
einzigar tigen</w>
sh aushal
Zah lung</w>
ri de</w>
Syri en</w>
Be grün
ten nis</w>
Per sön
Ernähr ung</w>
in ev
fin dings</w>
Mor gen</w>
Mon t
tra ge
organi sierten</w>
e at</w>
Wider spruch</w>
A 4</w>
sus pen
lic ens
PUNK TE</w>
n es</w>
Hum an
Liecht enstein</w>
anwes end</w>
Ur sachen</w>
Sti ftung</w>
198 8</w>
en on</w>
ul f</w>
ti scher</w>
fair ly</w>
bevölk erung</w>
Vertra ges</w>
Fern sehen</w>
Arbeit nehmern</w>
0 4
beruf liche</w>
The ater</w>
Spit zen
Innov ations
C up</w>
mäßi ge</w>
gere gelt</w>
di ger</w>
Lo unge</w>
Mil ch
reib ungen</w>
gg age</w>
Volks wirtschaften</w>
Re al</w>
zur zeit</w>
Pak ete</w>
tre e</w>
o di
muse ums</w>
manufac ture</w>
g ter</w>
instruc tions</w>
chem icals</w>
green house</w>
gener ations</w>
f assungs
ev al</w>
be wahr
afri kanischen</w>
subsequ ently</w>
Re ding</w>
medic ines</w>
deep ly</w>
cir cu
Per form
exten ding</w>
einzel staatlichen</w>
appro ve</w>
d al</w>
cat ch</w>
Interne ts
speciali st</w>
re affir
neg ativen</w>
har dly</w>
Li cht
Distri bution</w>
spei chern</w>
cl ini
Vermö gens
he ading</w>
vil lages</w>
und oub
an ne</w>
K la
Er gän
Außen -</w>
illeg ale</w>
V ater</w>
Drit ten</w>
con stra
H imm
shi p
ch ens</w>
Spa ß</w>
Dol om
An meldung</w>
A li
willing ness</w>
b aus</w>
S äu
Ori enti
acci dents</w>
Prä sent
k illed</w>
D al
direc tory</w>
beg ünsti
an z
är er</w>
jo ining</w>
italien ische</w>
größer es</w>
Re chten</w>
B A</w>
tri ps</w>
ch ie
schritt weise</w>
por te</w>
Groß teil</w>
zu künftigen</w>
C P
proze ß</w>
Gerä t</w>
as h</w>
sho t</w>
prepar ations</w>
ad ly</w>
sol ar</w>
pharmac eu
an wenden</w>
Ha ar
min ing</w>
ab or
O s
sp here</w>
mittel fris
ach ing</w>
rec ru
Ver sorgungs
prof its</w>
mo ti
h ase</w>
gere cht
ES CO</w>
pro min
B 5</w>
a j
comp uls
bin den</w>
der ing</w>
au to
zu gs
ski ing</w>
m ass
Kapaz itäten</w>
Ö l</w>
olo gischen</w>
al li
Jacqu es</w>
H ong</w>
üb ung</w>
be merk
schedul ed</w>
k lin
D EN</w>
Bud gets</w>
dau ert</w>
Se e
effici ently</w>
Telekommunik ations
K ategorien</w>
unterst reichen</w>
tain er</w>
colo urs</w>
design s</w>
P fle
k eit
P fer
L oc
tie f</w>
kri min
gele genen</w>
genau e</w>
erkan nt</w>
di gn
d ella</w>
Paci fic</w>
par ameters</w>
inv o
geprä gt</w>
g art</w>
empfoh len</w>
Schwi mm
Geschä ft</w>
A cade
O l
Mon day</w>
vertei digen</w>
c rises</w>
f ische</w>
wi des
um zu
th and
won der</w>
l ers</w>
integri erte</w>
Gemein de</w>
Ameri cans</w>
über wachen</w>
To chter
H under
Bedürf nissen</w>
inclu sive</w>
char ak
acqui red</w>
Bet riebe</w>
tre ff
qui ries</w>
mi et
kor rigi
gui ded</w>
er wor
Z e
moment an</w>
h an</w>
fest legen</w>
Rich ard</w>
Kon stru
Ab bau</w>
re mark
Ex pl
Be achtung</w>
z te</w>
or i</w>
Schi ff</w>
re action</w>
occ o</w>
investi g
chti g</w>
9 .</w>
k örper
gi ge</w>
f loo
en ever</w>
R AT
unver gess
re lief</w>
me ets</w>
kn app</w>
gui dance</w>
be aring</w>
an gebracht</w>
Rei sen</w>
Col lege</w>
reli ability</w>
hop es</w>
ch air</w>
Kontin ent</w>
Jugend lichen</w>
Dom ini
gen es</w>
entscheiden den</w>
emis sion</w>
co ol
Gener ationen</w>
G D</w>
Euro stat</w>
Anrei ze</w>
pra g
k ür
fest en</w>
consequ ence</w>
D res
zu künftige</w>
v acc
mit teilen</w>
auf gebaut</w>
G as</w>
wunder schönen</w>
lin ing</w>
is lat
grenzüberschreit ende</w>
ar do</w>
Ab en
1. 5</w>
li ke
Qu ad
Frei handels
Besteu erung</w>
besch reibung</w>
b len</w>
Entwicklungs hilfe</w>
wirtschaf tung</w>
fav our
AC H</w>
verk nü
je den
Govern ance</w>
ter ri
philosoph y</w>
per mit</w>
gi cally</w>
destro yed</w>
bran che</w>
aci o</w>
T O
C A</w>
offizi elle</w>
endgül tigen</w>
Lebensmittel sicherheit</w>
Infl ation</w>
vor nehmen</w>
tem por
rein force</w>
contribut ing</w>
ali stischen</w>
con sci
affec ting</w>
Sch wellen
Sa chen</w>
br ü
be kommt</w>
at o
ran gigen</w>
blo cks</w>
Schri ft
Gol d
G ast</w>
po ols</w>
i z
T ool</w>
Registri erung</w>
t é</w>
sel ten</w>
gekenn zeichnet</w>
compuls ory</w>
stu dent</w>
kl ein</w>
gehö rige</w>
ch all
I .</w>
h en
eb ook</w>
agen ts</w>
Mol da
At tra
wor st</w>
projek t</w>
Blu e</w>
harm ful</w>
erweiter n</w>
gefähr det</w>
fre ely</w>
bedeut enden</w>
Cat al
Be für
Alli anz</w>
ser n</w>
freund lichen</w>
ex cur
bo ards</w>
S ad
Kon g</w>
compu ters</w>
lie ber</w>
ger aten</w>
fin ed</w>
cast ing</w>
12 .</w>
chti gt</w>
Her an
Cor porate</w>
gro sse</w>
bil d
isl am
en em
bew u
Todes strafe</w>
se u
beizu tragen</w>
a sion</w>
Zeit plan</w>
stam men</w>
men ade</w>
gran ting</w>
Ob jec
.... ..</w>
pic k</w>
ein stimmi
E E
un forge
stre t
own ership</w>
enh aus</w>
dre am</w>
Si ed
Jahrzeh nten</w>
zz i</w>
wh enever</w>
reason ed</w>
er freut</w>
p p</w>
fi x</w>
Po int</w>
zeichn ungen</w>
pro sec
oper ated</w>
jeden falls</w>
Umstruktur ierung</w>
N az
än e</w>
, 00</w>
tä tigen</w>
s oph
qualit ativ</w>
min er
198 0</w>
V N</w>
Mi gr
st ör
Ex tre
Cust om
sovereign ty</w>
letz ter</w>
Her stell
t less</w>
coast al</w>
am in</w>
Ma j
Ju gosla
E ESC</w>
Ar t
na cht
b o</w>
10 .</w>
au tum
st ran
h art</w>
klär t</w>
democ rati
Ver stär
Män gel</w>
so il</w>
infrin gements</w>
e o</w>
gen o
twi ce</w>
resul ted</w>
geschlossen en</w>
feder al</w>
Men ü</w>
h l</w>
produc es</w>
an schließen</w>
201 6</w>
dur ation</w>
P har
Bet racht</w>
über winden</w>
symbo l</w>
relev anten</w>
mei ster</w>
geh andelt</w>
X P</w>
Fran z</w>
rel ates</w>
ben de</w>
Passa gi
radi o
ex ecutive</w>
Vis a</w>
Di es
schutz es</w>
er re
Mu t</w>
ven ues</w>
umini um</w>
in spi
chall eng
assem bly</w>
Treib haus
UN ESCO</w>
er nen</w>
F eld</w>
G lück</w>
spezi fis
represent ing</w>
Geor gien</w>
EN T</w>
EG F</w>
Pflan zen
beglei tet</w>
ver tritt</w>
o red</w>
i Phone</w>
deli cious</w>
Ti eren</w>
G F
gro wn</w>
S har
reali se</w>
di ert</w>
so unds</w>
pre sti
cl asses</w>
Si erra</w>
Jour nal</w>
B in
zw öl
ernsthaf t</w>
anzu bieten</w>
c el</w>
aufzu bauen</w>
under lying</w>
solidi erung</w>
h ec
alco hol</w>
vor liegende</w>
i zation</w>
bir th</w>
sup posed</w>
ge ziel
Regi ons</w>
Ho li
tiv ität</w>
endor se</w>
el f</w>
ag a</w>
Freit ag</w>
tri g
effek tive</w>
amp s</w>
ho hes</w>
sto ck
Phot o
Inner es</w>
Grün buch</w>
Gar den</w>
To ols</w>
sicht bar</w>
be enden</w>
foc using</w>
P atten</w>
ei ling</w>
palästinen sischen</w>
kom fort
con fron
C las
ima gin
ger ü
akti viert</w>
Mar ok
Ab lehnung</w>
satis fy</w>
lei dung</w>
gegensei tigen</w>
endgül tige</w>
T ests</w>
Berlin er</w>
ver dienen</w>
ten tion</w>
direc tor</w>
Te ams</w>
op ens</w>
dead line</w>
consoli dation</w>
an en</w>
Anhör ung</w>
bed ürf
Pro ject</w>
Liz enz
gegenwär tige</w>
co s</w>
Liz enz</w>
Über arbeitung</w>
clari fy</w>
autum n</w>
Alex ander</w>
re marks</w>
3 50</w>
pan oram
enhan cing</w>
cr yp
Sie mens</w>
1 3.
zo g</w>
kre is</w>
k einem</w>
fa ith</w>
cul tures</w>
t ant</w>
in hal
bio diversity</w>
V ul
sch were</w>
identi fication</w>
versi chern</w>
för m
collec t</w>
Emis sions
korre kt</w>
Prä sen
ra ble</w>
hand els</w>
I ran
ge pf
Feh ler
Best ä
wides pread</w>
tig keits
mod ules</w>
commer ce</w>
p lic
Geschm ack</w>
mittl ere</w>
f ed</w>
Donn er
compar able</w>
swit ch</w>
den jenigen</w>
ab stimmen</w>
Tre aties</w>
every where</w>
c ell</w>
G VO</w>
undoub tedly</w>
be hoben</w>
organ ise</w>
N os</w>
v i</w>
li ved</w>
execu tion</w>
dign ity</w>
Gui de</w>
eri al</w>
Christ op
m än
Mor occo</w>
alisi erte</w>
qu ellen</w>
lini en
dr y</w>
Grund sätzen</w>
lob by</w>
Wechsel kur
Ver längerung</w>
Park platz</w>
o ft
empf angen</w>
demo kraten</w>
Le gal</w>
dam ages</w>
ans wer
Be urteilung</w>
6 0
L om
wi dri
E mail</w>
Indi an</w>
Gef än
y s
v ina</w>
un ab
soph istic
p ush</w>
lös ungen</w>
lok aler</w>
geschä ft</w>
den heit</w>
Akti en
pl atte</w>
m ack
Inter nationale</w>
Be wus
smo oth</w>
regi erung</w>
com position</w>
sm art</w>
Mo bili
ti les</w>
ro ots</w>
Manu el</w>
kontrol li
Ex port
pl astic</w>
am ed</w>
ve ge
Le on
EUROP EAN</w>
z eln</w>
wi en</w>
dar gestellt</w>
ad y</w>
Wissenschaft ler</w>
Ro ad</w>
Mol do
te stens</w>
is h
amen ding</w>
He ads</w>
Plen ar
Gr ünen</w>
n esses</w>
enor me</w>
ausländi sche</w>
Schwei zer</w>
Defiz it</w>
Bewer ber
ta i
Su iten</w>
Her kunfts
vis u
stric tly</w>
edi tion</w>
5 00
public ations</w>
person en</w>
kre di
Ver fahrens
Erzeu gung</w>
Entwicklungs zusammenarbeit</w>
C ir
sta ke</w>
U K
p it
Pla ya</w>
13 .</w>
hal tungs
der o
Def ence</w>
pre serve</w>
are l</w>
timet able</w>
eng ines</w>
nor men</w>
hal t
an forderungen</w>
Mot or</w>
quali fications</w>
inform al</w>
heal thcare</w>
ge äußert</w>
a po
Sy mbo
A H
well ness</w>
ec ological</w>
simil arly</w>
produ zieren</w>
begri ffen</w>
Di plom
schn ellen</w>
applic ant</w>
Zu verlässi
doub ts</w>
vier tel</w>
ts etzung</w>
techn ischer</w>
sugge sts</w>
tsch ech
läng st</w>
li able</w>
diplom atic</w>
M äd
Haushal ts</w>
Al ters
re served</w>
ad ding</w>
Vol kes</w>
Ima ge</w>
Cast le</w>
refer ring</w>
L A</w>
bei hilfen</w>
Geh minuten</w>
D ri
An dr
ov a</w>
func tionality</w>
P ER
T ages</w>
j an</w>
erforder liche</w>
Aspek ten</w>
mer ger</w>
ap ers</w>
Führ er</w>
über mitteln</w>
spre che</w>
j ac
cul tiv
ch i</w>
Bl ut
Besch luß</w>
gesell schaftlichen</w>
az z</w>
Stutt gart</w>
intelli gent</w>
ökolo gischen</w>
su chte</w>
inter ne</w>
in ing
emplo yers</w>
foc uses</w>
econom ically</w>
bet ten</w>
Kolleg in</w>
versch mutzung</w>
statt findet</w>
ürz t</w>
par liament</w>
Spezi al
yp en</w>
musi cal</w>
E v
R eh
lear ned</w>
arbei teten</w>
met ro</w>
a w
secon dary</w>
proz esse</w>
Kandi daten</w>
entsp ann
at t</w>
C P</w>
Kab el
sser n</w>
bed ded</w>
Donner stag</w>
sü dlichen</w>
T ok
sa ved</w>
dar k</w>
Cor poration</w>
Alb ania</w>
as set</w>
any where</w>
Prä sident
unforge ttable</w>
spä testens</w>
pres sing</w>
ges etz</w>
arbeit ungs
se as</w>
Ven ice</w>
Res ul
Her z</w>
Fu sions
1, 5</w>
order ed</w>
ogra phi
ess el</w>
ak s</w>
Zi vi
müs ste</w>
hospit ality</w>
P hän
ge führte</w>
elimin ate</w>
comp ete</w>
vor über
f ährt</w>
Op position</w>
A ri
propor tion
Pflan zen</w>
lei hen</w>
k le
geb ühr
er re</w>
dar gelegt</w>
charac ters</w>
Elek tr
türk ischen</w>
Gewä sser</w>
fin ds</w>
de teri
F esti
Ber g</w>
re v
ern t</w>
kon zipi
AS E</w>
verletz t</w>
ver sammlung</w>
wer ks</w>
horizon tal</w>
up grade</w>
s now</w>
z im
son g</w>
Dar stellung</w>
exp and</w>
er a
Bör se</w>
wor thy</w>
S K
Ab lauf</w>
offen bar</w>
o live</w>
ge fragt</w>
eri en</w>
beschleuni gen</w>
pri ze</w>
balan ces</w>
St ör
y iel
ex changes</w>
Icel and</w>
Beihil fe
u liert</w>
Well ness
bean tra
Latein amerika</w>
K öl
Energi equ
amen ities</w>
S IS</w>
Kro es</w>
A g
schwer wie
man agers</w>
gewi d
geeig neten</w>
frei er</w>
Proz eß</w>
Au dio</w>
rene wed</w>
Kür ze</w>
vor bei</w>
individu ally</w>
frü hen</w>
Zu g</w>
R ein
ökonom ische</w>
Ni geria</w>
Eing ang</w>
stütz en</w>
neighbo urs</w>
multin ation
and t</w>
Im ple
D rei
zi ger</w>
fre e
ag ra
ob served</w>
gesetz lichen</w>
L ohn
transi t</w>
d lichkeit</w>
zu kommen</w>
di alog</w>
Instru ments</w>
gi g</w>
f eu
bro w
bro ader</w>
Ar mee</w>
gra ben</w>
ent täu
b ach</w>
Hä fen</w>
unter breiten</w>
me al</w>
Regi ster</w>
Re dner</w>
K ey
Hin weise</w>
r as</w>
gra m</w>
An kunft</w>
li chte</w>
I E</w>
Di kt
un ruhi
par tial</w>
la di
i g</w>
chap ter</w>
ab kommens</w>
Ban ken
1 30</w>
herunter laden</w>
glie derung</w>
comp act</w>
et es</w>
K it
kol le
civi lian</w>
Con stitu
14 .</w>
gere chte</w>
for tz
an on</w>
su it</w>
on e
inspec tion</w>
cho ices</w>
amaz ing</w>
Be arbeitung</w>
eigen er</w>
MP 3</w>
ste am</w>
pro hib
euro zone</w>
Vermitt lungs
wick lung</w>
rati o</w>
is a</w>
Z au
gr ös
fort gesetzt</w>
fi ehlt</w>
Lan gu
consu lt</w>
AN D
sus pec
mechanis men</w>
Nieder l
gä ste</w>
wes enheit</w>
ter ing</w>
ständi ger</w>
Funda mental</w>
B ord</w>
ul en</w>
sp häre</w>
ra k
besonder es</w>
an genommenen</w>
li s</w>
Satur day</w>
Her z
Zeit ung</w>
Beob ach
B illi
vi able</w>
occur red</w>
dol lar</w>
Resp ekt</w>
Gesch windigkeit</w>
al i</w>
i chten</w>
Köni g
Kenn zeichnung</w>
el det</w>
c lar
Sau di</w>
Erinn erung</w>
tra vel
prin ted</w>
m ere</w>
be zahlt</w>
Ma cht
Dre h
Bet ten</w>
partner ships</w>
ver weisen</w>
St ahl
Geb ühren</w>
zi a</w>
sor ti
le ger</w>
Refer enz
wand els</w>
re stored</w>
in her
gi a</w>
ens hip</w>
movi e</w>
T uni
Journ alisten</w>
over looking</w>
incorpor ated</w>
frei ght</w>
flu g
tri eb
pres sed</w>
Frei zeit
Aus flüge</w>
zer o</w>
fol gender</w>
G ir
D ach
Ant onio</w>
rit ts</w>
lo y
Reg ul
ut zutage</w>
inter medi
Aut or
erwer ben</w>
Wieder herstellung</w>
Gemein den</w>
virtu ally</w>
k üh
d licher</w>
Kompet enz</w>
ur gency</w>
under ground</w>
den tial</w>
stam mt</w>
ot ing</w>
bein halten</w>
spir it
son gs</w>
col um
S ul
Off i
über aus</w>
ti ll</w>
l or
c eiling</w>
al tet</w>
Schul den</w>
Luft fahrt
de a
T N
Überna chtung</w>
pen sions</w>
co al</w>
V IS</w>
Mall orca</w>
L ast
J ack
politi ken</w>
entde ckt</w>
Grund lagen</w>
provin ce</w>
il ater
tra cks</w>
po t
h ast</w>
Met ro
Finn ish</w>
Erwer b</w>
In tensi
Bur ma</w>
te x</w>
consi sten
Parla mente</w>
Frühstücks buffet</w>
ut most</w>
juris diction</w>
he ads</w>
flu g</w>
berech net</w>
Ver heu
ver n</w>
de ad</w>
Mo sco
E tik
Aus einander
kön nt</w>
co ol</w>
Me eting</w>
s ä
Deb atten</w>
р о
är ten</w>
Aus grenzung</w>
fac tory</w>
er ei</w>
pret ty</w>
beeinflus sen</w>
Sch loss</w>
Präsen z</w>
wei len</w>
ausländi schen</w>
ab sur
Wirtschafts raum</w>
Plan eten</w>
anzu passen</w>
sol ven
G on
Aben dessen</w>
sau ber</w>
ke ep
Se ever
arb itr
Ni zza</w>
An na</w>
fant as
n ers</w>
erör tern</w>
ar re
St rom</w>
Cap ital</w>
tern s</w>
rec re
he utzutage</w>
Zusammen sch
For tsetzung</w>
ins el</w>
Ver fol
Arbeit geber</w>
zeit raum</w>
pl ying</w>
gen te</w>
B üh
zer ti
tim ely</w>
gewün schten</w>
Ver ordnungen</w>
Sour ce</w>
Sou thern</w>
Par ameter</w>
rep air</w>
fas cin
deck ung</w>
Soci alist</w>
C ô
steri al</w>
occu pi
Stär ke</w>
kön ne</w>
f at</w>
cal en
UNG EN</w>
а н
nütz lich</w>
künst ler
b la
U C
schwe dischen</w>
inf ec
f in</w>
Mon o
Flug haf
plan ung</w>
mac ro
feh l</w>
confer ences</w>
Verheu gen</w>
Reser ve</w>
hin weg</w>
anni versary</w>
ther mal</w>
M utter</w>
Buch stab
18 0</w>
roman tic</w>
erst klassi
Universi täten</w>
emis sionen</w>
dien sten</w>
co des</w>
Hoh e</w>
forts etzen</w>
forder te</w>
consider ations</w>
T or</w>
Straß burg</w>
C oh
Air lines</w>
sup por
Taus ende</w>
Pro grammi
Li by
Ein kommen
reagi ert</w>
Ti bet</w>
to x
offizi ell</w>
gegensei tige</w>
at i</w>
an zunehmen</w>
Tour ism</w>
Har dware</w>
Christ mas</w>
treat ments</w>
Ein nahmen</w>
mark ing</w>
geb nisse</w>
Ä u
vor zunehmen</w>
Sch reiben</w>
D ritte</w>
spec trum</w>
hy dr
vis ual</w>
caus ing</w>
ar dis
Re d
C ra
po o
consul tations</w>
auffor dern</w>
veran k
geb äu
besu cht</w>
au ern</w>
Köni g</w>
B P</w>
re volution</w>
dank bar</w>
ex o
K ern</w>
Dynam ik</w>
Rati fizierung</w>
innov ativen</w>
Stre cke</w>
ün d
ten den</w>
post p
olo gische</w>
hö her
ess ed</w>
aus üben</w>
auf bauen</w>
aktu ell</w>
Konjun ktur
Bo ur
zeich nete</w>
pro xim
princip al</w>
Vi sta</w>
Ne eli
zentr aler</w>
P ul
Garanti en</w>
ver öffentlichen</w>
ex zell
is co</w>
Mark tan
hervorra genden</w>
ex t</w>
incre di
S L
Re de
y ards</w>
ver tra
sor ts</w>
mis s</w>
medizin ische</w>
her auszu
F IN
ed a</w>
Fre qu
Bas el</w>
Auf hebung</w>
anzu zeigen</w>
N RO</w>
Ma x</w>
si x
regi onen</w>
phenom enon</w>
ker nel</w>
bre ach</w>
b ass
hy th
Ge fan
funktion ier
emp fiehlt</w>
Herzego win
ö tz
symp ath
no body</w>
mi um</w>
haf tet</w>
un entgel
oper ation
ide ally</w>
hei ßen</w>
Zun ahme</w>
G or
E K
á s</w>
sup erior</w>
ri ding</w>
gerecht fertigt</w>
existi ert</w>
affec ts</w>
Masch inen
are st</w>
ad ds</w>
a .m.</w>
Satelli ten
P las
ment ari
integr ity</w>
nar row</w>
atten d</w>
Minu te</w>
Fahr t</w>
B ag
ru pt</w>
Ver zeichnis</w>
Er öffnung</w>
explan ation</w>
ei ved</w>
Pi azza</w>
Autob ahn</w>
subsidi ary</w>
rec ords</w>
as sozi
Por tal</w>
Masch ine</w>
wal d</w>
us age</w>
quot a</w>
p ru
klassi schen</w>
das selbe</w>
Qu ality</w>
Besch werden</w>
thi op
m äh
et wai
T ot
E din
achie vements</w>
Dat um</w>
them ati
m eter</w>
be ef</w>
Wei h
S mo
Par lia
198 7</w>
W omen</w>
ter ung</w>
t les</w>
geni essen</w>
certi fication</w>
ac compli
kontrol len</w>
A par
günsti ge</w>
ger ingen</w>
electri cal</w>
bet rieb</w>
at orium</w>
ver zeichnen</w>
scri pt</w>
s -</w>
D I</w>
hi elten</w>
vor sieht</w>
au l
Acade my</w>
lo gical</w>
gro ssen</w>
Ver mark
Mittelmeer raum</w>
Mi ß
M aga
Binnenmark ts</w>
oft mals</w>
install ations</w>
al low
G PS</w>
sha dow</w>
Rel ations</w>
re t
r ale</w>
jün gste</w>
Gra fi
Ges chen
F an
zwei ter</w>
simpli fication</w>
Ma il
a o</w>
Symbo l</w>
s essions</w>
komple tte</w>
gan z
fortz us
ec ks</w>
S ohn</w>
Katastro phen
Con tent</w>
Vor rang</w>
Ma y
Be zeichnung</w>
si ghts</w>
Wochen ende</w>
inspi red</w>
Proz ent
P ir
gu es</w>
C ab
medic ine</w>
S ri</w>
Haushal te</w>
P SE</w>
vari ed</w>
ju gosla
du al</w>
Lei p
I A
0 3
un ilater
poo rest</w>
kon figur
gi pf
cas ino</w>
österreich ischen</w>
würdi g</w>
es ch
eh e</w>
e vol
in adequate</w>
g ast
fortzus etzen</w>
Vertre tung</w>
Oli ven
Aus nahmen</w>
wechsel n</w>
ha i</w>
res que</w>
form ally</w>
Wel thand
W ed
Mon ti</w>
sto res</w>
popul ations</w>
be wahren</w>
Op timi
us alem</w>
tu i
gere ch
D ou
Alb um</w>
oni k</w>
Hei zung</w>
ant es</w>
Ü bri
rah mens</w>
pre chen</w>
p ha
Vorsitz enden</w>
n ings</w>
Lit er
Cap tain</w>
App lik
perf ekte</w>
Or te</w>
erwäh nen</w>
Schü ler</w>
ver breit
in o
Sü do
rep utation</w>
Nachbar schafts
wh er
p her
geh ei
e de</w>
an son
Flä che</w>
CH F</w>
tur en</w>
therap y</w>
setz te</w>
chine sische</w>
R ap
Pro te
tran s</w>
t ories</w>
quali ties</w>
mark tes</w>
Verstär kung</w>
re ci
poten ti
k riterien</w>
brie fly</w>
Sü dafrika</w>
Bet ro
u x</w>
kom fortable</w>
g ingen</w>
ackno wledge</w>
effizi enten</w>
19 th</w>
in t
F Ü
к о
under taking</w>
en es</w>
gül tig</w>
H z</w>
su res</w>
p a</w>
kap ital</w>
d ently</w>
Kommissionsprä sident</w>
cont am
con vention</w>
campaign s</w>
bs p</w>
min or</w>
mi xed</w>
journ alists</w>
disp utes</w>
W W
Sch wan
Arznei mittel</w>
198 6</w>
198 5</w>
zwöl f</w>
ul timate</w>
ri gor
Kre ativ
y ard</w>
de i</w>
E in</w>
An hän
um ge
Hau t</w>
äl teren</w>
initi ated</w>
H us
Erfol ge</w>
pro gressive</w>
jugosla w
in sufficient</w>
sta ying</w>
auf nahme</w>
angekün digt</w>
Richt linien
Län ge</w>
Auf trag
under take</w>
el and</w>
Cas a</w>
m its</w>
Benutz ung</w>
bei behalten</w>
be trag</w>
be er</w>
K lu
ra vel</w>
gem essen</w>
geb ot
elec toral</w>
comm it</w>
Pla y
str it
erzeu gen</w>
ver geben</w>
negoti ated</w>
magaz ine</w>
An dal
zu gestimmt</w>
tre ss</w>
an o
Ent spannung</w>
D O
be hält</w>
Reser vierung</w>
Deutsch lands</w>
where by</w>
u ph
bel ong</w>
K äufer</w>
Eur or
v re</w>
pel ine</w>
fail s</w>
G A</w>
hi king</w>
form ats</w>
zeich neten</w>
fif th</w>
ant räge</w>
sp anische</w>
pos ure</w>
ben ch
Cô te</w>
ü mer</w>
ge treten</w>
Steu er</w>
Gre en
i ka</w>
ur laub</w>
bie ts</w>
Stän digen</w>
Ruß land</w>
p ts</w>
gir ls</w>
dela ys</w>
bewer tung</w>
Sp ie
rec ording</w>
it ly</w>
g le
ar men</w>
substan tially</w>
lan ger</w>
kosten lose</w>
communic ate</w>
Wi k
L ok
L ic
Be sitz</w>
r an</w>
Marok ko</w>
G lau
s or</w>
radi k
Kir k</w>
Dar fur</w>
е р
fe wer</w>
Vertri eb</w>
Muse en</w>
tax i</w>
sophistic ated</w>
dec lar
Klima wandels</w>
Jose ph</w>
F or</w>
se ats</w>
eventu ell</w>
anson sten</w>
C olo
zu gelassen</w>
pl ötz
Rele ase</w>
Pass wort</w>
er wiesen</w>
chec ked</w>
S W
Ministerprä sident</w>
Flor enz</w>
d oppel
combin es</w>
Pro vi
P ack</w>
lo ser</w>
li schen</w>
est a</w>
Kaff ee</w>
ES T
Bu il
inter essi
er öffnen</w>
cam p</w>
über lassen</w>
ven tive</w>
en .htm</w>
ali se</w>
Rechnung shof</w>
Gipfel treffen</w>
zerstör t</w>
Sou verän
Partner schaften</w>
Kenntn isse</w>
Constitu tional</w>
mand atory</w>
Leb anon</w>
G 20</w>
Lt d</w>
Mi et
dür ften</w>
Hol z</w>
Dec laration</w>
so eben</w>
ini eren</w>
fall ing</w>
reduc tions</w>
po le</w>
h o</w>
k tu
erk enn
T al</w>
j um
erst es</w>
So w
In fo
Bu dd
Ameri kaner</w>
stru ggle</w>
gewäh lten</w>
PRO C
Min im
Ten den
beg ins</w>
Koh är
sor ry</w>
lä dt</w>
größ ter</w>
be danken</w>
Anwen der</w>
n bsp</w>
inter n
rein for
nec essi
soli de</w>
w ör
pol nischen</w>
Weiß buch</w>
post al</w>
n ative</w>
g on</w>
dist ur
begrün det</w>
Kon gre
Biblioth ek</w>
A .
hon our</w>
günsti gen</w>
Lei ter</w>
L ü
Gesetz geb
tari ff</w>
ativ ity</w>
So und</w>
tatsäch lichen</w>
sur prise</w>
remo val</w>
j ury</w>
b eln</w>
Ha iti</w>
im men
conveni ence</w>
b right</w>
ro ut
ju dge</w>
begeg nen</w>
M I
Er satz
with draw
pl ates</w>
on ie</w>
b at</w>
syn chron
mini sterium</w>
b onds</w>
Entwick l
Aus rüstung</w>
woh n
si gni
com posed</w>
Kredit karte</w>
mo bil
wel le</w>
geb lieben</w>
flo ors</w>
Sto ck</w>
Moldo va</w>
D ör
komp ati
hor se</w>
fair en</w>
en ne</w>
Zü rich</w>
Produ ktivität</w>
á n
ex act</w>
P M</w>
Fam ily</w>
F T
ver li
summ ary</w>
residen ts</w>
fun ktion</w>
ar ische</w>
a ders</w>
N ok
An träge</w>
thor ough</w>
Kam pf
gebilli gt</w>
arran gement</w>
Li ban
Fil me</w>
AS S
A ma
groß zügi
found ations</w>
Fot o
Di agno
su ms</w>
re tain</w>
publi sh</w>
cust om</w>
b lau
T amp
industri ellen</w>
her bei
heb t</w>
bu ch
Luft verkehrs
Küh l
Grupp en
Best re
30 .</w>
1 10</w>
speciali sts</w>
oblig ator
L ine</w>
investi gations</w>
Schön heit</w>
r ent
Tschech ischen</w>
Edin burgh</w>
D au
tex tile</w>
B ut
ma x</w>
Comm erce</w>
Boo t</w>
verwen deten</w>
schwieri ge</w>
ous ness</w>
Re chen
po sts</w>
pass ing</w>
fas z
C el
Be gl
Aut os</w>
An sprüche</w>
t ings</w>
pro pri
kl asse</w>
Gesetz es
d f
construc ted</w>
ch ampi
So l</w>
Oper a</w>
kon kur
Min er
gewid met</w>
erneuer bare</w>
Sat z</w>
F ut
sonsti gen</w>
Finanz mittel</w>
relation ships</w>
fro h</w>
ausreich ende</w>
C ho
genau er</w>
Mar k</w>
H D</w>
im ported</w>
ein sei
R y
30 3</w>
än der</w>
enn ess</w>
Kar l</w>
AS EAN</w>
voraus sichtlich</w>
v ar</w>
ungs maßnahmen</w>
poli s</w>
S ab
Ni cht</w>
jähr liche</w>
hi dden</w>
heraus ra
a x</w>
W it
ver mut
len ken</w>
geb ühren</w>
Mark en
Ent schä
B I
vermi eden</w>
sle ep</w>
rank ungen</w>
leben den</w>
er staun
unmittel barer</w>
sicher er</w>
recogni ze</w>
gesch o
gel ung</w>
ek ten</w>
b uses</w>
W erten</w>
ä le</w>
Wi kit
Vizeprä sidentin</w>
unter bro
sozi al
r ally</w>
con version</w>
Vor be
J ung
Herzegowin a</w>
weiter zu
ste chnik</w>
pursu ed</w>
F ur
ra id</w>
pictu resque</w>
in ery</w>
grenz übergreif
besch ließen</w>
repe at
Cu ba</w>
in spir
s me
panoram ic</w>
depen dence</w>
ai red</w>
Direc t</w>
unterst reicht</w>
spar teien</w>
bath rooms</w>
teil te</w>
g am
V inc
B om
zw ingen</w>
spä teren</w>
r ating</w>
pro bi
in ely</w>
Z wan
Vor stellungen</w>
Betre uung</w>
ver zerr
statisti cal</w>
Un der
K ä
Eu ch</w>
Übri gen</w>
ti erenden</w>
sel ber</w>
N ero</w>
Haupt bahnhof</w>
stan zen</w>
sp ite</w>
ex posed</w>
Volks gesundheit</w>
Immobili en</w>
ssi er</w>
a e
Umweltsch utz
Mon tag</w>
Coun tries</w>
verletz ungen</w>
ster ben</w>
so genannte</w>
ing redi
bro ken</w>
F luss</w>
plan en</w>
bet riebe</w>
Zul assung</w>
Herzego vina</w>
mäßi gkeit</w>
in wie
erstre ckt</w>
defic its</w>
Betru gs
se uropä
man chen</w>
jun ction</w>
uni or</w>
serv ative</w>
pu rely</w>
Ch an
Amend ments</w>
li stings</w>
de fe
Te ch</w>
Sch ätz
zau ber
lie b</w>
St rei
Alb anien</w>
wachsen de</w>
ordnungs gemäß</w>
ak u
Ru bri
Mäd chen</w>
Inn enstadt</w>
н о
new sletter</w>
J on
2. 5</w>
ähn lichen</w>
lo ading</w>
aktu alisiert</w>
Pil ot
fin dung</w>
Pal ette</w>
ver trä
succe eded</w>
ge liefert</w>
form ing</w>
Indi vidu
spezi alisiert</w>
rin zip</w>
ra chten</w>
im peri
d le</w>
be an</w>
vor liegt</w>
vol les</w>
tr at</w>
maxim al</w>
Inter governmental</w>
C EO</w>
verbesser te</w>
sch mer
Kohär enz</w>
orient ation</w>
e -</w>
Zu cker
Absch luß</w>
th ri
klein ere</w>
op tional</w>
sp it
mista ke</w>
kilomet res</w>
chem ische</w>
E ver
radi cal</w>
eb al
T ür</w>
S Y
F L
se gment</w>
man ual</w>
Schluß folgerungen</w>
Frau en
repe ated</w>
conc ert</w>
Wikit ravel</w>
W and
verwen de</w>
stu ff</w>
stat ing</w>
Austra lien</w>
me als</w>
credi ble</w>
stun ning</w>
sta ats
premi um</w>
ingredi ents</w>
ger ei
Stabili sierungs
Feh l
CD s</w>
versch affen</w>
prison ers</w>
n ail</w>
gerech net</w>
P AR
Nok ia</w>
C AR
B av
A B</w>
sh uttle</w>
gnü gen</w>
fo x</w>
Ab ent
li ger</w>
gegeb enen</w>
Neeli e</w>
zah ler</w>
rele ases</w>
ar er</w>
Stell en
Not es</w>
Jer usalem</w>
kö mm
automo tive</w>
ach ed</w>
Pro p
K arel</w>
frequ ency</w>
d ing
Zu gangs</w>
hy gi
erneuer baren</w>
bo ar
s anit
lü ssen</w>
Val encia</w>
Stra h
ES F</w>
op enness</w>
län ger
gel esen</w>
Ab teilung</w>
iss ance</w>
disp lac
an isch</w>
Li b
tex tual</w>
E qu
mittel -</w>
guarante eing</w>
noti fication</w>
Land wirtschafts
v able</w>
Wäh ler</w>
chn ungen</w>
bedro ht</w>
li t
st ories</w>
hom o
gr ünen</w>
de lic
Park plätze</w>
sen ior</w>
aus gehend</w>
29 5</w>
wi es
op pose</w>
bo ats</w>
isti sch</w>
Entfer nung</w>
si scher</w>
le ute</w>
g age</w>
fail ing</w>
Spei sen</w>
S K</w>
Dro gen</w>
Bü rokrati
un necessary</w>
hy po
CO UN
niederländi schen</w>
Sy m
Stabilitäts -</w>
Sp ani
Pal acio</w>
Nach druck</w>
st ently</w>
ro t
hol der</w>
gn a</w>
g otten</w>
trau m
equ ity</w>
Umwelt fragen</w>
Stra ft
Get rei
Ein leitung</w>
viol ation</w>
ehr ten</w>
basi cally</w>
taxpa yers</w>
steu erung</w>
h un
mitgli eder</w>
legitim acy</w>
assess ed</w>
ass urance</w>
Religi on</w>
Offi cial</w>
Gu inea</w>
Begrün dung</w>
stab il
Re par
H U</w>
sa d</w>
gesund heits
Pri ze</w>
Kon vent</w>
wäch st</w>
hinzu gefügt</w>
hin e</w>
be gun</w>
addi tionally</w>
struc tured</w>
beru hen</w>
An dro
Sch o
Det ail</w>
war tet</w>
visi ts</w>
str en
mean while</w>
et o
Por to</w>
Bau m
gi k</w>
geschi ckt</w>
enlar ged</w>
be fin
L eben
Fre und</w>
über wacht</w>
thresh old</w>
condi tioned</w>
auf geführt</w>
Re al
K e
ü ssen</w>
p as</w>
ou ts</w>
for th</w>
f ell</w>
Indi katoren</w>
Ge sicht
Ein la
Co ur
. net</w>
zunehmen de</w>
tackl ing</w>
gran ten</w>
Aus übung</w>
with draw</w>
stöß t</w>
nied rigen</w>
Tex t
Schutz es</w>
S zen
Perform ance</w>
In c</w>
v ary</w>
gegen über
Zerti fik
Re publi
L ernen</w>
Kapaz ität</w>
sc rut
ell i</w>
Sec ond</w>
deut liche</w>
ld n</w>
Europ ar
ci ally</w>
Lebens mitteln</w>
Beam ten</w>
vic tory</w>
technolo gische</w>
op ho
Spa zier
Mo sk
ans ä
über wach
unge achtet</w>
restric tive</w>
man s</w>
The men
z ones</w>
mar gin
dr yer</w>
Argu mente</w>
woh nern</w>
un certainty</w>
proble m
mer k</w>
k unden</w>
hel l</w>
Russ lands</w>
sti ck</w>
hal ts
an zeigen</w>
Musli m</w>
Infra strukturen</w>
wä sche</w>
str and</w>
modernis ation</w>
Re z
G am
sitz en</w>
s ein
cht ungs
M illion</w>
un employed</w>
seit dem</w>
cover age</w>
her stellen</w>
desi rable</w>
P ed
Verk aufs
ordnungs gemä
tro ops</w>
p in</w>
j ing</w>
feh len</w>
ent liche</w>
de voted</w>
behin der
ra sche</w>
Z erstör
sign ature</w>
Ferienwoh nung</w>
E W</w>
B and
w ahr</w>
S L</w>
respec tively</w>
B ak
Expl orer</w>
stre sses</w>
sen dung</w>
bu ying</w>
an lässlich</w>
an den</w>
Koh len
üb lichen</w>
stau sch
men tierung</w>
land wirtschaftliche</w>
hau shal
er mitteln</w>
enz a</w>
Dritt staaten</w>
mi c
institu te</w>
Infra struktur
nutz t</w>
ebal gs</w>
c at</w>
W at
zi pl
cli cking</w>
S OL
Mar t
Arbeits weise</w>
verabschie den</w>
profession elle</w>
gering er</w>
di en</w>
contrac tual</w>
Ernähr ungs
unterschied licher</w>
u tions</w>
hibi tions</w>
ein geräumt</w>
Spek trum</w>
herr lichen</w>
er arbeitet</w>
Er leichter
ol dest</w>
gar age</w>
um so</w>
poten tially</w>
li fer
develop ers</w>
bo und
Po d</w>
Fischerei politik</w>
Str and
Pe ace</w>
Ex peri
Dat ei
lan gem</w>
vari able</w>
kümm ern</w>
afford able</w>
Minister rat</w>
Facili ties</w>
veröffent lichte</w>
speciali zed</w>
nehm lichkeiten</w>
ger inge</w>
bet ru
Hä user</w>
tra ined</w>
t ut
stä tten</w>
ater ing</w>
promot ed</w>
nö tigen</w>
H ein
fair e</w>
diesel ben</w>
War craft</w>
Spr ing</w>
vie wing</w>
toler ance</w>
Ein satz
wirk liche</w>
so for
ge sichert</w>
evi dent</w>
a mend</w>
Energiequ ellen</w>
verur sachen</w>
transl ated</w>
ti an</w>
a res</w>
reich hal
aus gehen</w>
Mes se
z ar
ro of</w>
angebo te</w>
R äume</w>
kli mati
Proz ess
Mosco w</w>
ten den
techn isch</w>
sur plus</w>
f ast
R I
unentgel tlich</w>
Vorder grund</w>
Pi ebalgs</w>
simultane ously</w>
differ enti
agre es</w>
Spit ze</w>
H ek
zei gte</w>
territ ories</w>
er hol
L eh
gel s</w>
exp anded</w>
defin ing</w>
bar ometer</w>
trav ellers</w>
gesu cht</w>
erweiter ten</w>
T ruppen</w>
Sa ison</w>
mehr fach</w>
enor men</w>
Um stände</w>
Le ague</w>
Dü ssel
Augen blick</w>
lin ken</w>
Li br
negoti ate</w>
h t
coordin ate</w>
Ro ck</w>
wir ft</w>
verw öh
fo ster</w>
ab end</w>
Benutz er
mm a</w>
L ast</w>
Arbeits gruppe</w>
A z
ver e</w>
enjo ying</w>
Unter nehmer</w>
Som alia</w>
m ouse</w>
zus agen</w>
di al</w>
ver pfli
i o</w>
Yugosla v</w>
P ho
ver teilung</w>
typ ischen</w>
sustain ed</w>
sol di
gri ff
e des</w>
Tab elle</w>
Pf lichten</w>
ver breitet</w>
stag ung</w>
sch wan
lei tet</w>
beeinträ chtigen</w>
verbin dungen</w>
tic ul
isti k</w>
fe et</w>
Ven edi
R D</w>
Flor ence</w>
Fest stellung</w>
recy cling</w>
Tie f
K art
er teilen</w>
ei le</w>
O G
F rü
system atic</w>
pr ison</w>
d able</w>
altern atives</w>
St an
Holi day</w>
25 .</w>
statt gefunden</w>
respec ts</w>
classi cal</w>
X ML</w>
Souverän ität</w>
Berichterstat ters</w>
wür digen</w>
R enn
certi fied</w>
b ak
Unterneh mer
sec onds</w>
Ma xim
wher ever</w>
ir on</w>
bel gischen</w>
Ober fläche</w>
O t
Haf en
exter ne</w>
Vereini gtes</w>
Men gen</w>
Gü ter
re turns</w>
nehm bar</w>
ausge geben</w>
Sonn tag</w>
remark able</w>
befürwor tet</w>
Vorsitz ender</w>
Millenni um</w>
Leip zig</w>
intensi v</w>
he sit
clo sing</w>
Fahr er</w>
D ingen</w>
klär en</w>
Außen minister</w>
sta yed</w>
respec ting</w>
Vor gehensweise</w>
Entschei d
Cook ies</w>
Ab fälle</w>
beauftra gte</w>
An sprech
verpflich ten</w>
dis count</w>
subscri be</w>
se ch
gel d</w>
war t</w>
erk unden</w>
Veranstal tungs
Jugosla wien</w>
Fin d</w>
ut ung</w>
mit geteilt</w>
er fasst</w>
Engin eering</w>
sch läge</w>
safe guar
ke ys</w>
ec ts</w>
M w
Konsult ationen</w>
o urs</w>
ko rea</w>
it ar
ho c</w>
emphasi sed</w>
Informations -</w>
F leisch</w>
studi ed</w>
K ie
Dres den</w>
Saf e</w>
Bü cher</w>
um gehend</w>
exp ense</w>
angeneh m</w>
Hand lungen</w>
Auf lösung</w>
cre w</w>
cancell ation</w>
b lan
Wachst ums</w>
regel ungen</w>
broad band</w>
b ought</w>
t ability</w>
Re vision</w>
An nu
Ziel setzungen</w>
dig ungen</w>
H oriz
t um</w>
defin ieren</w>
auf gestellt</w>
Ver stöß
Sad dam</w>
haf ter</w>
g oo
ex posure</w>
druck s
X I</w>
Wider stand</w>
Trans fer</w>
S ens
hochwer tigen</w>
be unruhi
ah e</w>
Rah mens</w>
Lebens qualität</w>
po sted</w>
manufac tured</w>
mach inery</w>
lief erung</w>
hei mischen</w>
geisti gen</w>
clar ity</w>
as signed</w>
Pi erre</w>
ständi gkeit</w>
beträcht liche</w>
Bestä tigung</w>
li tät</w>
fi re
cr yst
Intel li
re ini
ra ces</w>
d ying</w>
compati bility</w>
zunehmen den</w>
pl as
aus es</w>
Wil d
refer ences</w>
mit ting</w>
evalu ate</w>
co decision</w>
Ty p</w>
N E</w>
Föder ation</w>
fe a
collap se</w>
Sozial partner</w>
Daten schutz</w>
D .</w>
p g</w>
durch geführten</w>
Ein schätzung</w>
gewöhn lich</w>
ga stronom
ati sierung</w>
Belast ung</w>
itä tsp
insi st</w>
adi se</w>
Zuständi gkeiten</w>
Hoh eits
soverei gn</w>
c ommission</w>
acht ungs
Spiel en</w>
Nordi c</w>
Konfli kt
Ber ge</w>
verhältn is</w>
men ge</w>
ko dex</w>
cer em
WH O</w>
wa days</w>
vi era</w>
pen alties</w>
beri chte</w>
rieb enen</w>
per mission</w>
B L
sh el
Welt wirtschaft</w>
Mar co</w>
bes chä
angeneh men</w>
Wert pap
Off ic
pursu ant</w>
MO s</w>
1 40</w>
pl ur
m s
M E</w>
under lined</w>
st ur
bab y</w>
Custom er</w>
Assozi ations
ver stoßen</w>
unter breitet</w>
t as</w>
macro economic</w>
ameri kan
Ni kon</w>
Hän dler</w>
schaf ter</w>
am p</w>
T us
simpli fy</w>
repeat edly</w>
neh me</w>
in door</w>
cook ies</w>
Sol ana</w>
sol ved</w>
sam ple</w>
The at
U M</w>
Bl ack
re aler</w>
consisten cy</w>
ei ler</w>
L or
ta gs
be wirken</w>
M é
Betru g</w>
spä t</w>
ausge deh
orienti erte</w>
ni ght
ba y</w>
b aut</w>
ab gegeben</w>
T F
O z
F abri
sch wä
no wadays</w>
W en
Sie g</w>
motor way</w>
surpr ised</w>
feat uring</w>
der selben</w>
Migr ations
J .</w>
sp len
au ßen
Vene zu
Tr end</w>
Ira q
Comm un
supple mentary</w>
ph a</w>
belie ved</w>
S li
AL E</w>
far ms</w>
ch ro
ag nen</w>
Zusammen setzung</w>
pos s
o s
ch rist
ver bindung</w>
m elt</w>
contradi c
Urlau bs
Ri chter</w>
E vents</w>
Bo ot
Aus gangs
Apparte ments</w>
3 6
ti ment</w>
ref used</w>
Arbeits kräfte</w>
Altern ativen</w>
inter im</w>
re x</w>
Ko re
E .
Er arbeitung</w>
t u</w>
spra ch
ron t</w>
envis aged</w>
Gui delines</w>
wei chen</w>
viol ent</w>
beri chtet</w>
audiovis u
а л
lo ads</w>
ver steht</w>
th umb
stan des</w>
geogra ph
boo ked</w>
quanti ty</w>
entfer nen</w>
enjo ys</w>
endor sed</w>
cal m</w>
Vor gaben</w>
Sam sung</w>
Doku mentation</w>
Aktionsp lans</w>
O x
E s
wid men</w>
col ors</w>
co ck
Wachstum sp
Si cht
um es</w>
theat re</w>
spor t
se emed</w>
residen tial</w>
ent spre
dramati c</w>
all mäh
rob ust</w>
es a</w>
Gol den</w>
Coun try</w>
leit ungen</w>
keines wegs</w>
descri be</w>
Le ar
verti e
versi cherung</w>
pharmaceu tical</w>
zw eck
typ ically</w>
super b</w>
charac teri
ch ungs
Chi ef</w>
20 th</w>
la im
dest o</w>
clo ck</w>
We g
W ater</w>
woo den</w>
audi ence</w>
Liban on</w>
Joh ann
l um
aus stattung</w>
and in
Tra ditionen</w>
Olymp ic</w>
reve aled</w>
publi shing</w>
um ul
j k</w>
di eren</w>
an sprechen</w>
Durch schnitt</w>
orienti erten</w>
enti ty</w>
citiz enship</w>
big ger</w>
Qu es
C ru
estim ates</w>
Früh jahr</w>
Durch führungs
ver nehmen</w>
e sion</w>
confi dent</w>
Privat sphäre</w>
Pra g</w>
Mil an</w>
K DE</w>
wa ke</w>
Residen ce</w>
Pl ace</w>
K lo
IT Y</w>
versch le
Su ites</w>
K le
mit h</w>
cul p
beeinträ chtigt</w>
acade mic</w>
Nach fol
zufrieden stell
ti gem</w>
sch lu
zusammenzu arbeiten</w>
sti pul
air line</w>
Wed n
spiel er</w>
purch asing</w>
hü tung</w>
cro ps</w>
an sehen</w>
In spek
reno viert</w>
plac ing</w>
einstimmi g</w>
Erleb nis</w>
Annu al</w>
stimul ate</w>
b lichen</w>
Schn ell
Legisl ativ
encour ages</w>
Ziel s</w>
Ost europa</w>
Met ro</w>
Aus legung</w>
hol e</w>
Tamp ere</w>
Mo dule</w>
Gepä ck
For d</w>
Erweiter ungs
A y
si zes</w>
presiden tial</w>
f at
era dic
W ör
red und
comp rises</w>
bezo gene</w>
R A</w>
Cli mate</w>
prospec t</w>
de cl
He ad</w>
C lin
escap e</w>
verwal tet</w>
p an</w>
lo sing</w>
is chen
da hin</w>
Entwick ler</w>
tro ck
offici ally</w>
lo go</w>
eth ical</w>
Yugosla via</w>
Pal ästinen
Bu g
Andal u
withdraw al</w>
sec urities</w>
k ennt</w>
bü rokrati
beri chterstat
bene ficial</w>
Vorbereit ungen</w>
Spezi alitäten</w>
techni que</w>
pap ers</w>
Coh esion</w>
exemp tion</w>
Fre und
ru fe</w>
proble mati
mi ß
wi g</w>
ob serve</w>
den d</w>
adul t</w>
promis ing</w>
V C</w>
c er</w>
ac o</w>
R SS</w>
sprech end</w>
chair man</w>
Th y
S w
ver brau
um gehen</w>
pun kten</w>
kosten losen</w>
al ar
Phili ppe</w>
Elek tri
rati fied</w>
konsequ ent</w>
bi ological</w>
Schi cks
Krie ges</w>
Comm unities</w>
günsti g</w>
Molda u</w>
Kar ri
komple xe</w>
ar ray</w>
L T</w>
Haf t
Be au
vermut lich</w>
termin al</w>
Zwei ten</w>
Kon vention</w>
Sam stag</w>
Her kunft</w>
Beschäf tigten</w>
a ster
Klar heit</w>
stra sse</w>
neigh bourhood</w>
geschn itten</w>
ber ger</w>
Chi c
ver mittelt</w>
EI T</w>
col oni
bir ds</w>
Bürger beauftragten</w>
pen ding</w>
dre ss</w>
B arb
t ori
com ings</w>
Or ten</w>
Ta x
adju sted</w>
S. A.</w>
re al
har m</w>
Gro ßen</w>
umfan greichen</w>
metho de</w>
ch ers</w>
beru fen</w>
Wohn ungen</w>
Unter künfte</w>
Pen sion</w>
Aus sage</w>
necessi ty</w>
gra l</w>
demo gra
be arbeiten</w>
j a
il le</w>
dimen sions</w>
da vor</w>
an passen</w>
Gewin ne</w>
Flug gesellschaften</w>
er arbeiten</w>
a ster</w>
Zuverlässi gkeit</w>
K au
sch reck
r is</w>
hervorra gend</w>
decl are</w>
Internet zugang</w>
zent rali
tik a</w>
advent ure</w>
im posing</w>
con textual</w>
4 50</w>
th ou
str ing</w>
sa al</w>
aff ord</w>
Objec tive</w>
ern annt</w>
komb iniert</w>
in direct</w>
coher ence</w>
S ei
Prä vention</w>
N er
sol ch</w>
ruhi ge</w>
organi sierte</w>
neut ral</w>
fer tigung</w>
en tive</w>
atten ded</w>
N ep
mith ilfe</w>
sh and
V IP</w>
Aktu alisierung</w>
teil ten</w>
qualifizi erte</w>
hunder t</w>
hi lls</w>
g ori
end sten</w>
S han
occup ation</w>
Si r</w>
O L</w>
technolo gischen</w>
t ü
S pre
Par a
bu l</w>
spec tives</w>
por tra
Verfol gung</w>
P sy
Netz es</w>
dea ths</w>
Prof .</w>
Nachbarschafts politik</w>
Merk male</w>
Eff ekt</w>
arab ischen</w>
medizin ischen</w>
Z E</w>
G ay</w>
Ba den</w>
12. 00</w>
vertr aut</w>
sche dule</w>
prefer red</w>
an wal
Treibhaus gas
S eit
EM U</w>
Ar ena</w>
ö st
c it
K S</w>
be antwortet</w>
Jahres bericht</w>
re servi
log istics</w>
lo ses</w>
k lus</w>
Er halt</w>
tra ins</w>
op eri
lic ence</w>
i ran
fest e</w>
ein gebracht</w>
ec o
e able</w>
Exist enz</w>
dig te</w>
continu ously</w>
Sch atten
Jugend liche</w>
Frem d
short comings</w>
s ar
in spiri
fu gen</w>
Bewus stsein</w>
re au</w>
Tun e
Fire fox</w>
k ommiss
fre sh
calen dar</w>
Str ände</w>
Presiden ts</w>
steu ert</w>
in quiries</w>
hi bit
he avi
flexi bel</w>
T op
tour na
om e</w>
lay out</w>
An gabe</w>
fre ich</w>
tel s</w>
ent stand</w>
arran ged</w>
Ru f</w>
17 .
stri ke</w>
infra structures</w>
eri a</w>
entschei det</w>
bein ahe</w>
ot t
frü h</w>
bran ch</w>
Sitz ungen</w>
N ET</w>
C ross</w>
Produc t</w>
Bla ir</w>
1. 1</w>
hab ili
po ker</w>
der art</w>
ag eing</w>
O st</w>
Kon su
Ergän zung</w>
fahr zeugen</w>
exce ed</w>
ein führen</w>
cro w
bir d</w>
T ou
D ok</w>
sen der</w>
russi sche</w>
reflec tion</w>
lag erung</w>
hil freich</w>
harmon ised</w>
edi ted</w>
Wol f
Qu ell
Li qui
Gemeinschafts recht</w>
vor ge
ver wiesen</w>
a issance</w>
Ratsvor sitz
Vor feld</w>
Ti cket</w>
spie geln</w>
i zed</w>
höch st</w>
fal se</w>
emp ty</w>
T U
Zusammen schluss</w>
rä gern</w>
respon ses</w>
ma ps</w>
ge änder
cap aci
Nutz ungs
Klas si
ver wirklichen</w>
therap eu
Hinter grund
Dien sten</w>
geb unden</w>
di an</w>
General sekretär</w>
Geld bu
per su
läufi g</w>
inc entive</w>
Argu ment</w>
wür fe</w>
Scot land</w>
Lehr er</w>
qu i</w>
pu r</w>
clo thing</w>
bi ge</w>
T S
195 7</w>
sichti gen</w>
requ iring</w>
medi eval</w>
k u</w>
Wohn zimmer</w>
St ur
L CD</w>
F C</w>
telefon isch</w>
drin king</w>
detailli erte</w>
begrenz te</w>
ab ruf
Partner schafts
Einfu hren</w>
su ited</w>
ch airs</w>
Palestini ans</w>
AL L
genu inely</w>
er weisen</w>
Tex til
näch ster</w>
Erkenntn isse</w>
Kat alog</w>
opp on
mechan ical</w>
fore most</w>
bu g</w>
berühm te</w>
appar ent</w>
measu rement</w>
dr ängt</w>
char m</w>
Konzep te</w>
Je wish</w>
Ex port</w>
B yr
sch alten</w>
sc ar
ob servation</w>
ani el</w>
Tau ch
B un
h em
exp enses</w>
Erwachsen e</w>
Bei jing</w>
z ellen</w>
stand ardi
ge klärt</w>
fore seen</w>
auf hin</w>
Erzeu ger</w>
lo aded</w>
Proble matik</w>
share holders</w>
re viewed</w>
Wedn esday</w>
In halten</w>
Democ ratic</w>
win d
min es</w>
car te</w>
S eries</w>
Franzö sisch</w>
D ER
3 1.</w>
b are
Liefer anten</w>
Einzel nen</w>
pl er</w>
pa ths</w>
ch at</w>
ab e</w>
Au fre
enti ties</w>
bi otechnolo
Rat schlag</w>
Kris en</w>
dat eien</w>
Mehr wert</w>
14 .
listen ing</w>
ann i</w>
öl le</w>
whol es
plu g</w>
Co ck
Al geri
recip i
modi fy</w>
eb o
bus y</w>
bi l</w>
Ver mei
Off enheit</w>
My an
Bon n</w>
Über sicht</w>
pat ents</w>
gefähr lich</w>
du plic
Zin ss
Publik um</w>
ung alo
consi stently</w>
ar tik
Kandi daten
w ski</w>
tri eb</w>
T o</w>
wi fe</w>
men gen</w>
indic ates</w>
auth ors</w>
ap ar
NI CHT</w>
tan gible</w>
h n
fac to</w>
di ving</w>
ak an</w>
Wa sch
Ter ms</w>
Telekommunik ation</w>
PH ARE</w>
Markt wirtschaft</w>
Gel tungs
Fri end
Ac count</w>
gu il
Verlu ste</w>
Gü ter</w>
metho d
k et
bewu ßt</w>
Philosop hie</w>
öh ne</w>
le hr
compet ences</w>
c ommission
beit re
16 .
weit aus</w>
komple xen</w>
V P</w>
15 .
ti gh
ter er</w>
mis sed</w>
berühr t</w>
2 nd</w>
acqu ire</w>
B A
winn er</w>
Sow jet
Jes us</w>
G y
[...]
