{
  "eos": 66293, 
  "UNK": 1, 
  ",": 2, 
  ".": 3, 
  "die": 4, 
  "der": 5, 
  "und": 6, 
  "in": 7, 
  "@-@": 8, 
  "den": 9, 
  "&quot;": 10, 
  "zu": 11, 
  "von": 12, 
  "das": 13, 
  "für": 14, 
  "mit": 15, 
  "ist": 16, 
  "auf": 17, 
  "im": 18, 
  "des": 19, 
  ":": 20, 
  "eine": 21, 
  "es": 22, 
  "ein": 23, 
  "sich": 24, 
  "nicht": 25, 
  "dem": 26, 
  "-": 27, 
  "auch": 28, 
  "werden": 29, 
  ")": 30, 
  "(": 31, 
  "dass": 32, 
  "wir": 33, 
  "an": 34, 
  "als": 35, 
  "Sie": 36, 
  "ich": 37, 
  "sind": 38, 
  "wird": 39, 
  "bei": 40, 
  "um": 41, 
  "hat": 42, 
  "aus": 43, 
  "nach": 44, 
  "wie": 45, 
  "er": 46, 
  "über": 47, 
  "sie": 48, 
  "einer": 49, 
  "am": 50, 
  "haben": 51, 
  "einen": 52, 
  "oder": 53, 
  "zur": 54, 
  "einem": 55, 
  "vor": 56, 
  "zum": 57, 
  "/": 58, 
  "aber": 59, 
  "so": 60, 
  "noch": 61, 
  "diese": 62, 
  "nur": 63, 
  "durch": 64, 
  "wenn": 65, 
  "können": 66, 
  "war": 67, 
  "Kommission": 68, 
  "kann": 69, 
  "wurde": 70, 
  "mehr": 71, 
  "dieser": 72, 
  "sein": 73, 
  "man": 74, 
  "bis": 75, 
  "EU": 76, 
  "?": 77, 
  "was": 78, 
  "uns": 79, 
  "unter": 80, 
  "gegen": 81, 
  "alle": 82, 
  "ihre": 83, 
  "müssen": 84, 
  "sehr": 85, 
  "vom": 86, 
  "!": 87, 
  "diesem": 88, 
  "eines": 89, 
  "da": 90, 
  "Europäischen": 91, 
  "gibt": 92, 
  "daß": 93, 
  "dann": 94, 
  "zwischen": 95, 
  "sowie": 96, 
  "hier": 97, 
  "damit": 98, 
  "Jahr": 99, 
  "keine": 100, 
  "Union": 101, 
  "dieses": 102, 
  "zwei": 103, 
  "seine": 104, 
  "habe": 105, 
  "immer": 106, 
  "muss": 107, 
  "Herr": 108, 
  "dies": 109, 
  "wurden": 110, 
  "hatte": 111, 
  "wieder": 112, 
  "schon": 113, 
  "Mitgliedstaaten": 114, 
  ";": 115, 
  "Jahren": 116, 
  "beim": 117, 
  "seit": 118, 
  "doch": 119, 
  "bereits": 120, 
  "anderen": 121, 
  "Menschen": 122, 
  "sei": 123, 
  "Euro": 124, 
  "neue": 125, 
  "soll": 126, 
  "&apos;": 127, 
  "unsere": 128, 
  "heute": 129, 
  "möchte": 130, 
  "Europa": 131, 
  "viele": 132, 
  "Präsident": 133, 
  "nun": 134, 
  "Europäische": 135, 
  "de": 136, 
  "Zeit": 137, 
  "neuen": 138, 
  "Rat": 139, 
  "ihrer": 140, 
  "jetzt": 141, 
  "dabei": 142, 
  "seiner": 143, 
  "ab": 144, 
  "a": 145, 
  "waren": 146, 
  "ohne": 147, 
  "drei": 148, 
  "...": 149, 
  "diesen": 150, 
  "ihr": 151, 
  "geht": 152, 
  "dazu": 153, 
  "Jahre": 154, 
  "%": 155, 
  "1": 156, 
  "jedoch": 157, 
  "Uhr": 158, 
  "sagte": 159, 
  "Bericht": 160, 
  "sondern": 161, 
  "denn": 162, 
  "sollte": 163, 
  "Unternehmen": 164, 
  "andere": 165, 
  "ganz": 166, 
  "Hotel": 167, 
  "2": 168, 
  "ver@@": 169, 
  "weil": 170, 
  "Frau": 171, 
  "gut": 172, 
  "ihren": 173, 
  "the": 174, 
  "Parlament": 175, 
  "machen": 176, 
  "ersten": 177, 
  "selbst": 178, 
  "Entwicklung": 179, 
  "er@@": 180, 
  "dafür": 181, 
  "viel": 182, 
  "worden": 183, 
  "ob": 184, 
  "d@@": 185, 
  "te": 186, 
  "Maßnahmen": 187, 
  "weitere": 188, 
  "Prozent": 189, 
  "denen": 190, 
  "während": 191, 
  "allem": 192, 
  "mich": 193, 
  "Ihnen": 194, 
  "s": 195, 
  "weiter": 196, 
  "Welt": 197, 
  "sollten": 198, 
  "will": 199, 
  "en@@": 200, 
  "seinen": 201, 
  "einige": 202, 
  "allen": 203, 
  "wollen": 204, 
  "un@@": 205, 
  "europäischen": 206, 
  "finden": 207, 
  "unserer": 208, 
  "Informationen": 209, 
  "Deutschland": 210, 
  "Ende": 211, 
  "darauf": 212, 
  "lassen": 213, 
  "etwas": 214, 
  "steht": 215, 
  "Frage": 216, 
  "an@@": 217, 
  "liegt": 218, 
  "sagt": 219, 
  "ge@@": 220, 
  "Rahmen": 221, 
  "dort": 222, 
  "Bereich": 223, 
  "etwa": 224, 
  "würde": 225, 
  "ins": 226, 
  "3": 227, 
  "Stadt": 228, 
  "Land": 229, 
  "kommen": 230, 
  "en": 231, 
  "Millionen": 232, 
  "wo": 233, 
  "ten": 234, 
  "ab@@": 235, 
  "K@@": 236, 
  "stehen": 237, 
  "einmal": 238, 
  "sollen": 239, 
  "insbesondere": 240, 
  "allerdings": 241, 
  "daher": 242, 
  "Zusammenarbeit": 243, 
  "rund": 244, 
  "Arbeit": 245, 
  "kein": 246, 
  "mir": 247, 
  "deshalb": 248, 
  "geben": 249, 
  "also": 250, 
  "alles": 251, 
  "beiden": 252, 
  "and": 253, 
  "könnte": 254, 
  "darüber": 255, 
  "k@@": 256, 
  "wegen": 257, 
  "letzten": 258, 
  "Lage": 259, 
  "erst": 260, 
  "H@@": 261, 
  "wäre": 262, 
  "B@@": 263, 
  "Ziel": 264, 
  "e": 265, 
  "-@@": 266, 
  "seinem": 267, 
  "ja": 268, 
  "sehen": 269, 
  "bin": 270, 
  "kommt": 271, 
  "große": 272, 
  "meine": 273, 
  "Unterstützung": 274, 
  "s@@": 275, 
  "zwar": 276, 
  "bietet": 277, 
  "davon": 278, 
  "Fall": 279, 
  "2016": 280, 
  "möglich": 281, 
  "Sch@@": 282, 
  "Teil": 283, 
  "aus@@": 284, 
  "Länder": 285, 
  "Ihre": 286, 
  "vier": 287, 
  "hatten": 288, 
  "ein@@": 289, 
  "i": 290, 
  "großen": 291, 
  "20": 292, 
  "T@@": 293, 
  "of": 294, 
  "erste": 295, 
  "mann": 296, 
  "Regierung": 297, 
  "Ab@@": 298, 
  "be@@": 299, 
  "natürlich": 300, 
  "einfach": 301, 
  "t@@": 302, 
  "erhalten": 303, 
  "besonders": 304, 
  "stellen": 305, 
  "deren": 306, 
  "Frauen": 307, 
  "Ver@@": 308, 
  "10": 309, 
  "z@@": 310, 
  "ihm": 311, 
  "S@@": 312, 
  "außerdem": 313, 
  "vergangenen": 314, 
  "sagen": 315, 
  "ihn": 316, 
  "Ländern": 317, 
  "l": 318, 
  "Bürger": 319, 
  "gab": 320, 
  "vielen": 321, 
  "auf@@": 322, 
  "sch@@": 323, 
  "wichtig": 324, 
  "Thema": 325, 
  "Fragen": 326, 
  "4": 327, 
  "werde": 328, 
  "welche": 329, 
  "15": 330, 
  "tun": 331, 
  "ter": 332, 
  "Polizei": 333, 
  "Kinder": 334, 
  "P@@": 335, 
  "Weg": 336, 
  "USA": 337, 
  "D@@": 338, 
  "L@@": 339, 
  "gehen": 340, 
  "W@@": 341, 
  "z": 342, 
  "Tag": 343, 
  "unser": 344, 
  "An@@": 345, 
  "Richtlinie": 346, 
  "Vorschlag": 347, 
  "F@@": 348, 
  "30": 349, 
  "A@@": 350, 
  "ihrem": 351, 
  "Sicherheit": 352, 
  "Politik": 353, 
  "eigenen": 354, 
  "pa": 355, 
  "ihnen": 356, 
  "aller": 357, 
  "fünf": 358, 
  "sogar": 359, 
  "+": 360, 
  "t": 361, 
  "Seite": 362, 
  "0": 363, 
  "jeder": 364, 
  "Programm": 365, 
  "wer": 366, 
  "nichts": 367, 
  "weniger": 368, 
  "seien": 369, 
  "unseren": 370, 
  "n@@": 371, 
  "Leben": 372, 
  "politischen": 373, 
  "at": 374, 
  "macht": 375, 
  "gemacht": 376, 
  "US": 377, 
  "derzeit": 378, 
  "gerade": 379, 
  "besteht": 380, 
  "to": 381, 
  "Staaten": 382, 
  "gegenüber": 383, 
  "Zukunft": 384, 
  "G@@": 385, 
  "ebenfalls": 386, 
  "Rolle": 387, 
  "sten": 388, 
  "Recht": 389, 
  "über@@": 390, 
  "Problem": 391, 
  "N@@": 392, 
  "Herrn": 393, 
  "Beispiel": 394, 
  "innerhalb": 395, 
  "Art": 396, 
  "konnte": 397, 
  "Artikel": 398, 
  "5": 399, 
  "fast": 400, 
  "Bedeutung": 401, 
  "sowohl": 402, 
  "Platz": 403, 
  "Hilfe": 404, 
  "Daten": 405, 
  "neben": 406, 
  "f@@": 407, 
  "n": 408, 
  "Vor@@": 409, 
  "R@@": 410, 
  "März": 411, 
  "Probleme": 412, 
  "zudem": 413, 
  "deutlich": 414, 
  "würden": 415, 
  "2015": 416, 
  "E@@": 417, 
  "zusammen": 418, 
  "Verfügung": 419, 
  "nehmen": 420, 
  "gen": 421, 
  "Namen": 422, 
  "Berlin": 423, 
  "stellt": 424, 
  "g@@": 425, 
  "gilt": 426, 
  "M@@": 427, 
  "&#93;": 428, 
  "&#91;": 429, 
  "st@@": 430, 
  "insgesamt": 431, 
  "Flüchtlinge": 432, 
  "Region": 433, 
  "bringen": 434, 
  "000": 435, 
  "Möglichkeit": 436, 
  "du": 437, 
  "ent@@": 438, 
  "weiterhin": 439, 
  "wissen": 440, 
  "m": 441, 
  "zunächst": 442, 
  "ger": 443, 
  "laut": 444, 
  "Die": 445, 
  "kam": 446, 
  "o": 447, 
  "statt": 448, 
  "Wirtschaft": 449, 
  "führen": 450, 
  "gute": 451, 
  "lange": 452, 
  "Zimmer": 453, 
  "internationalen": 454, 
  "O@@": 455, 
  "Kunden": 456, 
  "Spiel": 457, 
  "50": 458, 
  "wirklich": 459, 
  "nächsten": 460, 
  "&amp;": 461, 
  "ern": 462, 
  "Gemeinschaft": 463, 
  "besser": 464, 
  "ler": 465, 
  "unterstützen": 466, 
  "pro": 467, 
  "zurück": 468, 
  "ke": 469, 
  "Parlaments": 470, 
  "erreichen": 471, 
  "keinen": 472, 
  "ch@@": 473, 
  "aufgrund": 474, 
  "Kollegen": 475, 
  "bieten": 476, 
  "genau": 477, 
  "E": 478, 
  "Weise": 479, 
  "is": 480, 
  "el@@": 481, 
  "d": 482, 
  "m@@": 483, 
  "verschiedenen": 484, 
  "Mann": 485, 
  "o@@": 486, 
  "Mal": 487, 
  "meiner": 488, 
  "daran": 489, 
  "Zusammenhang": 490, 
  "fest": 491, 
  "on": 492, 
  "klar": 493, 
  "könnten": 494, 
  "dessen": 495, 
  "politische": 496, 
  "b@@": 497, 
  "zu@@": 498, 
  "Ein@@": 499, 
  "europäische": 500, 
  "System": 501, 
  "um@@": 502, 
  "Z@@": 503, 
  "sicher": 504, 
  "schnell": 505, 
  "Internet": 506, 
  "bleiben": 507, 
  "bitte": 508, 
  "direkt": 509, 
  "Türkei": 510, 
  "Mittel": 511, 
  "Situation": 512, 
  "meisten": 513, 
  "al@@": 514, 
  "Haus": 515, 
  "Schutz": 516, 
  "Kommissar": 517, 
  "bisher": 518, 
  "sieht": 519, 
  "deutschen": 520, 
  "darf": 521, 
  "in@@": 522, 
  "Grund": 523, 
  "Entscheidung": 524, 
  "Personen": 525, 
  "Bundes@@": 526, 
  "zehn": 527, 
  "öffentlichen": 528, 
  "wenig": 529, 
  "hätte": 530, 
  "weit": 531, 
  "vor@@": 532, 
  "bleibt": 533, 
  "halten": 534, 
  "später": 535, 
  "16": 536, 
  "all": 537, 
  "spielen": 538, 
  "arbeiten": 539, 
  "6": 540, 
  "Umsetzung": 541, 
  "Kosten": 542, 
  "vielleicht": 543, 
  "Ort": 544, 
  "oft": 545, 
  "Geld": 546, 
  "Seiten": 547, 
  "25": 548, 
  "solche": 549, 
  "Lösung": 550, 
  "Rates": 551, 
  "schließlich": 552, 
  "Woche": 553, 
  "k": 554, 
  "hinaus": 555, 
  "Minuten": 556, 
  "Gruppe": 557, 
  "Verfahren": 558, 
  "heißt": 559, 
  "Februar": 560, 
  "Ober@@": 561, 
  "hin": 562, 
  "wohl": 563, 
  "mal": 564, 
  "Aus@@": 565, 
  "zweiten": 566, 
  "Markt": 567, 
  "mehrere": 568, 
  "einigen": 569, 
  "schaffen": 570, 
  "bekannt": 571, 
  "je": 572, 
  "as": 573, 
  "unterstützt": 574, 
  "findet": 575, 
  "berg": 576, 
  "Ebene": 577, 
  "gewesen": 578, 
  "dürfen": 579, 
  "nationalen": 580, 
  "le": 581, 
  "gemeinsam": 582, 
  "l@@": 583, 
  "­": 584, 
  "zeigt": 585, 
  "jeden": 586, 
  "darin": 587, 
  "hätten": 588, 
  "Land@@": 589, 
  "sechs": 590, 
  "li@@": 591, 
  "ebenso": 592, 
  "Fraktion": 593, 
  "muß": 594, 
  "V@@": 595, 
  "100": 596, 
  "Mitglieder": 597, 
  "SV": 598, 
  "Bau@@": 599, 
  "befindet": 600, 
  "gehört": 601, 
  "Team": 602, 
  "Behörden": 603, 
  "weiteren": 604, 
  "Richtung": 605, 
  "Einsatz": 606, 
  "2009": 607, 
  "el": 608, 
  "D": 609, 
  "e@@": 610, 
  "h@@": 611, 
  "Jahres": 612, 
  "re@@": 613, 
  "entfernt": 614, 
  "neues": 615, 
  "18": 616, 
  "besten": 617, 
  "gleichzeitig": 618, 
  ".de": 619, 
  "ers": 620, 
  "ging": 621, 
  "B": 622, 
  "12": 623, 
  "lässt": 624, 
  "trotz": 625, 
  "per": 626, 
  "Förderung": 627, 
  "Re@@": 628, 
  "indem": 629, 
  "Form": 630, 
  "Strategie": 631, 
  "Zahl": 632, 
  "beide": 633, 
  "gesagt": 634, 
  "gar": 635, 
  "Erfolg": 636, 
  "Foto": 637, 
  "14": 638, 
  "Geschichte": 639, 
  "beispielsweise": 640, 
  "Vertrag": 641, 
  "1.": 642, 
  "kurz": 643, 
  "los": 644, 
  "bekommen": 645, 
  "möchten": 646, 
  "Zugang": 647, 
  "Ziele": 648, 
  "la": 649, 
  "nämlich": 650, 
  "Europas": 651, 
  "C@@": 652, 
  "Januar": 653, 
  "ende": 654, 
  "mit@@": 655, 
  "ert": 656, 
  "Gesellschaft": 657, 
  "anderem": 658, 
  "40": 659, 
  "g": 660, 
  "wichtige": 661, 
  "handelt": 662, 
  "obwohl": 663, 
  "ungs@@": 664, 
  "Meinung": 665, 
  "kleinen": 666, 
  "nie": 667, 
  "de@@": 668, 
  "Wochen": 669, 
  "2010": 670, 
  "Grundlage": 671, 
  "nutzen": 672, 
  "gemeinsamen": 673, 
  "Trainer": 674, 
  "erklärte": 675, 
  "2014": 676, 
  "neu": 677, 
  "Produkte": 678, 
  "April": 679, 
  "enden": 680, 
  "erklärt": 681, 
  "Ihrer": 682, 
  "Sonntag": 683, 
  "Angaben": 684, 
  "Ergebnis": 685, 
  "ge": 686, 
  "i@@": 687, 
  "erreicht": 688, 
  "weiß": 689, 
  "Un@@": 690, 
  "China": 691, 
  "chen": 692, 
  "führt": 693, 
  "ung": 694, 
  "7": 695, 
  "Punkte": 696, 
  "warum": 697, 
  "zuletzt": 698, 
  "bzw.": 699, 
  "gegeben": 700, 
  "Anfang": 701, 
  "Blick": 702, 
  "J@@": 703, 
  "2000": 704, 
  "Spiel@@": 705, 
  "brauchen": 706, 
  "Reihe": 707, 
  "liegen": 708, 
  "Frankreich": 709, 
  "Be@@": 710, 
  "stand": 711, 
  "Interesse": 712, 
  "spiel": 713, 
  "sozialen": 714, 
  "tatsächlich": 715, 
  "13": 716, 
  "Bild": 717, 
  "b": 718, 
  "I@@": 719, 
  "Projekt": 720, 
  "gleich": 721, 
  "deutsche": 722, 
  "Straße": 723, 
  "angesichts": 724, 
  "unserem": 725, 
  "ungen": 726, 
  "Verhandlungen": 727, 
  "Punkt": 728, 
  "p@@": 729, 
  "8": 730, 
  "jede": 731, 
  "Qualität": 732, 
  "nachdem": 733, 
  "SPD": 734, 
  "darum": 735, 
  "FC": 736, 
  "2008": 737, 
  "setzen": 738, 
  "U@@": 739, 
  "Minister": 740, 
  "gemeinsame": 741, 
  "Stunden": 742, 
  "Website": 743, 
  "Regionen": 744, 
  "Auswirkungen": 745, 
  "es@@": 746, 
  "jedes": 747, 
  "den@@": 748, 
  "CDU": 749, 
  "zeigen": 750, 
  "bedeutet": 751, 
  "Tage": 752, 
  "Milliarden": 753, 
  "us": 754, 
  "kleine": 755, 
  "wirtschaftlichen": 756, 
  "17": 757, 
  "Dezember": 758, 
  "Bereichen": 759, 
  "eigentlich": 760, 
  "Schritt": 761, 
  "Bezug": 762, 
  "_": 763, 
  "Rechte": 764, 
  "stark": 765, 
  "ner": 766, 
  "Abkommen": 767, 
  "2007": 768, 
  "Ihr": 769, 
  "Neu@@": 770, 
  "betrifft": 771, 
  "Mitarbeiter": 772, 
  "gebracht": 773, 
  "Österreich": 774, 
  "r@@": 775, 
  "Samstag": 776, 
  "acht": 777, 
  "Anwendung": 778, 
  "hinter": 779, 
  "weltweit": 780, 
  "Bedingungen": 781, 
  "dadurch": 782, 
  "Familie": 783, 
  "Auf@@": 784, 
  "gestellt": 785, 
  "der@@": 786, 
  "bereit": 787, 
  "konnten": 788, 
  "München": 789, 
  "11": 790, 
  "Ihren": 791, 
  "Freitag": 792, 
  "I": 793, 
  "helfen": 794, 
  "Zeitung": 795, 
  "Möglichkeiten": 796, 
  "Mai": 797, 
  "Monaten": 798, 
  "jährige": 799, 
  "kaum": 800, 
  "st": 801, 
  "Landes@@": 802, 
  "richtig": 803, 
  "Juni": 804, 
  "erneut": 805, 
  "dennoch": 806, 
  "Bevölkerung": 807, 
  "Preis": 808, 
  "u": 809, 
  "wollte": 810, 
  "24": 811, 
  "allein": 812, 
  "Vorschläge": 813, 
  "be": 814, 
  "Bayern": 815, 
  "voll": 816, 
  "Verordnung": 817, 
  "Verbesserung": 818, 
  "y": 819, 
  "Russland": 820, 
  "Ergebnisse": 821, 
  "5@@": 822, 
  "Höhe": 823, 
  "Gäste": 824, 
  "Ansicht": 825, 
  "gesamten": 826, 
  "Er@@": 827, 
  "a@@": 828, 
  "erte": 829, 
  "Gebiet": 830, 
  "f": 831, 
  "sprechen": 832, 
  "musste": 833, 
  "leben": 834, 
  "�": 835, 
  "se": 836, 
  "Präsidentin": 837, 
  "ter@@": 838, 
  "or@@": 839, 
  "y@@": 840, 
  "r": 841, 
  "Beziehungen": 842, 
  "ber": 843, 
  "bach": 844, 
  "Bad": 845, 
  "zweite": 846, 
  "tes": 847, 
  "eher": 848, 
  "al": 849, 
  "cht": 850, 
  "internationale": 851, 
  "einzelnen": 852, 
  "Beitrag": 853, 
  "Verantwortung": 854, 
  "inger": 855, 
  "straße": 856, 
  "TV": 857, 
  "erforderlich": 858, 
  "recht": 859, 
  "alten": 860, 
  "ingen": 861, 
  "Spieler": 862, 
  "Hinblick": 863, 
  "notwendig": 864, 
  "glaube": 865, 
  "zuvor": 866, 
  "Brüssel": 867, 
  "Der": 868, 
  "verschiedene": 869, 
  "gerne": 870, 
  "end": 871, 
  "2006": 872, 
  "6@@": 873, 
  "Nähe": 874, 
  "kommenden": 875, 
  "sen": 876, 
  "schwer": 877, 
  "ar@@": 878, 
  "guten": 879, 
  "*": 880, 
  "Aufgabe": 881, 
  "fahren": 882, 
  "A": 883, 
  "Haupt@@": 884, 
  "it": 885, 
  "Sieg": 886, 
  "le@@": 887, 
  "ger@@": 888, 
  "Unter@@": 889, 
  "Vorschriften": 890, 
  "Landes": 891, 
  "Abstimmung": 892, 
  "gekommen": 893, 
  "unter@@": 894, 
  "dar": 895, 
  "Debatte": 896, 
  "jedem": 897, 
  "Dank": 898, 
  "Hotels": 899, 
  "Rück@@": 900, 
  "neuer": 901, 
  "9": 902, 
  "at@@": 903, 
  "Dienstleistungen": 904, 
  "u@@": 905, 
  "Kontrolle": 906, 
  "lich": 907, 
  "ziehen": 908, 
  "Menschenrechte": 909, 
  "Kampf": 910, 
  "19": 911, 
  "entwickelt": 912, 
  "4@@": 913, 
  "ten@@": 914, 
  "Demokratie": 915, 
  "Wahl": 916, 
  "damals": 917, 
  "mein": 918, 
  "nimmt": 919, 
  "ster": 920, 
  "tragen": 921, 
  "eren": 922, 
  "la@@": 923, 
  "Fortschritte": 924, 
  "ste": 925, 
  "Investitionen": 926, 
  "ber@@": 927, 
  "eigene": 928, 
  "Software": 929, 
  "ra@@": 930, 
  "mindestens": 931, 
  "Aussprache": 932, 
  "somit": 933, 
  "Montag": 934, 
  "Krise": 935, 
  "treffen": 936, 
  "wichtigsten": 937, 
  "ken": 938, 
  "sorgen": 939, 
  "Griechenland": 940, 
  "Fußball": 941, 
  "gehören": 942, 
  "Wettbewerb": 943, 
  "November": 944, 
  "Donnerstag": 945, 
  "Italien": 946, 
  "leider": 947, 
  "danach": 948, 
  "wobei": 949, 
  "geworden": 950, 
  "lang": 951, 
  "ö@@": 952, 
  "Umwelt": 953, 
  "Liste": 954, 
  "Antwort": 955, 
  "Forschung": 956, 
  "ganze": 957, 
  "Wachstum": 958, 
  "Sport@@": 959, 
  "Verbraucher": 960, 
  "leicht": 961, 
  "wichtigen": 962, 
  "Integration": 963, 
  "Dienstag": 964, 
  "Tagen": 965, 
  "anders": 966, 
  "C": 967, 
  "Jährige": 968, 
  "heim": 969, 
  "verwendet": 970, 
  "Schul@@": 971, 
  "www.@@": 972, 
  "verbessern": 973, 
  "Al@@": 974, 
  "ch": 975, 
  "Raum": 976, 
  "bevor": 977, 
  "September": 978, 
  "zeit": 979, 
  "Initiative": 980, 
  "dagegen": 981, 
  "w@@": 982, 
  "zahlreiche": 983, 
  "Hand": 984, 
  "Mitglied": 985, 
  "Vereinigten": 986, 
  "et": 987, 
  "erin": 988, 
  "Angebot": 989, 
  "for": 990, 
  "angenommen": 991, 
  "ischen": 992, 
  "Projekte": 993, 
  "Partei": 994, 
  "ing": 995, 
  "Meter": 996, 
  "Republik": 997, 
  "h": 998, 
  "Oktober": 999, 
  "Mittwoch": 1000, 
  "Deutschen": 1001, 
  "Institutionen": 1002, 
  "Dollar": 1003, 
  "21": 1004, 
  "Beginn": 1005, 
  "del": 1006, 
  "Hintergrund": 1007, 
  "7@@": 1008, 
  "sieben": 1009, 
  "Di@@": 1010, 
  "60": 1011, 
  "Handel": 1012, 
  "di@@": 1013, 
  "ermöglicht": 1014, 
  "S": 1015, 
  "Themen": 1016, 
  "großer": 1017, 
  "lediglich": 1018, 
  "Medien": 1019, 
  "In@@": 1020, 
  "Welt@@": 1021, 
  "geführt": 1022, 
  "St@@": 1023, 
  "Arbeits@@": 1024, 
  "Gesundheit": 1025, 
  "hohen": 1026, 
  "Landwirtschaft": 1027, 
  "erwartet": 1028, 
  "völlig": 1029, 
  "frei": 1030, 
  "durch@@": 1031, 
  "wirtschaftliche": 1032, 
  "Männer": 1033, 
  "erster": 1034, 
  "Mannschaft": 1035, 
  "hoffe": 1036, 
  "gemäß": 1037, 
  "fördern": 1038, 
  "32": 1039, 
  "8@@": 1040, 
  "Service": 1041, 
  "Herren": 1042, 
  "soziale": 1043, 
  "gen@@": 1044, 
  "seines": 1045, 
  "mer": 1046, 
  "Damen": 1047, 
  "j@@": 1048, 
  "on@@": 1049, 
  "Sommer": 1050, 
  "Wasser": 1051, 
  "2013": 1052, 
  "hoch": 1053, 
  "Wert": 1054, 
  "hält": 1055, 
  "Prozess": 1056, 
  "politik": 1057, 
  "gefunden": 1058, 
  "ka": 1059, 
  "öffentliche": 1060, 
  "Saison": 1061, 
  "ung@@": 1062, 
  "th@@": 1063, 
  "ihres": 1064, 
  "Schaffung": 1065, 
  "Nutzung": 1066, 
  "Bekämpfung": 1067, 
  "innen": 1068, 
  "zumindest": 1069, 
  "Kultur": 1070, 
  "Finanz@@": 1071, 
  ".@@": 1072, 
  "zahlen": 1073, 
  "hinsichtlich": 1074, 
  "weg": 1075, 
  "Über@@": 1076, 
  "Musik": 1077, 
  "erten": 1078, 
  "2005": 1079, 
  "setzt": 1080, 
  "bar": 1081, 
  "che": 1082, 
  "paar": 1083, 
  "genommen": 1084, 
  "hohe": 1085, 
  "Ausschuss": 1086, 
  "bringt": 1087, 
  "Polizei@@": 1088, 
  "knapp": 1089, 
  "Kinder@@": 1090, 
  "größten": 1091, 
  "v@@": 1092, 
  "Spanien": 1093, 
  "inzwischen": 1094, 
  "land@@": 1095, 
  "22": 1096, 
  "ens": 1097, 
  "Erklärung": 1098, 
  "Grenzen": 1099, 
  "Mail": 1100, 
  "km": 1101, 
  "bislang": 1102, 
  "Zentrum": 1103, 
  "Bank": 1104, 
  "Industrie": 1105, 
  "Kraft": 1106, 
  "ti@@": 1107, 
  "falls": 1108, 
  "ck@@": 1109, 
  "liche": 1110, 
  "Mitteilung": 1111, 
  "könne": 1112, 
  "gern": 1113, 
  "teilte": 1114, 
  "au": 1115, 
  "Zeitpunkt": 1116, 
  "Stadt@@": 1117, 
  "Partner": 1118, 
  "abend": 1119, 
  "V": 1120, 
  "gt": 1121, 
  "ere": 1122, 
  "sk@@": 1123, 
  "Bildung": 1124, 
  "Öffentlichkeit": 1125, 
  "scheint": 1126, 
  "Juli": 1127, 
  "letzte": 1128, 
  "Verbindung": 1129, 
  "anderer": 1130, 
  "ganzen": 1131, 
  "ermöglichen": 1132, 
  "Tor@@": 1133, 
  "au@@": 1134, 
  "verfügt": 1135, 
  "Flüchtlings@@": 1136, 
  "Erweiterung": 1137, 
  "L": 1138, 
  "junge": 1139, 
  "ro@@": 1140, 
  "2004": 1141, 
  "Thomas": 1142, 
  "Beschäftigung": 1143, 
  "Folge": 1144, 
  "Parteien": 1145, 
  "si@@": 1146, 
  "bestimmte": 1147, 
  "Druck": 1148, 
  "Einführung": 1149, 
  "überhaupt": 1150, 
  "Opfer": 1151, 
  "ferner": 1152, 
  "Mehrheit": 1153, 
  "meinen": 1154, 
  "einschließlich": 1155, 
  "Kontakt": 1156, 
  "bereich": 1157, 
  "gleichen": 1158, 
  "ker": 1159, 
  "Vertreter": 1160, 
  "Michael": 1161, 
  "ne@@": 1162, 
  "Sicherheits@@": 1163, 
  "Ö@@": 1164, 
  "wenige": 1165, 
  "sofort": 1166, 
  "Po@@": 1167, 
  "ei@@": 1168, 
  "bald": 1169, 
  "Stelle": 1170, 
  "Monate": 1171, 
  "gi@@": 1172, 
  "fer": 1173, 
  "gelten": 1174, 
  "p": 1175, 
  "Angelegenheiten": 1176, 
  "leisten": 1177, 
  "eben": 1178, 
  "Auto": 1179, 
  "lesen": 1180, 
  "Gefahr": 1181, 
  "New": 1182, 
  "lichen": 1183, 
  "Energie": 1184, 
  "stellte": 1185, 
  "stadt": 1186, 
  "Um@@": 1187, 
  "Mitte": 1188, 
  "darunter": 1189, 
  "Staat": 1190, 
  "Bestimmungen": 1191, 
  "se@@": 1192, 
  "Wirtschafts@@": 1193, 
  "sp@@": 1194, 
  "2.": 1195, 
  "ne": 1196, 
  "Leute": 1197, 
  "aktuellen": 1198, 
  "Online": 1199, 
  "spielt": 1200, 
  "€": 1201, 
  "befinden": 1202, 
  "2003": 1203, 
  "ts": 1204, 
  "Chef": 1205, 
  "Tatsache": 1206, 
  "Bürgermeister": 1207, 
  "Gründen": 1208, 
  "&#124;": 1209, 
  "verbunden": 1210, 
  "II": 1211, 
  "Gewalt": 1212, 
  "ck": 1213, 
  "or": 1214, 
  "zufolge": 1215, 
  "schen": 1216, 
  "Ausdruck": 1217, 
  "enthält": 1218, 
  "Hand@@": 1219, 
  "größte": 1220, 
  "ag@@": 1221, 
  "Version": 1222, 
  "http": 1223, 
  "Gelegenheit": 1224, 
  "morgen": 1225, 
  "bestimmten": 1226, 
  "nahm": 1227, 
  "jeweils": 1228, 
  "Chance": 1229, 
  "Rechtsvorschriften": 1230, 
  "ische": 1231, 
  "3@@": 1232, 
  "500": 1233, 
  "land": 1234, 
  "denke": 1235, 
  "Wort": 1236, 
  "Programme": 1237, 
  "Folgen": 1238, 
  "et@@": 1239, 
  "EG": 1240, 
  "ß@@": 1241, 
  "siehe": 1242, 
  "solchen": 1243, 
  "offen": 1244, 
  "em": 1245, 
  "zurück@@": 1246, 
  "am@@": 1247, 
  "weder": 1248, 
  "alte": 1249, 
  "gewährleisten": 1250, 
  "Abend": 1251, 
  "ur@@": 1252, 
  "Preise": 1253, 
  "oben": 1254, 
  "Verwendung": 1255, 
  "Ma@@": 1256, 
  "Bo@@": 1257, 
  "sche": 1258, 
  "23": 1259, 
  "einzige": 1260, 
  "c": 1261, 
  "enthalten": 1262, 
  "feld": 1263, 
  "tag": 1264, 
  "sch": 1265, 
  "Lösungen": 1266, 
  "wichtiger": 1267, 
  "2002": 1268, 
  "Regeln": 1269, 
  "os": 1270, 
  "Präsidenten": 1271, 
  "Li@@": 1272, 
  "bestehen": 1273, 
  "Nacht": 1274, 
  "Ihrem": 1275, 
  "aufgenommen": 1276, 
  "beitragen": 1277, 
  "2001": 1278, 
  "gesamte": 1279, 
  "fordert": 1280, 
  "suchen": 1281, 
  "Fällen": 1282, 
  "Paris": 1283, 
  "aktualisiert": 1284, 
  "ale": 1285, 
  "200": 1286, 
  "Sicht": 1287, 
  "sen@@": 1288, 
  "Regierungen": 1289, 
  "Titel": 1290, 
  "Wasser@@": 1291, 
  "ändern": 1292, 
  "Sache": 1293, 
  "verletzt": 1294, 
  "Ro@@": 1295, 
  "Peter": 1296, 
  "00": 1297, 
  "Dialog": 1298, 
  "trotzdem": 1299, 
  "Fahr@@": 1300, 
  "kamen": 1301, 
  "tern": 1302, 
  "ar": 1303, 
  "Verwaltung": 1304, 
  "Erfahrung": 1305, 
  "Ar@@": 1306, 
  "Führung": 1307, 
  "Nach@@": 1308, 
  "G": 1309, 
  "kosten": 1310, 
  "Firma": 1311, 
  "entschieden": 1312, 
  "Person": 1313, 
  "vertreten": 1314, 
  "isch": 1315, 
  "gte": 1316, 
  "versuchen": 1317, 
  "lo@@": 1318, 
  "Groß@@": 1319, 
  "Dinge": 1320, 
  "Schule": 1321, 
  "Entscheidungen": 1322, 
  "27": 1323, 
  "ri@@": 1324, 
  "Gebäude": 1325, 
  "beste": 1326, 
  "Restaurant": 1327, 
  "entwickeln": 1328, 
  "her": 1329, 
  "eingesetzt": 1330, 
  "Linie": 1331, 
  "gesehen": 1332, 
  "groß": 1333, 
  "verhindern": 1334, 
  "dürfte": 1335, 
  "Interessen": 1336, 
  "nahe": 1337, 
  "Änderungen": 1338, 
  "genug": 1339, 
  "Gemeinde": 1340, 
  "Änderung": 1341, 
  "bessere": 1342, 
  "Auffassung": 1343, 
  "erstmals": 1344, 
  "Her@@": 1345, 
  "Eltern": 1346, 
  "zer": 1347, 
  "us@@": 1348, 
  "80": 1349, 
  "Bilder": 1350, 
  "Wei@@": 1351, 
  "versucht": 1352, 
  "besondere": 1353, 
  "EUR": 1354, 
  "Finanzierung": 1355, 
  "ange@@": 1356, 
  "künftig": 1357, 
  "unternehmen": 1358, 
  "Kreis@@": 1359, 
  "ta@@": 1360, 
  "Bemühungen": 1361, 
  "c@@": 1362, 
  "erfolgreich": 1363, 
  "entscheiden": 1364, 
  "durchgeführt": 1365, 
  "Sprache": 1366, 
  "Besucher": 1367, 
  "system": 1368, 
  "eln": 1369, 
  "Abgeordneten": 1370, 
  "Fehler": 1371, 
  "wann": 1372, 
  "Mittel@@": 1373, 
  "is@@": 1374, 
  "Berichterstatter": 1375, 
  "9@@": 1376, 
  "beschlossen": 1377, 
  "di": 1378, 
  "Gruppen": 1379, 
  "gel@@": 1380, 
  "Vergleich": 1381, 
  "Pro@@": 1382, 
  "ü@@": 1383, 
  "Ri@@": 1384, 
  "Aktivitäten": 1385, 
  "z.B.": 1386, 
  "Produktion": 1387, 
  "unseres": 1388, 
  "2011": 1389, 
  "Film": 1390, 
  "Reform": 1391, 
  "Auswahl": 1392, 
  "müsse": 1393, 
  "mehreren": 1394, 
  "Verein": 1395, 
  "geschlossen": 1396, 
  "Notwendigkeit": 1397, 
  "häufig": 1398, 
  "Mio.": 1399, 
  "europäischer": 1400, 
  "Lissabon": 1401, 
  "pf@@": 1402, 
  "jungen": 1403, 
  "verstehen": 1404, 
  "Kritik": 1405, 
  "Ber@@": 1406, 
  "gewinnen": 1407, 
  "Frankfurt": 1408, 
  "Gerichtshof": 1409, 
  "nach@@": 1410, 
  "ie": 1411, 
  "Flughafen": 1412, 
  "Anzahl": 1413, 
  "legen": 1414, 
  "nächste": 1415, 
  "verloren": 1416, 
  "Position": 1417, 
  "Text": 1418, 
  "stelle": 1419, 
  "ma@@": 1420, 
  "machte": 1421, 
  "Diskussion": 1422, 
  "endlich": 1423, 
  "entsprechend": 1424, 
  "programm": 1425, 
  "Kindern": 1426, 
  "Grünen": 1427, 
  "alen": 1428, 
  "Sport": 1429, 
  "Syrien": 1430, 
  "erwarten": 1431, 
  "stärker": 1432, 
  "berichtet": 1433, 
  "danken": 1434, 
  "ben": 1435, 
  "freien": 1436, 
  "it@@": 1437, 
  "Wien": 1438, 
  "Ge@@": 1439, 
  "Herausforderungen": 1440, 
  "Verkehr": 1441, 
  "braucht": 1442, 
  "fallen": 1443, 
  "Konferenz": 1444, 
  "haus": 1445, 
  "nen": 1446, 
  "Ausschusses": 1447, 
  "Arbeiten": 1448, 
  "45": 1449, 
  "Grund@@": 1450, 
  "Organisation": 1451, 
  "lag": 1452, 
  "Polen": 1453, 
  "Hause": 1454, 
  "platz": 1455, 
  "Nationen": 1456, 
  "einge@@": 1457, 
  "gezeigt": 1458, 
  "verfügen": 1459, 
  "AF@@": 1460, 
  "folgenden": 1461, 
  "genießen": 1462, 
  "3.": 1463, 
  "Kommissarin": 1464, 
  "gesetzt": 1465, 
  "70": 1466, 
  "Merkel": 1467, 
  "ließ": 1468, 
  "Bereiche": 1469, 
  "wählen": 1470, 
  "35": 1471, 
  "Gericht": 1472, 
  "erzielt": 1473, 
  "Mitgliedstaat": 1474, 
  "Jugend@@": 1475, 
  "cht@@": 1476, 
  "Stand": 1477, 
  "Köln": 1478, 
  "Anforderungen": 1479, 
  "Kolleginnen": 1480, 
  "2012": 1481, 
  "prüfen": 1482, 
  "Besuch": 1483, 
  "ut@@": 1484, 
  "fragen": 1485, 
  "entsprechenden": 1486, 
  "meinem": 1487, 
  "Abschluss": 1488, 
  "äußerst": 1489, 
  "Natur": 1490, 
  "28": 1491, 
  "geschaffen": 1492, 
  "vorgesehen": 1493, 
  "dritten": 1494, 
  "Durchführung": 1495, 
  "verwenden": 1496, 
  "Einrichtung": 1497, 
  "heutigen": 1498, 
  "Information": 1499, 
  "90": 1500, 
  "Vergangenheit": 1501, 
  "Sitzung": 1502, 
  "verantwortlich": 1503, 
  "folgt": 1504, 
  "Erfahrungen": 1505, 
  "verpflichtet": 1506, 
  "U": 1507, 
  "Teilnehmer": 1508, 
  "deutsch@@": 1509, 
  "ä@@": 1510, 
  "Mar@@": 1511, 
  "Grenze": 1512, 
  "Aufgaben": 1513, 
  "Stellungnahme": 1514, 
  "markt": 1515, 
  "Verpflichtungen": 1516, 
  "außerhalb": 1517, 
  "Idee": 1518, 
  "schützen": 1519, 
  "Fach@@": 1520, 
  "Tat": 1521, 
  "Ausbildung": 1522, 
  "ges": 1523, 
  "zusätzlich": 1524, 
  "Zeitraum": 1525, 
  "meines": 1526, 
  "Wahl@@": 1527, 
  "Konzept": 1528, 
  "K": 1529, 
  "Gesamt@@": 1530, 
  "zusätzliche": 1531, 
  "Insel": 1532, 
  "läuft": 1533, 
  "her@@": 1534, 
  "Umgebung": 1535, 
  "ern@@": 1536, 
  "burg": 1537, 
  "Sozial@@": 1538, 
  "T": 1539, 
  "Sp@@": 1540, 
  "po@@": 1541, 
  "0@@": 1542, 
  "Bürger@@": 1543, 
  "Regelung": 1544, 
  "zen": 1545, 
  "Freiheit": 1546, 
  "Hoch@@": 1547, 
  "Änderungsanträge": 1548, 
  "Y@@": 1549, 
  "betont": 1550, 
  "jährigen": 1551, 
  "x": 1552, 
  "aktuelle": 1553, 
  "genutzt": 1554, 
  "Zahlen": 1555, 
  "as@@": 1556, 
  "freuen": 1557, 
  "hoch@@": 1558, 
  "me": 1559, 
  "gestimmt": 1560, 
  "möglicherweise": 1561, 
  "AG": 1562, 
  "übernehmen": 1563, 
  "Transparenz": 1564, 
  "zer@@": 1565, 
  "Sinne": 1566, 
  "Entschließung": 1567, 
  "hin@@": 1568, 
  "Behandlung": 1569, 
  "aktiv": 1570, 
  "Herzen": 1571, 
  "Organisationen": 1572, 
  "da@@": 1573, 
  "Änderungsantrag": 1574, 
  "Kenntnis": 1575, 
  "Politiker": 1576, 
  "abge@@": 1577, 
  "stets": 1578, 
  "Binnenmarkt": 1579, 
  "getan": 1580, 
  "behandelt": 1581, 
  "Hälfte": 1582, 
  "spricht": 1583, 
  "ff": 1584, 
  "fer@@": 1585, 
  "dienst": 1586, 
  "ges@@": 1587, 
  "ser@@": 1588, 
  "per@@": 1589, 
  "Mit@@": 1590, 
  "26": 1591, 
  "Krieg": 1592, 
  "laufen": 1593, 
  "Start": 1594, 
  "The": 1595, 
  "bestätigt": 1596, 
  "Sonder@@": 1597, 
  "Berliner": 1598, 
  "Fans": 1599, 
  "früher": 1600, 
  "mittlerweile": 1601, 
  "Schritte": 1602, 
  "getroffen": 1603, 
  "Anfrage": 1604, 
  "fällt": 1605, 
  "GmbH": 1606, 
  "ster@@": 1607, 
  "St.": 1608, 
  "wären": 1609, 
  "Schüler": 1610, 
  "offenbar": 1611, 
  "Rechts@@": 1612, 
  "Martin": 1613, 
  "folgen": 1614, 
  "licher": 1615, 
  "Le@@": 1616, 
  "Vertrauen": 1617, 
  "Nachrichten": 1618, 
  "technischen": 1619, 
  "cher": 1620, 
  "Meer": 1621, 
  "Bürgern": 1622, 
  "Macht": 1623, 
  "w": 1624, 
  "beginnen": 1625, 
  "niemand": 1626, 
  "jüngsten": 1627, 
  "gestern": 1628, 
  "privaten": 1629, 
  "jeweiligen": 1630, 
  "genannten": 1631, 
  "elle": 1632, 
  "Kur@@": 1633, 
  "Verkehrs@@": 1634, 
  "Beihilfen": 1635, 
  "veröffentlicht": 1636, 
  "selbstverständlich": 1637, 
  "führte": 1638, 
  "lagen": 1639, 
  "größere": 1640, 
  "Aufmerksamkeit": 1641, 
  "gruppe": 1642, 
  "Treffen": 1643, 
  "fen": 1644, 
  "technische": 1645, 
  "Wettbewerbsfähigkeit": 1646, 
  "gebe": 1647, 
  "Funktion": 1648, 
  "Kopf": 1649, 
  "sonst": 1650, 
  "verlassen": 1651, 
  "ausge@@": 1652, 
  "1999": 1653, 
  "Engagement": 1654, 
  "Bi@@": 1655, 
  "fordern": 1656, 
  "ums": 1657, 
  "meister": 1658, 
  "ff@@": 1659, 
  "Ansatz": 1660, 
  "by": 1661, 
  "Anteil": 1662, 
  "nationale": 1663, 
  "folgende": 1664, 
  "are": 1665, 
  "umgesetzt": 1666, 
  "beginnt": 1667, 
  "zahlreichen": 1668, 
  "Basis": 1669, 
  "men@@": 1670, 
  "durchaus": 1671, 
  "ell": 1672, 
  "zugleich": 1673, 
  "men": 1674, 
  "Z": 1675, 
  "Reformen": 1676, 
  "ko@@": 1677, 
  "festgelegt": 1678, 
  "Eis@@": 1679, 
  "ol@@": 1680, 
  "August": 1681, 
  "Arbeitnehmer": 1682, 
  "überzeugt": 1683, 
  "Minute": 1684, 
  "rat": 1685, 
  "Zeiten": 1686, 
  "bewusst": 1687, 
  "ze": 1688, 
  "berücksichtigt": 1689, 
  "Augen": 1690, 
  "Haushalt": 1691, 
  "Bahn": 1692, 
  "diejenigen": 1693, 
  "te@@": 1694, 
  "tätig": 1695, 
  "Gu@@": 1696, 
  "300": 1697, 
  "vorgelegt": 1698, 
  "Leistung": 1699, 
  "Kreis": 1700, 
  "entsprechende": 1701, 
  "Kar@@": 1702, 
  "geplant": 1703, 
  "teilweise": 1704, 
  "bestehenden": 1705, 
  "fand": 1706, 
  "Deutsche": 1707, 
  "trägt": 1708, 
  "berger": 1709, 
  "Wege": 1710, 
  "Jahrhundert": 1711, 
  "ball": 1712, 
  "London": 1713, 
  "Tra@@": 1714, 
  "starke": 1715, 
  "En@@": 1716, 
  "Musik@@": 1717, 
  "richtige": 1718, 
  "Standpunkt": 1719, 
  "dorf": 1720, 
  "Arbeitsplätze": 1721, 
  "Zu@@": 1722, 
  "erfüllen": 1723, 
  "unbedingt": 1724, 
  "erfolgt": 1725, 
  "spieler": 1726, 
  "Werte": 1727, 
  "Vereinbarung": 1728, 
  "erk@@": 1729, 
  "Wochenende": 1730, 
  "Annahme": 1731, 
  "erkennen": 1732, 
  "fi@@": 1733, 
  "ha@@": 1734, 
  "Anstrengungen": 1735, 
  "vergessen": 1736, 
  "arbeitet": 1737, 
  "Flüchtlingen": 1738, 
  "Wahlen": 1739, 
  "Prüfung": 1740, 
  "Antrag": 1741, 
  "Stuttgart": 1742, 
  "lage": 1743, 
  "Familien": 1744, 
  "neun": 1745, 
  "Spitzen@@": 1746, 
  "Kultur@@": 1747, 
  "Gipfel": 1748, 
  "Wunsch": 1749, 
  "Einigung": 1750, 
  "Bar@@": 1751, 
  "zi@@": 1752, 
  "Kirche": 1753, 
  "Das": 1754, 
  "zufrieden": 1755, 
  "De@@": 1756, 
  "wahrscheinlich": 1757, 
  "Praxis": 1758, 
  "bezüglich": 1759, 
  "liga": 1760, 
  "verfahren": 1761, 
  "kennen": 1762, 
  "eh@@": 1763, 
  "Ressourcen": 1764, 
  "ausgestattet": 1765, 
  "un": 1766, 
  "ak@@": 1767, 
  "erfahren": 1768, 
  "Ni@@": 1769, 
  "außer": 1770, 
  "Banken": 1771, 
  "Spiele": 1772, 
  "unten": 1773, 
  "online": 1774, 
  "Programms": 1775, 
  "bilden": 1776, 
  "Einrichtungen": 1777, 
  "Stein@@": 1778, 
  "zusammen@@": 1779, 
  "langen": 1780, 
  "zeigte": 1781, 
  "ni@@": 1782, 
  "allgemeinen": 1783, 
  "starken": 1784, 
  "halte": 1785, 
  "mussten": 1786, 
  "Schweiz": 1787, 
  "Kilometer": 1788, 
  "El@@": 1789, 
  "dringend": 1790, 
  "möglichst": 1791, 
  "Steuer@@": 1792, 
  "with": 1793, 
  "Suche": 1794, 
  "Experten": 1795, 
  "Serie": 1796, 
  "gesch@@": 1797, 
  "que": 1798, 
  "x@@": 1799, 
  "Video": 1800, 
  "Kind": 1801, 
  "Orts@@": 1802, 
  "ehemaligen": 1803, 
  "ed": 1804, 
  "Müller": 1805, 
  "4.": 1806, 
  "ing@@": 1807, 
  "wenigen": 1808, 
  "lernen": 1809, 
  "zug": 1810, 
  "Agentur": 1811, 
  "bei@@": 1812, 
  "Osten": 1813, 
  "Amt": 1814, 
  "Heim@@": 1815, 
  "Studie": 1816, 
  "all@@": 1817, 
  "schule": 1818, 
  "em@@": 1819, 
  "vorgeschlagen": 1820, 
  "regionalen": 1821, 
  "Leistungen": 1822, 
  "Aspekte": 1823, 
  "lingen": 1824, 
  "Küche": 1825, 
  "weiterer": 1826, 
  "Mutter": 1827, 
  "verbessert": 1828, 
  "betonte": 1829, 
  "Anspruch": 1830, 
  "manchmal": 1831, 
  "we": 1832, 
  "rechts": 1833, 
  "Rede": 1834, 
  "Punkten": 1835, 
  "les": 1836, 
  "cker": 1837, 
  "Tor": 1838, 
  "schriftlich": 1839, 
  "anschließend": 1840, 
  "Ko@@": 1841, 
  "stimmen": 1842, 
  "klicken": 1843, 
  "IS": 1844, 
  "len": 1845, 
  "länger": 1846, 
  "Lebens@@": 1847, 
  "beteiligt": 1848, 
  "Ju@@": 1849, 
  "tz@@": 1850, 
  "ischer": 1851, 
  "Kon@@": 1852, 
  "lei@@": 1853, 
  "spiel@@": 1854, 
  "denken": 1855, 
  ".com": 1856, 
  "entstehen": 1857, 
  "Schwierigkeiten": 1858, 
  "Regel": 1859, 
  "Bundesliga": 1860, 
  "vollständig": 1861, 
  "03.@@": 1862, 
  "Plan": 1863, 
  "wert": 1864, 
  "Kriterien": 1865, 
  "bau@@": 1866, 
  "genannt": 1867, 
  "Dokument": 1868, 
  "Ukraine": 1869, 
  "entspricht": 1870, 
  "ausschließlich": 1871, 
  "Ger@@": 1872, 
  "Chancen": 1873, 
  "Wer@@": 1874, 
  "ca.": 1875, 
  "anderes": 1876, 
  "Königreich": 1877, 
  "zweitens": 1878, 
  "Frieden": 1879, 
  "berichtete": 1880, 
  "O": 1881, 
  "betroffen": 1882, 
  "Rechnung": 1883, 
  "treten": 1884, 
  "Anerkennung": 1885, 
  "Haus@@": 1886, 
  "bestimmt": 1887, 
  "besonderen": 1888, 
  "Betrieb": 1889, 
  "gewonnen": 1890, 
  "Ausgaben": 1891, 
  "th": 1892, 
  "ach@@": 1893, 
  "sh@@": 1894, 
  "ort": 1895, 
  "hotel": 1896, 
  "Dr.": 1897, 
  "Mo@@": 1898, 
  "Frei@@": 1899, 
  "finanziellen": 1900, 
  "leiter": 1901, 
  "Zeichen": 1902, 
  "ellen": 1903, 
  "wahl": 1904, 
  "Ex": 1905, 
  "finanzielle": 1906, 
  "erlaubt": 1907, 
  "SG": 1908, 
  "Alter": 1909, 
  "1,@@": 1910, 
  "Ho@@": 1911, 
  "Technologie": 1912, 
  "sobald": 1913, 
  "ts@@": 1914, 
  "&gt;": 1915, 
  "Beteiligung": 1916, 
  "Vorteile": 1917, 
  "hören": 1918, 
  "Menge": 1919, 
  "Kunst": 1920, 
  "Markt@@": 1921, 
  "reichen": 1922, 
  "Umwelt@@": 1923, 
  "arbeit": 1924, 
  "gewählt": 1925, 
  "sprach": 1926, 
  "zwei@@": 1927, 
  "In": 1928, 
  "benötigen": 1929, 
  "Staats@@": 1930, 
  "02.@@": 1931, 
  "Schluss": 1932, 
  "6.": 1933, 
  "ad@@": 1934, 
  "links": 1935, 
  "Ausland": 1936, 
  "erfüllt": 1937, 
  "Christian": 1938, 
  "Initiativen": 1939, 
  "glauben": 1940, 
  "Patienten": 1941, 
  "Buch": 1942, 
  "angeboten": 1943, 
  "erung": 1944, 
  "historischen": 1945, 
  "Personal": 1946, 
  "Monat": 1947, 
  "Vorsitzende": 1948, 
  "Co@@": 1949, 
  "zentrale": 1950, 
  "eb@@": 1951, 
  "hoffen": 1952, 
  "großes": 1953, 
  "ß": 1954, 
  "zwölf": 1955, 
  "Universität": 1956, 
  "är@@": 1957, 
  "gefordert": 1958, 
  "besuchen": 1959, 
  "National@@": 1960, 
  "französischen": 1961, 
  "funktioniert": 1962, 
  "Tod": 1963, 
  "tin": 1964, 
  "Winter@@": 1965, 
  "Stärkung": 1966, 
  "gesprochen": 1967, 
  "ene": 1968, 
  "blieb": 1969, 
  "Runde": 1970, 
  "gespielt": 1971, 
  "freie": 1972, 
  "ot@@": 1973, 
  "raum": 1974, 
  "Urlaub": 1975, 
  "welches": 1976, 
  "ft": 1977, 
  "positiv": 1978, 
  "kl@@": 1979, 
  "finale": 1980, 
  "Veranstaltung": 1981, 
  "wollten": 1982, 
  "setzte": 1983, 
  "Solidarität": 1984, 
  "enz@@": 1985, 
  "Belgien": 1986, 
  "regelmäßig": 1987, 
  "Stabilität": 1988, 
  "Vorhaben": 1989, 
  "erhöhen": 1990, 
  "geb@@": 1991, 
  "Zustimmung": 1992, 
  "Fonds": 1993, 
  "Angst": 1994, 
  "Hei@@": 1995, 
  "betroffenen": 1996, 
  "Bar": 1997, 
  "Vertrags": 1998, 
  "Bau": 1999, 
  "to@@": 2000, 
  "Lu@@": 2001, 
  "komplett": 2002, 
  "Iran": 2003, 
  "Schlussfolgerungen": 2004, 
  "fall": 2005, 
  "alt": 2006, 
  "Inhalt": 2007, 
  "auer": 2008, 
  "Berichts": 2009, 
  "elt": 2010, 
  "Falle": 2011, 
  "bi@@": 2012, 
  "Karte": 2013, 
  "ach": 2014, 
  "warten": 2015, 
  "ed@@": 2016, 
  "Andreas": 2017, 
  "Schweden": 2018, 
  "unterschiedlichen": 2019, 
  "stärken": 2020, 
  "ate": 2021, 
  "ko": 2022, 
  "gezogen": 2023, 
  "Vater": 2024, 
  "brachte": 2025, 
  "möglichen": 2026, 
  "Einzel@@": 2027, 
  "Stellen": 2028, 
  "amerikanischen": 2029, 
  "Mädchen": 2030, 
  "Stunde": 2031, 
  "Fälle": 2032, 
  "klare": 2033, 
  "5.": 2034, 
  "dank": 2035, 
  "maßnahmen": 2036, 
  "tem": 2037, 
  "Presse": 2038, 
  "bedarf": 2039, 
  "Gesetz": 2040, 
  "EN": 2041, 
  "Hersteller": 2042, 
  "Hans": 2043, 
  "WM": 2044, 
  "UN": 2045, 
  "daraus": 2046, 
  "Design": 2047, 
  "Partnerschaft": 2048, 
  "Moment": 2049, 
  "meist": 2050, 
  "abgeschlossen": 2051, 
  "Gegen@@": 2052, 
  "Bewertung": 2053, 
  "Herausforderung": 2054, 
  "geändert": 2055, 
  "N": 2056, 
  "trifft": 2057, 
  "one": 2058, 
  "Sprecher": 2059, 
  "deswegen": 2060, 
  "Atmosphäre": 2061, 
  "Urteil": 2062, 
  "Untersuchung": 2063, 
  "Aktion": 2064, 
  "ens@@": 2065, 
  "wesentlich": 2066, 
  "Hauptstadt": 2067, 
  "Irak": 2068, 
  "Bor@@": 2069, 
  "vi@@": 2070, 
  "täglich": 2071, 
  "Systems": 2072, 
  "jene": 2073, 
  "konkrete": 2074, 
  "Großbritannien": 2075, 
  "®": 2076, 
  "mi@@": 2077, 
  "Strand": 2078, 
  "eindeutig": 2079, 
  "Stimme": 2080, 
  "Armut": 2081, 
  "scher": 2082, 
  "do": 2083, 
  "Oster@@": 2084, 
  "erstellt": 2085, 
  "Vereinten": 2086, 
  "Irland": 2087, 
  "op@@": 2088, 
  "wer@@": 2089, 
  "legt": 2090, 
  "Hoffnung": 2091, 
  "erhält": 2092, 
  "West@@": 2093, 
  "lösen": 2094, 
  "erinnern": 2095, 
  "begrüßt": 2096, 
  "dienen": 2097, 
  "31": 2098, 
  "Stück": 2099, 
  "hinzu": 2100, 
  "informiert": 2101, 
  "führer": 2102, 
  "Tagesordnung": 2103, 
  "ständig": 2104, 
  "Erachtens": 2105, 
  "om@@": 2106, 
  "2@@": 2107, 
  "gh@@": 2108, 
  "Vorbereitung": 2109, 
  "Tiere": 2110, 
  "bel": 2111, 
  "vermeiden": 2112, 
  "Instrument": 2113, 
  "mer@@": 2114, 
  "Fahrer": 2115, 
  "Holz@@": 2116, 
  "schwierig": 2117, 
  "erleben": 2118, 
  "Zeit@@": 2119, 
  "sicherzustellen": 2120, 
  "Gebieten": 2121, 
  "erstens": 2122, 
  "keiner": 2123, 
  "gerecht": 2124, 
  "müssten": 2125, 
  "persönlichen": 2126, 
  "Publikum": 2127, 
  "globalen": 2128, 
  "Bürgerinnen": 2129, 
  "schließen": 2130, 
  "League": 2131, 
  "ren": 2132, 
  "Bühne": 2133, 
  "heraus": 2134, 
  "ell@@": 2135, 
  "enen": 2136, 
  "Adresse": 2137, 
  "schreiben": 2138, 
  "Reise": 2139, 
  "politischer": 2140, 
  "Vielfalt": 2141, 
  "Nr.": 2142, 
  "cken": 2143, 
  "tags@@": 2144, 
  "@": 2145, 
  "ss@@": 2146, 
  "Netz": 2147, 
  "Hinsicht": 2148, 
  "burger": 2149, 
  "bare": 2150, 
  "wagen": 2151, 
  "Barcelona": 2152, 
  "Entwurf": 2153, 
  "du@@": 2154, 
  "Tätigkeit": 2155, 
  "Innen@@": 2156, 
  "Sektor": 2157, 
  "überall": 2158, 
  "reden": 2159, 
  "Boden": 2160, 
  "29": 2161, 
  "Ste@@": 2162, 
  "liches": 2163, 
  "Handels@@": 2164, 
  "Gemeinsamen": 2165, 
  "ser": 2166, 
  "Feuerwehr": 2167, 
  "ek@@": 2168, 
  "eingerichtet": 2169, 
  "entweder": 2170, 
  "Systeme": 2171, 
  "Dienste": 2172, 
  "gutes": 2173, 
  "Winter": 2174, 
  "Partie": 2175, 
  "Aufnahme": 2176, 
  "Innovation": 2177, 
  "Japan": 2178, 
  "kan@@": 2179, 
  "Hamburg": 2180, 
  "Ru@@": 2181, 
  "Technologien": 2182, 
  "Liga": 2183, 
  "modernen": 2184, 
  "ender": 2185, 
  "Prioritäten": 2186, 
  "BIP": 2187, 
  "Justiz": 2188, 
  "unabhängig": 2189, 
  "manche": 2190, 
  "schutz": 2191, 
  "Teile": 2192, 
  "Phase": 2193, 
  "pp@@": 2194, 
  "erklären": 2195, 
  "zieht": 2196, 
  "Einklang": 2197, 
  "demokratischen": 2198, 
  "staatliche": 2199, 
  "Nachfrage": 2200, 
  "Afrika": 2201, 
  "nachhaltige": 2202, 
  "unterwegs": 2203, 
  "Ki@@": 2204, 
  "ul@@": 2205, 
  "Geschäfts@@": 2206, 
  "chte": 2207, 
  "Instrumente": 2208, 
  "8.": 2209, 
  "Terrorismus": 2210, 
  "Klein@@": 2211, 
  "eingeführt": 2212, 
  "Entwicklungen": 2213, 
  "profitieren": 2214, 
  "Gegner": 2215, 
  "andererseits": 2216, 
  "Nieder@@": 2217, 
  "festgestellt": 2218, 
  "mögliche": 2219, 
  "Technik": 2220, 
  "ehemalige": 2221, 
  "Or@@": 2222, 
  "Luft": 2223, 
  "hingegen": 2224, 
  "art@@": 2225, 
  "informieren": 2226, 
  "umfasst": 2227, 
  "positive": 2228, 
  "teil": 2229, 
  "aten": 2230, 
  "jährlich": 2231, 
  "Haushalts@@": 2232, 
  "Berg@@": 2233, 
  "Schulen": 2234, 
  "gleiche": 2235, 
  "2020": 2236, 
  "Veränderungen": 2237, 
  "Nutzer": 2238, 
  "Tat@@": 2239, 
  "Einfluss": 2240, 
  "CSU": 2241, 
  "eng": 2242, 
  "kon@@": 2243, 
  "gewährleistet": 2244, 
  "Täter": 2245, 
  "Vi@@": 2246, 
  "ina": 2247, 
  "Überwachung": 2248, 
  "begonnen": 2249, 
  "ations@@": 2250, 
  "Umfang": 2251, 
  "Ideen": 2252, 
  "kannst": 2253, 
  "bekommt": 2254, 
  "sicherlich": 2255, 
  "Frühstück": 2256, 
  "bel@@": 2257, 
  "els": 2258, 
  "York": 2259, 
  "gelegt": 2260, 
  "Zweifel": 2261, 
  "ons": 2262, 
  "Club": 2263, 
  "Mon@@": 2264, 
  "lokalen": 2265, 
  "ation": 2266, 
  "Infrastruktur": 2267, 
  "Schaden": 2268, 
  "Wohnung": 2269, 
  "Verfassung": 2270, 
  "Car@@": 2271, 
  "Autos": 2272, 
  "fe": 2273, 
  "Veranstaltungen": 2274, 
  "werk": 2275, 
  "baren": 2276, 
  "Empfehlungen": 2277, 
  "reicht": 2278, 
  "ans": 2279, 
  "Zweck": 2280, 
  "Not@@": 2281, 
  "Facebook": 2282, 
  "B.": 2283, 
  "Au@@": 2284, 
  "Wohn@@": 2285, 
  "1998": 2286, 
  "gebiet": 2287, 
  "Bu@@": 2288, 
  "Gespräch": 2289, 
  "verstärkt": 2290, 
  "Computer": 2291, 
  "Teilnahme": 2292, 
  "Beschluss": 2293, 
  "Windows": 2294, 
  "steigen": 2295, 
  "ländlichen": 2296, 
  "Standard": 2297, 
  "allgemeine": 2298, 
  "Server": 2299, 
  "moderne": 2300, 
  "Ich": 2301, 
  "tet": 2302, 
  "im@@": 2303, 
  "Forderung": 2304, 
  "automatisch": 2305, 
  "Modell": 2306, 
  "Analyse": 2307, 
  "Präsidentschaft": 2308, 
  "notwendigen": 2309, 
  "regionale": 2310, 
  "Risiko": 2311, 
  "Israel": 2312, 
  "DER": 2313, 
  "verein": 2314, 
  "EIB": 2315, 
  "voller": 2316, 
  "gehalten": 2317, 
  "Park": 2318, 
  "Beitritt": 2319, 
  "eng@@": 2320, 
  "verfolgt": 2321, 
  "Angelegenheit": 2322, 
  "Lei@@": 2323, 
  "darstellt": 2324, 
  "End@@": 2325, 
  "schlägt": 2326, 
  "sämtliche": 2327, 
  "20.": 2328, 
  "Teams": 2329, 
  "do@@": 2330, 
  "beschäftigt": 2331, 
  "erinnert": 2332, 
  "Mitgliedern": 2333, 
  "Leitlinien": 2334, 
  "Tri@@": 2335, 
  "kt": 2336, 
  "Gespräche": 2337, 
  "à": 2338, 
  "erzählt": 2339, 
  "erzielen": 2340, 
  "Fotos": 2341, 
  "politisch": 2342, 
  "est@@": 2343, 
  "stattfinden": 2344, 
  "erhöht": 2345, 
  "amt": 2346, 
  "Preis@@": 2347, 
  "F": 2348, 
  "Sorge": 2349, 
  "relativ": 2350, 
  "verfolgen": 2351, 
  "Voraussetzungen": 2352, 
  "Licht": 2353, 
  "möglichkeiten": 2354, 
  "kämpfen": 2355, 
  "this": 2356, 
  "R": 2357, 
  "very": 2358, 
  "ler@@": 2359, 
  "Gästebewertungen": 2360, 
  "aktuell": 2361, 
  "VW": 2362, 
  "miteinander": 2363, 
  "art": 2364, 
  "Pi@@": 2365, 
  "bau": 2366, 
  "Protokoll": 2367, 
  "genauso": 2368, 
  "Portugal": 2369, 
  "betreffenden": 2370, 
  "Nummer": 2371, 
  "berücksichtigen": 2372, 
  "So@@": 2373, 
  "schweren": 2374, 
  "Ka@@": 2375, 
  "Dienst": 2376, 
  "X@@": 2377, 
  "gelangen": 2378, 
  "Haltung": 2379, 
  "hieß": 2380, 
  "man@@": 2381, 
  "est": 2382, 
  "welcher": 2383, 
  "versch@@": 2384, 
  "demnach": 2385, 
  "=": 2386, 
  "hei@@": 2387, 
  "Angriff": 2388, 
  "Niveau": 2389, 
  "britischen": 2390, 
  "Volk": 2391, 
  "Kommunikation": 2392, 
  "fuer": 2393, 
  "Benutzer": 2394, 
  "Klasse": 2395, 
  "Su@@": 2396, 
  "WTO": 2397, 
  "SC": 2398, 
  "Star": 2399, 
  "Lo@@": 2400, 
  "KMU": 2401, 
  "derzeitigen": 2402, 
  "abschließend": 2403, 
  "öffentlich": 2404, 
  "Volks@@": 2405, 
  "Gebiete": 2406, 
  "Rot@@": 2407, 
  "Gemeinschafts@@": 2408, 
  "Tagung": 2409, 
  "eröffnet": 2410, 
  "begrüße": 2411, 
  "zuständig": 2412, 
  "weiteres": 2413, 
  "9.": 2414, 
  "33": 2415, 
  "früheren": 2416, 
  "handeln": 2417, 
  "schön": 2418, 
  "San": 2419, 
  "aufge@@": 2420, 
  "gelegen": 2421, 
  "offensichtlich": 2422, 
  "Firmen": 2423, 
  "volle": 2424, 
  "größeren": 2425, 
  "19.": 2426, 
  "Jugend": 2427, 
  "Restaurants": 2428, 
  "frage": 2429, 
  "34": 2430, 
  "X": 2431, 
  "Aufenthalt": 2432, 
  "Stimmen": 2433, 
  "erforderlichen": 2434, 
  "Berichte": 2435, 
  "Museum": 2436, 
  "Süd@@": 2437, 
  "Pressemitteilung": 2438, 
  "dritte": 2439, 
  "Worte": 2440, 
  "teilen": 2441, 
  "kaufen": 2442, 
  "nötig": 2443, 
  "Gründe": 2444, 
  "Management": 2445, 
  "Nord@@": 2446, 
  "Se@@": 2447, 
  "begrüßen": 2448, 
  "unterschiedliche": 2449, 
  "verfügbar": 2450, 
  "rei@@": 2451, 
  "Ungarn": 2452, 
  "2017": 2453, 
  "Trump": 2454, 
  "Bewegung": 2455, 
  "wichtigste": 2456, 
  "sah": 2457, 
  "Si@@": 2458, 
  "ine": 2459, 
  "richtigen": 2460, 
  "ac@@": 2461, 
  "Aktionen": 2462, 
  "IP": 2463, 
  "stein": 2464, 
  "danke": 2465, 
  "400": 2466, 
  "begann": 2467, 
  "vielmehr": 2468, 
  "Durch@@": 2469, 
  "Wal@@": 2470, 
  "zuständigen": 2471, 
  "passiert": 2472, 
  "Mi@@": 2473, 
  "essen": 2474, 
  "ra": 2475, 
  "eins": 2476, 
  "Fuß": 2477, 
  "7.": 2478, 
  "einiger": 2479, 
  "Worten": 2480, 
  "erfolgen": 2481, 
  "ergreifen": 2482, 
  "wünschen": 2483, 
  "Wirkung": 2484, 
  "and@@": 2485, 
  "Förder@@": 2486, 
  "hausen": 2487, 
  "grundsätzlich": 2488, 
  "konzentrieren": 2489, 
  "Ent@@": 2490, 
  "Einhaltung": 2491, 
  "Glück": 2492, 
  "bezeichnet": 2493, 
  "verband": 2494, 
  "Niederlage": 2495, 
  "gegründet": 2496, 
  "ben@@": 2497, 
  "He@@": 2498, 
  "kürzlich": 2499, 
  "pr@@": 2500, 
  "wi@@": 2501, 
  "Maßnahme": 2502, 
  "laden": 2503, 
  "ters": 2504, 
  "laufenden": 2505, 
  "Städte": 2506, 
  "Märkte": 2507, 
  "Regierungs@@": 2508, 
  "Verhältnis": 2509, 
  "Medien@@": 2510, 
  "Ba@@": 2511, 
  "é": 2512, 
  "tre@@": 2513, 
  "mag": 2514, 
  "zählt": 2515, 
  "Bedarf": 2516, 
  "jemand": 2517, 
  "ru@@": 2518, 
  "besseren": 2519, 
  "Rennen": 2520, 
  "wiederum": 2521, 
  "zentrum": 2522, 
  "private": 2523, 
  "Ha@@": 2524, 
  "Jahres@@": 2525, 
  "ähnlich": 2526, 
  "benötigt": 2527, 
  "des@@": 2528, 
  "zählen": 2529, 
  "freue": 2530, 
  "tritt": 2531, 
  "Standards": 2532, 
  "M": 2533, 
  "Daten@@": 2534, 
  "Absatz": 2535, 
  "Auftrag": 2536, 
  "persönlich": 2537, 
  "äl@@": 2538, 
  "guter": 2539, 
  "Sterne": 2540, 
  "tel": 2541, 
  "Produkt": 2542, 
  "rasch": 2543, 
  "Aufbau": 2544, 
  "sa@@": 2545, 
  "Forderungen": 2546, 
  "Mitteln": 2547, 
  "gestalten": 2548, 
  "hervor": 2549, 
  "rechtlichen": 2550, 
  "runde": 2551, 
  "David": 2552, 
  "übrigen": 2553, 
  "Ausstellung": 2554, 
  "en.@@": 2555, 
  "no@@": 2556, 
  "Inhalte": 2557, 
  "Spaß": 2558, 
  "Straßen": 2559, 
  "13.": 2560, 
  "usw.": 2561, 
  "vorbei": 2562, 
  "Partei@@": 2563, 
  "bahn": 2564, 
  "Herbst": 2565, 
  "ener@@": 2566, 
  "Produkten": 2567, 
  "ho@@": 2568, 
  "Band": 2569, 
  "gel": 2570, 
  "Risiken": 2571, 
  "speziell": 2572, 
  "City": 2573, 
  "Selbst@@": 2574, 
  "Verpflichtung": 2575, 
  "Freude": 2576, 
  "Sohn": 2577, 
  "verlieren": 2578, 
  "schneller": 2579, 
  "Gel@@": 2580, 
  "aufmerksam": 2581, 
  "etz@@": 2582, 
  "IT": 2583, 
  "Dateien": 2584, 
  "Tu@@": 2585, 
  "Sekunden": 2586, 
  "Bedenken": 2587, 
  "Rei@@": 2588, 
  "systeme": 2589, 
  "Hinweis": 2590, 
  "Terror@@": 2591, 
  "künftigen": 2592, 
  "Koordinierung": 2593, 
  "ationen": 2594, 
  "Agenda": 2595, 
  "tsch@@": 2596, 
  "elf": 2597, 
  "geschrieben": 2598, 
  "gefördert": 2599, 
  "Nutzen": 2600, 
  "umfassende": 2601, 
  "Stefan": 2602, 
  "bitten": 2603, 
  "36": 2604, 
  "ling": 2605, 
  "Schlusselwortern": 2606, 
  "achten": 2607, 
  "betrachtet": 2608, 
  "tete": 2609, 
  "Homepage": 2610, 
  "Telefon": 2611, 
  "Freunde": 2612, 
  "van": 2613, 
  "Halb@@": 2614, 
  "rück@@": 2615, 
  "gingen": 2616, 
  "ran@@": 2617, 
  "del@@": 2618, 
  "Halle": 2619, 
  "Gefühl": 2620, 
  "Eindruck": 2621, 
  "75": 2622, 
  "Par@@": 2623, 
  "nationaler": 2624, 
  "ent": 2625, 
  "Tabellen@@": 2626, 
  "weist": 2627, 
  "gehe": 2628, 
  "W": 2629, 
  "Name": 2630, 
  "chten": 2631, 
  "geleistet": 2632, 
  "Vorsitzender": 2633, 
  "Wirtschafts-": 2634, 
  "ausreichend": 2635, 
  "letztlich": 2636, 
  "Botschaft": 2637, 
  "teten": 2638, 
  "Arten": 2639, 
  "Spielen": 2640, 
  "Frank": 2641, 
  "Richter": 2642, 
  "wesentlichen": 2643, 
  "you": 2644, 
  "geschehen": 2645, 
  "genehmigt": 2646, 
  "sorgt": 2647, 
  "ju@@": 2648, 
  "mon@@": 2649, 
  "fest@@": 2650, 
  "stra@@": 2651, 
  "Kurs": 2652, 
  "Wolfgang": 2653, 
  "offenen": 2654, 
  "legte": 2655, 
  "ari@@": 2656, 
  "sogenannten": 2657, 
  "Quelle": 2658, 
  "Hannover": 2659, 
  "Saison@@": 2660, 
  "rechnen": 2661, 
  "solcher": 2662, 
  "berichten": 2663, 
  "Sonn@@": 2664, 
  "H": 2665, 
  "55": 2666, 
  "Man@@": 2667, 
  "ep@@": 2668, 
  "Top": 2669, 
  "gten": 2670, 
  "ergeben": 2671, 
  "Gesundheits@@": 2672, 
  "Gra@@": 2673, 
  "Hin@@": 2674, 
  "Hinweise": 2675, 
  "bisherigen": 2676, 
  "standen": 2677, 
  "é@@": 2678, 
  "z.": 2679, 
  "Baden": 2680, 
  "lose": 2681, 
  "zuerst": 2682, 
  "zog": 2683, 
  "nennen": 2684, 
  "Unternehmens": 2685, 
  "entgegen": 2686, 
  "..": 2687, 
  "gek@@": 2688, 
  "Reaktion": 2689, 
  "benutzt": 2690, 
  "tut": 2691, 
  "liebe": 2692, 
  "Nein": 2693, 
  "Sinn": 2694, 
  "21.": 2695, 
  "Datei": 2696, 
  "Anschluss": 2697, 
  "1997": 2698, 
  "1.@@": 2699, 
  "rechten": 2700, 
  "Laufe": 2701, 
  "Überprüfung": 2702, 
  "darstellen": 2703, 
  "Regional@@": 2704, 
  "übernommen": 2705, 
  "Indien": 2706, 
  "Rumänien": 2707, 
  "Mittelpunkt": 2708, 
  "Ku@@": 2709, 
  "Tochter": 2710, 
  "Rad@@": 2711, 
  "verkauft": 2712, 
  "150": 2713, 
  "internationaler": 2714, 
  "par@@": 2715, 
  "Regelungen": 2716, 
  "Dienst@@": 2717, 
  "Grad": 2718, 
  "Einsatz@@": 2719, 
  "0,@@": 2720, 
  "Fi@@": 2721, 
  "mo@@": 2722, 
  "Mensch": 2723, 
  "Fischerei": 2724, 
  "Han@@": 2725, 
  "Test@@": 2726, 
  "erheblich": 2727, 
  "akzeptieren": 2728, 
  "rechts@@": 2729, 
  "Anlage": 2730, 
  "Pläne": 2731, 
  "geeignet": 2732, 
  "Westen": 2733, 
  "ziemlich": 2734, 
  "Norden": 2735, 
  "cke": 2736, 
  "losen": 2737, 
  "Alexander": 2738, 
  "zunehmend": 2739, 
  "re": 2740, 
  "Schutz@@": 2741, 
  "dern": 2742, 
  "geprüft": 2743, 
  "Arbeitslosigkeit": 2744, 
  "Beamten": 2745, 
  "verabschiedet": 2746, 
  "kleiner": 2747, 
  "Essen": 2748, 
  "än@@": 2749, 
  "hierzu": 2750, 
  "ausdrücklich": 2751, 
  "beziehen": 2752, 
  "Bei@@": 2753, 
  "ta": 2754, 
  "Wissen": 2755, 
  "Internationalen": 2756, 
  "no": 2757, 
  "erscheint": 2758, 
  "Garten": 2759, 
  "gegenwärtig": 2760, 
  "Leiter": 2761, 
  "besch@@": 2762, 
  "La": 2763, 
  "wenden": 2764, 
  "euch": 2765, 
  "Karten": 2766, 
  "gung": 2767, 
  "russischen": 2768, 
  "gegangen": 2769, 
  "Künstler": 2770, 
  "ll@@": 2771, 
  "weiter@@": 2772, 
  "höhere": 2773, 
  "Vorteil": 2774, 
  "lin@@": 2775, 
  "Funktionen": 2776, 
  "Kandidaten": 2777, 
  "Sanktionen": 2778, 
  "übrigens": 2779, 
  "abzu@@": 2780, 
  "Ausschuß": 2781, 
  "fahr@@": 2782, 
  "chen@@": 2783, 
  "Ausbau": 2784, 
  "18.": 2785, 
  "höher": 2786, 
  "Druck@@": 2787, 
  "Richtlinien": 2788, 
  "Herstellung": 2789, 
  "schauen": 2790, 
  "Jürgen": 2791, 
  "Pre@@": 2792, 
  "Finanzen": 2793, 
  "Fest@@": 2794, 
  "mittel@@": 2795, 
  "geöffnet": 2796, 
  "deine": 2797, 
  "Grenz@@": 2798, 
  "ms": 2799, 
  "Generation": 2800, 
  "einsetzen": 2801, 
  "vorhanden": 2802, 
  "gewann": 2803, 
  "fehlt": 2804, 
  "übertragen": 2805, 
  "Unfall": 2806, 
  "bo@@": 2807, 
  "See": 2808, 
  "wolle": 2809, 
  "mar": 2810, 
  "hilft": 2811, 
  "tr@@": 2812, 
  "sofern": 2813, 
  "jedenfalls": 2814, 
  "1@@": 2815, 
  "geplanten": 2816, 
  "Luxemburg": 2817, 
  "17@@": 2818, 
  "schlecht": 2819, 
  "zeit@@": 2820, 
  "Priorität": 2821, 
  "sti@@": 2822, 
  "zuständige": 2823, 
  "aufgefordert": 2824, 
  "Bahnhof": 2825, 
  "überprüfen": 2826, 
  "P": 2827, 
  "bes@@": 2828, 
  "dient": 2829, 
  "Straßen@@": 2830, 
  "starten": 2831, 
  "Problemen": 2832, 
  "Zi@@": 2833, 
  "Sprachen": 2834, 
  "Luft@@": 2835, 
  "Abgeordnete": 2836, 
  "vorher": 2837, 
  "verurteilt": 2838, 
  "benutzen": 2839, 
  "welchen": 2840, 
  "Angebote": 2841, 
  "Staatsanwaltschaft": 2842, 
  "absolut": 2843, 
  "Waren": 2844, 
  "chef": 2845, 
  "Vorsitz": 2846, 
  "1996": 2847, 
  "beträgt": 2848, 
  "zeiten": 2849, 
  "gelungen": 2850, 
  "Größe": 2851, 
  "Kunst@@": 2852, 
  "wei@@": 2853, 
  "diesmal": 2854, 
  "Ermittlungen": 2855, 
  "Ruhe": 2856, 
  "len@@": 2857, 
  "gericht": 2858, 
  "Teilen": 2859, 
  "Verkauf": 2860, 
  "11.": 2861, 
  "sichern": 2862, 
  "room": 2863, 
  "Fahrzeuge": 2864, 
  "Zuschauer": 2865, 
  "end@@": 2866, 
  "finde": 2867, 
  "Pa@@": 2868, 
  "einzelne": 2869, 
  "ati@@": 2870, 
  "sucht": 2871, 
  "il@@": 2872, 
  "präsentiert": 2873, 
  "hauptsächlich": 2874, 
  "Anlagen": 2875, 
  "einzigen": 2876, 
  "diskutiert": 2877, 
  "Drittel": 2878, 
  "Geschäft": 2879, 
  "zt": 2880, 
  "unmittelbar": 2881, 
  "Geld@@": 2882, 
  "Sach@@": 2883, 
  "ap@@": 2884, 
  "Tages@@": 2885, 
  "willkommen": 2886, 
  "Übernahme": 2887, 
  "Flug@@": 2888, 
  "16@@": 2889, 
  "gruppen": 2890, 
  "Werk": 2891, 
  "Leit@@": 2892, 
  "jähriger": 2893, 
  "ma": 2894, 
  "jederzeit": 2895, 
  "Paket": 2896, 
  "ss": 2897, 
  "Hauses": 2898, 
  "La@@": 2899, 
  "werte": 2900, 
  "International": 2901, 
  "Robert": 2902, 
  "Verständnis": 2903, 
  "Jugendlichen": 2904, 
  "schöne": 2905, 
  "staatlichen": 2906, 
  "schlagen": 2907, 
  "Steuern": 2908, 
  "iert": 2909, 
  "Interview": 2910, 
  "37": 2911, 
  "ren@@": 2912, 
  "from": 2913, 
  "Körper": 2914, 
  "bewegen": 2915, 
  "Du@@": 2916, 
  "Brand@@": 2917, 
  "fahrt": 2918, 
  "Lau@@": 2919, 
  "Anwendungen": 2920, 
  "spielte": 2921, 
  "Wein@@": 2922, 
  "reagieren": 2923, 
  "echte": 2924, 
  "Ordnung": 2925, 
  "EM": 2926, 
  "erhielt": 2927, 
  "lebt": 2928, 
  "daten": 2929, 
  "nahmen": 2930, 
  "Stellung": 2931, 
  "sin@@": 2932, 
  "Berichterstatterin": 2933, 
  "Tradition": 2934, 
  "Bal@@": 2935, 
  "Ihres": 2936, 
  "immerhin": 2937, 
  "Stil": 2938, 
  "Zustand": 2939, 
  "15.": 2940, 
  "Euro@@": 2941, 
  "Google": 2942, 
  "entsprechen": 2943, 
  "Coach": 2944, 
  "diskutieren": 2945, 
  "fiel": 2946, 
  "gang": 2947, 
  "su@@": 2948, 
  "Sa@@": 2949, 
  "erstellen": 2950, 
  "Har@@": 2951, 
  "Verwaltungs@@": 2952, 
  "Nar@@": 2953, 
  "entscheidend": 2954, 
  "Fußball@@": 2955, 
  "hielt": 2956, 
  "weise": 2957, 
  "tz": 2958, 
  "ener": 2959, 
  "Alternative": 2960, 
  "schaft": 2961, 
  "praktisch": 2962, 
  "längst": 2963, 
  "gefallen": 2964, 
  "Versuch": 2965, 
  "Ministerpräsident": 2966, 
  "bericht": 2967, 
  "erwähnt": 2968, 
  "Gegensatz": 2969, 
  "Schweizer": 2970, 
  "soweit": 2971, 
  "angezeigt": 2972, 
  "Delegation": 2973, 
  "48": 2974, 
  "Status": 2975, 
  "Krankenhaus": 2976, 
  "Erde": 2977, 
  "Geschäftsführer": 2978, 
  "reisen": 2979, 
  "det": 2980, 
  "Landkreis": 2981, 
  "1000": 2982, 
  "Schwerpunkt": 2983, 
  "bisschen": 2984, 
  "Erhöhung": 2985, 
  "v": 2986, 
  "Natur@@": 2987, 
  "spiele": 2988, 
  "liefern": 2989, 
  "Gedanken": 2990, 
  "Stad@@": 2991, 
  "pi@@": 2992, 
  "not": 2993, 
  "Privat@@": 2994, 
  "Manager": 2995, 
  "vierten": 2996, 
  "mittels": 2997, 
  "egal": 2998, 
  "Waffen": 2999, 
  "gebaut": 3000, 
  "hr@@": 3001, 
  "sage": 3002, 
  "Bulgarien": 3003, 
  "positiven": 3004, 
  "auswärtige": 3005, 
  "Tisch": 3006, 
  "Webseite": 3007, 
  "organisiert": 3008, 
  "Familien@@": 3009, 
  "so@@": 3010, 
  "Männern": 3011, 
  "geschützt": 3012, 
  "Liebe": 3013, 
  "schreibt": 3014, 
  "Anbieter": 3015, 
  "Antworten": 3016, 
  "bekannte": 3017, 
  "finanziert": 3018, 
  "Wi@@": 3019, 
  "Formen": 3020, 
  "Übereinkommen": 3021, 
  "ür@@": 3022, 
  "schwere": 3023, 
  "frei@@": 3024, 
  "näher": 3025, 
  "1995": 3026, 
  "09": 3027, 
  "türkischen": 3028, 
  "Austausch": 3029, 
  "vorgeschlagenen": 3030, 
  "entstanden": 3031, 
  "schönen": 3032, 
  "Währung": 3033, 
  "pro@@": 3034, 
  "lu@@": 3035, 
  "tra@@": 3036, 
  "Twitter": 3037, 
  "Jahrhunderts": 3038, 
  "Karl": 3039, 
  "Achtung": 3040, 
  "bekannten": 3041, 
  "Außen@@": 3042, 
  "lieber": 3043, 
  "Prinzip": 3044, 
  "Do@@": 3045, 
  "Entwicklungs@@": 3046, 
  "Grundsatz": 3047, 
  "Fischer": 3048, 
  "Empfehlung": 3049, 
  "persönliche": 3050, 
  "Tore": 3051, 
  "Lesung": 3052, 
  "Maria": 3053, 
  "Per@@": 3054, 
  "anlagen": 3055, 
  "Berücksichtigung": 3056, 
  "Tel": 3057, 
  "sport": 3058, 
  "10.": 3059, 
  "extrem": 3060, 
  "italienischen": 3061, 
  "kulturellen": 3062, 
  "Bus": 3063, 
  "Vorjahr": 3064, 
  "angesprochen": 3065, 
  "Europäer": 3066, 
  "Film@@": 3067, 
  "mar@@": 3068, 
  "Auto@@": 3069, 
  "gs": 3070, 
  "hinweisen": 3071, 
  "ernst": 3072, 
  "forderte": 3073, 
  "stimmt": 3074, 
  "selten": 3075, 
  "Spitze": 3076, 
  "Verhalten": 3077, 
  "Inseln": 3078, 
  "umfassenden": 3079, 
  "Web": 3080, 
  "Qu@@": 3081, 
  "ang": 3082, 
  "Rang": 3083, 
  "Unterkunft": 3084, 
  "holen": 3085, 
  "meinte": 3086, 
  "Jugendliche": 3087, 
  "vollen": 3088, 
  "verändert": 3089, 
  "Aktualisierung": 3090, 
  "rat@@": 3091, 
  "stag": 3092, 
  "kostet": 3093, 
  "erer": 3094, 
  "42": 3095, 
  "Wald@@": 3096, 
  "Netzwerk": 3097, 
  "Produktions@@": 3098, 
  "Fernseh@@": 3099, 
  "Abkommens": 3100, 
  "Dänemark": 3101, 
  "teilnehmen": 3102, 
  "pre@@": 3103, 
  "Star@@": 3104, 
  "Voraussetzung": 3105, 
  "Streit": 3106, 
  "spezielle": 3107, 
  "hoher": 3108, 
  "Lehr@@": 3109, 
  "Vorstand": 3110, 
  "humanitäre": 3111, 
  "anbieten": 3112, 
  "Vorgehen": 3113, 
  "zugunsten": 3114, 
  "ba@@": 3115, 
  "gestiegen": 3116, 
  "nahezu": 3117, 
  "war@@": 3118, 
  "our": 3119, 
  "fühlen": 3120, 
  "Gegenteil": 3121, 
  "Umgang": 3122, 
  "weg@@": 3123, 
  "Kern@@": 3124, 
  "Mal@@": 3125, 
  "verdient": 3126, 
  "Freund": 3127, 
  "Daniel": 3128, 
  "ursprünglich": 3129, 
  "Heimat": 3130, 
  "17.": 3131, 
  "Vielzahl": 3132, 
  "griechischen": 3133, 
  "Anpassung": 3134, 
  "aufs": 3135, 
  "terin": 3136, 
  "aller@@": 3137, 
  "800": 3138, 
  "Fre@@": 3139, 
  "Post": 3140, 
  "Texte": 3141, 
  "Realität": 3142, 
  "Begriff": 3143, 
  "schutz@@": 3144, 
  "erleichtern": 3145, 
  "Konzern": 3146, 
  "Bestandteil": 3147, 
  "Buch@@": 3148, 
  "John": 3149, 
  "eri@@": 3150, 
  "Pause": 3151, 
  "bauen": 3152, 
  "Finale": 3153, 
  "Dor@@": 3154, 
  "geplante": 3155, 
  "sehe": 3156, 
  "vorstellen": 3157, 
  "hingewiesen": 3158, 
  "enst@@": 3159, 
  "Städten": 3160, 
  "bu@@": 3161, 
  "16.": 3162, 
  "For@@": 3163, 
  "rechte": 3164, 
  "hof": 3165, 
  "schlag": 3166, 
  "agentur": 3167, 
  "©": 3168, 
  "beachten": 3169, 
  "Alt@@": 3170, 
  "Ereignisse": 3171, 
  "Gas@@": 3172, 
  "betreffen": 3173, 
  "Hol@@": 3174, 
  "keinerlei": 3175, 
  "Aussicht": 3176, 
  "Kal@@": 3177, 
  "tel@@": 3178, 
  "ales": 3179, 
  "betonen": 3180, 
  "gewährt": 3181, 
  "international": 3182, 
  "hängt": 3183, 
  "einfache": 3184, 
  "Personal@@": 3185, 
  "höchste": 3186, 
  "Details": 3187, 
  "Verträge": 3188, 
  "Ost@@": 3189, 
  "Gemeinder@@": 3190, 
  "solange": 3191, 
  "Arbeitsmarkt": 3192, 
  "weitgehend": 3193, 
  "ausschuss": 3194, 
  "Straf@@": 3195, 
  "Grundsätze": 3196, 
  "getötet": 3197, 
  "Ball": 3198, 
  "Bedürfnisse": 3199, 
  "EZB": 3200, 
  "Maße": 3201, 
  "ino": 3202, 
  "mm@@": 3203, 
  "01.@@": 3204, 
  "entlang": 3205, 
  "Stimmung": 3206, 
  "droht": 3207, 
  "lautet": 3208, 
  "Polizisten": 3209, 
  "ant": 3210, 
  "Kontrollen": 3211, 
  "stimme": 3212, 
  "Elemente": 3213, 
  "tt@@": 3214, 
  "ur": 3215, 
  "Doppel@@": 3216, 
  "verbundenen": 3217, 
  "schafft": 3218, 
  "38": 3219, 
  "angekündigt": 3220, 
  "Rückkehr": 3221, 
  "Öl@@": 3222, 
  "Kölner": 3223, 
  "Go@@": 3224, 
  "wechsel": 3225, 
  "diger": 3226, 
  "Planung": 3227, 
  "Ne@@": 3228, 
  "feststellen": 3229, 
  "Erwartungen": 3230, 
  "ismus": 3231, 
  "sitzen": 3232, 
  "Con@@": 3233, 
  "verkehr": 3234, 
  "Gästen": 3235, 
  "05": 3236, 
  "ou@@": 3237, 
  "Auftritt": 3238, 
  "kurze": 3239, 
  "geboren": 3240, 
  "programme": 3241, 
  "müsste": 3242, 
  "gelang": 3243, 
  "britische": 3244, 
  "Münchner": 3245, 
  "Betriebs@@": 3246, 
  "fin@@": 3247, 
  "wieder@@": 3248, 
  "Deutschlands": 3249, 
  "zusätzlichen": 3250, 
  "Strategien": 3251, 
  "44": 3252, 
  "Tätigkeiten": 3253, 
  "kostenlos": 3254, 
  "Kooperation": 3255, 
  "Kosovo": 3256, 
  "Sorgen": 3257, 
  "Rettungs@@": 3258, 
  "Satz": 3259, 
  "falsch": 3260, 
  "Zug": 3261, 
  "kur@@": 3262, 
  "jahr": 3263, 
  "steigt": 3264, 
  "besitzt": 3265, 
  "aler": 3266, 
  "Sitz": 3267, 
  "eingehen": 3268, 
  "gs@@": 3269, 
  "Informations@@": 3270, 
  "gn@@": 3271, 
  "meint": 3272, 
  "Fortschritt": 3273, 
  "erhebliche": 3274, 
  "Angela": 3275, 
  "Unterschiede": 3276, 
  "vermutlich": 3277, 
  "ven": 3278, 
  "gesellschaft": 3279, 
  "Süden": 3280, 
  "einerseits": 3281, 
  "tri@@": 3282, 
  "vorliegenden": 3283, 
  "Standort": 3284, 
  "stattdessen": 3285, 
  "ds": 3286, 
  "eller": 3287, 
  "wald": 3288, 
  "Kroatien": 3289, 
  "ali@@": 3290, 
  "plötzlich": 3291, 
  "Markus": 3292, 
  "übernimmt": 3293, 
  "Obama": 3294, 
  "Klaus": 3295, 
  "Gast": 3296, 
  "Sachen": 3297, 
  "Migranten": 3298, 
  "ER": 3299, 
  "Fenster": 3300, 
  "Afghanistan": 3301, 
  "Viertel": 3302, 
  "ah@@": 3303, 
  "ft@@": 3304, 
  "Site": 3305, 
  "mittel": 3306, 
  "komme": 3307, 
  "ir@@": 3308, 
  "rechtliche": 3309, 
  "nachhaltigen": 3310, 
  "Letzte": 3311, 
  "Strecke": 3312, 
  "verlangt": 3313, 
  "43": 3314, 
  "weshalb": 3315, 
  "bildet": 3316, 
  "Leitung": 3317, 
  "ks": 3318, 
  "einzu@@": 3319, 
  "traditionellen": 3320, 
  "garantiert": 3321, 
  "Marke": 3322, 
  "stolz": 3323, 
  "auszu@@": 3324, 
  "isches": 3325, 
  "UND": 3326, 
  "600": 3327, 
  "Tier@@": 3328, 
  "Klimawandel": 3329, 
  "traf": 3330, 
  "Wohnungen": 3331, 
  "Schmidt": 3332, 
  "Flüchtling@@": 3333, 
  "go": 3334, 
  "Ein": 3335, 
  "ssen": 3336, 
  "tige": 3337, 
  "see": 3338, 
  "Dimension": 3339, 
  "spanischen": 3340, 
  "Paul": 3341, 
  "essen@@": 3342, 
  "lichkeit": 3343, 
  "Aspekt": 3344, 
  "stieg": 3345, 
  "Ch@@": 3346, 
  "mitten": 3347, 
  "Licht@@": 3348, 
  "ana": 3349, 
  "künftige": 3350, 
  "Diskussionen": 3351, 
  "qu@@": 3352, 
  "ve": 3353, 
  "he": 3354, 
  "tieren": 3355, 
  "gaben": 3356, 
  "96": 3357, 
  "Umständen": 3358, 
  "Globalisierung": 3359, 
  "Kra@@": 3360, 
  "ola": 3361, 
  "Anliegen": 3362, 
  "gegenwärtigen": 3363, 
  "kreis": 3364, 
  "Umfeld": 3365, 
  "Branche": 3366, 
  "abhängig": 3367, 
  "dt": 3368, 
  "Koalition": 3369, 
  "une": 3370, 
  "richten": 3371, 
  "erst@@": 3372, 
  "gu@@": 3373, 
  "globale": 3374, 
  "ator": 3375, 
  "liefert": 3376, 
  "Studenten": 3377, 
  "15@@": 3378, 
  "verk@@": 3379, 
  "konkreten": 3380, 
  "bild": 3381, 
  "Tour": 3382, 
  "Tourismus": 3383, 
  "aufnehmen": 3384, 
  "Ker@@": 3385, 
  "Unabhängigkeit": 3386, 
  "Willen": 3387, 
  "tiert": 3388, 
  "65": 3389, 
  "französische": 3390, 
  "Zwei@@": 3391, 
  "Niederlande": 3392, 
  "zen@@": 3393, 
  "größer": 3394, 
  "Karriere": 3395, 
  "führung": 3396, 
  "Wissenschaft": 3397, 
  "12.": 3398, 
  "gab@@": 3399, 
  "Lebens": 3400, 
  "beendet": 3401, 
  "Verbot": 3402, 
  "Bundesregierung": 3403, 
  "preis": 3404, 
  "ckt": 3405, 
  "Verringerung": 3406, 
  "ausgeschlossen": 3407, 
  "gewisse": 3408, 
  "we@@": 3409, 
  "mm": 3410, 
  "ven@@": 3411, 
  "14.": 3412, 
  "Du": 3413, 
  "Kamera": 3414, 
  "entdeckt": 3415, 
  "Anstieg": 3416, 
  "41": 3417, 
  "bus": 3418, 
  "Hau@@": 3419, 
  "langsam": 3420, 
  "ga": 3421, 
  "wirkt": 3422, 
  "dr@@": 3423, 
  "Wiener": 3424, 
  "Methode": 3425, 
  "sogenannte": 3426, 
  "DF@@": 3427, 
  "Gott": 3428, 
  "cherin": 3429, 
  "gearbeitet": 3430, 
  "geh@@": 3431, 
  "halle": 3432, 
  "vorbereitet": 3433, 
  "Stiftung": 3434, 
  "alter": 3435, 
  "interessiert": 3436, 
  "chs": 3437, 
  "Rechts": 3438, 
  "10@@": 3439, 
  "14@@": 3440, 
  "freut": 3441, 
  "demokratische": 3442, 
  "geraten": 3443, 
  "anhand": 3444, 
  "hierbei": 3445, 
  "Sal@@": 3446, 
  "gefragt": 3447, 
  "kennt": 3448, 
  "punkt": 3449, 
  "vorlegen": 3450, 
  "senden": 3451, 
  "weltweiten": 3452, 
  "39": 3453, 
  "Finnland": 3454, 
  "2.@@": 3455, 
  "enn@@": 3456, 
  "einig": 3457, 
  "erfordert": 3458, 
  "frühen": 3459, 
  "Schäden": 3460, 
  "beteiligen": 3461, 
  "Konflikt": 3462, 
  "Morgen": 3463, 
  "entdecken": 3464, 
  "prozess": 3465, 
  "oren": 3466, 
  "Ausnahme": 3467, 
  "FDP": 3468, 
  "schrieb": 3469, 
  "Fuß@@": 3470, 
  "führenden": 3471, 
  "Gi@@": 3472, 
  "Effizienz": 3473, 
  "Apple": 3474, 
  "breite": 3475, 
  "höchsten": 3476, 
  "seitens": 3477, 
  "Reise@@": 3478, 
  "geltenden": 3479, 
  "Mobilität": 3480, 
  "Fahrzeug": 3481, 
  "zentralen": 3482, 
  "Ö": 3483, 
  "Madrid": 3484, 
  "Beratung": 3485, 
  "ation@@": 3486, 
  "Diskriminierung": 3487, 
  "CD": 3488, 
  "früh": 3489, 
  "amerikanische": 3490, 
  "systems": 3491, 
  "Beteiligten": 3492, 
  "ys": 3493, 
  "öffnen": 3494, 
  "ktion": 3495, 
  "ließen": 3496, 
  "Kombination": 3497, 
  "d.": 3498, 
  "Am@@": 3499, 
  "dung": 3500, 
  "solle": 3501, 
  "hi@@": 3502, 
  "leiden": 3503, 
  "Hel@@": 3504, 
  "fte": 3505, 
  "Mitgliedschaft": 3506, 
  "klasse": 3507, 
  "sicherstellen": 3508, 
  "Vorstellung": 3509, 
  "Bildungs@@": 3510, 
  "Wähler": 3511, 
  "Berufs@@": 3512, 
  "Forschungs@@": 3513, 
  "betrachten": 3514, 
  "Drei@@": 3515, 
  "etc.": 3516, 
  "Geräte": 3517, 
  "sm@@": 3518, 
  "af@@": 3519, 
  "nochmals": 3520, 
  "selbst@@": 3521, 
  "49": 3522, 
  "Training": 3523, 
  "Strukturen": 3524, 
  "win@@": 3525, 
  "Erklärungen": 3526, 
  "ker@@": 3527, 
  "ermittelt": 3528, 
  "Material": 3529, 
  "Bü@@": 3530, 
  "Emissionen": 3531, 
  "Brasilien": 3532, 
  "Schal@@": 3533, 
  "Flüchtlingskrise": 3534, 
  "Gesicht": 3535, 
  "Pla@@": 3536, 
  "Struktur": 3537, 
  "beraten": 3538, 
  "Unterkategorien": 3539, 
  "ken@@": 3540, 
  "Behörde": 3541, 
  "herzlich": 3542, 
  "Ak@@": 3543, 
  "schwierigen": 3544, 
  "Rest": 3545, 
  "umzusetzen": 3546, 
  "ob@@": 3547, 
  "Show": 3548, 
  "Inter@@": 3549, 
  "übernachten": 3550, 
  "News": 3551, 
  "höheren": 3552, 
  "ungs-": 3553, 
  "äu@@": 3554, 
  "Projekten": 3555, 
  "CO2": 3556, 
  "Gründung": 3557, 
  "vorgestellt": 3558, 
  "Forum": 3559, 
  "dienste": 3560, 
  "Genehmigung": 3561, 
  "Bre@@": 3562, 
  "Ehren@@": 3563, 
  "Hu@@": 3564, 
  "fehlen": 3565, 
  "ce": 3566, 
  "Flexibilität": 3567, 
  "Ges@@": 3568, 
  "Villa": 3569, 
  "Ta@@": 3570, 
  "Dre@@": 3571, 
  "schicken": 3572, 
  "ministerium": 3573, 
  "chinesischen": 3574, 
  "sektor": 3575, 
  "speziellen": 3576, 
  "Aktionsplan": 3577, 
  "Festlegung": 3578, 
  "Anlass": 3579, 
  "vorgenommen": 3580, 
  "Franz": 3581, 
  "nunmehr": 3582, 
  "erlebt": 3583, 
  "Kol@@": 3584, 
  "No@@": 3585, 
  "Red": 3586, 
  "hart": 3587, 
  "Vereinbarungen": 3588, 
  "Bahn@@": 3589, 
  "tief": 3590, 
  "ki@@": 3591, 
  "Opposition": 3592, 
  "na": 3593, 
  "feiern": 3594, 
  "Absicht": 3595, 
  "Fähigkeit": 3596, 
  "PC": 3597, 
  "Dortmund": 3598, 
  "u.": 3599, 
  "ci@@": 3600, 
  "Pflicht": 3601, 
  "Geschäfte": 3602, 
  "Beiträge": 3603, 
  "wichtiges": 3604, 
  "haft": 3605, 
  "Min@@": 3606, 
  "ohnehin": 3607, 
  "Einstellung": 3608, 
  "up": 3609, 
  "sches": 3610, 
  "wissenschaftlichen": 3611, 
  "tig": 3612, 
  "46": 3613, 
  "Einwohner": 3614, 
  "direkten": 3615, 
  "Journalisten": 3616, 
  "frühere": 3617, 
  "Option": 3618, 
  "Asyl@@": 3619, 
  "sieg": 3620, 
  "ga@@": 3621, 
  "kurzen": 3622, 
  "Wil@@": 3623, 
  "30.": 3624, 
  "iner": 3625, 
  "Amsterdam": 3626, 
  "ieren": 3627, 
  "Ur@@": 3628, 
  "verlangen": 3629, 
  "empfehlen": 3630, 
  "Dokumente": 3631, 
  "prä@@": 3632, 
  "ften": 3633, 
  "ausgesetzt": 3634, 
  "offiziell": 3635, 
  "Württemberg": 3636, 
  "Wagen": 3637, 
  "stehenden": 3638, 
  "wies": 3639, 
  "westlichen": 3640, 
  "vertei@@": 3641, 
  "Deutsch": 3642, 
  "Sachsen": 3643, 
  "mel@@": 3644, 
  "derartige": 3645, 
  "World": 3646, 
  "Normen": 3647, 
  "Bas@@": 3648, 
  "eingeleitet": 3649, 
  "Hil@@": 3650, 
  "nachfolgend": 3651, 
  "Untersuchungen": 3652, 
  "Dauer": 3653, 
  "fahrer": 3654, 
  "verhindert": 3655, 
  "Ti@@": 3656, 
  "Charakter": 3657, 
  "Landwirte": 3658, 
  "reich": 3659, 
  "Ski@@": 3660, 
  "Business": 3661, 
  "befassen": 3662, 
  "schnelle": 3663, 
  "hergestellt": 3664, 
  "dürften": 3665, 
  "tisch": 3666, 
  "Unterschied": 3667, 
  "that": 3668, 
  "bank": 3669, 
  "04": 3670, 
  "daraufhin": 3671, 
  "ersch@@": 3672, 
  "Leistungs@@": 3673, 
  "Drittländern": 3674, 
  "Rom": 3675, 
  "Altstadt": 3676, 
  "Erst@@": 3677, 
  "me@@": 3678, 
  "Plätze": 3679, 
  "Win@@": 3680, 
  "Werbung": 3681, 
  "Pe@@": 3682, 
  "Fähigkeiten": 3683, 
  "Kompromiss": 3684, 
  "fertig": 3685, 
  "bezahlen": 3686, 
  "allgemein": 3687, 
  "Fernsehen": 3688, 
  "Liberalisierung": 3689, 
  "Tonnen": 3690, 
  "Dorf": 3691, 
  "Viertel@@": 3692, 
  "Jo@@": 3693, 
  "ideal": 3694, 
  "Jährigen": 3695, 
  "wodurch": 3696, 
  "Zypern": 3697, 
  "eigenes": 3698, 
  "plus": 3699, 
  "kurzem": 3700, 
  "Gö@@": 3701, 
  "behalten": 3702, 
  "20@@": 3703, 
  "verteilt": 3704, 
  "Super@@": 3705, 
  "tischen": 3706, 
  "wesentliche": 3707, 
  "kte": 3708, 
  "he@@": 3709, 
  "ls": 3710, 
  "#": 3711, 
  "verkaufen": 3712, 
  "weisen": 3713, 
  "Unternehmens@@": 3714, 
  "beinhaltet": 3715, 
  "Zivilgesellschaft": 3716, 
  "aufzunehmen": 3717, 
  "gedacht": 3718, 
  "historische": 3719, 
  "Farben": 3720, 
  "anten": 3721, 
  "Mor@@": 3722, 
  "einst": 3723, 
  "zugänglich": 3724, 
  "geschieht": 3725, 
  "Spre@@": 3726, 
  "Presse@@": 3727, 
  "bestand": 3728, 
  "anlage": 3729, 
  "anerkannt": 3730, 
  "Partnern": 3731, 
  "Bilanz": 3732, 
  "Gesetze": 3733, 
  "Wahrheit": 3734, 
  "Rathaus": 3735, 
  "Lebensmittel": 3736, 
  "machten": 3737, 
  "untersucht": 3738, 
  "perfekt": 3739, 
  "ku@@": 3740, 
  "form": 3741, 
  "Gastgeber": 3742, 
  "Erzeugnisse": 3743, 
  "ER@@": 3744, 
  "nieder@@": 3745, 
  "offen@@": 3746, 
  "unternommen": 3747, 
  "Voll@@": 3748, 
  "Soldaten": 3749, 
  "2,@@": 3750, 
  "kten": 3751, 
  "Ausgabe": 3752, 
  "vieler": 3753, 
  "gehabt": 3754, 
  "j": 3755, 
  "ausgesprochen": 3756, 
  "Verbesserungen": 3757, 
  "Hinter@@": 3758, 
  "geschlagen": 3759, 
  "geschichte": 3760, 
  "Atom@@": 3761, 
  "Ex@@": 3762, 
  "Komfort": 3763, 
  "Investoren": 3764, 
  "angeht": 3765, 
  "Auge": 3766, 
  "Hof": 3767, 
  "Motto": 3768, 
  "bestehende": 3769, 
  "Energie@@": 3770, 
  "plan": 3771, 
  "erfolgreiche": 3772, 
  "Plattform": 3773, 
  "08": 3774, 
  "fre@@": 3775, 
  "betrieb": 3776, 
  "Körper@@": 3777, 
  "1994": 3778, 
  "tische": 3779, 
  "Amerika": 3780, 
  "lt": 3781, 
  "mehrfach": 3782, 
  "Nachricht": 3783, 
  "Bild@@": 3784, 
  "geschäft": 3785, 
  "ähnliche": 3786, 
  "Kom@@": 3787, 
  "ausgezeichnet": 3788, 
  "Kauf": 3789, 
  "tan@@": 3790, 
  "Gar@@": 3791, 
  "entscheidende": 3792, 
  "Pan@@": 3793, 
  "fen@@": 3794, 
  "Ra@@": 3795, 
  "Fahrt": 3796, 
  "Methoden": 3797, 
  "47": 3798, 
  "Mindest@@": 3799, 
  "Teil@@": 3800, 
  "unver@@": 3801, 
  "bet@@": 3802, 
  "Sprach@@": 3803, 
  "Theater": 3804, 
  "Kategorie": 3805, 
  "Sy@@": 3806, 
  "Werke": 3807, 
  "Tür": 3808, 
  "Beschreibung": 3809, 
  "Mitarbeitern": 3810, 
  "Gemeinde@@": 3811, 
  "fanden": 3812, 
  "getragen": 3813, 
  "verringern": 3814, 
  "gerät": 3815, 
  "ön@@": 3816, 
  "spezifischen": 3817, 
  "Pet@@": 3818, 
  "anstatt": 3819, 
  "ungs": 3820, 
  "Jan": 3821, 
  "Gemeinden": 3822, 
  "Nachmittag": 3823, 
  "Center": 3824, 
  "Beispiele": 3825, 
  "Ben@@": 3826, 
  "genden": 3827, 
  "Feld": 3828, 
  "Verbrechen": 3829, 
  "Lehrer": 3830, 
  "Mehr@@": 3831, 
  "abgelehnt": 3832, 
  "Zuge": 3833, 
  "vertrag": 3834, 
  "garantieren": 3835, 
  "ats": 3836, 
  "kar@@": 3837, 
  "erter": 3838, 
  "lan@@": 3839, 
  "gebeten": 3840, 
  "langfristige": 3841, 
  "Außenminister": 3842, 
  "Institut": 3843, 
  "gesetz": 3844, 
  "vollständige": 3845, 
  "vieles": 3846, 
  "industrie": 3847, 
  "Terrasse": 3848, 
  "Sonne": 3849, 
  "Herz": 3850, 
  "geblieben": 3851, 
  "Verletzungen": 3852, 
  "229": 3853, 
  "verstärken": 3854, 
  "Metern": 3855, 
  "Gast@@": 3856, 
  "Akteure": 3857, 
  "bedeuten": 3858, 
  "SP@@": 3859, 
  "Verbindungen": 3860, 
  "Allgemeinen": 3861, 
  "Düsseldorf": 3862, 
  "Grün@@": 3863, 
  "dar@@": 3864, 
  "behörde": 3865, 
  "Beziehung": 3866, 
  "Gold": 3867, 
  "rein": 3868, 
  "Br@@": 3869, 
  "mt": 3870, 
  "Nachbarn": 3871, 
  "Englisch": 3872, 
  "minister": 3873, 
  "heit": 3874, 
  "Blut@@": 3875, 
  "offiziellen": 3876, 
  "organisation": 3877, 
  "siert": 3878, 
  "erhältlich": 3879, 
  "schef": 3880, 
  "investieren": 3881, 
  "Hotel@@": 3882, 
  "ei": 3883, 
  "son": 3884, 
  "eu@@": 3885, 
  "häuser": 3886, 
  "tw@@": 3887, 
  "ak": 3888, 
  "sta@@": 3889, 
  "Lin@@": 3890, 
  "sel@@": 3891, 
  "Innenstadt": 3892, 
  "druck": 3893, 
  "testen": 3894, 
  "NATO": 3895, 
  "min@@": 3896, 
  "Unfall@@": 3897, 
  "park": 3898, 
  "Sk@@": 3899, 
  "99": 3900, 
  "Bezirks@@": 3901, 
  "Krankheiten": 3902, 
  "fuhr": 3903, 
  "Team@@": 3904, 
  "Versorgung": 3905, 
  "vorne": 3906, 
  "geschafft": 3907, 
  "är": 3908, 
  "95": 3909, 
  "Zentralbank": 3910, 
  "verursacht": 3911, 
  "eingeladen": 3912, 
  "sinnvoll": 3913, 
  "spätestens": 3914, 
  "Bro@@": 3915, 
  "a.": 3916, 
  "bedingungen": 3917, 
  "Bank@@": 3918, 
  "Bund": 3919, 
  "klaren": 3920, 
  "Fraktionen": 3921, 
  "Kr@@": 3922, 
  "lokale": 3923, 
  "Kräfte": 3924, 
  "funktionieren": 3925, 
  "bay@@": 3926, 
  "Vorsitzenden": 3927, 
  "Kunden@@": 3928, 
  "fährt": 3929, 
  "ffen": 3930, 
  "01": 3931, 
  "erfolgreichen": 3932, 
  "Meister": 3933, 
  "stre@@": 3934, 
  "tion@@": 3935, 
  "Verlust": 3936, 
  "Beweis": 3937, 
  "Zielen": 3938, 
  "verzichten": 3939, 
  "Landschaft": 3940, 
  "gemeinschaft": 3941, 
  "52": 3942, 
  "Rekord@@": 3943, 
  "Schw@@": 3944, 
  "Vf@@": 3945, 
  "England": 3946, 
  "seite": 3947, 
  "kra@@": 3948, 
  "entsteht": 3949, 
  "Produkt@@": 3950, 
  "Bewohner": 3951, 
  "Kollege": 3952, 
  "stellung": 3953, 
  "Rosen@@": 3954, 
  "versammlung": 3955, 
  "Kri@@": 3956, 
  "Installation": 3957, 
  "Märkten": 3958, 
  "bezug": 3959, 
  "ca": 3960, 
  "aden": 3961, 
  "langfristig": 3962, 
  "geld": 3963, 
  "Mazedonien": 3964, 
  "eingestellt": 3965, 
  "Grunde": 3966, 
  "sprecher": 3967, 
  "außen": 3968, 
  "Champions": 3969, 
  "gefährlich": 3970, 
  "Ei@@": 3971, 
  "Ziel@@": 3972, 
  "Messe": 3973, 
  "anzu@@": 3974, 
  "24.": 3975, 
  "aktive": 3976, 
  "sten@@": 3977, 
  "begleitet": 3978, 
  "voll@@": 3979, 
  "ette": 3980, 
  "13@@": 3981, 
  "bürger@@": 3982, 
  "Betrag": 3983, 
  "ergänzt": 3984, 
  "tion": 3985, 
  "drei@@": 3986, 
  "lern": 3987, 
  "h.": 3988, 
  "Ärzte": 3989, 
  "Washington": 3990, 
  "S.": 3991, 
  "Büro": 3992, 
  "Me@@": 3993, 
  "51": 3994, 
  "sodass": 3995, 
  "Veröffentlichung": 3996, 
  "25.": 3997, 
  "offene": 3998, 
  "Gewinn": 3999, 
  "Post@@": 4000, 
  "wachsen": 4001, 
  "ergriffen": 4002, 
  "aufzu@@": 4003, 
  "Regime": 4004, 
  "herrscht": 4005, 
  "ersetzt": 4006, 
  "en-": 4007, 
  "teile": 4008, 
  "spezifische": 4009, 
  "Seeh@@": 4010, 
  "passt": 4011, 
  "Web@@": 4012, 
  "Test": 4013, 
  "Werner": 4014, 
  "Wind@@": 4015, 
  "ton": 4016, 
  "bemüht": 4017, 
  "davor": 4018, 
  "Pu@@": 4019, 
  "Dis@@": 4020, 
  "echten": 4021, 
  "unterstütze": 4022, 
  "Sehenswürdigkeiten": 4023, 
  "sichergestellt": 4024, 
  "seitdem": 4025, 
  "Slowenien": 4026, 
  "werfen": 4027, 
  "erinnen": 4028, 
  "bereitgestellt": 4029, 
  "Papier": 4030, 
  "Live": 4031, 
  "Standard@@": 4032, 
  "leichter": 4033, 
  "12@@": 4034, 
  "äußern": 4035, 
  "Tages": 4036, 
  "Schlüssel@@": 4037, 
  "Studien": 4038, 
  "niemals": 4039, 
  "schaden": 4040, 
  "schen@@": 4041, 
  "Bur@@": 4042, 
  "gewinnt": 4043, 
  "Open": 4044, 
  "trat": 4045, 
  "besucht": 4046, 
  "98": 4047, 
  "kritisiert": 4048, 
  "Faktoren": 4049, 
  "bekämpfen": 4050, 
  "beteiligten": 4051, 
  "erscheinen": 4052, 
  "Feuer": 4053, 
  "net": 4054, 
  "heutige": 4055, 
  "momentan": 4056, 
  "Max": 4057, 
  "Einbeziehung": 4058, 
  "gers": 4059, 
  "ex@@": 4060, 
  "Arbeitsplätzen": 4061, 
  "bestätigen": 4062, 
  "direkte": 4063, 
  "Kan@@": 4064, 
  "kündigte": 4065, 
  "West": 4066, 
  "ki": 4067, 
  "nte": 4068, 
  "Pf@@": 4069, 
  "bezieht": 4070, 
  "Sie@@": 4071, 
  "kraft": 4072, 
  "pen@@": 4073, 
  "il": 4074, 
  "cup": 4075, 
  "Gei@@": 4076, 
  "Maß": 4077, 
  "Grundrechte": 4078, 
  "gelassen": 4079, 
  "zahl": 4080, 
  "ek": 4081, 
  "Konsequenzen": 4082, 
  "23.": 4083, 
  "erzielte": 4084, 
  "Gestaltung": 4085, 
  "Mrd.": 4086, 
  "erweitert": 4087, 
  "Farb@@": 4088, 
  "Microsoft": 4089, 
  "unge@@": 4090, 
  "akzeptiert": 4091, 
  "ST@@": 4092, 
  "Main": 4093, 
  "Konkurrenz": 4094, 
  "Militär@@": 4095, 
  "fr": 4096, 
  "Best@@": 4097, 
  "Dokumenten": 4098, 
  "endes": 4099, 
  "gestaltet": 4100, 
  "wirksam": 4101, 
  "zustimmen": 4102, 
  "Verteidigung": 4103, 
  "All@@": 4104, 
  "vollkommen": 4105, 
  "kulturelle": 4106, 
  "überzeugen": 4107, 
  "ppe": 4108, 
  "Entwicklungsländern": 4109, 
  "einverstanden": 4110, 
  "entwicklung": 4111, 
  "Maschinen": 4112, 
  "Top@@": 4113, 
  "richtet": 4114, 
  "Massen@@": 4115, 
  "vorschlagen": 4116, 
  "kel": 4117, 
  "via": 4118, 
  "lau@@": 4119, 
  "Kat@@": 4120, 
  "Szene": 4121, 
  "behandeln": 4122, 
  "neuesten": 4123, 
  "anti@@": 4124, 
  "stellten": 4125, 
  "co@@": 4126, 
  "Abschnitt": 4127, 
  "unklar": 4128, 
  "bar@@": 4129, 
  "Konzert": 4130, 
  "gelingt": 4131, 
  "Musiker": 4132, 
  "yer": 4133, 
  "22.": 4134, 
  "Ministerin": 4135, 
  "Vorschlägen": 4136, 
  "Jahrzehnten": 4137, 
  "deutscher": 4138, 
  "Beschlüsse": 4139, 
  "produziert": 4140, 
  "Projekt@@": 4141, 
  "bekam": 4142, 
  "Versammlung": 4143, 
  "verboten": 4144, 
  "erlauben": 4145, 
  "unbe@@": 4146, 
  "min": 4147, 
  "angemessen": 4148, 
  "österreichischen": 4149, 
  "vo@@": 4150, 
  "Kanzlerin": 4151, 
  "Lebensmittel@@": 4152, 
  "War@@": 4153, 
  "07": 4154, 
  "schi@@": 4155, 
  "wirtschaft": 4156, 
  "ffer": 4157, 
  "liste": 4158, 
  "Staatssekretär": 4159, 
  "Krankheit": 4160, 
  "nd": 4161, 
  "beschränkt": 4162, 
  "Tro@@": 4163, 
  "Beratungen": 4164, 
  "Treffer": 4165, 
  "Strukturfonds": 4166, 
  "Kurz@@": 4167, 
  "54": 4168, 
  "einiges": 4169, 
  "Signal": 4170, 
  "Kontroll@@": 4171, 
  "Küste": 4172, 
  "bestimmter": 4173, 
  "Kriminalität": 4174, 
  "Firmen@@": 4175, 
  "tigen": 4176, 
  "Vizepräsident": 4177, 
  "entschlossen": 4178, 
  "Vereins@@": 4179, 
  "Beihilfe": 4180, 
  "angemessene": 4181, 
  "Asien": 4182, 
  "str@@": 4183, 
  "schließt": 4184, 
  "beobachten": 4185, 
  "Matthias": 4186, 
  "dorfer": 4187, 
  "Linux": 4188, 
  "Ehr@@": 4189, 
  "König": 4190, 
  "Klima": 4191, 
  "Kontakte": 4192, 
  "menschlichen": 4193, 
  "Verletzung": 4194, 
  "Armee": 4195, 
  "Kunde": 4196, 
  "Potenzial": 4197, 
  "sie@@": 4198, 
  "präsentieren": 4199, 
  "verwaltung": 4200, 
  "out": 4201, 
  "führende": 4202, 
  "zurzeit": 4203, 
  "Zwischen@@": 4204, 
  "tur@@": 4205, 
  "Schluss@@": 4206, 
  "ini@@": 4207, 
  "gelöst": 4208, 
  "Touristen": 4209, 
  "stand@@": 4210, 
  "halt": 4211, 
  "250": 4212, 
  "Nachrichten@@": 4213, 
  "Wechsel": 4214, 
  "Verbreitung": 4215, 
  "leistung": 4216, 
  "3.@@": 4217, 
  "gebieten": 4218, 
  "Fern@@": 4219, 
  "lief": 4220, 
  "Titel@@": 4221, 
  "tt": 4222, 
  "Programmen": 4223, 
  "ehren@@": 4224, 
  "gesperrt": 4225, 
  "weite": 4226, 
  "vereinbart": 4227, 
  "sorgte": 4228, 
  "sse": 4229, 
  "Eigen@@": 4230, 
  "startet": 4231, 
  "hofft": 4232, 
  "dahin": 4233, 
  "betrieben": 4234, 
  "verschiedener": 4235, 
  "res": 4236, 
  "konkret": 4237, 
  "erstes": 4238, 
  "Mün@@": 4239, 
  "go@@": 4240, 
  "Slowakei": 4241, 
  "Mess@@": 4242, 
  "kleines": 4243, 
  "gan@@": 4244, 
  "Wetter": 4245, 
  "Bereitstellung": 4246, 
  "wissenschaftliche": 4247, 
  "Strom@@": 4248, 
  "basiert": 4249, 
  "85": 4250, 
  "Nahen": 4251, 
  "Ausgleich": 4252, 
  "lä@@": 4253, 
  "Aussage": 4254, 
  "Geschäftsordnung": 4255, 
  "Com@@": 4256, 
  "bestätigte": 4257, 
  "melden": 4258, 
  "inter@@": 4259, 
  "reagiert": 4260, 
  "Kanada": 4261, 
  "ings": 4262, 
  "entstand": 4263, 
  "br@@": 4264, 
  "Vertretern": 4265, 
  "old": 4266, 
  "use": 4267, 
  "Job": 4268, 
  "letzter": 4269, 
  "unterzeichnet": 4270, 
  "strategie": 4271, 
  "Hof@@": 4272, 
  "verändern": 4273, 
  "Frauen@@": 4274, 
  "Sektoren": 4275, 
  "kontrolliert": 4276, 
  "normalerweise": 4277, 
  "notwendige": 4278, 
  "Zahlungen": 4279, 
  "$": 4280, 
  "gend": 4281, 
  "1992": 4282, 
  "ierte": 4283, 
  "Modernisierung": 4284, 
  "AS@@": 4285, 
  "Weltmeister": 4286, 
  "zusammenarbeiten": 4287, 
  "stammt": 4288, 
  "ly": 4289, 
  "konzentriert": 4290, 
  "ungefähr": 4291, 
  "beschäftigen": 4292, 
  "tu@@": 4293, 
  "DE": 4294, 
  "Ministerium": 4295, 
  "alleine": 4296, 
  "Kopf@@": 4297, 
  "generell": 4298, 
  "bacher": 4299, 
  "betreffend": 4300, 
  "Einkommen": 4301, 
  "rufen": 4302, 
  "Geist": 4303, 
  "wonach": 4304, 
  "nennt": 4305, 
  "Handeln": 4306, 
  "Hor@@": 4307, 
  "Gesellschaften": 4308, 
  "Gro@@": 4309, 
  "Arbeitgeber": 4310, 
  "tor@@": 4311, 
  "dro@@": 4312, 
  "Forscher": 4313, 
  "ver": 4314, 
  "Kauf@@": 4315, 
  "pe": 4316, 
  "inklusive": 4317, 
  "Freitag@@": 4318, 
  "fort": 4319, 
  "Golf": 4320, 
  "Augen@@": 4321, 
  "Wirklichkeit": 4322, 
  "glich": 4323, 
  "Chinas": 4324, 
  "wal@@": 4325, 
  "Kor@@": 4326, 
  "etten": 4327, 
  "Sebastian": 4328, 
  "großem": 4329, 
  "Mikro@@": 4330, 
  "geboten": 4331, 
  "Station": 4332, 
  "Format": 4333, 
  "ideale": 4334, 
  "geln": 4335, 
  "linken": 4336, 
  "ark@@": 4337, 
  "Internet@@": 4338, 
  "29.": 4339, 
  "Links": 4340, 
  "verstanden": 4341, 
  "ry": 4342, 
  "una": 4343, 
  "rä@@": 4344, 
  "ruhig": 4345, 
  "wirken": 4346, 
  "natürlichen": 4347, 
  "Zug@@": 4348, 
  "kräfte": 4349, 
  "Ad@@": 4350, 
  "Moskau": 4351, 
  "sichere": 4352, 
  "mp@@": 4353, 
  "rau@@": 4354, 
  "Debian": 4355, 
  "02": 4356, 
  "Hö@@": 4357, 
  "Überblick": 4358, 
  "Trend": 4359, 
  "Regierungschefs": 4360, 
  "Mark@@": 4361, 
  "berühmten": 4362, 
  "gem": 4363, 
  "Betreiber": 4364, 
  "Frühjahr": 4365, 
  "reduzieren": 4366, 
  "Bedrohung": 4367, 
  "elektronischen": 4368, 
  "teilt": 4369, 
  "samt": 4370, 
  "Feuer@@": 4371, 
  "Farbe": 4372, 
  "ats@@": 4373, 
  "1990": 4374, 
  "produktion": 4375, 
  "situation": 4376, 
  "u.a.": 4377, 
  "preise": 4378, 
  "Lö@@": 4379, 
  "Gre@@": 4380, 
  "bor@@": 4381, 
  "Termin": 4382, 
  "welt": 4383, 
  "eigener": 4384, 
  "sto@@": 4385, 
  "Anhänger": 4386, 
  "durchzuführen": 4387, 
  "18@@": 4388, 
  "Umfrage": 4389, 
  "Bö@@": 4390, 
  "Spar@@": 4391, 
  "Identität": 4392, 
  "froh": 4393, 
  "einheitlichen": 4394, 
  "gra@@": 4395, 
  "entwickelten": 4396, 
  "Cal@@": 4397, 
  "Respekt": 4398, 
  "linge": 4399, 
  "Beifall": 4400, 
  "Norwegen": 4401, 
  "Drogen@@": 4402, 
  "are@@": 4403, 
  "Sand@@": 4404, 
  "formen": 4405, 
  "Mat@@": 4406, 
  "Fin@@": 4407, 
  "gebiete": 4408, 
  "ansonsten": 4409, 
  "Million": 4410, 
  "hierfür": 4411, 
  "Hafen": 4412, 
  "Bord": 4413, 
  "Gang": 4414, 
  "Großteil": 4415, 
  "heraus@@": 4416, 
  "vorgesehenen": 4417, 
  "grundlegenden": 4418, 
  "Zugriff": 4419, 
  "Freunden": 4420, 
  "ruft": 4421, 
  "Mittelmeer": 4422, 
  "Tausende": 4423, 
  "gende": 4424, 
  "1993": 4425, 
  "Anfragen": 4426, 
  "Wit@@": 4427, 
  "Programm@@": 4428, 
  "Überzeugung": 4429, 
  "bauer": 4430, 
  "zweimal": 4431, 
  "Definition": 4432, 
  "breiten": 4433, 
  "wohnen": 4434, 
  "Mission": 4435, 
  "genügend": 4436, 
  "service": 4437, 
  "russische": 4438, 
  "überprüft": 4439, 
  "dich": 4440, 
  "Verfassungs@@": 4441, 
  "Mu@@": 4442, 
  "Energien": 4443, 
  "Agrarpolitik": 4444, 
  "vier@@": 4445, 
  "besitzen": 4446, 
  "welchem": 4447, 
  "56": 4448, 
  "Plus": 4449, 
  "annehmen": 4450, 
  "enger": 4451, 
  "Verbraucher@@": 4452, 
  "voraussichtlich": 4453, 
  "deten": 4454, 
  "grundlegende": 4455, 
  "zweifellos": 4456, 
  "Umsatz": 4457, 
  "700": 4458, 
  "Zimmern": 4459, 
  "einfachen": 4460, 
  "tor": 4461, 
  "polizei": 4462, 
  "Gelände": 4463, 
  "Kampagne": 4464, 
  "Kl@@": 4465, 
  "Entwicklungsländer": 4466, 
  "Kapital@@": 4467, 
  "Te@@": 4468, 
  "Positionen": 4469, 
  "dir": 4470, 
  "wirksame": 4471, 
  "Heinz": 4472, 
  "Gr@@": 4473, 
  "Erholung": 4474, 
  "d.h.": 4475, 
  "rechtzeitig": 4476, 
  "Preisen": 4477, 
  "Feuerwehr@@": 4478, 
  "26.": 4479, 
  "Ausstattung": 4480, 
  "bt": 4481, 
  "Kommunen": 4482, 
  "verbringen": 4483, 
  "entscheidenden": 4484, 
  "angeblich": 4485, 
  "beigetragen": 4486, 
  "Les@@": 4487, 
  "strategischen": 4488, 
  "Darlehen": 4489, 
  "projekt": 4490, 
  "Helfer": 4491, 
  "jener": 4492, 
  "erungen": 4493, 
  "durchführen": 4494, 
  "Bra@@": 4495, 
  "Turnier": 4496, 
  "aufgestellt": 4497, 
  "wiederholt": 4498, 
  "chter": 4499, 
  "Gerichte": 4500, 
  "Sil@@": 4501, 
  "Datenbank": 4502, 
  "Mer@@": 4503, 
  "Grand": 4504, 
  "heißen": 4505, 
  "verhalten": 4506, 
  "hü@@": 4507, 
  "Einheit": 4508, 
  "Lager": 4509, 
  "Einschätzung": 4510, 
  "Gesetzgebung": 4511, 
  "Modelle": 4512, 
  "passieren": 4513, 
  "Verlängerung": 4514, 
  "Wir": 4515, 
  "Migration": 4516, 
  "sicheren": 4517, 
  "steigern": 4518, 
  "Eröffnung": 4519, 
  "wirtschaftlich": 4520, 
  "Roma": 4521, 
  "Elektro@@": 4522, 
  "Und": 4523, 
  "Autor": 4524, 
  "ßen": 4525, 
  "Stra@@": 4526, 
  "selber": 4527, 
  "Che@@": 4528, 
  "stehe": 4529, 
  "ussi@@": 4530, 
  "glaubt": 4531, 
  "bestimmen": 4532, 
  "illegalen": 4533, 
  "Verwirklichung": 4534, 
  "Leipzig": 4535, 
  "meier": 4536, 
  "san@@": 4537, 
  "Frankfurter": 4538, 
  "regeln": 4539, 
  "cher@@": 4540, 
  "scheinen": 4541, 
  "Heimat@@": 4542, 
  "Katastrophe": 4543, 
  "Gen@@": 4544, 
  "Marktes": 4545, 
  "53": 4546, 
  "28.": 4547, 
  "schütz@@": 4548, 
  "Gewicht": 4549, 
  "vorzulegen": 4550, 
  "fra@@": 4551, 
  "Häuser": 4552, 
  "gesucht": 4553, 
  "Harmonisierung": 4554, 
  "schaften": 4555, 
  "gesorgt": 4556, 
  "Filme": 4557, 
  "ia": 4558, 
  "ursprünglichen": 4559, 
  "03": 4560, 
  "stammen": 4561, 
  "allzu": 4562, 
  "sammeln": 4563, 
  "umso": 4564, 
  "ese": 4565, 
  "fläche": 4566, 
  "sam@@": 4567, 
  "Rückstand": 4568, 
  "Erfolge": 4569, 
  "VP": 4570, 
  "Gebrauch": 4571, 
  "wen@@": 4572, 
  "festgenommen": 4573, 
  "Pro": 4574, 
  "System@@": 4575, 
  "El": 4576, 
  "einfacher": 4577, 
  "Wein": 4578, 
  "AKP": 4579, 
  "unde": 4580, 
  "sa": 4581, 
  "wirtschaftlicher": 4582, 
  "interessant": 4583, 
  "sitzt": 4584, 
  "ausgerichtet": 4585, 
  "Frist": 4586, 
  "klein": 4587, 
  "weiten": 4588, 
  "steckt": 4589, 
  "Einnahmen": 4590, 
  "Jan@@": 4591, 
  "Mainz": 4592, 
  "Niederlanden": 4593, 
  "{": 4594, 
  "aner": 4595, 
  "rer": 4596, 
  "tag@@": 4597, 
  "Vo@@": 4598, 
  "Walter": 4599, 
  "To@@": 4600, 
  "Konto": 4601, 
  "Mexiko": 4602, 
  "Ursache": 4603, 
  "Bremen": 4604, 
  "ore": 4605, 
  "Nachfolger": 4606, 
  "Neben@@": 4607, 
  "entwickelte": 4608, 
  "11.@@": 4609, 
  "Verfügbarkeit": 4610, 
  "za": 4611, 
  "kampf": 4612, 
  "Vol@@": 4613, 
  "digitalen": 4614, 
  "ori@@": 4615, 
  "unmöglich": 4616, 
  "Materialien": 4617, 
  "Ausbildungs@@": 4618, 
  "III": 4619, 
  "abgesehen": 4620, 
  "Link": 4621, 
  "eingehalten": 4622, 
  "Vorfeld": 4623, 
  "age": 4624, 
  "spät": 4625, 
  "Klassen@@": 4626, 
  "Öl": 4627, 
  "Im": 4628, 
  "Schrift@@": 4629, 
  "Vorsprung": 4630, 
  "Autobahn": 4631, 
  "heimer": 4632, 
  "Amts@@": 4633, 
  "elektronische": 4634, 
  "Strom": 4635, 
  "tung": 4636, 
  "Kapitel": 4637, 
  "solches": 4638, 
  "Gerät": 4639, 
  "leistungen": 4640, 
  "chi@@": 4641, 
  "Architektur": 4642, 
  "ll": 4643, 
  "Wandel": 4644, 
  "Verlauf": 4645, 
  "angebot": 4646, 
  "gezwungen": 4647, 
  "Gri@@": 4648, 
  "Ke@@": 4649, 
  "wir@@": 4650, 
  "ardi@@": 4651, 
  "Wissenschaftler": 4652, 
  "64": 4653, 
  "Pal@@": 4654, 
  "Staates": 4655, 
  "kol@@": 4656, 
  "internen": 4657, 
  "öl@@": 4658, 
  "bemühen": 4659, 
  "management": 4660, 
  "were": 4661, 
  "post@@": 4662, 
  "Eigenschaften": 4663, 
  "ess@@": 4664, 
  "Schiffe": 4665, 
  "Josef": 4666, 
  "gar@@": 4667, 
  "Optionen": 4668, 
  "buchen": 4669, 
  "Rückgang": 4670, 
  "staat": 4671, 
  "wahlen": 4672, 
  "reduziert": 4673, 
  "Anti": 4674, 
  "nt": 4675, 
  "31.": 4676, 
  "Schle@@": 4677, 
  "Wirtschaftswachstum": 4678, 
  "Tempo": 4679, 
  "Sieger": 4680, 
  "kirchen": 4681, 
  "besonderer": 4682, 
  "Duell": 4683, 
  "aufgebaut": 4684, 
  "120": 4685, 
  "wa@@": 4686, 
  "Verteilung": 4687, 
  "dert": 4688, 
  "06": 4689, 
  "riesigen": 4690, 
  "rit@@": 4691, 
  "Bereitschaft": 4692, 
  "Vorlage": 4693, 
  "Jean": 4694, 
  "drittens": 4695, 
  "Stoffe": 4696, 
  "satz": 4697, 
  "Plan@@": 4698, 
  "Premierminister": 4699, 
  "Mut": 4700, 
  "EN@@": 4701, 
  "Fläche": 4702, 
  "einstimmig": 4703, 
  "kal@@": 4704, 
  "Dach@@": 4705, 
  "ehe": 4706, 
  "Erinnerung": 4707, 
  "Schreiben": 4708, 
  "lö@@": 4709, 
  "Arena": 4710, 
  "eit": 4711, 
  "türkische": 4712, 
  "Serbien": 4713, 
  "Zoll@@": 4714, 
  "AL@@": 4715, 
  "mis@@": 4716, 
  "produkte": 4717, 
  "licht": 4718, 
  "Putin": 4719, 
  "bezahlt": 4720, 
  "begrenzt": 4721, 
  "Virus": 4722, 
  "Renn@@": 4723, 
  "Services": 4724, 
  "lauf": 4725, 
  "Rio": 4726, 
  "sieren": 4727, 
  "ins@@": 4728, 
  "vergeben": 4729, 
  "Sam@@": 4730, 
  "Bus@@": 4731, 
  "Videos": 4732, 
  "ec@@": 4733, 
  "UNO": 4734, 
  "gungs@@": 4735, 
  "innovative": 4736, 
  "gegebenenfalls": 4737, 
  "buch": 4738, 
  "Schauspieler": 4739, 
  "Cor@@": 4740, 
  "mache": 4741, 
  "Video@@": 4742, 
  "baller": 4743, 
  "eck@@": 4744, 
  "Parkplatz": 4745, 
  "Entschließungsantrag": 4746, 
  "zweiter": 4747, 
  "fe@@": 4748, 
  "geprägt": 4749, 
  "Rö@@": 4750, 
  "Aktien": 4751, 
  "organisieren": 4752, 
  "chs@@": 4753, 
  "Korruption": 4754, 
  "Spezial@@": 4755, 
  "ini": 4756, 
  "gas@@": 4757, 
  "Gegenstand": 4758, 
  "vorhandenen": 4759, 
  "Chi@@": 4760, 
  "Arbeitsplatz": 4761, 
  "Wild@@": 4762, 
  "hervorragende": 4763, 
  "schönsten": 4764, 
  "dauert": 4765, 
  "booking.com": 4766, 
  "vermitteln": 4767, 
  "sozialer": 4768, 
  "Rezeption": 4769, 
  "Vereine": 4770, 
  "wart": 4771, 
  "Ban@@": 4772, 
  "Schla@@": 4773, 
  "Wel@@": 4774, 
  "Schlüssel": 4775, 
  "schw@@": 4776, 
  "technik": 4777, 
  "beenden": 4778, 
  "ad": 4779, 
  "installiert": 4780, 
  "Glas@@": 4781, 
  "con@@": 4782, 
  "Schütz@@": 4783, 
  "Holz": 4784, 
  "Zwecke": 4785, 
  "Album": 4786, 
  "Vorschlags": 4787, 
  "ersetzen": 4788, 
  "regierung": 4789, 
  "vorgeschlagene": 4790, 
  "Nicht@@": 4791, 
  "Gemeinschaften": 4792, 
  "gemeldet": 4793, 
  "staff": 4794, 
  "Ausführungen": 4795, 
  "Tab@@": 4796, 
  "Ratspräsident": 4797, 
  "Zeugen": 4798, 
  "Hilfs@@": 4799, 
  "Provinz": 4800, 
  "Finanzierungs@@": 4801, 
  "Allgemeine": 4802, 
  "bequem": 4803, 
  "beruht": 4804, 
  "scht": 4805, 
  "val@@": 4806, 
  "pu@@": 4807, 
  "vereins": 4808, 
  "57": 4809, 
  "genannte": 4810, 
  "Men@@": 4811, 
  "rie@@": 4812, 
  "Ã": 4813, 
  "berechtigt": 4814, 
  "hand@@": 4815, 
  "jenen": 4816, 
  "irgendwann": 4817, 
  "wächst": 4818, 
  "öffentlicher": 4819, 
  "lin": 4820, 
  "Abstand": 4821, 
  "eck": 4822, 
  "Terror": 4823, 
  "Herz@@": 4824, 
  "Reisen": 4825, 
  "singen": 4826, 
  "ner@@": 4827, 
  "senken": 4828, 
  "tik": 4829, 
  "unterschiedlich": 4830, 
  "Terroristen": 4831, 
  "elte": 4832, 
  "run@@": 4833, 
  "Kriegs@@": 4834, 
  "Johannes": 4835, 
  "Alltag": 4836, 
  "überraschend": 4837, 
  "á@@": 4838, 
  "ECU": 4839, 
  "definiert": 4840, 
  "zeigten": 4841, 
  "enburg": 4842, 
  "Perspektive": 4843, 
  "greifen": 4844, 
  "rot": 4845, 
  "Brand": 4846, 
  "station": 4847, 
  "Ermitt@@": 4848, 
  "mu@@": 4849, 
  "Flucht": 4850, 
  "wider@@": 4851, 
  "Erfüllung": 4852, 
  "errichtet": 4853, 
  "dan@@": 4854, 
  "wirft": 4855, 
  "We@@": 4856, 
  "Berg": 4857, 
  "gestartet": 4858, 
  "Umweltschutz": 4859, 
  "verdienen": 4860, 
  "gestärkt": 4861, 
  "Pol@@": 4862, 
  "gerin": 4863, 
  "Überlegungen": 4864, 
  "kal": 4865, 
  "auftreten": 4866, 
  "verlor": 4867, 
  "Es": 4868, 
  "Reduzierung": 4869, 
  "Marco": 4870, 
  "behörden": 4871, 
  "but": 4872, 
  "plant": 4873, 
  "Gewährleistung": 4874, 
  "Af@@": 4875, 
  "überrascht": 4876, 
  "erläutert": 4877, 
  "Wald": 4878, 
  "blieben": 4879, 
  "Th@@": 4880, 
  "gefeiert": 4881, 
  "Stadtzentrum": 4882, 
  "infolge": 4883, 
  "erlassen": 4884, 
  "gerichtet": 4885, 
  "Air": 4886, 
  "offizielle": 4887, 
  "Betriebe": 4888, 
  "Weihnachts@@": 4889, 
  "Räume": 4890, 
  "welt@@": 4891, 
  "tner": 4892, 
  "Tanz@@": 4893, 
  "reiche": 4894, 
  "co": 4895, 
  "Bel@@": 4896, 
  "gefährdet": 4897, 
  "traditionelle": 4898, 
  "Gabriel": 4899, 
  "App": 4900, 
  "Festival": 4901, 
  "ther": 4902, 
  "form@@": 4903, 
  "entscheidender": 4904, 
  "Dra@@": 4905, 
  "27.": 4906, 
  "20.@@": 4907, 
  "Hal@@": 4908, 
  "Saal": 4909, 
  "Grüne": 4910, 
  "Widerstand": 4911, 
  "Wohlstand": 4912, 
  "Organe": 4913, 
  "gest@@": 4914, 
  "besorgt": 4915, 
  "va": 4916, 
  "Aussagen": 4917, 
  "tiger": 4918, 
  "Amerikaner": 4919, 
  "enten": 4920, 
  "lebens@@": 4921, 
  "dre@@": 4922, 
  "San@@": 4923, 
  "abgestimmt": 4924, 
  "gem@@": 4925, 
  "Anschlag": 4926, 
  "Raums": 4927, 
  "Boden@@": 4928, 
  "Group": 4929, 
  "zo@@": 4930, 
  "geeignete": 4931, 
  "hilfe": 4932, 
  "Schwer@@": 4933, 
  "führten": 4934, 
  "lie@@": 4935, 
  "Eintra@@": 4936, 
  "digitale": 4937, 
  "Steigerung": 4938, 
  "Sicherung": 4939, 
  "Völker": 4940, 
  "Einwanderung": 4941, 
  "Gefahren": 4942, 
  "aktiven": 4943, 
  "Wolf": 4944, 
  "Download": 4945, 
  "Element": 4946, 
  "Kre@@": 4947, 
  "Mario": 4948, 
  "saal": 4949, 
  "maximal": 4950, 
  "Samstag@@": 4951, 
  "kom@@": 4952, 
  "hal@@": 4953, 
  "konfrontiert": 4954, 
  "letztendlich": 4955, 
  "1991": 4956, 
  "Asylbewerber": 4957, 
  "59": 4958, 
  "Klimaanlage": 4959, 
  "Zusammen@@": 4960, 
  "mat@@": 4961, 
  "Sen@@": 4962, 
  "derzeitige": 4963, 
  "58": 4964, 
  "Situationen": 4965, 
  "festen": 4966, 
  "verleihen": 4967, 
  "betreiben": 4968, 
  "leidet": 4969, 
  "Politiken": 4970, 
  "Sti@@": 4971, 
  "ett": 4972, 
  "Transport": 4973, 
  "bekräftigt": 4974, 
  "pp": 4975, 
  "kümmern": 4976, 
  "individuelle": 4977, 
  "Augsburg": 4978, 
  "enge": 4979, 
  "schla@@": 4980, 
  "have": 4981, 
  "strategische": 4982, 
  "Costa": 4983, 
  "Joachim": 4984, 
  "onen": 4985, 
  "menschliche": 4986, 
  "festgelegten": 4987, 
  "ro": 4988, 
  "Sanierung": 4989, 
  "12.@@": 4990, 
  "Betreuung": 4991, 
  "interessante": 4992, 
  "humanitären": 4993, 
  "voraus": 4994, 
  "4.@@": 4995, 
  "Beseitigung": 4996, 
  "Nord": 4997, 
  "eingereicht": 4998, 
  "geschickt": 4999, 
  "Beruf": 5000, 
  "cks": 5001, 
  "begeistert": 5002, 
  "ski": 5003, 
  "Handels": 5004, 
  "Investitions@@": 5005, 
  "Kaffee": 5006, 
  "keinem": 5007, 
  "up@@": 5008, 
  "att@@": 5009, 
  "Miet@@": 5010, 
  "fördert": 5011, 
  "Sol@@": 5012, 
  "Gegend": 5013, 
  "stärkere": 5014, 
  "ergibt": 5015, 
  "ack@@": 5016, 
  "stecken": 5017, 
  "Mö@@": 5018, 
  "plan@@": 5019, 
  "fried": 5020, 
  "dauern": 5021, 
  "pl@@": 5022, 
  "jegliche": 5023, 
  "Wa@@": 5024, 
  "ef@@": 5025, 
  "Maschine": 5026, 
  "Stamm@@": 5027, 
  "unverzüglich": 5028, 
  "ha": 5029, 
  "gli@@": 5030, 
  "aut": 5031, 
  "bewältigen": 5032, 
  "Handy": 5033, 
  "Praktiken": 5034, 
  "Salzburg": 5035, 
  "Qualitäts@@": 5036, 
  "Super": 5037, 
  "kurs": 5038, 
  "Prozesses": 5039, 
  "Apartments": 5040, 
  "nachricht@@": 5041, 
  "Dieter": 5042, 
  "gr@@": 5043, 
  "Friedens@@": 5044, 
  "BMW": 5045, 
  "ding": 5046, 
  "verteidigen": 5047, 
  "mü@@": 5048, 
  "00@@": 5049, 
  "De": 5050, 
  "einbezogen": 5051, 
  "bur@@": 5052, 
  "fs": 5053, 
  "umsetzen": 5054, 
  "langer": 5055, 
  "ke@@": 5056, 
  "netz": 5057, 
  "FIFA": 5058, 
  "italienische": 5059, 
  "}": 5060, 
  "ierten": 5061, 
  "ns": 5062, 
  "Zweiten": 5063, 
  "praktische": 5064, 
  "Wünsche": 5065, 
  "stärksten": 5066, 
  "verliert": 5067, 
  "Projekts": 5068, 
  "ley": 5069, 
  "länder": 5070, 
  "Hamburger": 5071, 
  "Anhang": 5072, 
  "schlug": 5073, 
  "acht@@": 5074, 
  "belgischen": 5075, 
  "endet": 5076, 
  "vorschriften": 5077, 
  "angesehen": 5078, 
  "investiert": 5079, 
  "barer": 5080, 
  "ya": 5081, 
  "normalen": 5082, 
  "Bruder": 5083, 
  "rü@@": 5084, 
  "Kampf@@": 5085, 
  "Generalsekretär": 5086, 
  "els@@": 5087, 
  "Cup": 5088, 
  "gerechnet": 5089, 
  "fassen": 5090, 
  "beschrieben": 5091, 
  "Europe": 5092, 
  "Zuständigkeit": 5093, 
  "fähig": 5094, 
  "Klage": 5095, 
  "Politik@@": 5096, 
  "Kreuz@@": 5097, 
  "good": 5098, 
  "Binnenmarktes": 5099, 
  "kern": 5100, 
  "mittleren": 5101, 
  "Lan@@": 5102, 
  "eingegangen": 5103, 
  "schnellen": 5104, 
  "Stärke": 5105, 
  "assi@@": 5106, 
  "Ernährung": 5107, 
  "Feld@@": 5108, 
  "sischen": 5109, 
  "neu@@": 5110, 
  "vollem": 5111, 
  "Besorgnis": 5112, 
  "Australien": 5113, 
  "sur": 5114, 
  "sheim": 5115, 
  "Mittw@@": 5116, 
  "einrichtungen": 5117, 
  "Hohen": 5118, 
  "Zahlungs@@": 5119, 
  "Allianz": 5120, 
  "hel@@": 5121, 
  "gründen": 5122, 
  "Jungen": 5123, 
  "Abschaffung": 5124, 
  "si": 5125, 
  "wechseln": 5126, 
  "Zusammenhalt": 5127, 
  "Pass@@": 5128, 
  "Arzt": 5129, 
  "systemen": 5130, 
  "hohem": 5131, 
  "kontrollieren": 5132, 
  "Abteilung": 5133, 
  "Charta": 5134, 
  "hängen": 5135, 
  "genaue": 5136, 
  "erkannt": 5137, 
  "manchen": 5138, 
  "gewähren": 5139, 
  "Verantwortlichen": 5140, 
  "Werbe@@": 5141, 
  "angegeben": 5142, 
  "1,5": 5143, 
  "unabhängige": 5144, 
  "grünen": 5145, 
  "erhoben": 5146, 
  "freundlich": 5147, 
  "Dax": 5148, 
  "Sel@@": 5149, 
  "zeichnet": 5150, 
  "Schloss": 5151, 
  "erteilt": 5152, 
  "ie@@": 5153, 
  "alt@@": 5154, 
  "Christoph": 5155, 
  "teils": 5156, 
  "Minderheiten": 5157, 
  "einzusetzen": 5158, 
  "ier": 5159, 
  "geräte": 5160, 
  "Tre@@": 5161, 
  "unabhängigen": 5162, 
  "einheitliche": 5163, 
  "Drogen": 5164, 
  "Unternehmer": 5165, 
  "Wind": 5166, 
  "fel@@": 5167, 
  "Hör@@": 5168, 
  "Garten@@": 5169, 
  "Hessen": 5170, 
  "mb@@": 5171, 
  "planen": 5172, 
  "10.@@": 5173, 
  "Gleichgewicht": 5174, 
  "Erhaltung": 5175, 
  "elten": 5176, 
  "Lauf@@": 5177, 
  "ders": 5178, 
  "Clinton": 5179, 
  "Mari@@": 5180, 
  "Kirchen@@": 5181, 
  "Summe": 5182, 
  "leiten": 5183, 
  "Garantie": 5184, 
  "VfB": 5185, 
  "Code": 5186, 
  "angepasst": 5187, 
  "Hände": 5188, 
  "integriert": 5189, 
  "index": 5190, 
  "DVD": 5191, 
  "Übereinstimmung": 5192, 
  "Computer@@": 5193, 
  "Al": 5194, 
  "62": 5195, 
  "Mangel": 5196, 
  "bert": 5197, 
  "gemeinschaftlichen": 5198, 
  "Finanzkrise": 5199, 
  "Tal@@": 5200, 
  "Börse": 5201, 
  "derer": 5202, 
  "gefahren": 5203, 
  "Händler": 5204, 
  "insofern": 5205, 
  "jetzigen": 5206, 
  "Kontext": 5207, 
  "Anti@@": 5208, 
  "verbinden": 5209, 
  "lischen": 5210, 
  "Litauen": 5211, 
  "²": 5212, 
  "los@@": 5213, 
  "mitglieder": 5214, 
  "intensiv": 5215, 
  "jüngste": 5216, 
  "langfristigen": 5217, 
  "sonstige": 5218, 
  "ersucht": 5219, 
  "na@@": 5220, 
  "Dialogs": 5221, 
  "zumal": 5222, 
  "Veränderung": 5223, 
  "konferenz": 5224, 
  "Kapitän": 5225, 
  "Staats-": 5226, 
  "und@@": 5227, 
  "entgegen@@": 5228, 
  "Autofahrer": 5229, 
  "geäußert": 5230, 
  "Tabelle": 5231, 
  "Institution": 5232, 
  "160": 5233, 
  "Konsens": 5234, 
  "Macht@@": 5235, 
  "bedroht": 5236, 
  "last": 5237, 
  "Fehl@@": 5238, 
  "gering": 5239, 
  "Studio": 5240, 
  "zerstört": 5241, 
  "ör@@": 5242, 
  "Schengen": 5243, 
  "Gruppen@@": 5244, 
  "pa@@": 5245, 
  "gewissen": 5246, 
  "räumen": 5247, 
  "steuern": 5248, 
  "finanzieren": 5249, 
  "denk@@": 5250, 
  "Bücher": 5251, 
  "zeichen": 5252, 
  "97": 5253, 
  "arten": 5254, 
  "Asyl": 5255, 
  "Gut@@": 5256, 
  "Bemerkungen": 5257, 
  "bereitet": 5258, 
  "Brücke": 5259, 
  "dienst@@": 5260, 
  "bad": 5261, 
  "fern": 5262, 
  "herum": 5263, 
  "bildung": 5264, 
  "zurückzuführen": 5265, 
  "Haft": 5266, 
  "politisches": 5267, 
  "Bir@@": 5268, 
  "Schulden": 5269, 
  "Tur@@": 5270, 
  "Ham@@": 5271, 
  "Vereinfachung": 5272, 
  "kurzfristig": 5273, 
  "Vil@@": 5274, 
  "Horst": 5275, 
  "Lauf": 5276, 
  "ländliche": 5277, 
  "folglich": 5278, 
  "ARD": 5279, 
  "Verfahrens": 5280, 
  "verb@@": 5281, 
  "super": 5282, 
  "beantworten": 5283, 
  "jährlichen": 5284, 
  "Ware": 5285, 
  "Münster": 5286, 
  "wahren": 5287, 
  "erheblichen": 5288, 
  "Revolution": 5289, 
  "bewertet": 5290, 
  "Waffen@@": 5291, 
  "parallel": 5292, 
  "hren": 5293, 
  "Sender": 5294, 
  "deutliche": 5295, 
  "erleichtert": 5296, 
  "Ausmaß": 5297, 
  "stoff@@": 5298, 
  "Komponenten": 5299, 
  "Vereins": 5300, 
  "72": 5301, 
  "las": 5302, 
  "ausgezeichnete": 5303, 
  "verbot": 5304, 
  "Anzeiger": 5305, 
  "Ausgangspunkt": 5306, 
  "Kosten@@": 5307, 
  "ches": 5308, 
  "Übergang": 5309, 
  "fortgesetzt": 5310, 
  "erreichbar": 5311, 
  "umgeben": 5312, 
  "stell@@": 5313, 
  "Hauptbahnhof": 5314, 
  "grüne": 5315, 
  "Vertrags@@": 5316, 
  "gleich@@": 5317, 
  "fonds": 5318, 
  "Bernd": 5319, 
  "nicht@@": 5320, 
  "Großen": 5321, 
  "Em@@": 5322, 
  "Vision": 5323, 
  "holte": 5324, 
  "Jung@@": 5325, 
  "selben": 5326, 
  "Konflikte": 5327, 
  "lädt": 5328, 
  "setzten": 5329, 
  "Stür@@": 5330, 
  "Party": 5331, 
  "Wieder@@": 5332, 
  "empfiehlt": 5333, 
  "bereiten": 5334, 
  "Ausarbeitung": 5335, 
  "tro@@": 5336, 
  "for@@": 5337, 
  "gens": 5338, 
  "ann@@": 5339, 
  "endgültig": 5340, 
  "Ergebnissen": 5341, 
  "Beschäftigungs@@": 5342, 
  "Ambiente": 5343, 
  "Geburtstag": 5344, 
  "nannte": 5345, 
  "verbindet": 5346, 
  "ban@@": 5347, 
  "Problems": 5348, 
  "Ausführung": 5349, 
  "Wetter@@": 5350, 
  "verletz@@": 5351, 
  "dener": 5352, 
  "kre@@": 5353, 
  "Real": 5354, 
  "klassischen": 5355, 
  "umfangreiche": 5356, 
  "Stahl@@": 5357, 
  "band": 5358, 
  "älteren": 5359, 
  "hinweg": 5360, 
  "kleinere": 5361, 
  "zentren": 5362, 
  "Michel": 5363, 
  "í@@": 5364, 
  "Poli@@": 5365, 
  "Stadion": 5366, 
  "galt": 5367, 
  "gelte": 5368, 
  "Telefon@@": 5369, 
  "Gemeinsame": 5370, 
  "Schiff": 5371, 
  "verfügbaren": 5372, 
  "wartet": 5373, 
  "General": 5374, 
  "Alten@@": 5375, 
  "AR@@": 5376, 
  "Außenpolitik": 5377, 
  "Quellen": 5378, 
  "ka@@": 5379, 
  "sorgfältig": 5380, 
  "wachsenden": 5381, 
  "Steuer": 5382, 
  "Eigentum": 5383, 
  "Ul@@": 5384, 
  "Angriffe": 5385, 
  "dungs@@": 5386, 
  "ppen": 5387, 
  "om": 5388, 
  "Prinzipien": 5389, 
  "stein@@": 5390, 
  "illegale": 5391, 
  "nachdrücklich": 5392, 
  "lar": 5393, 
  "Pkw": 5394, 
  "deiner": 5395, 
  "äre": 5396, 
  "Sammlung": 5397, 
  "can": 5398, 
  "Pflanzen": 5399, 
  "voran": 5400, 
  "ers@@": 5401, 
  "barkeit": 5402, 
  "gehandelt": 5403, 
  "ün@@": 5404, 
  "Himmel": 5405, 
  "ir": 5406, 
  "Beschäftigten": 5407, 
  "Wander@@": 5408, 
  "Fl@@": 5409, 
  "hol@@": 5410, 
  "Wolfsburg": 5411, 
  "Kern": 5412, 
  "Hindernisse": 5413, 
  "Formular": 5414, 
  "Ebenen": 5415, 
  "66": 5416, 
  "Nach": 5417, 
  "lat@@": 5418, 
  "Erstellung": 5419, 
  "ane": 5420, 
  "Errichtung": 5421, 
  "steiger": 5422, 
  "entscheidet": 5423, 
  "Linke": 5424, 
  "tierten": 5425, 
  "ment@@": 5426, 
  "Geschwindigkeit": 5427, 
  "Ä@@": 5428, 
  "behaupten": 5429, 
  "erfasst": 5430, 
  "Island": 5431, 
  "Na@@": 5432, 
  "Ruf": 5433, 
  "Kn@@": 5434, 
  "Mark": 5435, 
  "bares": 5436, 
  "Ball@@": 5437, 
  "Anmeldung": 5438, 
  "Kleine": 5439, 
  "Manuel": 5440, 
  "Ägypten": 5441, 
  "Erd@@": 5442, 
  "WLAN": 5443, 
  "Bun@@": 5444, 
  "felder": 5445, 
  "Eurozone": 5446, 
  "Rahmenbedingungen": 5447, 
  "anischen": 5448, 
  "CH@@": 5449, 
  "pause": 5450, 
  "sprachen": 5451, 
  "Kapital": 5452, 
  "ID": 5453, 
  "glücklich": 5454, 
  "Öffnung": 5455, 
  "Zinsen": 5456, 
  "hoffentlich": 5457, 
  "retten": 5458, 
  "Saudi": 5459, 
  "gungen": 5460, 
  "Nor@@": 5461, 
  "Generationen": 5462, 
  "sport@@": 5463, 
  "fühlt": 5464, 
  "programms": 5465, 
  "ausgeführt": 5466, 
  "regelung": 5467, 
  "Rechtsstaatlichkeit": 5468, 
  "Gesprächen": 5469, 
  "musik": 5470, 
  "Wirtschaftspolitik": 5471, 
  "lauf@@": 5472, 
  "militärischen": 5473, 
  "Gas": 5474, 
  "sicherheit": 5475, 
  "chinesische": 5476, 
  "probleme": 5477, 
  "die@@": 5478, 
  "sterben": 5479, 
  "9,@@": 5480, 
  "bewegt": 5481, 
  "Websites": 5482, 
  "Darstellung": 5483, 
  "schwerer": 5484, 
  "spar@@": 5485, 
  "Professor": 5486, 
  "Gold@@": 5487, 
  "Entlastung": 5488, 
  "tierte": 5489, 
  "its": 5490, 
  "bli@@": 5491, 
  "Traum": 5492, 
  "Lam@@": 5493, 
  "Georg": 5494, 
  "wünsche": 5495, 
  "ältere": 5496, 
  "61": 5497, 
  "linie": 5498, 
  "bewerten": 5499, 
  "schwarz": 5500, 
  "Le": 5501, 
  "Reform@@": 5502, 
  "Ausrichtung": 5503, 
  "serviert": 5504, 
  "63": 5505, 
  "ruhigen": 5506, 
  "Halbzeit": 5507, 
  "Haftung": 5508, 
  "vorerst": 5509, 
  "plätze": 5510, 
  "tier@@": 5511, 
  "yo@@": 5512, 
  "projekte": 5513, 
  "Trau@@": 5514, 
  "Mannschaften": 5515, 
  "Verband": 5516, 
  "ti": 5517, 
  "erzielten": 5518, 
  "besonderes": 5519, 
  "Bayer": 5520, 
  "‑": 5521, 
  "geklärt": 5522, 
  "schn@@": 5523, 
  "Höhepunkt": 5524, 
  "fordere": 5525, 
  "bre@@": 5526, 
  "Zentral@@": 5527, 
  "ante": 5528, 
  "artikel": 5529, 
  "hört": 5530, 
  "sparen": 5531, 
  "Studien@@": 5532, 
  "kommende": 5533, 
  "oni@@": 5534, 
  "Demokraten": 5535, 
  "how": 5536, 
  "unterscheiden": 5537, 
  "Agrar@@": 5538, 
  "komplette": 5539, 
  "tal": 5540, 
  "zugrunde": 5541, 
  "weißen": 5542, 
  "roten": 5543, 
  "räume": 5544, 
  "Bosnien": 5545, 
  "reg@@": 5546, 
  "abgesch@@": 5547, 
  "Kommissionsmitglied": 5548, 
  "reiter": 5549, 
  "genen": 5550, 
  "Meeres@@": 5551, 
  "Tests": 5552, 
  "Ton@@": 5553, 
  "Gerechtigkeit": 5554, 
  "vorliegen": 5555, 
  "Länder@@": 5556, 
  "esch@@": 5557, 
  "Anna": 5558, 
  "Fassung": 5559, 
  "bedeutende": 5560, 
  "beruflichen": 5561, 
  "Mercedes": 5562, 
  "Donald": 5563, 
  "DIE": 5564, 
  "mi": 5565, 
  "folgte": 5566, 
  "kel@@": 5567, 
  "gew@@": 5568, 
  "ph@@": 5569, 
  "rechnet": 5570, 
  "Vereinigte": 5571, 
  "Marken": 5572, 
  "nehme": 5573, 
  "gene": 5574, 
  "tions@@": 5575, 
  "Betroffenen": 5576, 
  "Faktor": 5577, 
  "Dach": 5578, 
  "EL": 5579, 
  "branche": 5580, 
  "leg@@": 5581, 
  "Verdacht": 5582, 
  "Schön@@": 5583, 
  "erfreut": 5584, 
  "Gewinner": 5585, 
  "leichte": 5586, 
  "regionaler": 5587, 
  "fl@@": 5588, 
  "fragt": 5589, 
  "Konsultation": 5590, 
  "erreichte": 5591, 
  "Acht@@": 5592, 
  "effektiv": 5593, 
  "Donnerstag@@": 5594, 
  "anbelangt": 5595, 
  "ück@@": 5596, 
  "ller": 5597, 
  "Vorstellungen": 5598, 
  "schlechte": 5599, 
  "Berichten": 5600, 
  "Zahlung": 5601, 
  "thalle": 5602, 
  "vierte": 5603, 
  "Schne@@": 5604, 
  "Haut": 5605, 
  "individuellen": 5606, 
  "Begründung": 5607, 
  "gesichert": 5608, 
  "syrischen": 5609, 
  "wehren": 5610, 
  "Wirksamkeit": 5611, 
  "gespeichert": 5612, 
  "militärische": 5613, 
  "lichem": 5614, 
  "bestellen": 5615, 
  "Stufe": 5616, 
  "gemeinsames": 5617, 
  "Mag@@": 5618, 
  "ausgezeichneten": 5619, 
  "gesetzlichen": 5620, 
  "live": 5621, 
  "niedrigen": 5622, 
  "empfangen": 5623, 
  "Lieferung": 5624, 
  "pe@@": 5625, 
  "Auftakt": 5626, 
  "Motor@@": 5627, 
  "Zone": 5628, 
  "Lü@@": 5629, 
  "belegt": 5630, 
  "Sommer@@": 5631, 
  "Ursachen": 5632, 
  "einzigartige": 5633, 
  "Tieren": 5634, 
  "ment": 5635, 
  "Übersetzung": 5636, 
  "°": 5637, 
  "IWF": 5638, 
  "Schie@@": 5639, 
  "15.@@": 5640, 
  "verbreitet": 5641, 
  "ve@@": 5642, 
  "71": 5643, 
  "ard": 5644, 
  "unterliegen": 5645, 
  "Ablauf": 5646, 
  "asi@@": 5647, 
  "gerufen": 5648, 
  "erende": 5649, 
  "Fokus": 5650, 
  "Ratsvorsitz": 5651, 
  "....": 5652, 
  "zone": 5653, 
  "IV": 5654, 
  "Mit": 5655, 
  "zig": 5656, 
  "erenden": 5657, 
  "Pri@@": 5658, 
  "Wol@@": 5659, 
  "hundert": 5660, 
  "GAP": 5661, 
  "Herr@@": 5662, 
  "Dritte": 5663, 
  "Bestellung": 5664, 
  "PDF": 5665, 
  "gebäude": 5666, 
  "IN@@": 5667, 
  "mehr@@": 5668, 
  "5.@@": 5669, 
  "Schnee": 5670, 
  "Anleger": 5671, 
  "Formel": 5672, 
  "Bier": 5673, 
  "zugute": 5674, 
  "Oliver": 5675, 
  "zogen": 5676, 
  "ses": 5677, 
  "Bundest@@": 5678, 
  "OS": 5679, 
  "Brief": 5680, 
  "AN@@": 5681, 
  "falsche": 5682, 
  "Freizügigkeit": 5683, 
  "Regierungskonferenz": 5684, 
  "Kuba": 5685, 
  "Nachhaltigkeit": 5686, 
  "untersuchen": 5687, 
  "Wahlkampf": 5688, 
  "inmitten": 5689, 
  "Klima@@": 5690, 
  "werke": 5691, 
  "stoß": 5692, 
  "Fisch@@": 5693, 
  "Anzeige": 5694, 
  "fan@@": 5695, 
  "Pakistan": 5696, 
  "Ausweitung": 5697, 
  "Sänger": 5698, 
  "karte": 5699, 
  "Rheinland": 5700, 
  "Bru@@": 5701, 
  "nutzt": 5702, 
  "festzulegen": 5703, 
  "Vorsitzes": 5704, 
  "umfassen": 5705, 
  "markt@@": 5706, 
  "Enterprise": 5707, 
  "stu@@": 5708, 
  "diesbezüglich": 5709, 
  "gestatten": 5710, 
  "ty": 5711, 
  "Belastung": 5712, 
  "Hi@@": 5713, 
  "Len@@": 5714, 
  "vergrößern": 5715, 
  "vorsitzende": 5716, 
  "Ser@@": 5717, 
  "bereiche": 5718, 
  "ang@@": 5719, 
  "gratulieren": 5720, 
  "Gefängnis": 5721, 
  "oh@@": 5722, 
  "93": 5723, 
  "stattfindet": 5724, 
  "Kirch@@": 5725, 
  "fähigkeit": 5726, 
  "Badezimmer": 5727, 
  "Kulturen": 5728, 
  "haften": 5729, 
  "Eisenbahn@@": 5730, 
  "digte": 5731, 
  "Hü@@": 5732, 
  "eter": 5733, 
  "staaten": 5734, 
  "vereinbarten": 5735, 
  "fli@@": 5736, 
  "integrierten": 5737, 
  "Ost": 5738, 
  "1989": 5739, 
  "ministerin": 5740, 
  "Bucht": 5741, 
  "ausgewählt": 5742, 
  "Nachricht@@": 5743, 
  "fünften": 5744, 
  "leitung": 5745, 
  "Gal@@": 5746, 
  "Einzelheiten": 5747, 
  "Im@@": 5748, 
  "tha": 5749, 
  "desto": 5750, 
  "sierten": 5751, 
  "teuer": 5752, 
  "linger": 5753, 
  "wege": 5754, 
  "genauer": 5755, 
  "Rü@@": 5756, 
  "Dar@@": 5757, 
  "Dusche": 5758, 
  "eventuell": 5759, 
  "denkt": 5760, 
  "Fortsetzung": 5761, 
  "born": 5762, 
  "Einstellungen": 5763, 
  "PS": 5764, 
  "dankbar": 5765, 
  "Attent@@": 5766, 
  "Gelder": 5767, 
  "wiederholen": 5768, 
  "gelt": 5769, 
  "Ankunft": 5770, 
  "Kun@@": 5771, 
  "geregelt": 5772, 
  "Kul@@": 5773, 
  "Eingang": 5774, 
  "tive": 5775, 
  "Roman": 5776, 
  "verringert": 5777, 
  "größter": 5778, 
  "Bewältigung": 5779, 
  "institutionellen": 5780, 
  "steh@@": 5781, 
  "verletzung": 5782, 
  "George": 5783, 
  "Anschlägen": 5784, 
  "forschung": 5785, 
  "wür@@": 5786, 
  "teil@@": 5787, 
  "ass@@": 5788, 
  "individuell": 5789, 
  "Recht@@": 5790, 
  "rate": 5791, 
  "Nacht@@": 5792, 
  "Dro@@": 5793, 
  "Straftaten": 5794, 
  "location": 5795, 
  "meister@@": 5796, 
  "beinahe": 5797, 
  "Geschmack": 5798, 
  "ère": 5799, 
  "gef@@": 5800, 
  "Marketing": 5801, 
  "Russlands": 5802, 
  "Widerspruch": 5803, 
  "lü@@": 5804, 
  "Taten": 5805, 
  "Mel@@": 5806, 
  "erkennt": 5807, 
  "veröffentlichte": 5808, 
  "Richard": 5809, 
  "Street": 5810, 
  "Direktor": 5811, 
  "Prozesse": 5812, 
  "schriftliche": 5813, 
  "Fleisch": 5814, 
  "¤": 5815, 
  "stehende": 5816, 
  "bruch": 5817, 
  "einf@@": 5818, 
  "Rechten": 5819, 
  "Sonnen@@": 5820, 
  "schätzen": 5821, 
  "vers@@": 5822, 
  "sab@@": 5823, 
  "entspannen": 5824, 
  "gelangt": 5825, 
  "Hä@@": 5826, 
  "struktur": 5827, 
  "Durchsetzung": 5828, 
  "ill@@": 5829, 
  "bewegung": 5830, 
  "bra@@": 5831, 
  "Estland": 5832, 
  "ai@@": 5833, 
  "schwierige": 5834, 
  "ba": 5835, 
  "schulen": 5836, 
  "Eck@@": 5837, 
  "gestorben": 5838, 
  "Energieeffizienz": 5839, 
  "abgeben": 5840, 
  "3,@@": 5841, 
  "Vertragsverletzungsverfahren": 5842, 
  "elles": 5843, 
  "sichtbar": 5844, 
  "esen": 5845, 
  "negativen": 5846, 
  "Beschwerden": 5847, 
  "solch": 5848, 
  "konzept": 5849, 
  "effizient": 5850, 
  "Nicht": 5851, 
  "Netz@@": 5852, 
  "erische": 5853, 
  "mitgeteilt": 5854, 
  "flächen": 5855, 
  "befasst": 5856, 
  "Flughäfen": 5857, 
  "Nürnberg": 5858, 
  "Friedrich": 5859, 
  "kontrolle": 5860, 
  "Mandat": 5861, 
  "Herkunft": 5862, 
  "Verhandlungs@@": 5863, 
  "lig": 5864, 
  "enz": 5865, 
  "schul@@": 5866, 
  "Vordergrund": 5867, 
  "raten": 5868, 
  "erzeugt": 5869, 
  "my": 5870, 
  "Ablehnung": 5871, 
  "Jörg": 5872, 
  "Mio": 5873, 
  "EWG": 5874, 
  "Erwachsene": 5875, 
  "kor@@": 5876, 
  "griechische": 5877, 
  "National": 5878, 
  "ant@@": 5879, 
  "passen": 5880, 
  "effiziente": 5881, 
  "Spiegel": 5882, 
  "Gebühren": 5883, 
  "unterkunft": 5884, 
  "ähnlichen": 5885, 
  "ester": 5886, 
  "Ai@@": 5887, 
  "92": 5888, 
  "Kas@@": 5889, 
  "Theater@@": 5890, 
  "Pflege@@": 5891, 
  "Lettland": 5892, 
  "versteht": 5893, 
  "Senkung": 5894, 
  "seh@@": 5895, 
  "beck": 5896, 
  "stoff": 5897, 
  "öh@@": 5898, 
  "ausländische": 5899, 
  "Schu@@": 5900, 
  "ela": 5901, 
  "klären": 5902, 
  "drücken": 5903, 
  "rief": 5904, 
  "verstärkte": 5905, 
  "Bildern": 5906, 
  "überwiegend": 5907, 
  "medizinische": 5908, 
  "geringer": 5909, 
  "Radio": 5910, 
  "Mas@@": 5911, 
  "baut": 5912, 
  "gesellschaftlichen": 5913, 
  "beschreibt": 5914, 
  "verlängert": 5915, 
  "späteren": 5916, 
  "rechtlich": 5917, 
  "europäisches": 5918, 
  "Studium": 5919, 
  "Stu@@": 5920, 
  "gleichermaßen": 5921, 
  "engen": 5922, 
  "kurzer": 5923, 
  "Zusatz@@": 5924, 
  "zukommen": 5925, 
  "Systemen": 5926, 
  "gl@@": 5927, 
  "Ecke": 5928, 
  "vertritt": 5929, 
  "Orte": 5930, 
  "Inflation": 5931, 
  "scho@@": 5932, 
  "Rande": 5933, 
  "erb@@": 5934, 
  "stoffe": 5935, 
  "fünf@@": 5936, 
  "bro@@": 5937, 
  "dom@@": 5938, 
  "gas": 5939, 
  "Verarbeitung": 5940, 
  "besetzt": 5941, 
  "durfte": 5942, 
  "geholt": 5943, 
  "nahme": 5944, 
  "ani@@": 5945, 
  "zentral": 5946, 
  "feiert": 5947, 
  "Händen": 5948, 
  "schau": 5949, 
  "gin": 5950, 
  "eröffnen": 5951, 
  "stoßen": 5952, 
  "Pool": 5953, 
  "Quartal": 5954, 
  "natürliche": 5955, 
  "Verbraucherschutz": 5956, 
  "wa": 5957, 
  "Vorgaben": 5958, 
  "7,@@": 5959, 
  "Boot": 5960, 
  "heuer": 5961, 
  "Anschläge": 5962, 
  "berufliche": 5963, 
  "punkte": 5964, 
  "daneben": 5965, 
  "Balkon": 5966, 
  "wesen": 5967, 
  "abgegeben": 5968, 
  "Ga@@": 5969, 
  "Bri@@": 5970, 
  "werten": 5971, 
  "einschlägigen": 5972, 
  "gesammelt": 5973, 
  "Fein@@": 5974, 
  "Los": 5975, 
  "fin": 5976, 
  "vorn": 5977, 
  "überein": 5978, 
  "kritisch": 5979, 
  "ernsthaft": 5980, 
  "Schlafzimmer": 5981, 
  "ausgelöst": 5982, 
  "Präsenz": 5983, 
  "gemeinsamer": 5984, 
  "schießen": 5985, 
  "och@@": 5986, 
  "Typ": 5987, 
  "bri@@": 5988, 
  "Haushalte": 5989, 
  "Barroso": 5990, 
  "Dritten": 5991, 
  "bern": 5992, 
  "stück": 5993, 
  "hervorheben": 5994, 
  "inen": 5995, 
  "mün@@": 5996, 
  "kirche": 5997, 
  "General@@": 5998, 
  "Netze": 5999, 
  "einander": 6000, 
  "Anträge": 6001, 
  "fortsetzen": 6002, 
  "Abbau": 6003, 
  "optimal": 6004, 
  "Übertragung": 6005, 
  "Bestimmung": 6006, 
  "Brau@@": 6007, 
  "IN": 6008, 
  "Foto@@": 6009, 
  "trug": 6010, 
  "tot": 6011, 
  "anlässlich": 6012, 
  "Toten": 6013, 
  "Mechanismen": 6014, 
  "ständigen": 6015, 
  "13.@@": 6016, 
  "team": 6017, 
  "problem": 6018, 
  "installieren": 6019, 
  "ok@@": 6020, 
  "Amtszeit": 6021, 
  "stür@@": 6022, 
  "Stadtteil": 6023, 
  "Immobilien@@": 6024, 
  "Orten": 6025, 
  "Franzis@@": 6026, 
  "Steuerung": 6027, 
  "plat@@": 6028, 
  "Länge": 6029, 
  "hohes": 6030, 
  "ergänzen": 6031, 
  "Wiederaufbau": 6032, 
  "Zucker@@": 6033, 
  "Florian": 6034, 
  "enberg": 6035, 
  "Ratspräsidentschaft": 6036, 
  "Zürich": 6037, 
  "chtete": 6038, 
  "städtischen": 6039, 
  "brechen": 6040, 
  "wahr": 6041, 
  "spreche": 6042, 
  "nde": 6043, 
  "ball@@": 6044, 
  "Spor@@": 6045, 
  "förderung": 6046, 
  "finanziell": 6047, 
  "Kapazitäten": 6048, 
  "Operation": 6049, 
  "quote": 6050, 
  "umfassend": 6051, 
  "organisierten": 6052, 
  "zimmer": 6053, 
  "Glaubwürdigkeit": 6054, 
  "bis@@": 6055, 
  "Geh@@": 6056, 
  "Profi": 6057, 
  "aufgerufen": 6058, 
  "Rücken": 6059, 
  "Rechtsgrundlage": 6060, 
  "tage": 6061, 
  "Eine": 6062, 
  "steuer@@": 6063, 
  "ordnung": 6064, 
  "Aufstieg": 6065, 
  "Has@@": 6066, 
  "untergebracht": 6067, 
  "nten": 6068, 
  "Dorf@@": 6069, 
  "acher": 6070, 
  "Gru@@": 6071, 
  "angewandt": 6072, 
  "Spuren": 6073, 
  "langem": 6074, 
  "beseitigen": 6075, 
  "Freiheiten": 6076, 
  "pan@@": 6077, 
  "Liefer@@": 6078, 
  "enti@@": 6079, 
  "Verteidigungs@@": 6080, 
  "gelesen": 6081, 
  "spüren": 6082, 
  "Back@@": 6083, 
  "hast": 6084, 
  "ther@@": 6085, 
  "vereinbar": 6086, 
  "Kä@@": 6087, 
  "Ansichten": 6088, 
  "Is@@": 6089, 
  "poli@@": 6090, 
  "hielten": 6091, 
  "zugelassen": 6092, 
  "Alters@@": 6093, 
  "Marokko": 6094, 
  "ungsp@@": 6095, 
  "keineswegs": 6096, 
  "fa@@": 6097, 
  "Löwen": 6098, 
  "oftmals": 6099, 
  "optimale": 6100, 
  "Kategorien": 6101, 
  "Bush": 6102, 
  "Innenminister": 6103, 
  "Ankara": 6104, 
  "Athen": 6105, 
  "Erkenntnisse": 6106, 
  "auswirken": 6107, 
  "inn@@": 6108, 
  "dargestellt": 6109, 
  "Istanbul": 6110, 
  "ik": 6111, 
  "anwesend": 6112, 
  "Mängel": 6113, 
  "Por@@": 6114, 
  "beobachtet": 6115, 
  "arbeits@@": 6116, 
  "Kohäsionspolitik": 6117, 
  "ermitteln": 6118, 
  "registriert": 6119, 
  "hinten": 6120, 
  "angemessenen": 6121, 
  "aufzubauen": 6122, 
  "mittag": 6123, 
  "eien": 6124, 
  "Temperaturen": 6125, 
  "meter": 6126, 
  "Internationale": 6127, 
  "Gau@@": 6128, 
  "überwinden": 6129, 
  "Pfalz": 6130, 
  "Rem@@": 6131, 
  "verehrte": 6132, 
  "67": 6133, 
  "fürs": 6134, 
  "2018": 6135, 
  "ano": 6136, 
  "mögen": 6137, 
  "erungs@@": 6138, 
  "warnt": 6139, 
  "material": 6140, 
  "Buchung": 6141, 
  "Mechanismus": 6142, 
  "decken": 6143, 
  "Motor": 6144, 
  "Rock": 6145, 
  "rän@@": 6146, 
  "Kollegin": 6147, 
  "Krisen@@": 6148, 
  "con": 6149, 
  "junger": 6150, 
  "Mei@@": 6151, 
  "ente": 6152, 
  "ziele": 6153, 
  "Seiten@@": 6154, 
  "diert": 6155, 
  "grenzüberschreitenden": 6156, 
  "Käufer": 6157, 
  "lige": 6158, 
  "übermittelt": 6159, 
  "digen": 6160, 
  "Schicksal": 6161, 
  "technisch": 6162, 
  "az@@": 6163, 
  "begründet": 6164, 
  "Liter": 6165, 
  "aufbauen": 6166, 
  "Durchschnitt": 6167, 
  "Dreh@@": 6168, 
  "ise": 6169, 
  "chn@@": 6170, 
  "landwirtschaftlichen": 6171, 
  "schwarzen": 6172, 
  "einzuführen": 6173, 
  "sierung": 6174, 
  "empfohlen": 6175, 
  "Newsletter": 6176, 
  "Besitzer": 6177, 
  "starb": 6178, 
  "krise": 6179, 
  "kn@@": 6180, 
  "Gesetzes@@": 6181, 
  "your": 6182, 
  "Bade@@": 6183, 
  "Delegationen": 6184, 
  "AS": 6185, 
  "Zeitplan": 6186, 
  "Fer@@": 6187, 
  "Aus": 6188, 
  "Simon": 6189, 
  "leitet": 6190, 
  "Alternativen": 6191, 
  "Sektors": 6192, 
  "Kürze": 6193, 
  "abstimmen": 6194, 
  "österreichische": 6195, 
  "Versicherungs@@": 6196, 
  "Training@@": 6197, 
  "Dresden": 6198, 
  "ligen": 6199, 
  "Immobilien": 6200, 
  "Genf": 6201, 
  "breit": 6202, 
  "Geschichten": 6203, 
  "arbeitete": 6204, 
  "Islam@@": 6205, 
  "hochwertige": 6206, 
  "At@@": 6207, 
  "Gleichstellung": 6208, 
  "har@@": 6209, 
  "blatt": 6210, 
  "feste": 6211, 
  "Obergrenze": 6212, 
  "Todes@@": 6213, 
  "messen": 6214, 
  "stern": 6215, 
  "Kompetenzen": 6216, 
  "richtlinie": 6217, 
  "hau@@": 6218, 
  "Volk@@": 6219, 
  "serie": 6220, 
  "weltweite": 6221, 
  "Bay@@": 6222, 
  "modell": 6223, 
  "Col@@": 6224, 
  "uren": 6225, 
  "leistet": 6226, 
  "Medi@@": 6227, 
  "gebraucht": 6228, 
  "füllen": 6229, 
  "Wohnungs@@": 6230, 
  "Y": 6231, 
  "externen": 6232, 
  "69": 6233, 
  "Wirtschaftskrise": 6234, 
  "Rhein": 6235, 
  "emp@@": 6236, 
  "chtet": 6237, 
  "wirksamen": 6238, 
  "Kassen@@": 6239, 
  "Verbrauchern": 6240, 
  "Kopenhagen": 6241, 
  "Uwe": 6242, 
  "greift": 6243, 
  "angebracht": 6244, 
  "Ran@@": 6245, 
  "Erreichung": 6246, 
  "ausländischen": 6247, 
  "strecke": 6248, 
  "ord@@": 6249, 
  "Abend@@": 6250, 
  "wis@@": 6251, 
  "VB": 6252, 
  "enthaltenen": 6253, 
  "Arabien": 6254, 
  "Lern@@": 6255, 
  "fälle": 6256, 
  "beschränken": 6257, 
  "ausgehen": 6258, 
  "Aufforderung": 6259, 
  "enorme": 6260, 
  "ier@@": 6261, 
  "konsequent": 6262, 
  "gelernt": 6263, 
  "Browser": 6264, 
  "reise": 6265, 
  "Oscar": 6266, 
  "rücken": 6267, 
  "gestattet": 6268, 
  "umgehen": 6269, 
  "fall@@": 6270, 
  "ester@@": 6271, 
  "üblichen": 6272, 
  "aussehen": 6273, 
  "Premier": 6274, 
  "Plenum": 6275, 
  "einstellen": 6276, 
  "angewiesen": 6277, 
  "hervorgehoben": 6278, 
  "Besitz": 6279, 
  "Malta": 6280, 
  "brachten": 6281, 
  "fliegen": 6282, 
  "app@@": 6283, 
  "vollständigen": 6284, 
  "festzustellen": 6285, 
  "Van": 6286, 
  "erheben": 6287, 
  "liegenden": 6288, 
  "Linken": 6289, 
  "Kommunikations@@": 6290, 
  "start": 6291, 
  "stieg@@": 6292, 
  "klingt": 6293, 
  "erfordern": 6294, 
  "Kommunal@@": 6295, 
  "Helmut": 6296, 
  "zahlt": 6297, 
  "Weiteren": 6298, 
  "begrüßte": 6299, 
  "anzubieten": 6300, 
  "Weiterentwicklung": 6301, 
  "Rein@@": 6302, 
  "Wettbewerbs": 6303, 
  "Debatten": 6304, 
  "partei@@": 6305, 
  "endgültige": 6306, 
  "bedingt": 6307, 
  "südlichen": 6308, 
  "schte": 6309, 
  "Start@@": 6310, 
  "Clubs": 6311, 
  "Know": 6312, 
  "Beamte": 6313, 
  "bisherige": 6314, 
  "umgehend": 6315, 
  "beziehungsweise": 6316, 
  "Alkohol": 6317, 
  "Pflege": 6318, 
  "Verb@@": 6319, 
  "erweitern": 6320, 
  "Hir@@": 6321, 
  "Haushaltsplan": 6322, 
  "Schwei@@": 6323, 
  "deutsch": 6324, 
  "Cap@@": 6325, 
  "beginn": 6326, 
  "gefährliche": 6327, 
  "Ü@@": 6328, 
  "derart": 6329, 
  "geringen": 6330, 
  "vest@@": 6331, 
  "wohl@@": 6332, 
  "enttäuscht": 6333, 
  "Finanzminister": 6334, 
  "Webseiten": 6335, 
  "ze@@": 6336, 
  "Erhalt": 6337, 
  "spanische": 6338, 
  "Wunder": 6339, 
  "züge": 6340, 
  "ße": 6341, 
  "ausgegeben": 6342, 
  "Gottes@@": 6343, 
  "Tau@@": 6344, 
  "festlegen": 6345, 
  "Bauern": 6346, 
  "bot": 6347, 
  "vermittelt": 6348, 
  "gefasst": 6349, 
  "geleitet": 6350, 
  "Fischerei@@": 6351, 
  "Schneider": 6352, 
  "Am": 6353, 
  "film": 6354, 
  "pfen": 6355, 
  "Weltkrieg": 6356, 
  "qualität": 6357, 
  "bester": 6358, 
  "grenze": 6359, 
  "Kaiser": 6360, 
  "schafts@@": 6361, 
  "Jury": 6362, 
  "außerordentlich": 6363, 
  "ita": 6364, 
  "tionen": 6365, 
  "aussprechen": 6366, 
  "Eigentümer": 6367, 
  "praktischen": 6368, 
  "Leuten": 6369, 
  "fällen": 6370, 
  "Media": 6371, 
  "überlassen": 6372, 
  "Mischung": 6373, 
  "Versionen": 6374, 
  "™": 6375, 
  "Planeten": 6376, 
  "afrikanischen": 6377, 
  "Beschränkungen": 6378, 
  "Schuld": 6379, 
  "mes": 6380, 
  "Innovationen": 6381, 
  "ade": 6382, 
  "Türen": 6383, 
  "Kredit@@": 6384, 
  "hen": 6385, 
  "Klinik": 6386, 
  "schei@@": 6387, 
  "chtige": 6388, 
  "interne": 6389, 
  "Spa": 6390, 
  "Haup@@": 6391, 
  "behauptet": 6392, 
  "·": 6393, 
  "av@@": 6394, 
  "gsten": 6395, 
  "wesentlicher": 6396, 
  "direktor": 6397, 
  "Regulierung": 6398, 
  "Philipp": 6399, 
  "chtung": 6400, 
  "sum@@": 6401, 
  "diensten": 6402, 
  "erörtert": 6403, 
  "polnischen": 6404, 
  "preis@@": 6405, 
  "Vier@@": 6406, 
  "EL@@": 6407, 
  "wehr": 6408, 
  "Baum@@": 6409, 
  "Patrick": 6410, 
  "örtlichen": 6411, 
  "beeinflussen": 6412, 
  "Front": 6413, 
  "Wies@@": 6414, 
  "Industrie@@": 6415, 
  "versuchte": 6416, 
  "Plat@@": 6417, 
  "Aktien@@": 6418, 
  "Statistik": 6419, 
  "Lizenz": 6420, 
  "aktivieren": 6421, 
  "Stars": 6422, 
  "täglichen": 6423, 
  "Olympi@@": 6424, 
  "äußerte": 6425, 
  "produkten": 6426, 
  "ären": 6427, 
  "beabsichtigt": 6428, 
  "schloss": 6429, 
  "ssi@@": 6430, 
  "jo@@": 6431, 
  "son@@": 6432, 
  "wehr@@": 6433, 
  "Pat@@": 6434, 
  "Milch@@": 6435, 
  "iPhone": 6436, 
  "Café": 6437, 
  "Fasch@@": 6438, 
  "korrekt": 6439, 
  "getrennt": 6440, 
  "Wesentlichen": 6441, 
  "Erfolgs@@": 6442, 
  "ard@@": 6443, 
  "Gewinn@@": 6444, 
  "gekauft": 6445, 
  "tter": 6446, 
  "sitzung": 6447, 
  "Song": 6448, 
  "freier": 6449, 
  "veröffentlichten": 6450, 
  "beglückwünschen": 6451, 
  "Thi@@": 6452, 
  "Auseinandersetzung": 6453, 
  "Truppen": 6454, 
  "viertel": 6455, 
  "vorgelegten": 6456, 
  "ath": 6457, 
  "ES": 6458, 
  "Casino": 6459, 
  "englischen": 6460, 
  "Schwarzw@@": 6461, 
  "hinzufügen": 6462, 
  "81": 6463, 
  "ec.europa.eu": 6464, 
  "Süd": 6465, 
  "negative": 6466, 
  "RO@@": 6467, 
  "3D": 6468, 
  "schwieriger": 6469, 
  "produzieren": 6470, 
  "Alle": 6471, 
  "Österreichs": 6472, 
  "gesellschaften": 6473, 
  "Zuschauern": 6474, 
  "ES@@": 6475, 
  "indes": 6476, 
  "Rhein@@": 6477, 
  "Sauna": 6478, 
  "fuß@@": 6479, 
  "veröffentlichen": 6480, 
  "perfekte": 6481, 
  "Bundesrepublik": 6482, 
  "erarbeitet": 6483, 
  "Roh@@": 6484, 
  "fach@@": 6485, 
  "Kam@@": 6486, 
  "Vorwürfe": 6487, 
  "Registrierung": 6488, 
  "Detail": 6489, 
  "niveau": 6490, 
  "por@@": 6491, 
  "ah": 6492, 
  "kt@@": 6493, 
  "Bio@@": 6494, 
  "Dom@@": 6495, 
  "73": 6496, 
  "Stellungnahmen": 6497, 
  "Koch": 6498, 
  "Eis": 6499, 
  "geholfen": 6500, 
  "Währungsunion": 6501, 
  "ahn@@": 6502, 
  "begegnen": 6503, 
  "Kontinent": 6504, 
  "Statistiken": 6505, 
  "damaligen": 6506, 
  "High": 6507, 
  "engagiert": 6508, 
  "mitteilen": 6509, 
  "arbeiter": 6510, 
  "Änderungsanträgen": 6511, 
  "mitteln": 6512, 
  "ändert": 6513, 
  "Ausnahmen": 6514, 
  "tert": 6515, 
  "Übereinkommens": 6516, 
  "größeres": 6517, 
  "ast": 6518, 
  "Religion": 6519, 
  "Export@@": 6520, 
  "star": 6521, 
  "schrittweise": 6522, 
  "programmen": 6523, 
  "binnen": 6524, 
  "Q@@": 6525, 
  "Konkurrenten": 6526, 
  "Symbol": 6527, 
  "wachsende": 6528, 
  "Universitäten": 6529, 
  "fu@@": 6530, 
  "Fa@@": 6531, 
  "Karne@@": 6532, 
  "AM@@": 6533, 
  "halb@@": 6534, 
  "Verluste": 6535, 
  "vornehmen": 6536, 
  "effizienter": 6537, 
  "ste@@": 6538, 
  "Fried@@": 6539, 
  "Player": 6540, 
  "Qualifikation": 6541, 
  "Lohn@@": 6542, 
  "EWSA": 6543, 
  "anische": 6544, 
  "zulassen": 6545, 
  "erwiesen": 6546, 
  "angewendet": 6547, 
  "Fakten": 6548, 
  "Stre@@": 6549, 
  "legten": 6550, 
  "Effekt": 6551, 
  "maschinen": 6552, 
  "sierte": 6553, 
  "gkeit": 6554, 
  "zukünftigen": 6555, 
  "Premiere": 6556, 
  "TS@@": 6557, 
  "läßt": 6558, 
  "eres": 6559, 
  "lung": 6560, 
  "zugestimmt": 6561, 
  "überaus": 6562, 
  "Spielern": 6563, 
  "Uhr@@": 6564, 
  "Sturm": 6565, 
  "Rath@@": 6566, 
  "Verabschiedung": 6567, 
  "Blog": 6568, 
  "beider": 6569, 
  "89": 6570, 
  "68": 6571, 
  "schlechter": 6572, 
  "rein@@": 6573, 
  "ure": 6574, 
  "Ob@@": 6575, 
  "6.@@": 6576, 
  "Chef@@": 6577, 
  "eignet": 6578, 
  "treiben": 6579, 
  "laufende": 6580, 
  "Äußerungen": 6581, 
  "Grün": 6582, 
  "Ah@@": 6583, 
  "Park@@": 6584, 
  "tau@@": 6585, 
  "ack": 6586, 
  "schau@@": 6587, 
  "Defizit": 6588, 
  "Il@@": 6589, 
  "Tier": 6590, 
  "gehörte": 6591, 
  "heutzutage": 6592, 
  "ic": 6593, 
  "URL": 6594, 
  "endgültigen": 6595, 
  "ett@@": 6596, 
  "eit@@": 6597, 
  "Fort@@": 6598, 
  "Besuchern": 6599, 
  "Bet@@": 6600, 
  "Entschlossenheit": 6601, 
  "ologie": 6602, 
  "Verkaufs@@": 6603, 
  "sion": 6604, 
  "üb@@": 6605, 
  "kir@@": 6606, 
  "wusste": 6607, 
  "ara": 6608, 
  "Königs@@": 6609, 
  "beweisen": 6610, 
  "Fas@@": 6611, 
  "ata": 6612, 
  "Schwarz": 6613, 
  "gefällt": 6614, 
  "Ski": 6615, 
  "geringe": 6616, 
  "2,5": 6617, 
  "ars": 6618, 
  "erwerben": 6619, 
  "Abhängigkeit": 6620, 
  "verzeichnen": 6621, 
  "ting": 6622, 
  "Meister@@": 6623, 
  "schwedischen": 6624, 
  "Eintritt": 6625, 
  "mili@@": 6626, 
  "ausschusses": 6627, 
  "Weiter@@": 6628, 
  "8,@@": 6629, 
  "ors": 6630, 
  "Mil@@": 6631, 
  "wasser": 6632, 
  "ausen": 6633, 
  "Befugnisse": 6634, 
  "Südafrika": 6635, 
  "Rot": 6636, 
  "IT@@": 6637, 
  "dis@@": 6638, 
  "letztes": 6639, 
  "Regierung@@": 6640, 
  "zielt": 6641, 
  "UN@@": 6642, 
  "überra@@": 6643, 
  "bü@@": 6644, 
  "Gerhard": 6645, 
  "off": 6646, 
  "drehen": 6647, 
  "Verfolgung": 6648, 
  "bilateralen": 6649, 
  "Fu@@": 6650, 
  "Reaktionen": 6651, 
  "losigkeit": 6652, 
  "Copyright": 6653, 
  "ziel": 6654, 
  "Archiv": 6655, 
  "äter": 6656, 
  "schlechten": 6657, 
  "arabischen": 6658, 
  "anschließen": 6659, 
  "Veranstalter": 6660, 
  "vous": 6661, 
  "had": 6662, 
  "Pakete": 6663, 
  "tolle": 6664, 
  "rote": 6665, 
  "Pfarrer": 6666, 
  "kleineren": 6667, 
  "Gerichts@@": 6668, 
  "Kir@@": 6669, 
  "recht@@": 6670, 
  "Führer": 6671, 
  "Pressekonferenz": 6672, 
  "gener": 6673, 
  "Dritter": 6674, 
  "ast@@": 6675, 
  "technischer": 6676, 
  "04.@@": 6677, 
  "geliefert": 6678, 
  "sam": 6679, 
  "Justiz@@": 6680, 
  "IS@@": 6681, 
  "firma": 6682, 
  "verkauf": 6683, 
  "demnächst": 6684, 
  "überwachen": 6685, 
  "grenzen": 6686, 
  "James": 6687, 
  "Kö@@": 6688, 
  "Vorbereitungen": 6689, 
  "82": 6690, 
  "einsatz": 6691, 
  "PD": 6692, 
  "zz@@": 6693, 
  "Julia": 6694, 
  "modern": 6695, 
  "kritische": 6696, 
  "existiert": 6697, 
  "dankte": 6698, 
  "ai": 6699, 
  "enhaus": 6700, 
  "ständige": 6701, 
  "izi@@": 6702, 
  "dy": 6703, 
  "Volkswagen": 6704, 
  "Funktionieren": 6705, 
  "halben": 6706, 
  "sauber": 6707, 
  "Update": 6708, 
  "Val@@": 6709, 
  "dig": 6710, 
  "Datum": 6711, 
  "entschied": 6712, 
  "endorf": 6713, 
  "page": 6714, 
  "Ziffer": 6715, 
  "ehr": 6716, 
  "bewahren": 6717, 
  "Bl@@": 6718, 
  "zukünftige": 6719, 
  "Paar": 6720, 
  "gut@@": 6721, 
  "ebene": 6722, 
  "Wür@@": 6723, 
  "Anhörung": 6724, 
  "Wiesbaden": 6725, 
  "verbandes": 6726, 
  "trau@@": 6727, 
  "gefolgt": 6728, 
  "istischen": 6729, 
  "pol@@": 6730, 
  "Museen": 6731, 
  "Argumente": 6732, 
  "harte": 6733, 
  "Führungs@@": 6734, 
  "gänge": 6735, 
  "Verstärkung": 6736, 
  "Kü@@": 6737, 
  "irischen": 6738, 
  "späten": 6739, 
  "verweisen": 6740, 
  "78": 6741, 
  "Unterkünfte": 6742, 
  "7.@@": 6743, 
  "stützen": 6744, 
  "Kompetenz": 6745, 
  "sel": 6746, 
  "Verteidiger": 6747, 
  "Ansprüche": 6748, 
  "Keller": 6749, 
  "Smartphone": 6750, 
  "sitz@@": 6751, 
  "schwarze": 6752, 
  "Wahrung": 6753, 
  "Co.": 6754, 
  "0.000": 6755, 
  "Mur@@": 6756, 
  "Tan@@": 6757, 
  "AT@@": 6758, 
  "bestens": 6759, 
  "anzuwenden": 6760, 
  "Fr@@": 6761, 
  "einzig": 6762, 
  "Gerichtshofs": 6763, 
  "Betten": 6764, 
  "Kino": 6765, 
  "Begegnung": 6766, 
  "Abwehr": 6767, 
  "Sendung": 6768, 
  "uneingeschränkt": 6769, 
  "Roten": 6770, 
  "Tief@@": 6771, 
  "Inkrafttreten": 6772, 
  "Schlus@@": 6773, 
  "Tobias": 6774, 
  "cm": 6775, 
  "Anbetracht": 6776, 
  "häufiger": 6777, 
  "hardt": 6778, 
  "aussch@@": 6779, 
  "Seni@@": 6780, 
  "freundliche": 6781, 
  "solide": 6782, 
  "stoppen": 6783, 
  "Leverkusen": 6784, 
  "lager": 6785, 
  "trafen": 6786, 
  "Schnitt": 6787, 
  "See@@": 6788, 
  "Ja": 6789, 
  "chteten": 6790, 
  "88": 6791, 
  "pt@@": 6792, 
  "Anreize": 6793, 
  "ischem": 6794, 
  "Co": 6795, 
  "Gewerbe@@": 6796, 
  "Konzentration": 6797, 
  "aum": 6798, 
  "Betracht": 6799, 
  "Strafe": 6800, 
  "kontaktieren": 6801, 
  "Schönheit": 6802, 
  "Fluss": 6803, 
  "sc@@": 6804, 
  "gischen": 6805, 
  "Konjunktur@@": 6806, 
  "niederländischen": 6807, 
  "CO@@": 6808, 
  "ée": 6809, 
  "flü@@": 6810, 
  "tei@@": 6811, 
  "stei@@": 6812, 
  "ausgebaut": 6813, 
  "Rund@@": 6814, 
  "höchst": 6815, 
  "einzigartigen": 6816, 
  "aufgeführt": 6817, 
  "Erlebnis": 6818, 
  "raus": 6819, 
  "Agenturen": 6820, 
  "Parlaments@@": 6821, 
  "Bezirk": 6822, 
  "Zahn@@": 6823, 
  "Zunahme": 6824, 
  "TEN": 6825, 
  "je@@": 6826, 
  "trä@@": 6827, 
  "Schließung": 6828, 
  "91": 6829, 
  "dasselbe": 6830, 
  "Rassismus": 6831, 
  "EWR": 6832, 
  "Menschenrechts@@": 6833, 
  "Sicherheitspolitik": 6834, 
  "Auflösung": 6835, 
  "Bars": 6836, 
  "Best": 6837, 
  "erschienen": 6838, 
  "Sei@@": 6839, 
  "vorliegt": 6840, 
  "arzt": 6841, 
  "Posten": 6842, 
  "dete": 6843, 
  "Tal": 6844, 
  "tar@@": 6845, 
  "Abwehr@@": 6846, 
  "verschaffen": 6847, 
  "•": 6848, 
  "Nachwuchs": 6849, 
  "Volkes": 6850, 
  "Unterzeichnung": 6851, 
  "Arbeitnehmern": 6852, 
  "Vorbild": 6853, 
  "Manfred": 6854, 
  "zw@@": 6855, 
  "Lateinamerika": 6856, 
  "130": 6857, 
  "gelingen": 6858, 
  "Griff": 6859, 
  "alität": 6860, 
  "Dynamik": 6861, 
  "Bemerkung": 6862, 
  "Ralf": 6863, 
  "lösung": 6864, 
  "tat": 6865, 
  "NRW": 6866, 
  "Informationsgesellschaft": 6867, 
  "stätte": 6868, 
  "übernahm": 6869, 
  "Verein@@": 6870, 
  "Todesstrafe": 6871, 
  "istische": 6872, 
  "Pflicht@@": 6873, 
  "tn@@": 6874, 
  "Dingen": 6875, 
  "ic@@": 6876, 
  "relevanten": 6877, 
  "rooms": 6878, 
  "steuer": 6879, 
  "Grundlagen": 6880, 
  "ansicht": 6881, 
  "haus@@": 6882, 
  "punkten": 6883, 
  "dor@@": 6884, 
  "erhielten": 6885, 
  "Redner": 6886, 
  "wahl@@": 6887, 
  "bl@@": 6888, 
  "angegebenen": 6889, 
  "Bett": 6890, 
  "geeigneten": 6891, 
  "bauten": 6892, 
  "Parkplätze": 6893, 
  "speichern": 6894, 
  "Neue": 6895, 
  "verliehen": 6896, 
  "Entfernung": 6897, 
  "blicken": 6898, 
  "sser": 6899, 
  "verbesserte": 6900, 
  "77": 6901, 
  "Klo@@": 6902, 
  "24@@": 6903, 
  "Transport@@": 6904, 
  "Sä@@": 6905, 
  "maschine": 6906, 
  "24.@@": 6907, 
  "Vertrages": 6908, 
  "Brüsseler": 6909, 
  "Monta@@": 6910, 
  "getreten": 6911, 
  "Berufung": 6912, 
  "schem": 6913, 
  "kostenlose": 6914, 
  "Santa": 6915, 
  "bek@@": 6916, 
  "Tipps": 6917, 
  "mil@@": 6918, 
  "gener@@": 6919, 
  "Uni@@": 6920, 
  "Präsentation": 6921, 
  "auen": 6922, 
  "Ehre": 6923, 
  "ada": 6924, 
  "massiv": 6925, 
  "Ernst": 6926, 
  "kassi@@": 6927, 
  "beschleunigen": 6928, 
  "ag": 6929, 
  "nachmittag": 6930, 
  "Aufklärung": 6931, 
  "dischen": 6932, 
  "anwenden": 6933, 
  "aufgehoben": 6934, 
  "22.@@": 6935, 
  "kette": 6936, 
  "Menü": 6937, 
  "Bäume": 6938, 
  "Erste": 6939, 
  "mithilfe": 6940, 
  "Beachtung": 6941, 
  "fs@@": 6942, 
  "Hostels": 6943, 
  "mittlere": 6944, 
  "kammer": 6945, 
  "Wachstums@@": 6946, 
  "woche": 6947, 
  "Hermann": 6948, 
  "ppt": 6949, 
  "Index": 6950, 
  "qualitativ": 6951, 
  "bedeutenden": 6952, 
  "welle": 6953, 
  "jährliche": 6954, 
  "hän@@": 6955, 
  "och": 6956, 
  "fügte": 6957, 
  "Aufhebung": 6958, 
  "0.@@": 6959, 
  "Regen@@": 6960, 
  "zustande": 6961, 
  "Jahre@@": 6962, 
  "garten": 6963, 
  "leute": 6964, 
  "Seele": 6965, 
  "Fab@@": 6966, 
  "durchschnittlich": 6967, 
  "spitze": 6968, 
  "Anhalt": 6969, 
  "womöglich": 6970, 
  "zahlungen": 6971, 
  "Flu@@": 6972, 
  "Lang@@": 6973, 
  "Zweit@@": 6974, 
  "organisierte": 6975, 
  "Turn@@": 6976, 
  "Gewinne": 6977, 
  "Investitionsbank": 6978, 
  "Ram@@": 6979, 
  "paket": 6980, 
  "Regionalpolitik": 6981, 
  "route": 6982, 
  "sä@@": 6983, 
  "Bes@@": 6984, 
  "verabschieden": 6985, 
  "lobte": 6986, 
  "breakfast": 6987, 
  "organisationen": 6988, 
  "gefährlichen": 6989, 
  "wärts@@": 6990, 
  "absolute": 6991, 
  "bil@@": 6992, 
  "behoben": 6993, 
  "lokal": 6994, 
  "formuliert": 6995, 
  "aff@@": 6996, 
  "meistens": 6997, 
  "hl": 6998, 
  "Fahrzeugen": 6999, 
  "kultur": 7000, 
  "Bedürfnissen": 7001, 
  "kosten@@": 7002, 
  "beantragt": 7003, 
  "gebühren": 7004, 
  "Bon@@": 7005, 
  "fil@@": 7006, 
  "dens": 7007, 
  "Schö@@": 7008, 
  "94": 7009, 
  "gekennzeichnet": 7010, 
  "tter@@": 7011, 
  "Absch@@": 7012, 
  "Regen": 7013, 
  "kg": 7014, 
  "Ausrüstung": 7015, 
  "SA": 7016, 
  "Gutachten": 7017, 
  "frisch": 7018, 
  "Sau@@": 7019, 
  "erzeugen": 7020, 
  "überlegen": 7021, 
  "Beurteilung": 7022, 
  "sei@@": 7023, 
  "Heizung": 7024, 
  "ations": 7025, 
  "angekommen": 7026, 
  "Olympia": 7027, 
  "SS@@": 7028, 
  "eingeräumt": 7029, 
  "Andrea": 7030, 
  "stattgefunden": 7031, 
  "unterstreichen": 7032, 
  "medizinischen": 7033, 
  "versicherung": 7034, 
  "anzunehmen": 7035, 
  "3000": 7036, 
  "Chancengleichheit": 7037, 
  "Einladung": 7038, 
  "Not": 7039, 
  "ow": 7040, 
  "günstigen": 7041, 
  "schien": 7042, 
  "wider": 7043, 
  "esse": 7044, 
  "Mini@@": 7045, 
  "hervorragend": 7046, 
  "kritischen": 7047, 
  "üben": 7048, 
  "Airbus": 7049, 
  "House": 7050, 
  "com": 7051, 
  "gemessen": 7052, 
  "ehrlich": 7053, 
  "Kyoto": 7054, 
  "Jahrzehnte": 7055, 
  "under": 7056, 
  "wünscht": 7057, 
  "asse": 7058, 
  "ungsh@@": 7059, 
  "uss": 7060, 
  "Ve@@": 7061, 
  "Mengen": 7062, 
  "Da@@": 7063, 
  "Argument": 7064, 
  "Hunderte": 7065, 
  "Gewässer": 7066, 
  "Früh@@": 7067, 
  "bezogen": 7068, 
  "Freundin": 7069, 
  "tagen": 7070, 
  "Meisterschaft": 7071, 
  "hard": 7072, 
  "zte": 7073, 
  "wen": 7074, 
  "runden": 7075, 
  "Felix": 7076, 
  "Stand@@": 7077, 
  "berechnet": 7078, 
  "Außen-": 7079, 
  "erei": 7080, 
  "armen": 7081, 
  "Bezeichnung": 7082, 
  "ou": 7083, 
  "Albanien": 7084, 
  "ökologischen": 7085, 
  "lar@@": 7086, 
  "sagten": 7087, 
  "Volkswirtschaften": 7088, 
  "PL": 7089, 
  "Bearbeitung": 7090, 
  "Heil@@": 7091, 
  "beschließen": 7092, 
  "sexuellen": 7093, 
  "märkte": 7094, 
  "nachhaltig": 7095, 
  "erfolgte": 7096, 
  "doppelt": 7097, 
  "Kurse": 7098, 
  "bezeichnete": 7099, 
  "fach": 7100, 
  "Tennis": 7101, 
  "beantwortet": 7102, 
  "Bundeskanzlerin": 7103, 
  "Mau@@": 7104, 
  "Vorausschau": 7105, 
  "sions@@": 7106, 
  "glichen": 7107, 
  "Papst": 7108, 
  "Unterlagen": 7109, 
  "Stellvertreter": 7110, 
  "denjenigen": 7111, 
  "fur@@": 7112, 
  "Schiedsrichter": 7113, 
  "Gol@@": 7114, 
  "Kongress": 7115, 
  "Wert@@": 7116, 
  "gefähr@@": 7117, 
  "Werk@@": 7118, 
  "Protokolls": 7119, 
  "dauer": 7120, 
  "nächster": 7121, 
  "Merk@@": 7122, 
  "Sh@@": 7123, 
  "ate@@": 7124, 
  "gemeinde": 7125, 
  "Flugzeug": 7126, 
  "Ausflüge": 7127, 
  "Ter@@": 7128, 
  "eli@@": 7129, 
  "Entspannung": 7130, 
  "bewiesen": 7131, 
  "traditionell": 7132, 
  "extra": 7133, 
  "Mach@@": 7134, 
  "gebunden": 7135, 
  "Bewusstsein": 7136, 
  "22@@": 7137, 
  "Mann@@": 7138, 
  "Innen": 7139, 
  "atoren": 7140, 
  "Entwicklungshilfe": 7141, 
  "76": 7142, 
  "Umstände": 7143, 
  "wenigstens": 7144, 
  "Tschechische": 7145, 
  "Fan": 7146, 
  "zentraler": 7147, 
  "8.@@": 7148, 
  "irgendwie": 7149, 
  "Shop": 7150, 
  "Freien": 7151, 
  "enorm": 7152, 
  "Blut": 7153, 
  "Nordkorea": 7154, 
  "Glas": 7155, 
  "Stein": 7156, 
  "verweist": 7157, 
  "fahrten": 7158, 
  "74": 7159, 
  "erforderliche": 7160, 
  "trennen": 7161, 
  "Die@@": 7162, 
  "Gesam@@": 7163, 
  "acken": 7164, 
  "ausüben": 7165, 
  "Marcel": 7166, 
  "vergangene": 7167, 
  "900": 7168, 
  "betreut": 7169, 
  "li": 7170, 
  "Abendessen": 7171, 
  "hu@@": 7172, 
  "betreibt": 7173, 
  "Schau@@": 7174, 
  "WC": 7175, 
  "gerechtfertigt": 7176, 
  "antworten": 7177, 
  "liege": 7178, 
  "Manchester": 7179, 
  "Fun@@": 7180, 
  "dicht": 7181, 
  "Schuss": 7182, 
  "pour": 7183, 
  "Belarus": 7184, 
  "ität": 7185, 
  "sor@@": 7186, 
  "bers": 7187, 
  "alisierung": 7188, 
  "there": 7189, 
  "Vertretung": 7190, 
  "79": 7191, 
  "Regisseur": 7192, 
  "software": 7193, 
  "Besteuerung": 7194, 
  "Spur": 7195, 
  "reichte": 7196, 
  "Son@@": 7197, 
  "Metall@@": 7198, 
  "Profis": 7199, 
  "gegenseitigen": 7200, 
  "übrig": 7201, 
  "Ansch@@": 7202, 
  "Pfarr@@": 7203, 
  "versichern": 7204, 
  "karten": 7205, 
  "Georgien": 7206, 
  "längere": 7207, 
  "Empfang": 7208, 
  "brach": 7209, 
  "Sta@@": 7210, 
  "Sieg@@": 7211, 
  "Jungs": 7212, 
  "Opfern": 7213, 
  "öffnet": 7214, 
  "Kommentar": 7215, 
  "ministeriums": 7216, 
  "fa": 7217, 
  "Wo@@": 7218, 
  "integrierte": 7219, 
  "Rats@@": 7220, 
  "Börsen@@": 7221, 
  "abteilung": 7222, 
  "more": 7223, 
  "Support": 7224, 
  "Fahrzeug@@": 7225, 
  "Leidenschaft": 7226, 
  "ungst@@": 7227, 
  "Islam": 7228, 
  "leer": 7229, 
  "Raum@@": 7230, 
  "nu@@": 7231, 
  "region": 7232, 
  "nah@@": 7233, 
  "Westfalen": 7234, 
  "Übrigen": 7235, 
  "Existenz": 7236, 
  "ris@@": 7237, 
  "splatz": 7238, 
  "Kap@@": 7239, 
  "ertes": 7240, 
  "Def@@": 7241, 
  "gegenwärtige": 7242, 
  "ausgerechnet": 7243, 
  "Teilnehmern": 7244, 
  "4,@@": 7245, 
  "wunderschönen": 7246, 
  "Beck@@": 7247, 
  "ehen": 7248, 
  "sem@@": 7249, 
  "gewünschten": 7250, 
  "gei@@": 7251, 
  "ó@@": 7252, 
  "Ereignis": 7253, 
  "effektive": 7254, 
  "Flächen": 7255, 
  "vermieden": 7256, 
  "unterschiedlicher": 7257, 
  "palästinensischen": 7258, 
  "lieb@@": 7259, 
  "kus": 7260, 
  "uri@@": 7261, 
  "inner@@": 7262, 
  "AC": 7263, 
  "Dokumentation": 7264, 
  "Versprechen": 7265, 
  "Werten": 7266, 
  "Umstrukturierung": 7267, 
  "nummer": 7268, 
  "geschätzt": 7269, 
  "berichteten": 7270, 
  "angaben": 7271, 
  "Termine": 7272, 
  "berg@@": 7273, 
  "Staffel": 7274, 
  "gre@@": 7275, 
  "wendet": 7276, 
  "gegenseitig": 7277, 
  "west@@": 7278, 
  "üblich": 7279, 
  "gezielt": 7280, 
  "beizutragen": 7281, 
  "integrieren": 7282, 
  "l.": 7283, 
  "RE@@": 7284, 
  "sische": 7285, 
  "Bestätigung": 7286, 
  "Rau@@": 7287, 
  "Variante": 7288, 
  "gewidmet": 7289, 
  "Auflagen": 7290, 
  "chern": 7291, 
  "AN": 7292, 
  "städter": 7293, 
  "Züge": 7294, 
  "sal@@": 7295, 
  "gewählten": 7296, 
  "falschen": 7297, 
  "Aufwand": 7298, 
  "Renten@@": 7299, 
  "FR": 7300, 
  "versorgung": 7301, 
  "grosse": 7302, 
  "süd@@": 7303, 
  "amtlichen": 7304, 
  "fragte": 7305, 
  "Glauben": 7306, 
  "Spenden": 7307, 
  "auff@@": 7308, 
  "hr": 7309, 
  "Kandidat": 7310, 
  "abends": 7311, 
  "21.@@": 7312, 
  "Ulrich": 7313, 
  "unden": 7314, 
  "Hochschule": 7315, 
  "vorsieht": 7316, 
  "9.@@": 7317, 
  "Bonn": 7318, 
  "Krieges": 7319, 
  "DDR": 7320, 
  "lad@@": 7321, 
  "macher": 7322, 
  "Erwerb": 7323, 
  "stücke": 7324, 
  "lieben": 7325, 
  "verlust": 7326, 
  "zeichnen": 7327, 
  "erhöhte": 7328, 
  "aufeinander": 7329, 
  "tze": 7330, 
  "grenzüberschreitende": 7331, 
  "trainer": 7332, 
  "bekannter": 7333, 
  "erzählen": 7334, 
  "Hektar": 7335, 
  "Haushalts": 7336, 
  "halbe": 7337, 
  "auses": 7338, 
  "has": 7339, 
  "European": 7340, 
  "ep": 7341, 
  "tru@@": 7342, 
  "dreht": 7343, 
  "dans": 7344, 
  "Pop@@": 7345, 
  "Neubau": 7346, 
  "verfahrens": 7347, 
  "Europol": 7348, 
  "hervorragenden": 7349, 
  "entfernen": 7350, 
  "Ausblick": 7351, 
  "funktion": 7352, 
  "Skandal": 7353, 
  "stri@@": 7354, 
  "Met@@": 7355, 
  "gefahr": 7356, 
  "Angeles": 7357, 
  "mor@@": 7358, 
  "shausen": 7359, 
  "tätigen": 7360, 
  "verwiesen": 7361, 
  "Lebensmitteln": 7362, 
  "äch@@": 7363, 
  "freute": 7364, 
  "Zulassung": 7365, 
  "ierung": 7366, 
  "langjährige": 7367, 
  "nah": 7368, 
  "Arbeitsgruppe": 7369, 
  "best@@": 7370, 
  "Höchst@@": 7371, 
  "Saint": 7372, 
  "Einschränkungen": 7373, 
  "Tickets": 7374, 
  "Straßburg": 7375, 
  "Lernen": 7376, 
  "Darmstadt": 7377, 
  "TE": 7378, 
  "übergeben": 7379, 
  "büro": 7380, 
  "DES": 7381, 
  "schä@@": 7382, 
  "Überarbeitung": 7383, 
  "höhe": 7384, 
  "Libyen": 7385, 
  "87": 7386, 
  "Ton": 7387, 
  "Stock": 7388, 
  "verwies": 7389, 
  "teln": 7390, 
  "Untersuchungs@@": 7391, 
  "Müll@@": 7392, 
  "lohnt": 7393, 
  "45@@": 7394, 
  "time": 7395, 
  "Handel@@": 7396, 
  "strukturen": 7397, 
  "hilfreich": 7398, 
  "Bibliothek": 7399, 
  "mus": 7400, 
  "lo": 7401, 
  "Schätzungen": 7402, 
  "ian": 7403, 
  "Quadratmeter": 7404, 
  "OR@@": 7405, 
  "vorliegende": 7406, 
  "Lebensmittelsicherheit": 7407, 
  "tatsächlichen": 7408, 
  "Rainer": 7409, 
  "messe": 7410, 
  "angefangen": 7411, 
  "Franken": 7412, 
  "PUNKTE": 7413, 
  "Hund": 7414, 
  "feierte": 7415, 
  "Gemein@@": 7416, 
  "Mön@@": 7417, 
  "Spannungen": 7418, 
  "ISO": 7419, 
  "Feu@@": 7420, 
  "ani": 7421, 
  "angebote": 7422, 
  "streng": 7423, 
  "Bei": 7424, 
  "enormen": 7425, 
  "ernannt": 7426, 
  "Vorfall": 7427, 
  "Rat@@": 7428, 
  "tausend": 7429, 
  "ansehen": 7430, 
  "äh@@": 7431, 
  "typischen": 7432, 
  "Gremium": 7433, 
  "Kevin": 7434, 
  "Medikamente": 7435, 
  "eingebracht": 7436, 
  "ments": 7437, 
  "würdigen": 7438, 
  "Leser": 7439, 
  "chtig": 7440, 
  "veranstaltung": 7441, 
  "Stuttgarter": 7442, 
  "bestimmungen": 7443, 
  "kreisen": 7444, 
  "Kritiker": 7445, 
  "einzelstaatlichen": 7446, 
  "Oberfläche": 7447, 
  "spezialisiert": 7448, 
  "ZDF": 7449, 
  "Überraschung": 7450, 
  "bereichen": 7451, 
  "lte": 7452, 
  "18.@@": 7453, 
  "Sim@@": 7454, 
  "unterstreicht": 7455, 
  "lokaler": 7456, 
  "ri": 7457, 
  "Jur@@": 7458, 
  "feuer@@": 7459, 
  "Lust": 7460, 
  "gere": 7461, 
  "Vergabe": 7462, 
  "Parlamente": 7463, 
  "sat@@": 7464, 
  "gelaufen": 7465, 
  "Abfall@@": 7466, 
  "Op@@": 7467, 
  "zuversichtlich": 7468, 
  "gebildet": 7469, 
  "Burg": 7470, 
  "Klarheit": 7471, 
  "unmittelbarer": 7472, 
  "regional": 7473, 
  "Kamer@@": 7474, 
  "nötigen": 7475, 
  "anzupassen": 7476, 
  "sach@@": 7477, 
  "Schwein@@": 7478, 
  "erarbeiten": 7479, 
  "sicherer": 7480, 
  "ffs": 7481, 
  "Geb@@": 7482, 
  "Häfen": 7483, 
  "ele": 7484, 
  "Gewerkschaften": 7485, 
  "Angehörigen": 7486, 
  "met": 7487, 
  "stes": 7488, 
  "professionelle": 7489, 
  "Flug": 7490, 
  "Schulz": 7491, 
  "Main@@": 7492, 
  "überwacht": 7493, 
  "angelegt": 7494, 
  "Aspekten": 7495, 
  "Bie@@": 7496, 
  "Spektrum": 7497, 
  "syrische": 7498, 
  "Ausgrenzung": 7499, 
  "sionen": 7500, 
  "Libanon": 7501, 
  "könnt": 7502, 
  "vol@@": 7503, 
  "Burg@@": 7504, 
  "Schnell@@": 7505, 
  "ober@@": 7506, 
  "Inneres": 7507, 
  "83": 7508, 
  "Beratungs@@": 7509, 
  "Vorrang": 7510, 
  "Wettbewerbs@@": 7511, 
  "prozesses": 7512, 
  "Nachbar@@": 7513, 
  "USB": 7514, 
  "bedanken": 7515, 
  "Zusammenschluss": 7516, 
  "menge": 7517, 
  "dungen": 7518, 
  "Neues": 7519, 
  "stufe": 7520, 
  "Brief@@": 7521, 
  "Vereinigung": 7522, 
  "begleiten": 7523, 
  "Kleidung": 7524, 
  "mark@@": 7525, 
  "negativ": 7526, 
  "Cent": 7527, 
  "−": 7528, 
  "Real@@": 7529, 
  "Kenntnisse": 7530, 
  "seither": 7531, 
  "let": 7532, 
  "verursachen": 7533, 
  "Anwalt": 7534, 
  "Fo@@": 7535, 
  "Fal@@": 7536, 
  "Trennung": 7537, 
  "Frankreichs": 7538, 
  "Arbeiter": 7539, 
  "19.@@": 7540, 
  "suche": 7541, 
  "starker": 7542, 
  "tal@@": 7543, 
  "basis": 7544, 
  "utz@@": 7545, 
  "Kle@@": 7546, 
  "Weber": 7547, 
  "tischer": 7548, 
  "museum": 7549, 
  "Betrug": 7550, 
  "Kron@@": 7551, 
  "freiwillig": 7552, 
  "stan@@": 7553, 
  "fit": 7554, 
  "Krisen": 7555, 
  "Integrations@@": 7556, 
  "Grundsätzen": 7557, 
  "Silv@@": 7558, 
  "Kin@@": 7559, 
  "erläuterte": 7560, 
  "ül@@": 7561, 
  "dahinter": 7562, 
  "Datenschutz": 7563, 
  "Bundestag": 7564, 
  "löschen": 7565, 
  "vorzunehmen": 7566, 
  "gegenseitige": 7567, 
  "leichten": 7568, 
  "assen": 7569, 
  "BSE": 7570, 
  "drin": 7571, 
  "Kommentare": 7572, 
  "innere": 7573, 
  "tiges": 7574, 
  "Vertrieb": 7575, 
  "Prag": 7576, 
  "Zähler": 7577, 
  "Baum": 7578, 
  "mobile": 7579, 
  "Schauspielerin": 7580, 
  "Medizin": 7581, 
  "Fan@@": 7582, 
  "glei@@": 7583, 
  "ey": 7584, 
  "hafte": 7585, 
  "Strei@@": 7586, 
  "lenken": 7587, 
  "Wohnzimmer": 7588, 
  "vic": 7589, 
  "ative": 7590, 
  "Berater": 7591, 
  "Einzug": 7592, 
  "Speisen": 7593, 
  "fortzusetzen": 7594, 
  "Image": 7595, 
  "ansprechen": 7596, 
  "Augenblick": 7597, 
  "gner": 7598, 
  "kommission": 7599, 
  "fehlte": 7600, 
  "uss@@": 7601, 
  "Partien": 7602, 
  "EADS": 7603, 
  "bist": 7604, 
  "ssen@@": 7605, 
  "German": 7606, 
  "werks": 7607, 
  "Autoren": 7608, 
  "s-": 7609, 
  "Missbrauch": 7610, 
  "mehrmals": 7611, 
  "Ministerpräsidenten": 7612, 
  "Senioren": 7613, 
  "din": 7614, 
  "Olympischen": 7615, 
  "beschädigt": 7616, 
  "gender": 7617, 
  "mann@@": 7618, 
  "übermitteln": 7619, 
  "Ol@@": 7620, 
  "morgens": 7621, 
  "kritisierte": 7622, 
  "feld@@": 7623, 
  "Osteuropa": 7624, 
  "lebenden": 7625, 
  "Erzeugung": 7626, 
  "weitaus": 7627, 
  "Dun@@": 7628, 
  "Mails": 7629, 
  "Pen@@": 7630, 
  "prü@@": 7631, 
  "Stahl": 7632, 
  "Referendum": 7633, 
  "Austria": 7634, 
  "Tä@@": 7635, 
  "Pariser": 7636, 
  "verpflichten": 7637, 
  "kö@@": 7638, 
  "ps": 7639, 
  "nützlich": 7640, 
  "fließen": 7641, 
  "Fra@@": 7642, 
  "Dauer@@": 7643, 
  "widmen": 7644, 
  "Bezir@@": 7645, 
  "Sozialdemokraten": 7646, 
  "UNG": 7647, 
  "Spreng@@": 7648, 
  "Christ@@": 7649, 
  "gro@@": 7650, 
  "Schüler@@": 7651, 
  "zierte": 7652, 
  "Lkw": 7653, 
  "beibehalten": 7654, 
  "Beste": 7655, 
  "5000": 7656, 
  "freilich": 7657, 
  "wasser@@": 7658, 
  "mechanismus": 7659, 
  "gent@@": 7660, 
  "niedriger": 7661, 
  "teste": 7662, 
  "Dem@@": 7663, 
  "behält": 7664, 
  "klarer": 7665, 
  "dachte": 7666, 
  "cu@@": 7667, 
  "zehn@@": 7668, 
  "loser": 7669, 
  "fei@@": 7670, 
  "verhandelt": 7671, 
  "Trainings@@": 7672, 
  "Menschen@@": 7673, 
  "kandidat": 7674, 
  "ungsverfahren": 7675, 
  "beinhalten": 7676, 
  "Potsdam": 7677, 
  "ona": 7678, 
  "Ersatz@@": 7679, 
  "Songs": 7680, 
  "günstige": 7681, 
  "ee": 7682, 
  "Konzern@@": 7683, 
  "Angreifer": 7684, 
  "gäbe": 7685, 
  "brand": 7686, 
  "digten": 7687, 
  "tä@@": 7688, 
  "derselben": 7689, 
  "Risiko@@": 7690, 
  "Louis": 7691, 
  "Weltwirtschaft": 7692, 
  "dargelegt": 7693, 
  "Musi@@": 7694, 
  "ativen": 7695, 
  "günstig": 7696, 
  "tungs@@": 7697, 
  "soeben": 7698, 
  "Kennzeichnung": 7699, 
  "womit": 7700, 
  "namens": 7701, 
  "Klub": 7702, 
  "herunterladen": 7703, 
  "vertraut": 7704, 
  "verspricht": 7705, 
  "Ale@@": 7706, 
  "klassische": 7707, 
  "16.@@": 7708, 
  "Kreuz": 7709, 
  "herzustellen": 7710, 
  "Glei@@": 7711, 
  "able": 7712, 
  "strei@@": 7713, 
  "zunehmenden": 7714, 
  "Marc": 7715, 
  "Euch": 7716, 
  "Wiederherstellung": 7717, 
  "holz": 7718, 
  "sion@@": 7719, 
  "normale": 7720, 
  "Passwort": 7721, 
  "Phänomen": 7722, 
  "verstoßen": 7723, 
  "dra@@": 7724, 
  "Gipfeltreffen": 7725, 
  "oren@@": 7726, 
  "rischen": 7727, 
  "Favor@@": 7728, 
  "folgender": 7729, 
  "lasse": 7730, 
  "fein@@": 7731, 
  "Erdogan": 7732, 
  "nier": 7733, 
  "quasi": 7734, 
  "lungen": 7735, 
  "Aussichten": 7736, 
  "versorgt": 7737, 
  "Schi@@": 7738, 
  "ungeachtet": 7739, 
  "anz": 7740, 
  "chts": 7741, 
  "yp@@": 7742, 
  "schnitt": 7743, 
  "Fax": 7744, 
  "Europ@@": 7745, 
  "Entwicklungszusammenarbeit": 7746, 
  "eigentliche": 7747, 
  "86": 7748, 
  "dauerhaft": 7749, 
  "Berge": 7750, 
  "antreten": 7751, 
  "Spannung": 7752, 
  "Gottes": 7753, 
  "fielen": 7754, 
  "Kretsch@@": 7755, 
  "Gebäuden": 7756, 
  "kämpft": 7757, 
  "EH@@": 7758, 
  "sau@@": 7759, 
  "schneiden": 7760, 
  "mal@@": 7761, 
  "Schatten": 7762, 
  "sitz": 7763, 
  "Grünbuch": 7764, 
  "Liverpool": 7765, 
  "GVO": 7766, 
  "telefonisch": 7767, 
  "Kranken@@": 7768, 
  "Sportler": 7769, 
  "Außengrenzen": 7770, 
  "Objekte": 7771, 
  "beantragen": 7772, 
  "Übernachtung": 7773, 
  "ado": 7774, 
  "schaft@@": 7775, 
  "Sitzungen": 7776, 
  "gestellten": 7777, 
  "Tunesien": 7778, 
  "betrug": 7779, 
  "Suiten": 7780, 
  "not@@": 7781, 
  "pla@@": 7782, 
  "Umzug": 7783, 
  "ausreichende": 7784, 
  "Eber@@": 7785, 
  "Protest": 7786, 
  "umfangreichen": 7787, 
  "DR": 7788, 
  "Ostern": 7789, 
  "Kommissionspräsident": 7790, 
  "Pap@@": 7791, 
  "lie": 7792, 
  "innovativen": 7793, 
  "zunehmende": 7794, 
  "Jobs": 7795, 
  "draußen": 7796, 
  "begangen": 7797, 
  "Fisch": 7798, 
  "löst": 7799, 
  "holt": 7800, 
  "verkehrs@@": 7801, 
  "erinnerte": 7802, 
  "Lebensqualität": 7803, 
  "eingeschränkt": 7804, 
  "Wilhelm": 7805, 
  "listen": 7806, 
  "Mc@@": 7807, 
  "Versuche": 7808, 
  "lia": 7809, 
  "Nah@@": 7810, 
  "Fri@@": 7811, 
  "PHP": 7812, 
  "Ersatz": 7813, 
  "Zoll": 7814, 
  "ates": 7815, 
  "griff": 7816, 
  "schaut": 7817, 
  "Handlungen": 7818, 
  "wertvolle": 7819, 
  "drängen": 7820, 
  "unterbreiten": 7821, 
  "ht": 7822, 
  "180": 7823, 
  "EM@@": 7824, 
  "hersteller": 7825, 
  "Tote": 7826, 
  "gleichwohl": 7827, 
  "kurse": 7828, 
  "M.": 7829, 
  "Rand": 7830, 
  "befand": 7831, 
  "Klassen": 7832, 
  "tes@@": 7833, 
  "Ankündigung": 7834, 
  "Modus": 7835, 
  "Mini": 7836, 
  "normal": 7837, 
  "rin": 7838, 
  "chts@@": 7839, 
  "grün": 7840, 
  "Entwickler": 7841, 
  "SCH@@": 7842, 
  "gerechte": 7843, 
  "zurückkehren": 7844, 
  "ella": 7845, 
  "Perspektiven": 7846, 
  "nis@@": 7847, 
  "Experte": 7848, 
  "sha@@": 7849, 
  "5.000": 7850, 
  "Last": 7851, 
  "Arzneimittel": 7852, 
  "Bit@@": 7853, 
  "Kraft@@": 7854, 
  "Nizza": 7855, 
  "Bol@@": 7856, 
  "mas@@": 7857, 
  "durchsetzen": 7858, 
  "SE": 7859, 
  "¼": 7860, 
  "Hart@@": 7861, 
  "rut@@": 7862, 
  "chter@@": 7863, 
  ".....": 7864, 
  "Privatsphäre": 7865, 
  "sonstigen": 7866, 
  "rasche": 7867, 
  "Bewerber": 7868, 
  "Tourismus@@": 7869, 
  "gefährden": 7870, 
  "Sitz@@": 7871, 
  "35@@": 7872, 
  "bal@@": 7873, 
  "J": 7874, 
  "Garantien": 7875, 
  "Gehminuten": 7876, 
  "Sanders": 7877, 
  "gewachsen": 7878, 
  "cken@@": 7879, 
  "eti@@": 7880, 
  "Sü@@": 7881, 
  "Dirk": 7882, 
  "Schulden@@": 7883, 
  "Brandenburg": 7884, 
  "Juden": 7885, 
  "mehrerer": 7886, 
  "gelegenen": 7887, 
  "wahre": 7888, 
  "Reihen": 7889, 
  "Je@@": 7890, 
  "Unterricht": 7891, 
  "schlimmer": 7892, 
  "gescheitert": 7893, 
  "dige": 7894, 
  "Schülern": 7895, 
  "tiefe": 7896, 
  "flug": 7897, 
  "Hohe": 7898, 
  "Hochschul@@": 7899, 
  "steigenden": 7900, 
  "wur@@": 7901, 
  "Balkan": 7902, 
  "angenommenen": 7903, 
  "teren": 7904, 
  "uni@@": 7905, 
  "Konzepte": 7906, 
  "Auszeichnung": 7907, 
  "Branchen": 7908, 
  "Stadtrat": 7909, 
  "Bargeld": 7910, 
  "hebt": 7911, 
  "gespannt": 7912, 
  "Norbert": 7913, 
  "Getränke": 7914, 
  "druck@@": 7915, 
  "Nutz@@": 7916, 
  "Rechnungshof": 7917, 
  "Steuerzahler": 7918, 
  "vorge@@": 7919, 
  "Gründer": 7920, 
  "Julian": 7921, 
  "fle@@": 7922, 
  "Hochschulen": 7923, 
  "Weiß": 7924, 
  "Staat@@": 7925, 
  "big": 7926, 
  "iner@@": 7927, 
  "eigen@@": 7928, 
  "gebilligt": 7929, 
  "warnte": 7930, 
  "23.@@": 7931, 
  "Del@@": 7932, 
  "Assad": 7933, 
  "Multi@@": 7934, 
  "belegen": 7935, 
  "Frau@@": 7936, 
  "hauses": 7937, 
  "verschärft": 7938, 
  "United": 7939, 
  "hor@@": 7940, 
  "erwähnen": 7941, 
  "show": 7942, 
  "hinter@@": 7943, 
  "tis": 7944, 
  "Neuen": 7945, 
  "erörtern": 7946, 
  "auffordern": 7947, 
  "Kurs@@": 7948, 
  "Beschluß": 7949, 
  "Aufnahmen": 7950, 
  "tik@@": 7951, 
  "Strecken": 7952, 
  "miss@@": 7953, 
  "Sprung": 7954, 
  "Währungs@@": 7955, 
  "GD": 7956, 
  "firmen": 7957, 
  "Nachdruck": 7958, 
  "Verordnungen": 7959, 
  "ena": 7960, 
  "warf": 7961, 
  "és": 7962, 
  "verstehe": 7963, 
  "Portal": 7964, 
  "17.@@": 7965, 
  "riss": 7966, 
  "sprache": 7967, 
  "Kli@@": 7968, 
  "Kla@@": 7969, 
  "beeinträchtigt": 7970, 
  "wechselt": 7971, 
  "Rie@@": 7972, 
  "Bürgermeister@@": 7973, 
  "israelischen": 7974, 
  "line": 7975, 
  "Für": 7976, 
  "ny": 7977, 
  "enh@@": 7978, 
  "Umstellung": 7979, 
  "bran@@": 7980, 
  "Weiß@@": 7981, 
  "Ansprechpartner": 7982, 
  "Kapazität": 7983, 
  "empfängt": 7984, 
  "haltung": 7985, 
  "My@@": 7986, 
  "Vorgehensweise": 7987, 
  "Resolution": 7988, 
  "entscheidung": 7989, 
  "Cou@@": 7990, 
  "geltend": 7991, 
  "kostenlosen": 7992, 
  "tiere": 7993, 
  "kla@@": 7994, 
  "dieselben": 7995, 
  "Don@@": 7996, 
  "präsident": 7997, 
  "Kredite": 7998, 
  "25@@": 7999, 
  "brücke": 8000, 
  "handel": 8001, 
  "Partnerschaften": 8002, 
  "schieben": 8003, 
  "Fran@@": 8004, 
  "Herzegowina": 8005, 
  "kontrollen": 8006, 
  "bin@@": 8007, 
  "entin": 8008, 
  "genießt": 8009, 
  "MEMO": 8010, 
  "Fest": 8011, 
  "nord@@": 8012, 
  "Hoffnungen": 8013, 
  "industriellen": 8014, 
  "Aufträge": 8015, 
  "verwendeten": 8016, 
  "gemein@@": 8017, 
  "zweier": 8018, 
  "Philosophie": 8019, 
  "brauche": 8020, 
  "Wir@@": 8021, 
  "institutionelle": 8022, 
  "Weihnachten": 8023, 
  "stete": 8024, 
  "Bernhard": 8025, 
  "gste": 8026, 
  "ueber": 8027, 
  "typisch": 8028, 
  "kri@@": 8029, 
  "AB@@": 8030, 
  "Sub@@": 8031, 
  "Beruf@@": 8032, 
  "Lieb@@": 8033, 
  "HA@@": 8034, 
  "Wie": 8035, 
  "lösungen": 8036, 
  "zunehmen": 8037, 
  "Peking": 8038, 
  "hab@@": 8039, 
  "leu@@": 8040, 
  "wirkliche": 8041, 
  "Panorama": 8042, 
  "stau@@": 8043, 
  "theit": 8044, 
  "ergab": 8045, 
  "Jens": 8046, 
  "Böh@@": 8047, 
  "Gemüse": 8048, 
  "get": 8049, 
  "Unfälle": 8050, 
  "vorgehen": 8051, 
  "erneuerbare": 8052, 
  "Klimawandels": 8053, 
  "PT": 8054, 
  "350": 8055, 
  "bestellt": 8056, 
  "sexuelle": 8057, 
  "Feststellung": 8058, 
  "Laden": 8059, 
  "Prozeß": 8060, 
  "Sin@@": 8061, 
  "Nag@@": 8062, 
  "erworben": 8063, 
  "hockey": 8064, 
  "sahen": 8065, 
  "Vortrag": 8066, 
  "LR": 8067, 
  "Unsicherheit": 8068, 
  "Rum@@": 8069, 
  "schle@@": 8070, 
  "well": 8071, 
  "erstreckt": 8072, 
  "fü@@": 8073, 
  "AD@@": 8074, 
  "gesenkt": 8075, 
  "öff@@": 8076, 
  "Geräten": 8077, 
  "Verhältnisse": 8078, 
  "wende": 8079, 
  "which": 8080, 
  "Airport": 8081, 
  "vorstand": 8082, 
  "BR@@": 8083, 
  "Palette": 8084, 
  "les@@": 8085, 
  "externe": 8086, 
  "grossen": 8087, 
  "Prodi": 8088, 
  "Regel@@": 8089, 
  "feu@@": 8090, 
  "japanischen": 8091, 
  "Linien": 8092, 
  "Wehr@@": 8093, 
  "gesellschaftliche": 8094, 
  "ordnungsgemäß": 8095, 
  "spielten": 8096, 
  "Bou@@": 8097, 
  "nden": 8098, 
  "umgekehrt": 8099, 
  "fun@@": 8100, 
  "University": 8101, 
  "84": 8102, 
  "Prävention": 8103, 
  "Parameter": 8104, 
  "starkes": 8105, 
  "adi@@": 8106, 
  "Lager@@": 8107, 
  "aufnahme": 8108, 
  "Internetseite": 8109, 
  "Luxus": 8110, 
  "just": 8111, 
  "etliche": 8112, 
  "Vorwurf": 8113, 
  "anzuzeigen": 8114, 
  "kreises": 8115, 
  "Schwerpunkte": 8116, 
  "singer": 8117, 
  "Pflichten": 8118, 
  "wenigsten": 8119, 
  "Wirtschaftsraum": 8120, 
  "Übersicht": 8121, 
  "komfortable": 8122, 
  "Leben@@": 8123, 
  "Cruz": 8124, 
  "feier": 8125, 
  "Republikaner": 8126, 
  "cker@@": 8127, 
  "versetzt": 8128, 
  "spor@@": 8129, 
  "bekanntlich": 8130, 
  "realisiert": 8131, 
  "Umfragen": 8132, 
  "euer": 8133, 
  "Meinungen": 8134, 
  "freundlichen": 8135, 
  "Fast@@": 8136, 
  "Hum@@": 8137, 
  "tab@@": 8138, 
  "dürfe": 8139, 
  "Dublin": 8140, 
  "kombiniert": 8141, 
  "10.000": 8142, 
  "Auf": 8143, 
  "sicherung": 8144, 
  "Erbe": 8145, 
  "Wagner": 8146, 
  "Thor@@": 8147, 
  "bezeichnen": 8148, 
  "Produktivität": 8149, 
  "Weg@@": 8150, 
  "ase": 8151, 
  "betriebe": 8152, 
  "erteilen": 8153, 
  "spiegel": 8154, 
  "konzert": 8155, 
  "dienstleistungen": 8156, 
  "befürwortet": 8157, 
  "wär@@": 8158, 
  "prüft": 8159, 
  "Wach@@": 8160, 
  "Botschafter": 8161, 
  "flexibel": 8162, 
  "Einzelnen": 8163, 
  "Benutzung": 8164, 
  "Kirchen": 8165, 
  "manager": 8166, 
  "Jänner": 8167, 
  "6,@@": 8168, 
  "LIN@@": 8169, 
  "Sar@@": 8170, 
  "As@@": 8171, 
  "Geheim@@": 8172, 
  "Minderheit": 8173, 
  "Sky": 8174, 
  "gendes": 8175, 
  "verschoben": 8176, 
  "chens": 8177, 
  "anpassen": 8178, 
  "abkommen": 8179, 
  "ule": 8180, 
  "wan@@": 8181, 
  "ist@@": 8182, 
  "VER@@": 8183, 
  "pper@@": 8184, 
  "wuchs": 8185, 
  "ruf": 8186, 
  "chemische": 8187, 
  "Revision": 8188, 
  "aren": 8189, 
  "fri@@": 8190, 
  "Hardware": 8191, 
  "Zusammensetzung": 8192, 
  "Mak@@": 8193, 
  "niedrig": 8194, 
  "bewirken": 8195, 
  "zel@@": 8196, 
  "anfangs": 8197, 
  "Kit@@": 8198, 
  "sicherte": 8199, 
  "religiösen": 8200, 
  "bru@@": 8201, 
  "Souveränität": 8202, 
  "endete": 8203, 
  "Unterhaltung": 8204, 
  "Themen@@": 8205, 
  "Kreditkarte": 8206, 
  "Budget": 8207, 
  "zieren": 8208, 
  "kontinuierlich": 8209, 
  "erneuerbaren": 8210, 
  "effizienten": 8211, 
  "Stro@@": 8212, 
  "wor@@": 8213, 
  "beurteilen": 8214, 
  "Sex": 8215, 
  "Apartment": 8216, 
  "Hom@@": 8217, 
  "angen": 8218, 
  "Distribution": 8219, 
  "GB": 8220, 
  "Ausländer": 8221, 
  "Fil@@": 8222, 
  "ET@@": 8223, 
  "dran": 8224, 
  "erkunden": 8225, 
  "ole": 8226, 
  "versuche": 8227, 
  "Kriminal@@": 8228, 
  "Mol@@": 8229, 
  "erweiterten": 8230, 
  "gefühl": 8231, 
  "Erleichterung": 8232, 
  "netze": 8233, 
  "Investition": 8234, 
  "Reich": 8235, 
  "geführten": 8236, 
  "Büros": 8237, 
  "Kräften": 8238, 
  "innen@@": 8239, 
  "Ros@@": 8240, 
  "quellen": 8241, 
  "Gest@@": 8242, 
  "Can@@": 8243, 
  "geschlossenen": 8244, 
  "Versorgungs@@": 8245, 
  "dieselbe": 8246, 
  "Ratifizierung": 8247, 
  "Heiz@@": 8248, 
  "definieren": 8249, 
  "deli@@": 8250, 
  "heimischen": 8251, 
  "Bil@@": 8252, 
  "einführen": 8253, 
  "bittet": 8254, 
  "tü@@": 8255, 
  "Beobachter": 8256, 
  "ordentlich": 8257, 
  "mung": 8258, 
  "atte": 8259, 
  "User": 8260, 
  "stet": 8261, 
  "vorsichtig": 8262, 
  "Passagiere": 8263, 
  "gan": 8264, 
  "Kreativität": 8265, 
  "Mittelmeerraum": 8266, 
  "Niedersachsen": 8267, 
  "Salz@@": 8268, 
  "Ferien@@": 8269, 
  "Lok@@": 8270, 
  "gebung": 8271, 
  "14.@@": 8272, 
  "Software@@": 8273, 
  "landwirtschaftliche": 8274, 
  "kräftig": 8275, 
  "Rechner": 8276, 
  "startete": 8277, 
  "AK@@": 8278, 
  "riesige": 8279, 
  "riger": 8280, 
  "US@@": 8281, 
  "sorgten": 8282, 
  "einheit": 8283, 
  "Inhaber": 8284, 
  "arb@@": 8285, 
  "Resort": 8286, 
  "Anwender": 8287, 
  "Alb@@": 8288, 
  "sberg": 8289, 
  "Überwachungs@@": 8290, 
  "zweites": 8291, 
  "Einleitung": 8292, 
  "harten": 8293, 
  "sub@@": 8294, 
  "Mes@@": 8295, 
  "Emissions@@": 8296, 
  "Lied": 8297, 
  "moderner": 8298, 
  "wechsel@@": 8299, 
  "vent@@": 8300, 
  "kes": 8301, 
  "fehlende": 8302, 
  "rang": 8303, 
  "aktiviert": 8304, 
  "lich@@": 8305, 
  "fangen": 8306, 
  "engagieren": 8307, 
  "hier@@": 8308, 
  "Char@@": 8309, 
  "ativ": 8310, 
  "Kooperations@@": 8311, 
  "illegal": 8312, 
  "eigentlichen": 8313, 
  "Reservierung": 8314, 
  "atz": 8315, 
  "I.": 8316, 
  "ausgaben": 8317, 
  "Schn@@": 8318, 
  "pri@@": 8319, 
  "the@@": 8320, 
  "Nation": 8321, 
  "Verzeichnis": 8322, 
  "stände": 8323, 
  "versuchten": 8324, 
  "berühmte": 8325, 
  "Genuss": 8326, 
  "geräten": 8327, 
  "Turin": 8328, 
  "Eltern@@": 8329, 
  "Mitglieder@@": 8330, 
  "Schlag": 8331, 
  "Rücktritt": 8332, 
  "intensive": 8333, 
  "konzern": 8334, 
  "belgische": 8335, 
  "befreit": 8336, 
  "angemeldet": 8337, 
  "Gremien": 8338, 
  "oberen": 8339, 
  "Traditionen": 8340, 
  "Freizeit@@": 8341, 
  "wert@@": 8342, 
  "Ir@@": 8343, 
  "Französisch": 8344, 
  "Jahresbericht": 8345, 
  "führerin": 8346, 
  "Anne": 8347, 
  "Inn": 8348, 
  "Einheiten": 8349, 
  "Frühstücksbuffet": 8350, 
  "wohner": 8351, 
  "ausgehend": 8352, 
  "methoden": 8353, 
  "APA": 8354, 
  "ander@@": 8355, 
  "berichte": 8356, 
  "verteilen": 8357, 
  "France": 8358, 
  "stoffen": 8359, 
  "zurückzu@@": 8360, 
  "Offenheit": 8361, 
  "gewinn": 8362, 
  "ausgabe": 8363, 
  "Prüf@@": 8364, 
  "Sul@@": 8365, 
  "Vizepräsidentin": 8366, 
  "Zwei": 8367, 
  "Geburt": 8368, 
  "teilgenommen": 8369, 
  "schwer@@": 8370, 
  "Alpen": 8371, 
  "beseitigt": 8372, 
  "Unterbringung": 8373, 
  "NRO": 8374, 
  "EI@@": 8375, 
  "inneren": 8376, 
  "Reserve": 8377, 
  "derte": 8378, 
  "ffe": 8379, 
  "80@@": 8380, 
  "Angekla@@": 8381, 
  "wie@@": 8382, 
  "amen": 8383, 
  "orientiert": 8384, 
  "Bauer": 8385, 
  "ungsplan": 8386, 
  "komplexe": 8387, 
  "mittel-": 8388, 
  "Zerstörung": 8389, 
  "Lukas": 8390, 
  "Figur": 8391, 
  "finanzierung": 8392, 
  "fügt": 8393, 
  "siv": 8394, 
  "EC": 8395, 
  "regelmäßigen": 8396, 
  "if": 8397, 
  "schwachen": 8398, 
  "nor@@": 8399, 
  "nung": 8400, 
  "setzung": 8401, 
  "sinken": 8402, 
  "gewünscht": 8403, 
  "bevorstehenden": 8404, 
  "reu@@": 8405, 
  "Sor@@": 8406, 
  "Dsch@@": 8407, 
  "Binnenmarkts": 8408, 
  "geeinigt": 8409, 
  "TH@@": 8410, 
  "Einsätze": 8411, 
  "AU@@": 8412, 
  "Hollywood": 8413, 
  "beliebt": 8414, 
  "Leh@@": 8415, 
  "staatlicher": 8416, 
  "Doha": 8417, 
  "Geschäften": 8418, 
  "bedenken": 8419, 
  "versehen": 8420, 
  "sher@@": 8421, 
  "Stell@@": 8422, 
  "diverse": 8423, 
  "schil@@": 8424, 
  "kommen@@": 8425, 
  "durchzusetzen": 8426, 
  "freunde": 8427, 
  "gemeint": 8428, 
  "bundesweit": 8429, 
  "Freiburg": 8430, 
  "unverändert": 8431, 
  "handelte": 8432, 
  "größe": 8433, 
  "Finanzmittel": 8434, 
  "thei@@": 8435, 
  "Diensten": 8436, 
  "Muster": 8437, 
  "angeschlossen": 8438, 
  "gutem": 8439, 
  "ausführlich": 8440, 
  "hinein": 8441, 
  "Poker": 8442, 
  "Des@@": 8443, 
  "Theorie": 8444, 
  "eigenem": 8445, 
  "Bul@@": 8446, 
  "Büro@@": 8447, 
  "Jugoslawien": 8448, 
  "diesjährigen": 8449, 
  "vermögen": 8450, 
  "Fro@@": 8451, 
  "alo@@": 8452, 
  "heim@@": 8453, 
  "geniessen": 8454, 
  "Infos": 8455, 
  "total": 8456, 
  "nete": 8457, 
  "teu@@": 8458, 
  "errichten": 8459, 
  "Nordrhein": 8460, 
  "reine": 8461, 
  "Grundstück": 8462, 
  "Telekom": 8463, 
  "Angeklagten": 8464, 
  "Original": 8465, 
  "fairen": 8466, 
  "Problematik": 8467, 
  "Begeisterung": 8468, 
  "Busse": 8469, 
  "liegende": 8470, 
  "Zivil@@": 8471, 
  "Tom": 8472, 
  "Personen@@": 8473, 
  "Linz": 8474, 
  "Auskunft": 8475, 
  "Heinrich": 8476, 
  "geistigen": 8477, 
  "fehler": 8478, 
  "Milch": 8479, 
  "Power": 8480, 
  "shaus": 8481, 
  "bearbeiten": 8482, 
  "OL@@": 8483, 
  "wirtschafts@@": 8484, 
  "Anklage": 8485, 
  "Volker": 8486, 
  "Arbeitskräfte": 8487, 
  "voneinander": 8488, 
  "Demonstranten": 8489, 
  "lege": 8490, 
  "beruhen": 8491, 
  "ron@@": 8492, 
  "Joseph": 8493, 
  "bahn@@": 8494, 
  "alternative": 8495, 
  "existieren": 8496, 
  "Schwarz@@": 8497, 
  "Barbara": 8498, 
  "Drittstaaten": 8499, 
  "verteidigt": 8500, 
  "buch@@": 8501, 
  "kä@@": 8502, 
  "analysiert": 8503, 
  "ost@@": 8504, 
  "llen": 8505, 
  "präsentierte": 8506, 
  "witz": 8507, 
  "com@@": 8508, 
  "Direkt@@": 8509, 
  "Frühling": 8510, 
  "lab@@": 8511, 
  "ess": 8512, 
  "mitglied": 8513, 
  "Ren@@": 8514, 
  "Fol@@": 8515, 
  "met@@": 8516, 
  "Magazin": 8517, 
  "Event": 8518, 
  "Spaziergang": 8519, 
  "Bündnis": 8520, 
  "Einwohnern": 8521, 
  "Profil": 8522, 
  "einziges": 8523, 
  "zung": 8524, 
  "Mannes": 8525, 
  "Produzenten": 8526, 
  "sichert": 8527, 
  "Grundschule": 8528, 
  "flo@@": 8529, 
  "Ständigen": 8530, 
  "Menschheit": 8531, 
  "spre@@": 8532, 
  "Cameron": 8533, 
  "ig": 8534, 
  "Tim": 8535, 
  "Ausgang": 8536, 
  "beeinträchtigen": 8537, 
  "passende": 8538, 
  "RA@@": 8539, 
  "Impulse": 8540, 
  "Rahmen@@": 8541, 
  "zy@@": 8542, 
  "stützt": 8543, 
  "veranstaltet": 8544, 
  "Termin@@": 8545, 
  "deutlicher": 8546, 
  "Prozess@@": 8547, 
  "jemals": 8548, 
  "belastet": 8549, 
  "Ministerrat": 8550, 
  "professionellen": 8551, 
  "problemlos": 8552, 
  "Empfänger": 8553, 
  "Gem@@": 8554, 
  "Wurzeln": 8555, 
  "Lokal@@": 8556, 
  "Ludwig": 8557, 
  "hö@@": 8558, 
  "Fraktion@@": 8559, 
  "bit@@": 8560, 
  "gau": 8561, 
  "Soziales": 8562, 
  "orientierte": 8563, 
  "erweisen": 8564, 
  "nice": 8565, 
  "gespräche": 8566, 
  "EP": 8567, 
  "Trends": 8568, 
  "Wachstums": 8569, 
  "reicher": 8570, 
  "bilder": 8571, 
  "Aufzug": 8572, 
  "tere": 8573, 
  "Wand": 8574, 
  "Drei": 8575, 
  "28@@": 8576, 
  "siv@@": 8577, 
  "car@@": 8578, 
  "evange@@": 8579, 
  "fort@@": 8580, 
  "fache": 8581, 
  "verarbeitet": 8582, 
  "geren": 8583, 
  "ater": 8584, 
  "verwaltet": 8585, 
  "zulässig": 8586, 
  "Barack": 8587, 
  "bi": 8588, 
  "üh@@": 8589, 
  "Weißbuch": 8590, 
  "Reh@@": 8591, 
  "Struktur@@": 8592, 
  "Rußland": 8593, 
  "Partner@@": 8594, 
  "beeinflusst": 8595, 
  "kat@@": 8596, 
  "probe": 8597, 
  "gewohnt": 8598, 
  "bedienen": 8599, 
  "opp@@": 8600, 
  "präzise": 8601, 
  "eingebunden": 8602, 
  "utz": 8603, 
  "genauen": 8604, 
  "hochwertigen": 8605, 
  "Rekord": 8606, 
  "Gegenwart": 8607, 
  "heits@@": 8608, 
  "orf": 8609, 
  "Sound": 8610, 
  "port@@": 8611, 
  "renoviert": 8612, 
  "Pr@@": 8613, 
  "Venedig": 8614, 
  "Zeitungen": 8615, 
  "Karten@@": 8616, 
  "Abenteuer": 8617, 
  "Mailand": 8618, 
  "Würde": 8619, 
  "Landgericht": 8620, 
  "Mühe": 8621, 
  "Gymnasium": 8622, 
  "Referenz@@": 8623, 
  "steigende": 8624, 
  "vereint": 8625, 
  "All": 8626, 
  "Lehre": 8627, 
  "unterscheidet": 8628, 
  "Ganze": 8629, 
  "Tschechischen": 8630, 
  "Ergänzung": 8631, 
  "DI@@": 8632, 
  "Argentinien": 8633, 
  "Net@@": 8634, 
  "real": 8635, 
  "din@@": 8636, 
  "herrlichen": 8637, 
  "fal@@": 8638, 
  "zwingen": 8639, 
  "potenziellen": 8640, 
  "Ausübung": 8641, 
  "gebrochen": 8642, 
  "hinzugefügt": 8643, 
  "Chor@@": 8644, 
  "ziger": 8645, 
  "Ben": 8646, 
  "durchgeführten": 8647, 
  "ves": 8648, 
  "Spezialisten": 8649, 
  "Global": 8650, 
  "Inhalten": 8651, 
  "keinesfalls": 8652, 
  "37@@": 8653, 
  "aktion": 8654, 
  "Balkan@@": 8655, 
  "Fahrrad@@": 8656, 
  "André": 8657, 
  "Krebs": 8658, 
  "beauftragte": 8659, 
  "Kämpfer": 8660, 
  "MS": 8661, 
  "ath@@": 8662, 
  "Stor@@": 8663, 
  "Weiterbildung": 8664, 
  "t.@@": 8665, 
  "isch@@": 8666, 
  "komplex": 8667, 
  "vergleichen": 8668, 
  "sz@@": 8669, 
  "verpasst": 8670, 
  "my@@": 8671, 
  "stabil": 8672, 
  "eper": 8673, 
  "pper": 8674, 
  "derung": 8675, 
  "Marken@@": 8676, 
  "ckte": 8677, 
  "Mand@@": 8678, 
  "Hauptversammlung": 8679, 
  "Tar@@": 8680, 
  "Null": 8681, 
  "Verkehr@@": 8682, 
  "verwirklichen": 8683, 
  "ausgewählten": 8684, 
  "erschien": 8685, 
  "Mode": 8686, 
  "ci": 8687, 
  "EG@@": 8688, 
  "interessieren": 8689, 
  "Rollen": 8690, 
  "zielen": 8691, 
  "000@@": 8692, 
  "Platz@@": 8693, 
  "ay": 8694, 
  "Affäre": 8695, 
  "stunden": 8696, 
  "ßer": 8697, 
  "komplexen": 8698, 
  "sche@@": 8699, 
  "90@@": 8700, 
  "bricht": 8701, 
  "ausgesch@@": 8702, 
  "Mus@@": 8703, 
  "Chaos": 8704, 
  "unterbrochen": 8705, 
  "Regie": 8706, 
  "Arbeitsweise": 8707, 
  "az": 8708, 
  "massive": 8709, 
  "zün@@": 8710, 
  "Klö@@": 8711, 
  "Wahrscheinlichkeit": 8712, 
  "Günter": 8713, 
  "verglichen": 8714, 
  "š@@": 8715, 
  "atten@@": 8716, 
  "weiler": 8717, 
  "halb": 8718, 
  "linien": 8719, 
  "hand": 8720, 
  "urs": 8721, 
  "Pop": 8722, 
  "zeige": 8723, 
  "unterrichtet": 8724, 
  "chan@@": 8725, 
  "110": 8726, 
  "Bundesstaat": 8727, 
  "brenn@@": 8728, 
  "Lob": 8729, 
  "Bewegungen": 8730, 
  "reich@@": 8731, 
  "sozial@@": 8732, 
  "durchgesetzt": 8733, 
  "Tot@@": 8734, 
  "unterhalten": 8735, 
  "amtliche": 8736, 
  "Besucher@@": 8737, 
  "Transfer": 8738, 
  "Original@@": 8739, 
  "kehrt": 8740, 
  "mente": 8741, 
  "jüngst": 8742, 
  "moder@@": 8743, 
  "Schwimm@@": 8744, 
  "Ring": 8745, 
  "tags": 8746, 
  "phase": 8747, 
  "mach@@": 8748, 
  "Fraktions@@": 8749, 
  "Plätzen": 8750, 
  "meldete": 8751, 
  "höchstens": 8752, 
  "Mord": 8753, 
  "sdorf": 8754, 
  "Ursprung": 8755, 
  "angegriffen": 8756, 
  "Mac@@": 8757, 
  "Jazz": 8758, 
  "Bern@@": 8759, 
  "prüfung": 8760, 
  "Tr@@": 8761, 
  "vel@@": 8762, 
  "Entscheidungs@@": 8763, 
  "The@@": 8764, 
  "furt": 8765, 
  "wahr@@": 8766, 
  "Offen@@": 8767, 
  "gkeiten": 8768, 
  "WHO": 8769, 
  "profitiert": 8770, 
  "Duo": 8771, 
  "getestet": 8772, 
  "verwende": 8773, 
  "Nationalmannschaft": 8774, 
  "Liberalen": 8775, 
  "Indikatoren": 8776, 
  "iss": 8777, 
  "Scha@@": 8778, 
  "Fleisch@@": 8779, 
  "Werkzeug": 8780, 
  "Suite": 8781, 
  "entlassen": 8782, 
  "AFP": 8783, 
  "Basketball": 8784, 
  "Office": 8785, 
  "olo@@": 8786, 
  "bundes@@": 8787, 
  "kum": 8788, 
  "Ersten": 8789, 
  "schie@@": 8790, 
  "Western": 8791, 
  "technologische": 8792, 
  "orientierten": 8793, 
  "durchschnittliche": 8794, 
  "südlich": 8795, 
  "Hafen@@": 8796, 
  "ele@@": 8797, 
  "Express": 8798, 
  "dri@@": 8799, 
  "Lieferanten": 8800, 
  "qualifizierte": 8801, 
  "Siege": 8802, 
  "nacht": 8803, 
  "Wes@@": 8804, 
  "beauftragt": 8805, 
  "Sig@@": 8806, 
  "Zugangs": 8807, 
  "Abfälle": 8808, 
  "werk@@": 8809, 
  "Tru@@": 8810, 
  "Mauer": 8811, 
  "ausgenommen": 8812, 
  "Katalog": 8813, 
  "betragen": 8814, 
  "hob": 8815, 
  "Literatur": 8816, 
  "Spielraum": 8817, 
  "gestrichen": 8818, 
  "verhandeln": 8819, 
  "unteren": 8820, 
  "realen": 8821, 
  "ßt": 8822, 
  "Juni@@": 8823, 
  "Arbeitsbedingungen": 8824, 
  "rennen": 8825, 
  "ahr@@": 8826, 
  "mail": 8827, 
  "stellvertretende": 8828, 
  "bereitschaft": 8829, 
  "Flüge": 8830, 
  "wiesen": 8831, 
  "Schwester": 8832, 
  "stärkste": 8833, 
  "Junge": 8834, 
  "dienstes": 8835, 
  "pra@@": 8836, 
  "Fluggesellschaften": 8837, 
  "Branchen@@": 8838, 
  "......": 8839, 
  "größerer": 8840, 
  "bs": 8841, 
  "trinken": 8842, 
  "schluss": 8843, 
  "Johann": 8844, 
  "Stockholm": 8845, 
  "Christen": 8846, 
  "gur@@": 8847, 
  "stärkeren": 8848, 
  "Spezialitäten": 8849, 
  "Verlag": 8850, 
  "Reb@@": 8851, 
  "strenge": 8852, 
  "Erhebung": 8853, 
  "lehnt": 8854, 
  "TC": 8855, 
  "weiße": 8856, 
  "wo@@": 8857, 
  "einhalten": 8858, 
  "Schutzes": 8859, 
  "familie": 8860, 
  "verabschiedete": 8861, 
  "ländern": 8862, 
  "teilten": 8863, 
  "Zins@@": 8864, 
  "zei@@": 8865, 
  "Volksgesundheit": 8866, 
  "Fritz": 8867, 
  "Erkrankungen": 8868, 
  "ord": 8869, 
  "untereinander": 8870, 
  "östlichen": 8871, 
  "deutlichen": 8872, 
  "massiven": 8873, 
  "rahmen": 8874, 
  "vertreter": 8875, 
  "Österreicher": 8876, 
  "Hen@@": 8877, 
  "Göttingen": 8878, 
  "Behinderungen": 8879, 
  "este": 8880, 
  "gelände": 8881, 
  "Bürokratie": 8882, 
  "Hai@@": 8883, 
  "unbekannte": 8884, 
  "Email": 8885, 
  "theater": 8886, 
  "schenken": 8887, 
  "center": 8888, 
  "tten": 8889, 
  "Zusagen": 8890, 
  "istin": 8891, 
  "Angabe": 8892, 
  "great": 8893, 
  "para": 8894, 
  "ever@@": 8895, 
  "Aktu@@": 8896, 
  "rät": 8897, 
  "strafe": 8898, 
  "EP@@": 8899, 
  "unentgeltlich": 8900, 
  "Fernseher": 8901, 
  "zusammenzuarbeiten": 8902, 
  "Objekt": 8903, 
  "blauen": 8904, 
  "Milliarde": 8905, 
  "fühle": 8906, 
  "Beach": 8907, 
  "Florenz": 8908, 
  "lebte": 8909, 
  "schalten": 8910, 
  "teilzunehmen": 8911, 
  "vorrangig": 8912, 
  "Det@@": 8913, 
  "ause": 8914, 
  "parlamentarischen": 8915, 
  "verhältnisse": 8916, 
  "veranstaltungen": 8917, 
  "Ticket": 8918, 
  "Kohärenz": 8919, 
  "befürchten": 8920, 
  "drucken": 8921, 
  "Stephan": 8922, 
  "Auslegung": 8923, 
  "boden": 8924, 
  "Karlsruhe": 8925, 
  "auseinander": 8926, 
  "ungarischen": 8927, 
  "vorübergehend": 8928, 
  "schöner": 8929, 
  "Alkohol@@": 8930, 
  "erreichten": 8931, 
  "ass": 8932, 
  "versichert": 8933, 
  "city": 8934, 
  "Volkspartei": 8935, 
  "reform": 8936, 
  "Stei@@": 8937, 
  "verzichtet": 8938, 
  "edi@@": 8939, 
  "gestanden": 8940, 
  "Performance": 8941, 
  "Pau@@": 8942, 
  "höchster": 8943, 
  "Zuständigkeiten": 8944, 
  "Konzerte": 8945, 
  "üsse": 8946, 
  "Besch@@": 8947, 
  "Herbert": 8948, 
  "Auflage": 8949, 
  "Brüder": 8950, 
  "kul@@": 8951, 
  "unterdessen": 8952, 
  "landete": 8953, 
  "Edel@@": 8954, 
  "Aufruf": 8955, 
  "Felder": 8956, 
  "Fahrrad": 8957, 
  "Abschluß": 8958, 
  "Truppe": 8959, 
  "Föderation": 8960, 
  "Ferienwohnung": 8961, 
  "nik": 8962, 
  "140": 8963, 
  "blickt": 8964, 
  "betrag": 8965, 
  "unglaublich": 8966, 
  "Cha@@": 8967, 
  "Verstoß": 8968, 
  "Jahresende": 8969, 
  "rechtfertigen": 8970, 
  "Uni": 8971, 
  "Prä@@": 8972, 
  "Such@@": 8973, 
  "Derby": 8974, 
  "Konvent": 8975, 
  "Armen": 8976, 
  "Link@@": 8977, 
  "detaillierte": 8978, 
  "frank@@": 8979, 
  "chung": 8980, 
  "Konvention": 8981, 
  "70@@": 8982, 
  "ams": 8983, 
  "avec": 8984, 
  "eindeutige": 8985, 
  "ßen@@": 8986, 
  "Quoten": 8987, 
  "Visa": 8988, 
  "Schlußfolgerungen": 8989, 
  "tim@@": 8990, 
  "Zei@@": 8991, 
  "Zimmer@@": 8992, 
  "club": 8993, 
  "erlangen": 8994, 
  "af": 8995, 
  "hinzu@@": 8996, 
  "Stabilitäts-": 8997, 
  "Mannheim": 8998, 
  "Aufstellung": 8999, 
  "reißen": 9000, 
  "Freie": 9001, 
  "sicherheits@@": 9002, 
  "Train@@": 9003, 
  "Comeback": 9004, 
  "Graz": 9005, 
  "def@@": 9006, 
  "Infrastrukturen": 9007, 
  "A.": 9008, 
  "hinnehmen": 9009, 
  "Güter": 9010, 
  "angehören": 9011, 
  "verstärkten": 9012, 
  "hinterlassen": 9013, 
  "tzen": 9014, 
  "Schröder": 9015, 
  "Tanz": 9016, 
  "vorbei@@": 9017, 
  "Dienstleistungs@@": 9018, 
  "Informations-": 9019, 
  "inwieweit": 9020, 
  "wettbewerb": 9021, 
  "Nachbarschaft": 9022, 
  "Bergen": 9023, 
  "Chor": 9024, 
  "Vermögen": 9025, 
  "ziel@@": 9026, 
  "grad": 9027, 
  "Franzosen": 9028, 
  "Anbindung": 9029, 
  "Lat@@": 9030, 
  "23@@": 9031, 
  "Siemens": 9032, 
  "they": 9033, 
  "rische": 9034, 
  "groß@@": 9035, 
  "unterricht": 9036, 
  "Bitte": 9037, 
  "Umweltfragen": 9038, 
  "Sand": 9039, 
  "Rock@@": 9040, 
  "Pierre": 9041, 
  "vorgeworfen": 9042, 
  "Merkmale": 9043, 
  "wirklichen": 9044, 
  "drohen": 9045, 
  "theim": 9046, 
  "ausgegangen": 9047, 
  "ings@@": 9048, 
  "angebotenen": 9049, 
  "dende": 9050, 
  "rad": 9051, 
  "ruhige": 9052, 
  "Fur@@": 9053, 
  "ville": 9054, 
  "besitzer": 9055, 
  "stunde": 9056, 
  "Schlag@@": 9057, 
  "drängt": 9058, 
  "sson": 9059, 
  "Schäfer": 9060, 
  "unterbreitet": 9061, 
  "dorthin": 9062, 
  "OLAF": 9063, 
  "Durchgang": 9064, 
  "Scheitern": 9065, 
  "angenehm": 9066, 
  "od@@": 9067, 
  "beträchtliche": 9068, 
  "regelmäßige": 9069, 
  "sozial": 9070, 
  "Regierungschef": 9071, 
  "Offensive": 9072, 
  "irgendwo": 9073, 
  "Formulierung": 9074, 
  "lang@@": 9075, 
  "saison": 9076, 
  "OECD": 9077, 
  "einzuhalten": 9078, 
  "dam@@": 9079, 
  "modified": 9080, 
  "Gut": 9081, 
  "respektieren": 9082, 
  "mitunter": 9083, 
  "Prof.": 9084, 
  "Royal": 9085, 
  "gesunken": 9086, 
  "Schlaf@@": 9087, 
  "nachts": 9088, 
  "Sabine": 9089, 
  "Geschenk": 9090, 
  "haupt@@": 9091, 
  "gleicher": 9092, 
  "Indi@@": 9093, 
  "Kabel": 9094, 
  "volles": 9095, 
  "gebür@@": 9096, 
  "beschreiben": 9097, 
  "DEN": 9098, 
  "genes": 9099, 
  "gesetzten": 9100, 
  "Zuverlässigkeit": 9101, 
  "Wälder": 9102, 
  "Flugzeuge": 9103, 
  "Wochen@@": 9104, 
  "stro@@": 9105, 
  "Roland": 9106, 
  "berufen": 9107, 
  "gesunde": 9108, 
  "Riesen@@": 9109, 
  "zel": 9110, 
  "Str@@": 9111, 
  "Life": 9112, 
  "version": 9113, 
  "Präsidentschafts@@": 9114, 
  "Konsultationen": 9115, 
  "ausgearbeitet": 9116, 
  "fran@@": 9117, 
  "krimin@@": 9118, 
  "Galerie": 9119, 
  "linke": 9120, 
  "meldet": 9121, 
  "Abfahrt": 9122, 
  "José": 9123, 
  "tungen": 9124, 
  "leitete": 9125, 
  "ernsthafte": 9126, 
  "Kassel": 9127, 
  "verlegt": 9128, 
  "unfall": 9129, 
  "nä@@": 9130, 
  "antrag": 9131, 
  "standes": 9132, 
  "ppen@@": 9133, 
  "kenne": 9134, 
  "Baby": 9135, 
  "Energiequellen": 9136, 
  "ey@@": 9137, 
  "Bag@@": 9138, 
  "Entschädigung": 9139, 
  "ursprüngliche": 9140, 
  "Marie": 9141, 
  "baus": 9142, 
  "TA": 9143, 
  "Aktie": 9144, 
  "einnehmen": 9145, 
  "Cam@@": 9146, 
  "partei": 9147, 
  "ampf": 9148, 
  "wechselte": 9149, 
  "Siegen": 9150, 
  "Otto": 9151, 
  "Dek@@": 9152, 
  "Zer@@": 9153, 
  "verbände": 9154, 
  "Vormittag": 9155, 
  "RO": 9156, 
  "voraus@@": 9157, 
  "FP@@": 9158, 
  "typische": 9159, 
  "Stimm@@": 9160, 
  "Konflikts": 9161, 
  "befreien": 9162, 
  "gültig": 9163, 
  "Deb@@": 9164, 
  "Kro@@": 9165, 
  "dacht": 9166, 
  "Ap@@": 9167, 
  "Spiels": 9168, 
  "sy@@": 9169, 
  "Mehrwert": 9170, 
  "ausfallen": 9171, 
  "angehen": 9172, 
  "spiegelt": 9173, 
  "auswählen": 9174, 
  "Militär": 9175, 
  "Freizeit": 9176, 
  "Bildschirm": 9177, 
  "gebot": 9178, 
  "1500": 9179, 
  "besseres": 9180, 
  "Berichterstattung": 9181, 
  "erisch": 9182, 
  "Rezession": 9183, 
  "gehörten": 9184, 
  "Verfol@@": 9185, 
  "VN": 9186, 
  "Bad@@": 9187, 
  "Stern": 9188, 
  "Kim": 9189, 
  "Events": 9190, 
  "wozu": 9191, 
  "è@@": 9192, 
  "Far@@": 9193, 
  "Beck": 9194, 
  "Marktwirtschaft": 9195, 
  "Urlaubs@@": 9196, 
  "Tendenz": 9197, 
  "free": 9198, 
  "Vorgänger": 9199, 
  "Architekten": 9200, 
  "benannt": 9201, 
  "maßgeblich": 9202, 
  "res@@": 9203, 
  "USS": 9204, 
  "gefährlicher": 9205, 
  "Gerichten": 9206, 
  "ann": 9207, 
  "Г": 9208, 
  "Erarbeitung": 9209, 
  "privat": 9210, 
  "Fischereipolitik": 9211, 
  "§": 9212, 
  "pres@@": 9213, 
  "Stö@@": 9214, 
  "clean": 9215, 
  "ORF": 9216, 
  "Quote": 9217, 
  "Gegenstände": 9218, 
  "Zentimeter": 9219, 
  "30@@": 9220, 
  "Flash": 9221, 
  "HIV": 9222, 
  "Günther": 9223, 
  "Einwanderer": 9224, 
  "Modell@@": 9225, 
  "Verzögerungen": 9226, 
  "saß": 9227, 
  "Gipfels": 9228, 
  "herum@@": 9229, 
  "ton@@": 9230, 
  "realer": 9231, 
  "Zielsetzungen": 9232, 
  "disch": 9233, 
  "Begleitung": 9234, 
  "folgten": 9235, 
  "strengen": 9236, 
  "ez": 9237, 
  "Wellness": 9238, 
  "kli@@": 9239, 
  "king": 9240, 
  "Lasten": 9241, 
  "kap@@": 9242, 
  "Schl@@": 9243, 
  "pflege": 9244, 
  "scheinbar": 9245, 
  "digung": 9246, 
  "einziger": 9247, 
  "Übergriffe": 9248, 
  "Klini@@": 9249, 
  "Rom@@": 9250, 
  "EU@@": 9251, 
  "bearbeitet": 9252, 
  "ökologische": 9253, 
  "Ostsee": 9254, 
  "Jäger": 9255, 
  "Friedens": 9256, 
  "fr@@": 9257, 
  "atorin": 9258, 
  "nahen": 9259, 
  "Sozialpartner": 9260, 
  "pen": 9261, 
  "beides": 9262, 
  "weichen": 9263, 
  "spannend": 9264, 
  "wärts": 9265, 
  "Laufzeit": 9266, 
  "schaffte": 9267, 
  "Innovations@@": 9268, 
  ",5": 9269, 
  "spek@@": 9270, 
  "Standorte": 9271, 
  "1860": 9272, 
  "scharf": 9273, 
  "Rahmens": 9274, 
  "NL": 9275, 
  "dos": 9276, 
  "Pra@@": 9277, 
  "lehnen": 9278, 
  "Briten": 9279, 
  "Cre@@": 9280, 
  "Umbau": 9281, 
  "Institute": 9282, 
  "Europa@@": 9283, 
  "ili@@": 9284, 
  "wel@@": 9285, 
  "schönes": 9286, 
  "eintreten": 9287, 
  "flu@@": 9288, 
  "Zwangs@@": 9289, 
  "Sven": 9290, 
  "Internetzugang": 9291, 
  "Netzes": 9292, 
  "PPE": 9293, 
  "extremen": 9294, 
  "las@@": 9295, 
  "test": 9296, 
  "Besetzung": 9297, 
  "Aktionsplans": 9298, 
  "denkbar": 9299, 
  "Vermittlung": 9300, 
  "Vize": 9301, 
  "frist": 9302, 
  "Audi": 9303, 
  "Off@@": 9304, 
  "Kostü@@": 9305, 
  "Info": 9306, 
  "abgesagt": 9307, 
  "iten": 9308, 
  "derartigen": 9309, 
  "dler": 9310, 
  "Vermarktung": 9311, 
  "tief@@": 9312, 
  "Berichterstatters": 9313, 
  "Berechnung": 9314, 
  "Sto@@": 9315, 
  "Vereinigtes": 9316, 
  "marktes": 9317, 
  "ktionen": 9318, 
  "Analysen": 9319, 
  "alisiert": 9320, 
  "überschritten": 9321, 
  "Vogel@@": 9322, 
  "geladen": 9323, 
  "wand": 9324, 
  "Obst": 9325, 
  "dreimal": 9326, 
  "Therapie": 9327, 
  "Instrumenten": 9328, 
  "60@@": 9329, 
  "dauerhafte": 9330, 
  "mes@@": 9331, 
  "Sammel@@": 9332, 
  "alarmi@@": 9333, 
  "Hoh@@": 9334, 
  "Bier@@": 9335, 
  "bayerischen": 9336, 
  "kraft@@": 9337, 
  "einbringen": 9338, 
  "pfte": 9339, 
  "geworfen": 9340, 
  "spartei": 9341, 
  "definitiv": 9342, 
  "Fahn@@": 9343, 
  "ander": 9344, 
  "behindert": 9345, 
  "Meyer": 9346, 
  "anerkennen": 9347, 
  "ausstellung": 9348, 
  "verordnung": 9349, 
  "Sängerin": 9350, 
  "red": 9351, 
  "Benjamin": 9352, 
  "Zus@@": 9353, 
  "Sicherheit@@": 9354, 
  "Lizenz@@": 9355, 
  "Alten": 9356, 
  "ato": 9357, 
  "Einschränkung": 9358, 
  "forum": 9359, 
  "Montenegro": 9360, 
  "Stücke": 9361, 
  "Weltbank": 9362, 
  "gter": 9363, 
  "verschwinden": 9364, 
  "Tür@@": 9365, 
  "einzelner": 9366, 
  "Wichtigkeit": 9367, 
  "leitungen": 9368, 
  "portugiesischen": 9369, 
  "Ufer": 9370, 
  "Verträgen": 9371, 
  "demokratisch": 9372, 
  "Kameras": 9373, 
  "ero": 9374, 
  "Thüringen": 9375, 
  "transparent": 9376, 
  "preisen": 9377, 
  "anstehenden": 9378, 
  "schwach": 9379, 
  "Budapest": 9380, 
  "ungel@@": 9381, 
  "technologischen": 9382, 
  "ater@@": 9383, 
  "Wahlkampf@@": 9384, 
  "lers": 9385, 
  "position": 9386, 
  "Neujahr@@": 9387, 
  "mischen": 9388, 
  "Südkorea": 9389, 
  "scher@@": 9390, 
  "oo@@": 9391, 
  "Charme": 9392, 
  "Loch": 9393, 
  "landen": 9394, 
  "niedrige": 9395, 
  "einzurichten": 9396, 
  "Finanzmärkte": 9397, 
  "Hilfen": 9398, 
  "tende": 9399, 
  "only": 9400, 
  "Erneuerung": 9401, 
  "derjenigen": 9402, 
  "zahlreicher": 9403, 
  "Räumen": 9404, 
  "chtes": 9405, 
  "beschloss": 9406, 
  "warm": 9407, 
  "Schä@@": 9408, 
  "Mutter@@": 9409, 
  "Gebäudes": 9410, 
  "off@@": 9411, 
  "wofür": 9412, 
  "Begrenzung": 9413, 
  "Play": 9414, 
  "Leiterin": 9415, 
  "unzureichend": 9416, 
  "Figuren": 9417, 
  "anstelle": 9418, 
  "gelegene": 9419, 
  "Ermittlungs@@": 9420, 
  "Gebühr": 9421, 
  "unterhalb": 9422, 
  "Küsten@@": 9423, 
  "hten": 9424, 
  "baum": 9425, 
  "gere@@": 9426, 
  "brü@@": 9427, 
  "Annäherung": 9428, 
  "einheiten": 9429, 
  "zuzu@@": 9430, 
  "Subventionen": 9431, 
  "Strände": 9432, 
  "Rahmenprogramm": 9433, 
  "ite": 9434, 
  "Appartements": 9435, 
  "wohnt": 9436, 
  "Dritt@@": 9437, 
  "Karneval": 9438, 
  "landes": 9439, 
  "ide@@": 9440, 
  "enter": 9441, 
  "Breitband@@": 9442, 
  "lichkeiten": 9443, 
  "partner": 9444, 
  "ahn": 9445, 
  "abrufbar": 9446, 
  "ablehnen": 9447, 
  "gezahlt": 9448, 
  "Roger": 9449, 
  "einzuleiten": 9450, 
  "friendly": 9451, 
  "10,@@": 9452, 
  "gri@@": 9453, 
  "Papier@@": 9454, 
  "Prinz": 9455, 
  "Patent@@": 9456, 
  "ech@@": 9457, 
  "echter": 9458, 
  "vormittag": 9459, 
  "gend@@": 9460, 
  "Stadtverwaltung": 9461, 
  "Cas@@": 9462, 
  "sta": 9463, 
  "nächstes": 9464, 
  "Wesen": 9465, 
  "Moldau": 9466, 
  "ick": 9467, 
  "mäßig": 9468, 
  "sho@@": 9469, 
  "dementsprechend": 9470, 
  "Pass": 9471, 
  "klassen": 9472, 
  "Designer": 9473, 
  "faire": 9474, 
  "gesunden": 9475, 
  "Ziels": 9476, 
  "Mehrwertsteuer": 9477, 
  "ON@@": 9478, 
  "worauf": 9479, 
  "Zusage": 9480, 
  "kunst": 9481, 
  "überdies": 9482, 
  "Verstöße": 9483, 
  "öfter": 9484, 
  "jäger": 9485, 
  "Erinnerungen": 9486, 
  "Ernennung": 9487, 
  "mte": 9488, 
  "gie": 9489, 
  "sin": 9490, 
  "Kab@@": 9491, 
  "Anzeichen": 9492, 
  "Oper": 9493, 
  "andernfalls": 9494, 
  "herstellen": 9495, 
  "geehrt": 9496, 
  "koordiniert": 9497, 
  "stimmte": 9498, 
  "Toren": 9499, 
  "IG@@": 9500, 
  "schuldig": 9501, 
  "Kindes": 9502, 
  "wenngleich": 9503, 
  "gesetzliche": 9504, 
  "Check": 9505, 
  "fo@@": 9506, 
  "Hunde": 9507, 
  "schlicht": 9508, 
  "Silber@@": 9509, 
  "Vet@@": 9510, 
  "Eisen@@": 9511, 
  "berechtigten": 9512, 
  "Reinigung": 9513, 
  "Bis@@": 9514, 
  "Wille": 9515, 
  "ige": 9516, 
  "Vis@@": 9517, 
  "förder@@": 9518, 
  "derweil": 9519, 
  "Amazon": 9520, 
  "Männer@@": 9521, 
  "beitrag": 9522, 
  "Job@@": 9523, 
  "zes": 9524, 
  "demokratischer": 9525, 
  "wahrgenommen": 9526, 
  "dänischen": 9527, 
  "bemerkt": 9528, 
  "Fitness": 9529, 
  "biologischen": 9530, 
  "deb@@": 9531, 
  "Erwachsenen": 9532, 
  "Lieblings@@": 9533, 
  "jeglicher": 9534, 
  "Sony": 9535, 
  "back": 9536, 
  "Wenn": 9537, 
  "Kindergarten": 9538, 
  "mmer": 9539, 
  "drauf": 9540, 
  "Cl@@": 9541, 
  "sportlichen": 9542, 
  "schten": 9543, 
  "AG@@": 9544, 
  "Monats": 9545, 
  "reichlich": 9546, 
  "befürworten": 9547, 
  "manns": 9548, 
  "gerettet": 9549, 
  "Card": 9550, 
  "Ret@@": 9551, 
  "tus": 9552, 
  "angenehmen": 9553, 
  "Erdbeben": 9554, 
  "gemütliche": 9555, 
  "Instituts": 9556, 
  "klares": 9557, 
  "era": 9558, 
  "schätzt": 9559, 
  "Bot@@": 9560, 
  "zugesagt": 9561, 
  "nachdenken": 9562, 
  "bild@@": 9563, 
  "chner": 9564, 
  "zin@@": 9565, 
  "wind": 9566, 
  "analysieren": 9567, 
  "esti@@": 9568, 
  "geriet": 9569, 
  "Kilometern": 9570, 
  "Verbrauch": 9571, 
  "Ratschlag": 9572, 
  "sechsten": 9573, 
  "Einvernehmen": 9574, 
  "ov@@": 9575, 
  "verständlich": 9576, 
  "verurteilen": 9577, 
  "gkeits@@": 9578, 
  "Lie@@": 9579, 
  "Schiff@@": 9580, 
  "Anwesenheit": 9581, 
  "vorab": 9582, 
  "C.": 9583, 
  "hl@@": 9584, 
  "Erzeuger": 9585, 
  "gg": 9586, 
  "MO@@": 9587, 
  "Aufsicht": 9588, 
  "Werkzeuge": 9589, 
  "ziert": 9590, 
  "Airlines": 9591, 
  "enes": 9592, 
  "ärmsten": 9593, 
  "arkt": 9594, 
  "zukünftig": 9595, 
  "globaler": 9596, 
  "ologen": 9597, 
  "Proteste": 9598, 
  "final": 9599, 
  "dien@@": 9600, 
  "zügig": 9601, 
  "therapie": 9602, 
  "Anmerkungen": 9603, 
  "Ausbeutung": 9604, 
  "oc@@": 9605, 
  "Zukunfts@@": 9606, 
  "übersch@@": 9607, 
  "omm@@": 9608, 
  "Akteuren": 9609, 
  "design": 9610, 
  "stin": 9611, 
  "Prüfungen": 9612, 
  "Krei@@": 9613, 
  "latt": 9614, 
  "versorgen": 9615, 
  "vertrauen": 9616, 
  "user": 9617, 
  "verschwunden": 9618, 
  "aufweisen": 9619, 
  "Fusion": 9620, 
  "hervor@@": 9621, 
  "klassi@@": 9622, 
  "chti@@": 9623, 
  "5,@@": 9624, 
  "Nase": 9625, 
  "Defizite": 9626, 
  "funktionen": 9627, 
  "Export": 9628, 
  "person@@": 9629, 
  "Hein@@": 9630, 
  "ling@@": 9631, 
  "Transaktionen": 9632, 
  "jeweilige": 9633, 
  "basieren": 9634, 
  "agen": 9635, 
  "Leon@@": 9636, 
  "Distanz": 9637, 
  "Datenschutz@@": 9638, 
  "lon@@": 9639, 
  "schwedische": 9640, 
  "erkennbar": 9641, 
  "Lounge": 9642, 
  "mut@@": 9643, 
  "Cu@@": 9644, 
  "prozesse": 9645, 
  "anzeigen": 9646, 
  "Einfuhren": 9647, 
  "wick@@": 9648, 
  "Gymna@@": 9649, 
  "press": 9650, 
  "sü@@": 9651, 
  "rt": 9652, 
  "englische": 9653, 
  "Ingol@@": 9654, 
  "pool": 9655, 
  "irische": 9656, 
  "gewiss": 9657, 
  "teure": 9658, 
  "bür@@": 9659, 
  "Regi@@": 9660, 
  "Tei@@": 9661, 
  "Haf@@": 9662, 
  "Hallen@@": 9663, 
  "3,5": 9664, 
  "Refer@@": 9665, 
  "chtigen": 9666, 
  "nissen": 9667, 
  "strom": 9668, 
  "springen": 9669, 
  "einzustellen": 9670, 
  "jenseits": 9671, 
  "automatische": 9672, 
  "volumen": 9673, 
  "Entstehung": 9674, 
  "JavaScript": 9675, 
  "bus@@": 9676, 
  "vorzubereiten": 9677, 
  "agi@@": 9678, 
  "reihe": 9679, 
  "American": 9680, 
  "Bestellungen": 9681, 
  "Wahrnehmung": 9682, 
  "wohn@@": 9683, 
  "Waffe": 9684, 
  "skur@@": 9685, 
  "Sturz": 9686, 
  "Logik": 9687, 
  "restlichen": 9688, 
  "Ford": 9689, 
  "ble": 9690, 
  "fünfte": 9691, 
  "Sowjetunion": 9692, 
  "sol@@": 9693, 
  "Route": 9694, 
  "Mallorca": 9695, 
  "Telekommunikation": 9696, 
  "Rab@@": 9697, 
  "beiträgt": 9698, 
  "Blatt": 9699, 
  "internationales": 9700, 
  "Person@@": 9701, 
  "Modul": 9702, 
  "festgehalten": 9703, 
  "Vermeidung": 9704, 
  "dire@@": 9705, 
  "pflicht": 9706, 
  "vorbehalten": 9707, 
  "Erwägung": 9708, 
  "rede": 9709, 
  "konzipiert": 9710, 
  "Bürgerbeauftragten": 9711, 
  "lische": 9712, 
  "Box": 9713, 
  "fenster": 9714, 
  "übersetzt": 9715, 
  "etz": 9716, 
  "ange": 9717, 
  "ags": 9718, 
  "ly@@": 9719, 
  "Sozialpolitik": 9720, 
  "posten": 9721, 
  "gesetzlich": 9722, 
  "Brenn@@": 9723, 
  "trainiert": 9724, 
  "glu": 9725, 
  "namen": 9726, 
  "Demonstration": 9727, 
  "Beweise": 9728, 
  "han@@": 9729, 
  "Times": 9730, 
  "nähere": 9731, 
  "interessanten": 9732, 
  "finanzieller": 9733, 
  "Handlungs@@": 9734, 
  "post": 9735, 
  "zwanzig": 9736, 
  "Anregungen": 9737, 
  "EC@@": 9738, 
  "orten": 9739, 
  "IC@@": 9740, 
  "verankert": 9741, 
  "erie": 9742, 
  "flexible": 9743, 
  "tions": 9744, 
  "Weine": 9745, 
  "mannschaft": 9746, 
  "pos@@": 9747, 
  "jahrelang": 9748, 
  "Brun@@": 9749, 
  "Streit@@": 9750, 
  "mangelnde": 9751, 
  "uner@@": 9752, 
  "märkten": 9753, 
  "Bauern@@": 9754, 
  "v.": 9755, 
  "Menschenrechtsverletzungen": 9756, 
  "onn@@": 9757, 
  "kr@@": 9758, 
  "Tom@@": 9759, 
  "gemütlichen": 9760, 
  "Telefonnummer": 9761, 
  "views": 9762, 
  "Arbeit@@": 9763, 
  "echt": 9764, 
  "Anwendungs@@": 9765, 
  "m2": 9766, 
  "fingen": 9767, 
  "fing": 9768, 
  "Freu@@": 9769, 
  "Lieder": 9770, 
  "vorkommen": 9771, 
  "Arbeiter@@": 9772, 
  "plätzen": 9773, 
  "Sab@@": 9774, 
  "straßen": 9775, 
  "jemanden": 9776, 
  "Senat": 9777, 
  "marke": 9778, 
  "wohin": 9779, 
  "Bestände": 9780, 
  "any": 9781, 
  "Doppelzimmer": 9782, 
  "kers": 9783, 
  "Pension": 9784, 
  "Bezahlung": 9785, 
  "zitiert": 9786, 
  "informationen": 9787, 
  "Vor": 9788, 
  "Charles": 9789, 
  "Kongo": 9790, 
  "Telekommunikations@@": 9791, 
  "gerechten": 9792, 
  "bö@@": 9793, 
  "gische": 9794, 
  "Centre": 9795, 
  "kommerziellen": 9796, 
  "Einkommens@@": 9797, 
  "Famili@@": 9798, 
  "Ausstellungen": 9799, 
  "vorsitzender": 9800, 
  "Arm": 9801, 
  "erledigt": 9802, 
  "wä@@": 9803, 
  "erzählte": 9804, 
  "stabile": 9805, 
  "gebühr": 9806, 
  "Amerikas": 9807, 
  "Governance": 9808, 
  "ME@@": 9809, 
  "einrichtung": 9810, 
  "Beine": 9811, 
  "SW@@": 9812, 
  "problemen": 9813, 
  "bekamen": 9814, 
  "Regimes": 9815, 
  "--": 9816, 
  "Abschied": 9817, 
  "Fe@@": 9818, 
  "Zucker": 9819, 
  "dat@@": 9820, 
  "Nachbarschaftspolitik": 9821, 
  "banken": 9822, 
  "Ära": 9823, 
  "verhältnis": 9824, 
  "Einwände": 9825, 
  "bat": 9826, 
  "Kanal": 9827, 
  "ero@@": 9828, 
  "konstruktive": 9829, 
  "kräften": 9830, 
  "passte": 9831, 
  "optimistisch": 9832, 
  "Wohl@@": 9833, 
  "größtenteils": 9834, 
  "liefen": 9835, 
  "Cookies": 9836, 
  "Donau@@": 9837, 
  "Las": 9838, 
  "Ferien": 9839, 
  "durften": 9840, 
  "One": 9841, 
  "alismus": 9842, 
  "bestimmtes": 9843, 
  "unerlässlich": 9844, 
  "Herrschaft": 9845, 
  "freiwillige": 9846, 
  "beteiligung": 9847, 
  "Pas@@": 9848, 
  "NICHT": 9849, 
  "privater": 9850, 
  "Anzeigen": 9851, 
  "status": 9852, 
  "200@@": 9853, 
  "kompletten": 9854, 
  "sien": 9855, 
  "aux": 9856, 
  "Ly@@": 9857, 
  "Geldpolitik": 9858, 
  "RTL": 9859, 
  "Komm@@": 9860, 
  "dein": 9861, 
  "elegante": 9862, 
  "II.": 9863, 
  "realisieren": 9864, 
  "medi@@": 9865, 
  "Befragten": 9866, 
  "Welle": 9867, 
  "verträge": 9868, 
  "extreme": 9869, 
  "günstiger": 9870, 
  "Tauch@@": 9871, 
  "grund@@": 9872, 
  "Stationen": 9873, 
  "wü@@": 9874, 
  "Ci@@": 9875, 
  "wertung": 9876, 
  "vorherigen": 9877, 
  "Beitritts@@": 9878, 
  "erklärten": 9879, 
  "rats": 9880, 
  "registrieren": 9881, 
  "Kasse": 9882, 
  "erwähnten": 9883, 
  "Leid": 9884, 
  "Beträge": 9885, 
  "maximale": 9886, 
  "frau": 9887, 
  "ologe": 9888, 
  "streichen": 9889, 
  "19.30": 9890, 
  "Rand@@": 9891, 
  "ev@@": 9892, 
  "kasse": 9893, 
  "verlaufen": 9894, 
  "vorbereiten": 9895, 
  "sis": 9896, 
  "reale": 9897, 
  "Folgendes": 9898, 
  "herunter@@": 9899, 
  "digungen": 9900, 
  "Gemeinschaftsrecht": 9901, 
  "friedlichen": 9902, 
  "Runden": 9903, 
  "verbieten": 9904, 
  "bloß": 9905, 
  "Golf@@": 9906, 
  "angeführt": 9907, 
  "Geschäft@@": 9908, 
  "deck@@": 9909, 
  "Dam@@": 9910, 
  "Durchbruch": 9911, 
  "verletzten": 9912, 
  "besuchte": 9913, 
  "schützt": 9914, 
  "Ort@@": 9915, 
  "ausgelegt": 9916, 
  "Rücken@@": 9917, 
  "sportliche": 9918, 
  "Harald": 9919, 
  "Rubrik": 9920, 
  "Grö@@": 9921, 
  "stätten": 9922, 
  "allmählich": 9923, 
  "Szenen": 9924, 
  "Workshops": 9925, 
  "1988": 9926, 
  "strah@@": 9927, 
  "sektors": 9928, 
  "anteil": 9929, 
  "Frank@@": 9930, 
  "Dok": 9931, 
  "brüche": 9932, 
  "polnische": 9933, 
  "änge": 9934, 
  "erns": 9935, 
  "wem": 9936, 
  "Erb@@": 9937, 
  "woh@@": 9938, 
  "schutzes": 9939, 
  "ran": 9940, 
  "beeindruckt": 9941, 
  "betreffende": 9942, 
  "dest@@": 9943, 
  "Wand@@": 9944, 
  "Glad@@": 9945, 
  "kümmert": 9946, 
  "konservativen": 9947, 
  "stellungen": 9948, 
  "unterliegt": 9949, 
  "lebende": 9950, 
  "Effekte": 9951, 
  "experten": 9952, 
  "Intervention": 9953, 
  "absch@@": 9954, 
  "versprochen": 9955, 
  "Text@@": 9956, 
  "Leistungsfähigkeit": 9957, 
  "USD": 9958, 
  "Königreichs": 9959, 
  "netz@@": 9960, 
  "Autob@@": 9961, 
  "Beschlusses": 9962, 
  "ältesten": 9963, 
  "gler": 9964, 
  "Mac": 9965, 
  "ire": 9966, 
  "Palästinenser": 9967, 
  "Ay@@": 9968, 
  "ärer": 9969, 
  "Absage": 9970, 
  "eure": 9971, 
  "SC@@": 9972, 
  "sieger": 9973, 
  "tho@@": 9974, 
  "titel": 9975, 
  "cho@@": 9976, 
  "Sha@@": 9977, 
  "lock@@": 9978, 
  "Algerien": 9979, 
  "Energiepolitik": 9980, 
  "fern@@": 9981, 
  "rel@@": 9982, 
  "Israels": 9983, 
  "gewünschte": 9984, 
  "Konsolidierung": 9985, 
  "gg@@": 9986, 
  "Einkaufs@@": 9987, 
  "sende": 9988, 
  "tiefer": 9989, 
  "ks@@": 9990, 
  "352": 9991, 
  "Miss@@": 9992, 
  "Angehörige": 9993, 
  "ello": 9994, 
  "sky": 9995, 
  "Eu@@": 9996, 
  "anfangen": 9997, 
  "legung": 9998, 
  "westliche": 9999, 
  "versprechen": 10000, 
  "Übergangs@@": 10001, 
  "fair": 10002, 
  "Ausschüsse": 10003, 
  "á": 10004, 
  "uter": 10005, 
  "viel@@": 10006, 
  "Art.": 10007, 
  "umfassendes": 10008, 
  "IM@@": 10009, 
  "ust": 10010, 
  "CA": 10011, 
  "beliebten": 10012, 
  "wunderschöne": 10013, 
  "bilanz": 10014, 
  "Mittel-": 10015, 
  "problematisch": 10016, 
  "ECHO": 10017, 
  "Katastrophen": 10018, 
  "Jahr@@": 10019, 
  "shau@@": 10020, 
  "Finanzdienstleistungen": 10021, 
  "Euroraum": 10022, 
  "nachgewiesen": 10023, 
  "enthalt": 10024, 
  "bewußt": 10025, 
  "ckner": 10026, 
  "Nu@@": 10027, 
  "Diesel": 10028, 
  "eingesch@@": 10029, 
  "Techniken": 10030, 
  "Blumen": 10031, 
  "ecke": 10032, 
  "let@@": 10033, 
  "450": 10034, 
  "Einblick": 10035, 
  "Führ@@": 10036, 
  "Rettung": 10037, 
  "Gegenzug": 10038, 
  "vers": 10039, 
  "Taxi": 10040, 
  "Tool": 10041, 
  "Albert": 10042, 
  "Ehefrau": 10043, 
  "lein": 10044, 
  "Folge@@": 10045, 
  "Was": 10046, 
  "rei": 10047, 
  "Adressen": 10048, 
  "vielfach": 10049, 
  "erläutern": 10050, 
  "Standorten": 10051, 
  "lten": 10052, 
  "Klu@@": 10053, 
  "Wie@@": 10054, 
  "Mode@@": 10055, 
  "verdanken": 10056, 
  "ckten": 10057, 
  "ruhiger": 10058, 
  "Operationen": 10059, 
  "ausgestattete": 10060, 
  "rufe": 10061, 
  "Gesch@@": 10062, 
  "Gesetzes": 10063, 
  "Konferenzen": 10064, 
  "industrielle": 10065, 
  "Muslime": 10066, 
  "Fremdenverkehr": 10067, 
  "zugang": 10068, 
  "nördlichen": 10069, 
  "Tel@@": 10070, 
  "Moder@@": 10071, 
  "Prin@@": 10072, 
  "Fang@@": 10073, 
  "Plaza": 10074, 
  "Medizin@@": 10075, 
  "UNION": 10076, 
  "Nachwuchs@@": 10077, 
  "erh@@": 10078, 
  "vielfältigen": 10079, 
  "Gärten": 10080, 
  "geschäfte": 10081, 
  "Becker": 10082, 
  "Marina": 10083, 
  "anmelden": 10084, 
  "Annehmlichkeiten": 10085, 
  "Straßenverkehr": 10086, 
  "zeitweise": 10087, 
  "Meer@@": 10088, 
  "klein@@": 10089, 
  "ot": 10090, 
  "Stabilisierungs-": 10091, 
  "geschossen": 10092, 
  "Tim@@": 10093, 
  "Mäd@@": 10094, 
  "Beschränkung": 10095, 
  "ky": 10096, 
  "Edition": 10097, 
  "Instanz": 10098, 
  "Mieter": 10099, 
  "chem": 10100, 
  "Veranstaltungs@@": 10101, 
  "langjährigen": 10102, 
  "eröffnete": 10103, 
  "strecken": 10104, 
  "wirkte": 10105, 
  "Fed": 10106, 
  "Abgeordneter": 10107, 
  "wählt": 10108, 
  "Teilnehmer@@": 10109, 
  "osteuropäischen": 10110, 
  "Planungs@@": 10111, 
  "kostenfrei": 10112, 
  "way": 10113, 
  "Mobile": 10114, 
  "atten": 10115, 
  "bereitstellen": 10116, 
  "Ärger": 10117, 
  "dierte": 10118, 
  "schein@@": 10119, 
  "behindern": 10120, 
  "intensiven": 10121, 
  "FÜR": 10122, 
  "Plastik@@": 10123, 
  "Bedingung": 10124, 
  "gewisser": 10125, 
  "Wünschen": 10126, 
  "Skype": 10127, 
  "trainieren": 10128, 
  "Fremd@@": 10129, 
  "Tools": 10130, 
  "itäts@@": 10131, 
  "Reg@@": 10132, 
  "anderswo": 10133, 
  "Audio": 10134, 
  "spi@@": 10135, 
  "ring": 10136, 
  "frischen": 10137, 
  "Gab@@": 10138, 
  "freiheit": 10139, 
  "Blumen@@": 10140, 
  "realistisch": 10141, 
  "Waren@@": 10142, 
  "Höhen@@": 10143, 
[...]
