{
  "eos": 44116, 
  "UNK": 1, 
  "the": 2, 
  ",": 3, 
  ".": 4, 
  "of": 5, 
  "and": 6, 
  "to": 7, 
  "in": 8, 
  "a": 9, 
  "is": 10, 
  "for": 11, 
  "&quot;": 12, 
  "@-@": 13, 
  "that": 14, 
  "on": 15, 
  "with": 16, 
  "it": 17, 
  "be": 18, 
  "are": 19, 
  "this": 20, 
  "as": 21, 
  ":": 22, 
  "at": 23, 
  "by": 24, 
  "we": 25, 
  "not": 26, 
  "(": 27, 
  "have": 28, 
  ")": 29, 
  "from": 30, 
  "&apos;s": 31, 
  "was": 32, 
  "-": 33, 
  "I": 34, 
  "has": 35, 
  "will": 36, 
  "an": 37, 
  "you": 38, 
  "which": 39, 
  "or": 40, 
  "also": 41, 
  "all": 42, 
  "but": 43, 
  "can": 44, 
  "European": 45, 
  "there": 46, 
  "been": 47, 
  "more": 48, 
  "/": 49, 
  "our": 50, 
  "their": 51, 
  "they": 52, 
  "were": 53, 
  "its": 54, 
  "he": 55, 
  "one": 56, 
  "would": 57, 
  "his": 58, 
  "Commission": 59, 
  "new": 60, 
  "time": 61, 
  "if": 62, 
  "about": 63, 
  "up": 64, 
  "who": 65, 
  "after": 66, 
  "so": 67, 
  "only": 68, 
  "year": 69, 
  "other": 70, 
  "should": 71, 
  "do": 72, 
  "had": 73, 
  "EU": 74, 
  "your": 75, 
  "no": 76, 
  "first": 77, 
  "now": 78, 
  "&apos;": 79, 
  "?": 80, 
  "must": 81, 
  "people": 82, 
  "two": 83, 
  "these": 84, 
  "out": 85, 
  "very": 86, 
  "what": 87, 
  "Mr": 88, 
  "into": 89, 
  "years": 90, 
  "than": 91, 
  "when": 92, 
  "like": 93, 
  "even": 94, 
  "such": 95, 
  "against": 96, 
  "because": 97, 
  "Council": 98, 
  "any": 99, 
  "many": 100, 
  "said": 101, 
  "well": 102, 
  "most": 103, 
  "President": 104, 
  "Member": 105, 
  "between": 106, 
  "States": 107, 
  "some": 108, 
  "take": 109, 
  "us": 110, 
  "however": 111, 
  "just": 112, 
  "over": 113, 
  "Europe": 114, 
  "Union": 115, 
  "work": 116, 
  ";": 117, 
  "countries": 118, 
  "made": 119, 
  "them": 120, 
  "good": 121, 
  "important": 122, 
  "make": 123, 
  "use": 124, 
  "my": 125, 
  "world": 126, 
  "information": 127, 
  "way": 128, 
  "then": 129, 
  "need": 130, 
  "where": 131, 
  "already": 132, 
  "could": 133, 
  "report": 134, 
  "before": 135, 
  "under": 136, 
  "market": 137, 
  "last": 138, 
  "still": 139, 
  "%": 140, 
  "old": 141, 
  "support": 142, 
  "does": 143, 
  "how": 144, 
  "since": 145, 
  "Parliament": 146, 
  "!": 147, 
  "end": 148, 
  "those": 149, 
  "three": 150, 
  "1": 151, 
  "right": 152, 
  "German": 153, 
  "place": 154, 
  "policy": 155, 
  "possible": 156, 
  "country": 157, 
  "may": 158, 
  "being": 159, 
  "want": 160, 
  "part": 161, 
  "long": 162, 
  "&apos;t": 163, 
  "order": 164, 
  "much": 165, 
  "through": 166, 
  "here": 167, 
  "area": 168, 
  "day": 169, 
  "2": 170, 
  "case": 171, 
  "development": 172, 
  "able": 173, 
  "public": 174, 
  "both": 175, 
  "economic": 176, 
  "her": 177, 
  "number": 178, 
  "same": 179, 
  "according": 180, 
  "today": 181, 
  "see": 182, 
  "without": 183, 
  "own": 184, 
  "therefore": 185, 
  "high": 186, 
  "system": 187, 
  "Germany": 188, 
  "de": 189, 
  "social": 190, 
  "political": 191, 
  "hotel": 192, 
  "future": 193, 
  "used": 194, 
  "too": 195, 
  "police": 196, 
  "back": 197, 
  "course": 198, 
  "million": 199, 
  "national": 200, 
  "within": 201, 
  "point": 202, 
  "city": 203, 
  "she": 204, 
  "each": 205, 
  "again": 206, 
  "get": 207, 
  "am": 208, 
  "free": 209, 
  "services": 210, 
  "second": 211, 
  "did": 212, 
  "during": 213, 
  "fact": 214, 
  "great": 215, 
  "available": 216, 
  "3": 217, 
  "next": 218, 
  "children": 219, 
  "says": 220, 
  "international": 221, 
  "financial": 222, 
  "rights": 223, 
  "me": 224, 
  "set": 225, 
  "...": 226, 
  "small": 227, 
  "different": 228, 
  "further": 229, 
  "The": 230, 
  "level": 231, 
  "know": 232, 
  "addition": 233, 
  "team": 234, 
  "clear": 235, 
  "group": 236, 
  "measures": 237, 
  "un@@": 238, 
  "example": 239, 
  "find": 240, 
  "far": 241, 
  "process": 242, 
  "while": 243, 
  "company": 244, 
  "service": 245, 
  "government": 246, 
  "best": 247, 
  "view": 248, 
  "game": 249, 
  "particular": 250, 
  "10": 251, 
  "come": 252, 
  "life": 253, 
  "including": 254, 
  "s": 255, 
  "re@@": 256, 
  "situation": 257, 
  "local": 258, 
  "d@@": 259, 
  "few": 260, 
  "business": 261, 
  "man": 262, 
  "whether": 263, 
  "cannot": 264, 
  "data": 265, 
  "help": 266, 
  "always": 267, 
  "around": 268, 
  "go": 269, 
  "why": 270, 
  "taken": 271, 
  "called": 272, 
  "products": 273, 
  "home": 274, 
  "room": 275, 
  "state": 276, 
  "every": 277, 
  "action": 278, 
  "another": 279, 
  "law": 280, 
  "large": 281, 
  "women": 282, 
  "based": 283, 
  "areas": 284, 
  "question": 285, 
  "say": 286, 
  "four": 287, 
  "energy": 288, 
  "result": 289, 
  "together": 290, 
  "better": 291, 
  "human": 292, 
  "Commissioner": 293, 
  "current": 294, 
  "agreement": 295, 
  "security": 296, 
  "change": 297, 
  "him": 298, 
  "full": 299, 
  "Minister": 300, 
  "down": 301, 
  "left": 302, 
  "citizens": 303, 
  "per": 304, 
  "provide": 305, 
  "quality": 306, 
  "Community": 307, 
  "20": 308, 
  "necessary": 309, 
  "third": 310, 
  "young": 311, 
  "open": 312, 
  "decision": 313, 
  "cooperation": 314, 
  "State": 315, 
  "think": 316, 
  "means": 317, 
  "start": 318, 
  "er": 319, 
  "several": 320, 
  "4": 321, 
  "refugees": 322, 
  "issue": 323, 
  "proposal": 324, 
  "put": 325, 
  "e": 326, 
  "access": 327, 
  "ensure": 328, 
  "less": 329, 
  "special": 330, 
  "common": 331, 
  "B@@": 332, 
  "protection": 333, 
  "given": 334, 
  "companies": 335, 
  "present": 336, 
  "2016": 337, 
  "days": 338, 
  "until": 339, 
  "offers": 340, 
  "trade": 341, 
  "aid": 342, 
  "least": 343, 
  "car": 344, 
  "main": 345, 
  "problems": 346, 
  "Berlin": 347, 
  "i": 348, 
  "D@@": 349, 
  "K@@": 350, 
  "members": 351, 
  "continue": 352, 
  "meeting": 353, 
  "among": 354, 
  "power": 355, 
  "five": 356, 
  "5": 357, 
  "30": 358, 
  "general": 359, 
  "play": 360, 
  "money": 361, 
  "EUR": 362, 
  "working": 363, 
  "going": 364, 
  "US": 365, 
  "yet": 366, 
  "Committee": 367, 
  "needs": 368, 
  "H@@": 369, 
  "project": 370, 
  "believe": 371, 
  "once": 372, 
  "found": 373, 
  "problem": 374, 
  "15": 375, 
  "debate": 376, 
  "programme": 377, 
  "points": 378, 
  "rules": 379, 
  "role": 380, 
  "offer": 381, 
  "real": 382, 
  "off": 383, 
  "become": 384, 
  "term": 385, 
  "training": 386, 
  "look": 387, 
  "wants": 388, 
  "health": 389, 
  "legal": 390, 
  "conditions": 391, 
  "give": 392, 
  "building": 393, 
  "United": 394, 
  "industry": 395, 
  "T@@": 396, 
  "following": 397, 
  "increase": 398, 
  "water": 399, 
  "family": 400, 
  "show": 401, 
  "authorities": 402, 
  "+": 403, 
  "often": 404, 
  "crisis": 405, 
  "almost": 406, 
  "final": 407, 
  "position": 408, 
  "lot": 409, 
  "months": 410, 
  "March": 411, 
  "making": 412, 
  "especially": 413, 
  "times": 414, 
  "little": 415, 
  "World": 416, 
  "took": 417, 
  "school": 418, 
  "region": 419, 
  "line": 420, 
  "S@@": 421, 
  "sector": 422, 
  "production": 423, 
  "particularly": 424, 
  "longer": 425, 
  "total": 426, 
  "0": 427, 
  "12": 428, 
  "Court": 429, 
  "control": 430, 
  "research": 431, 
  "transport": 432, 
  "rooms": 433, 
  "ago": 434, 
  "ed": 435, 
  "growth": 436, 
  "competition": 437, 
  "adopted": 438, 
  "certain": 439, 
  "form": 440, 
  "account": 441, 
  "major": 442, 
  "party": 443, 
  "close": 444, 
  "town": 445, 
  "en@@": 446, 
  "percent": 447, 
  "6": 448, 
  "s@@": 449, 
  "short": 450, 
  "hand": 451, 
  "something": 452, 
  "W@@": 453, 
  "hope": 454, 
  "basis": 455, 
  "experience": 456, 
  "management": 457, 
  "forward": 458, 
  "later": 459, 
  "whole": 460, 
  "field": 461, 
  "non": 462, 
  "men": 463, 
  "issues": 464, 
  "budget": 465, 
  "let": 466, 
  "terms": 467, 
  "top": 468, 
  "using": 469, 
  "vote": 470, 
  "o": 471, 
  "road": 472, 
  "food": 473, 
  "F@@": 474, 
  "A@@": 475, 
  "2015": 476, 
  "respect": 477, 
  "staff": 478, 
  "regional": 479, 
  "price": 480, 
  "house": 481, 
  "makes": 482, 
  "away": 483, 
  "private": 484, 
  "due": 485, 
  "l": 486, 
  "early": 487, 
  "recent": 488, 
  "&#91;": 489, 
  "environment": 490, 
  "economy": 491, 
  "various": 492, 
  "projects": 493, 
  "Group": 494, 
  "G@@": 495, 
  "mann": 496, 
  "interest": 497, 
  "big": 498, 
  "&#93;": 499, 
  "located": 500, 
  "&amp;": 501, 
  "towards": 502, 
  "P@@": 503, 
  "Hotel": 504, 
  "half": 505, 
  "things": 506, 
  "centre": 507, 
  "create": 508, 
  "office": 509, 
  "ing": 510, 
  "former": 511, 
  "period": 512, 
  "matter": 513, 
  "coach": 514, 
  "L@@": 515, 
  "der": 516, 
  "known": 517, 
  "costs": 518, 
  "systems": 519, 
  "week": 520, 
  "currently": 521, 
  "past": 522, 
  "done": 523, 
  "air": 524, 
  "night": 525, 
  "involved": 526, 
  "activities": 527, 
  "fully": 528, 
  "fire": 529, 
  "six": 530, 
  "single": 531, 
  "strong": 532, 
  "50": 533, 
  "really": 534, 
  "specific": 535, 
  "don": 536, 
  "takes": 537, 
  "minutes": 538, 
  "season": 539, 
  "site": 540, 
  "please": 541, 
  "subject": 542, 
  "11": 543, 
  "itself": 544, 
  "rather": 545, 
  "held": 546, 
  "N@@": 547, 
  "music": 548, 
  "safety": 549, 
  "lead": 550, 
  "en": 551, 
  "ers": 552, 
  "individual": 553, 
  "t@@": 554, 
  "led": 555, 
  "16": 556, 
  "stay": 557, 
  "call": 558, 
  "framework": 559, 
  "global": 560, 
  "25": 561, 
  "provided": 562, 
  "y": 563, 
  "parties": 564, 
  "responsible": 565, 
  "progress": 566, 
  "es": 567, 
  "came": 568, 
  "side": 569, 
  "cases": 570, 
  "reason": 571, 
  "000": 572, 
  "M@@": 573, 
  "concerned": 574, 
  "key": 575, 
  "Turkey": 576, 
  "E@@": 577, 
  "shall": 578, 
  "district": 579, 
  "finally": 580, 
  "R@@": 581, 
  "above": 582, 
  "name": 583, 
  "results": 584, 
  "groups": 585, 
  "light": 586, 
  "Sch@@": 587, 
  "though": 588, 
  "list": 589, 
  "others": 590, 
  "z@@": 591, 
  "press": 592, 
  "7": 593, 
  "front": 594, 
  "border": 595, 
  "taking": 596, 
  "care": 597, 
  "risk": 598, 
  "news": 599, 
  "pa": 600, 
  "implementation": 601, 
  "k@@": 602, 
  "success": 603, 
  "comes": 604, 
  "approach": 605, 
  "February": 606, 
  "China": 607, 
  "institutions": 608, 
  "looking": 609, 
  "themselves": 610, 
  "cost": 611, 
  "Austria": 612, 
  "House": 613, 
  "tax": 614, 
  "z": 615, 
  "range": 616, 
  "club": 617, 
  "table": 618, 
  "bring": 619, 
  "Sunday": 620, 
  "media": 621, 
  "Treaty": 622, 
  "ten": 623, 
  "policies": 624, 
  "n@@": 625, 
  "although": 626, 
  "education": 627, 
  "France": 628, 
  "contact": 629, 
  "investment": 630, 
  "society": 631, 
  "community": 632, 
  "in@@": 633, 
  "billion": 634, 
  "ch@@": 635, 
  "legislation": 636, 
  "head": 637, 
  "hours": 638, 
  "guests": 639, 
  "station": 640, 
  "difficult": 641, 
  "m": 642, 
  "plan": 643, 
  "8": 644, 
  "remains": 645, 
  "enough": 646, 
  "New": 647, 
  "customers": 648, 
  "value": 649, 
  "deal": 650, 
  "opinion": 651, 
  "needed": 652, 
  "construction": 653, 
  "leader": 654, 
  "nothing": 655, 
  "January": 656, 
  "O@@": 657, 
  "never": 658, 
  "member": 659, 
  "13": 660, 
  "Russia": 661, 
  "rate": 662, 
  "everything": 663, 
  "technology": 664, 
  "include": 665, 
  "14": 666, 
  "Munich": 667, 
  "Internet": 668, 
  "g@@": 669, 
  "hard": 670, 
  "event": 671, 
  "workers": 672, 
  "welcome": 673, 
  "effective": 674, 
  "having": 675, 
  "er@@": 676, 
  "performance": 677, 
  "thank": 678, 
  "D": 679, 
  "land": 680, 
  "t": 681, 
  "opportunity": 682, 
  "states": 683, 
  "announced": 684, 
  "proposed": 685, 
  "proposals": 686, 
  "resources": 687, 
  "created": 688, 
  "expected": 689, 
  "2009": 690, 
  "visit": 691, 
  "el": 692, 
  "18": 693, 
  "environmental": 694, 
  "capital": 695, 
  "thus": 696, 
  "k": 697, 
  "A": 698, 
  "Friday": 699, 
  "allow": 700, 
  "works": 701, 
  "words": 702, 
  "step": 703, 
  "berg": 704, 
  "$": 705, 
  "low": 706, 
  "events": 707, 
  "questions": 708, 
  "meet": 709, 
  "o@@": 710, 
  "ke": 711, 
  "strategy": 712, 
  "de@@": 713, 
  "soon": 714, 
  "website": 715, 
  "personal": 716, 
  "reported": 717, 
  "euros": 718, 
  "previous": 719, 
  "technical": 720, 
  "V@@": 721, 
  "live": 722, 
  "100": 723, 
  "Saturday": 724, 
  "solution": 725, 
  "modern": 726, 
  "markets": 727, 
  "prices": 728, 
  "wanted": 729, 
  "age": 730, 
  "application": 731, 
  "increased": 732, 
  "remain": 733, 
  "despite": 734, 
  "force": 735, 
  "C@@": 736, 
  "al": 737, 
  "negotiations": 738, 
  "war": 739, 
  "employment": 740, 
  "behind": 741, 
  "m@@": 742, 
  "24": 743, 
  "thing": 744, 
  "agreed": 745, 
  "Mrs": 746, 
  "regard": 747, 
  "evening": 748, 
  "SV": 749, 
  "€": 750, 
  "central": 751, 
  "additional": 752, 
  "simply": 753, 
  "stage": 754, 
  "history": 755, 
  "April": 756, 
  "al@@": 757, 
  "location": 758, 
  "clearly": 759, 
  "pay": 760, 
  "co": 761, 
  "turn": 762, 
  "Z@@": 763, 
  "efforts": 764, 
  "refugee": 765, 
  "date": 766, 
  "B": 767, 
  "weeks": 768, 
  "internal": 769, 
  "positive": 770, 
  "Directive": 771, 
  "product": 772, 
  "TV": 773, 
  "online": 774, 
  "b@@": 775, 
  "reports": 776, 
  "recently": 777, 
  "2010": 778, 
  "changes": 779, 
  "importance": 780, 
  "players": 781, 
  "seen": 782, 
  "le": 783, 
  "euro": 784, 
  "ask": 785, 
  "n": 786, 
  "French": 787, 
  "Monday": 788, 
  "Affairs": 789, 
  "principle": 790, 
  "person": 791, 
  "space": 792, 
  "page": 793, 
  "living": 794, 
  "serious": 795, 
  "attention": 796, 
  "wish": 797, 
  "Association": 798, 
  "round": 799, 
  "art": 800, 
  "quite": 801, 
  "9": 802, 
  "Federal": 803, 
  "decided": 804, 
  "South": 805, 
  "40": 806, 
  "share": 807, 
  "successful": 808, 
  "summer": 809, 
  "along": 810, 
  "2014": 811, 
  "p.m.": 812, 
  "foreign": 813, 
  "presented": 814, 
  "face": 815, 
  "reform": 816, 
  "book": 817, 
  "directive": 818, 
  "operation": 819, 
  "improve": 820, 
  "related": 821, 
  "keep": 822, 
  "y@@": 823, 
  "f@@": 824, 
  "responsibility": 825, 
  "wide": 826, 
  "return": 827, 
  "e@@": 828, 
  "won": 829, 
  "network": 830, 
  "provides": 831, 
  "required": 832, 
  "17": 833, 
  "run": 834, 
  "self": 835, 
  "standards": 836, 
  "d": 837, 
  "procedure": 838, 
  "p@@": 839, 
  "resolution": 840, 
  "higher": 841, 
  "cultural": 842, 
  "woman": 843, 
  "class": 844, 
  "regions": 845, 
  "request": 846, 
  "context": 847, 
  "easy": 848, 
  "ts": 849, 
  "excellent": 850, 
  "program": 851, 
  "complete": 852, 
  "enjoy": 853, 
  "asked": 854, 
  "games": 855, 
  "software": 856, 
  "heart": 857, 
  "Brussels": 858, 
  "federal": 859, 
  "peace": 860, 
  "directly": 861, 
  "content": 862, 
  "fight": 863, 
  "goes": 864, 
  "existing": 865, 
  "via": 866, 
  "developed": 867, 
  "majority": 868, 
  "address": 869, 
  "I@@": 870, 
  "design": 871, 
  "job": 872, 
  "ladies": 873, 
  "favour": 874, 
  "active": 875, 
  "beginning": 876, 
  "agree": 877, 
  "2008": 878, 
  "series": 879, 
  "asylum": 880, 
  "true": 881, 
  "2000": 882, 
  "read": 883, 
  "told": 884, 
  "requirements": 885, 
  "beautiful": 886, 
  "election": 887, 
  "language": 888, 
  "students": 889, 
  "lost": 890, 
  "demand": 891, 
  "appropriate": 892, 
  "climate": 893, 
  "oil": 894, 
  "focus": 895, 
  "pressure": 896, 
  "December": 897, 
  "text": 898, 
  "board": 899, 
  "significant": 900, 
  "red": 901, 
  "Tuesday": 902, 
  "2007": 903, 
  "across": 904, 
  "June": 905, 
  "ate": 906, 
  "freedom": 907, 
  "May": 908, 
  "doing": 909, 
  "body": 910, 
  "Office": 911, 
  "integration": 912, 
  "professional": 913, 
  "became": 914, 
  "Wednesday": 915, 
  "Thursday": 916, 
  "near": 917, 
  "kind": 918, 
  "greater": 919, 
  "received": 920, 
  "actually": 921, 
  "natural": 922, 
  "funds": 923, 
  "shows": 924, 
  "moment": 925, 
  "h@@": 926, 
  "outside": 927, 
  "started": 928, 
  "thanks": 929, 
  "test": 930, 
  "population": 931, 
  "concerns": 932, 
  "Cup": 933, 
  "rapporteur": 934, 
  "quickly": 935, 
  "jobs": 936, 
  "l@@": 937, 
  "FC": 938, 
  "North": 939, 
  "established": 940, 
  "programmes": 941, 
  "CDU": 942, 
  "di@@": 943, 
  "achieve": 944, 
  "Italy": 945, 
  "gentlemen": 946, 
  "Bank": 947, 
  "brought": 948, 
  "Republic": 949, 
  "J@@": 950, 
  "idea": 951, 
  "impact": 952, 
  "regulation": 953, 
  "morning": 954, 
  "move": 955, 
  "u@@": 956, 
  "decisions": 957, 
  "amount": 958, 
  "everyone": 959, 
  "la": 960, 
  "developing": 961, 
  "_": 962, 
  "nature": 963, 
  "essential": 964, 
  "stop": 965, 
  "funding": 966, 
  "completely": 967, 
  "b": 968, 
  "th": 969, 
  "allowed": 970, 
  "feel": 971, 
  "bach": 972, 
  "instead": 973, 
  "potential": 974, 
  "direct": 975, 
  "Article": 976, 
  "built": 977, 
  "civil": 978, 
  "century": 979, 
  "initiative": 980, 
  "likely": 981, 
  "U@@": 982, 
  "effect": 983, 
  "International": 984, 
  "relations": 985, 
  "21": 986, 
  "19": 987, 
  "Greece": 988, 
  "military": 989, 
  "li@@": 990, 
  "*": 991, 
  "users": 992, 
  "court": 993, 
  "22": 994, 
  "i@@": 995, 
  "g": 996, 
  "model": 997, 
  "might": 998, 
  "ated": 999, 
  "joint": 1000, 
  "closed": 1001, 
  "&apos;@@": 1002, 
  "planned": 1003, 
  "either": 1004, 
  "version": 1005, 
  "note": 1006, 
  "film": 1007, 
  "City": 1008, 
  "c@@": 1009, 
  "exchange": 1010, 
  "director": 1011, 
  "designed": 1012, 
  "General": 1013, 
  "rates": 1014, 
  "interests": 1015, 
  "considered": 1016, 
  "American": 1017, 
  "apply": 1018, 
  "train": 1019, 
  "ground": 1020, 
  "partners": 1021, 
  "receive": 1022, 
  "reasons": 1023, 
  "study": 1024, 
  "November": 1025, 
  "Government": 1026, 
  "L": 1027, 
  "aim": 1028, 
  "sure": 1029, 
  "win": 1030, 
  "ever": 1031, 
  "football": 1032, 
  "sea": 1033, 
  "coming": 1034, 
  "reach": 1035, 
  "benefit": 1036, 
  "bank": 1037, 
  "sustainable": 1038, 
  "direction": 1039, 
  "el@@": 1040, 
  "achieved": 1041, 
  "&apos;m": 1042, 
  "supply": 1043, 
  "p": 1044, 
  "extremely": 1045, 
  "Spain": 1046, 
  "seven": 1047, 
  "commitment": 1048, 
  "player": 1049, 
  "goal": 1050, 
  "amendments": 1051, 
  "approximately": 1052, 
  "communication": 1053, 
  "Justice": 1054, 
  "plans": 1055, 
  "follow": 1056, 
  "democracy": 1057, 
  "pm": 1058, 
  "certainly": 1059, 
  "himself": 1060, 
  "probably": 1061, 
  "newspaper": 1062, 
  "practice": 1063, 
  "facilities": 1064, 
  "East": 1065, 
  "2006": 1066, 
  "st@@": 1067, 
  "gas": 1068, 
  "culture": 1069, 
  "assistance": 1070, 
  "ball": 1071, 
  "knowledge": 1072, 
  "aware": 1073, 
  "Members": 1074, 
  "sports": 1075, 
  "included": 1076, 
  "sense": 1077, 
  "ra@@": 1078, 
  "solutions": 1079, 
  "parts": 1080, 
  "reached": 1081, 
  "born": 1082, 
  "cut": 1083, 
  "Presidency": 1084, 
  "5@@": 1085, 
  "objectives": 1086, 
  "added": 1087, 
  "behalf": 1088, 
  "treatment": 1089, 
  "Madam": 1090, 
  "damage": 1091, 
  "star": 1092, 
  "National": 1093, 
  "attacks": 1094, 
  "upon": 1095, 
  "goods": 1096, 
  "bus": 1097, 
  "annual": 1098, 
  "hall": 1099, 
  "concerning": 1100, 
  "standard": 1101, 
  "consumers": 1102, 
  "break": 1103, 
  "lack": 1104, 
  "nuclear": 1105, 
  "actions": 1106, 
  "4@@": 1107, 
  "eight": 1108, 
  "sales": 1109, 
  "C": 1110, 
  "overall": 1111, 
  "calls": 1112, 
  "death": 1113, 
  "indeed": 1114, 
  "played": 1115, 
  "whose": 1116, 
  "fundamental": 1117, 
  "largest": 1118, 
  "develop": 1119, 
  "views": 1120, 
  "&apos;re": 1121, 
  "da": 1122, 
  "traditional": 1123, 
  "includes": 1124, 
  "values": 1125, 
  "external": 1126, 
  "committee": 1127, 
  "places": 1128, 
  "opportunities": 1129, 
  "visitors": 1130, 
  "prevent": 1131, 
  "release": 1132, 
  "stand": 1133, 
  "ler": 1134, 
  "middle": 1135, 
  "package": 1136, 
  "village": 1137, 
  "II": 1138, 
  "association": 1139, 
  "understand": 1140, 
  "democratic": 1141, 
  "went": 1142, 
  "October": 1143, 
  "September": 1144, 
  "image": 1145, 
  "travel": 1146, 
  "double": 1147, 
  "user": 1148, 
  "basic": 1149, 
  "23": 1150, 
  "leave": 1151, 
  "met": 1152, 
  "try": 1153, 
  "pleased": 1154, 
  "late": 1155, 
  "over@@": 1156, 
  "equipment": 1157, 
  "consider": 1158, 
  "cross": 1159, 
  "balance": 1160, 
  "throughout": 1161, 
  "u": 1162, 
  "6@@": 1163, 
  "leading": 1164, 
  "carried": 1165, 
  "League": 1166, 
  "video": 1167, 
  "agreements": 1168, 
  "increasing": 1169, 
  "movement": 1170, 
  "below": 1171, 
  "te": 1172, 
  "ch": 1173, 
  "restaurant": 1174, 
  "www.@@": 1175, 
  "j@@": 1176, 
  "Christian": 1177, 
  "ation": 1178, 
  "objective": 1179, 
  "search": 1180, 
  "background": 1181, 
  "reduce": 1182, 
  "promote": 1183, 
  "an@@": 1184, 
  "levels": 1185, 
  "27": 1186, 
  "got": 1187, 
  "friendly": 1188, 
  "7@@": 1189, 
  "conference": 1190, 
  "record": 1191, 
  "dialogue": 1192, 
  "latest": 1193, 
  "cause": 1194, 
  "accommodation": 1195, 
  "similar": 1196, 
  "traffic": 1197, 
  "consumer": 1198, 
  "child": 1199, 
  "w@@": 1200, 
  "v@@": 1201, 
  "SPD": 1202, 
  "concern": 1203, 
  "updated": 1204, 
  "gives": 1205, 
  "elections": 1206, 
  "green": 1207, 
  "ahead": 1208, 
  "priority": 1209, 
  "effects": 1210, 
  "youth": 1211, 
  "ar@@": 1212, 
  "accident": 1213, 
  "act": 1214, 
  "re": 1215, 
  "attack": 1216, 
  "ner": 1217, 
  "voted": 1218, 
  "ger": 1219, 
  "winter": 1220, 
  "32": 1221, 
  "employees": 1222, 
  "photo": 1223, 
  "affected": 1224, 
  "industrial": 1225, 
  "Africa": 1226, 
  "Cologne": 1227, 
  "rest": 1228, 
  "c": 1229, 
  "pages": 1230, 
  "simple": 1231, 
  "60": 1232, 
  "minute": 1233, 
  "victory": 1234, 
  "agricultural": 1235, 
  "discussion": 1236, 
  "situated": 1237, 
  "opening": 1238, 
  "happy": 1239, 
  "America": 1240, 
  "famous": 1241, 
  "00": 1242, 
  "km": 1243, 
  "capacity": 1244, 
  "official": 1245, 
  "r@@": 1246, 
  "response": 1247, 
  "English": 1248, 
  "immediately": 1249, 
  "center": 1250, 
  "2013": 1251, 
  "July": 1252, 
  "procedures": 1253, 
  "walk": 1254, 
  "continues": 1255, 
  "entire": 1256, 
  "h": 1257, 
  "Paris": 1258, 
  "review": 1259, 
  "a@@": 1260, 
  "fair": 1261, 
  "2005": 1262, 
  "card": 1263, 
  "add": 1264, 
  "Re@@": 1265, 
  "UN": 1266, 
  "type": 1267, 
  "check": 1268, 
  "8@@": 1269, 
  "contribution": 1270, 
  "alone": 1271, 
  "es@@": 1272, 
  "rule": 1273, 
  "Party": 1274, 
  "guest": 1275, 
  "month": 1276, 
  "accept": 1277, 
  "West": 1278, 
  "post": 1279, 
  "connection": 1280, 
  "limited": 1281, 
  "source": 1282, 
  "mobile": 1283, 
  "ti@@": 1284, 
  "black": 1285, 
  "Al@@": 1286, 
  "highly": 1287, 
  "chance": 1288, 
  "British": 1289, 
  "floor": 1290, 
  "property": 1291, 
  "popular": 1292, 
  "prepared": 1293, 
  "Frankfurt": 1294, 
  "applications": 1295, 
  "details": 1296, 
  "si@@": 1297, 
  "ka": 1298, 
  "bar": 1299, 
  "ab@@": 1300, 
  "send": 1301, 
  "Foreign": 1302, 
  "continued": 1303, 
  "holiday": 1304, 
  "forces": 1305, 
  "safe": 1306, 
  "crime": 1307, 
  "waste": 1308, 
  "setting": 1309, 
  "violence": 1310, 
  "creation": 1311, 
  "cent": 1312, 
  "S": 1313, 
  "planning": 1314, 
  "partner": 1315, 
  "supported": 1316, 
  "bit": 1317, 
  "Russian": 1318, 
  "Development": 1319, 
  ".@@": 1320, 
  "perhaps": 1321, 
  "relevant": 1322, 
  "guarantee": 1323, 
  "documents": 1324, 
  "build": 1325, 
  "contract": 1326, 
  "figures": 1327, 
  "paid": 1328, 
  "seems": 1329, 
  "ber": 1330, 
  "labour": 1331, 
  "U.S.": 1332, 
  "breakfast": 1333, 
  "2004": 1334, 
  "Vienna": 1335, 
  "talk": 1336, 
  "ways": 1337, 
  "ro@@": 1338, 
  "Central": 1339, 
  "charge": 1340, 
  "Bayern": 1341, 
  "benefits": 1342, 
  "experts": 1343, 
  "unique": 1344, 
  "material": 1345, 
  "gave": 1346, 
  "writing": 1347, 
  "president": 1348, 
  "sound": 1349, 
  "cars": 1350, 
  "mind": 1351, 
  "shown": 1352, 
  "statement": 1353, 
  "sometimes": 1354, 
  "Thomas": 1355, 
  "average": 1356, 
  "banks": 1357, 
  "26": 1358, 
  "regarding": 1359, 
  "di": 1360, 
  "starting": 1361, 
  "28": 1362, 
  "park": 1363, 
  "airport": 1364, 
  "fall": 1365, 
  "draft": 1366, 
  "title": 1367, 
  "Michael": 1368, 
  "original": 1369, 
  "be@@": 1370, 
  "investigation": 1371, 
  "land@@": 1372, 
  "intended": 1373, 
  "chairman": 1374, 
  "anti": 1375, 
  "written": 1376, 
  "sport": 1377, 
  "customer": 1378, 
  "interested": 1379, 
  "inger": 1380, 
  "church": 1381, 
  "sch@@": 1382, 
  "huge": 1383, 
  "ri@@": 1384, 
  "answer": 1385, 
  "images": 1386, 
  "An@@": 1387, 
  "commercial": 1388, 
  "http": 1389, 
  "protect": 1390, 
  "principles": 1391, 
  "ingen": 1392, 
  "animal": 1393, 
  "2003": 1394, 
  "growing": 1395, 
  "cities": 1396, 
  "nor": 1397, 
  "representatives": 1398, 
  "friends": 1399, 
  "leaders": 1400, 
  "parents": 1401, 
  "meters": 1402, 
  "on@@": 1403, 
  "published": 1404, 
  "concept": 1405, 
  "hour": 1406, 
  "provisions": 1407, 
  "Social": 1408, 
  "se": 1409, 
  "No": 1410, 
  "mean": 1411, 
  "sts": 1412, 
  "enter": 1413, 
  "size": 1414, 
  "mentioned": 1415, 
  "victims": 1416, 
  "offered": 1417, 
  "poor": 1418, 
  "le@@": 1419, 
  "pool": 1420, 
  "thought": 1421, 
  "independent": 1422, 
  "chief": 1423, 
  "EC": 1424, 
  "submitted": 1425, 
  "sent": 1426, 
  "injured": 1427, 
  "participants": 1428, 
  "Italian": 1429, 
  "task": 1430, 
  "ter": 1431, 
  "highest": 1432, 
  "perfect": 1433, 
  "businesses": 1434, 
  "committed": 1435, 
  "rise": 1436, 
  "challenges": 1437, 
  "driver": 1438, 
  "numerous": 1439, 
  "comfortable": 1440, 
  "V": 1441, 
  "choice": 1442, 
  "minimum": 1443, 
  "medium": 1444, 
  "administration": 1445, 
  "ge@@": 1446, 
  "participation": 1447, 
  "drive": 1448, 
  "Lisbon": 1449, 
  "Peter": 1450, 
  "ted": 1451, 
  "mail": 1452, 
  "love": 1453, 
  "managed": 1454, 
  "allows": 1455, 
  "500": 1456, 
  "consequences": 1457, 
  "lives": 1458, 
  "2001": 1459, 
  "bad": 1460, 
  "speed": 1461, 
  "possibility": 1462, 
  "choose": 1463, 
  "white": 1464, 
  "heim": 1465, 
  "phone": 1466, 
  "2002": 1467, 
  "r": 1468, 
  "Prime": 1469, 
  "&#124;": 1470, 
  "providing": 1471, 
  "campaign": 1472, 
  "daily": 1473, 
  "click": 1474, 
  "league": 1475, 
  "governments": 1476, 
  "or@@": 1477, 
  "worked": 1478, 
  "changed": 1479, 
  "learn": 1480, 
  "steps": 1481, 
  "purpose": 1482, 
  "distance": 1483, 
  "conflict": 1484, 
  "easily": 1485, 
  "anything": 1486, 
  "stability": 1487, 
  "fast": 1488, 
  "th@@": 1489, 
  "Syria": 1490, 
  "style": 1491, 
  "beyond": 1492, 
  "pre@@": 1493, 
  "son": 1494, 
  "computer": 1495, 
  "der@@": 1496, 
  "go@@": 1497, 
  "organisations": 1498, 
  "equipped": 1499, 
  "Secretary": 1500, 
  "increasingly": 1501, 
  "earlier": 1502, 
  "advantage": 1503, 
  "entry": 1504, 
  "beach": 1505, 
  "ar": 1506, 
  "otherwise": 1507, 
  "lower": 1508, 
  "vehicles": 1509, 
  "features": 1510, 
  "caused": 1511, 
  "infrastructure": 1512, 
  "ideal": 1513, 
  "reduction": 1514, 
  "ski": 1515, 
  "f": 1516, 
  "200": 1517, 
  "digital": 1518, 
  "Convention": 1519, 
  "assessment": 1520, 
  "document": 1521, 
  "den@@": 1522, 
  "draw": 1523, 
  "matters": 1524, 
  "Poland": 1525, 
  "ist": 1526, 
  "G": 1527, 
  "file": 1528, 
  "sites": 1529, 
  "au": 1530, 
  "et": 1531, 
  "quarter": 1532, 
  "decide": 1533, 
  "message": 1534, 
  "80": 1535, 
  "implemented": 1536, 
  "fans": 1537, 
  "etc": 1538, 
  "expressed": 1539, 
  "Merkel": 1540, 
  "running": 1541, 
  "distribution": 1542, 
  "del": 1543, 
  "medical": 1544, 
  "unfortunately": 1545, 
  "aspects": 1546, 
  "emergency": 1547, 
  "29": 1548, 
  "reduced": 1549, 
  "trying": 1550, 
  "net": 1551, 
  "University": 1552, 
  "speak": 1553, 
  "ready": 1554, 
  "Fund": 1555, 
  "approved": 1556, 
  "London": 1557, 
  "se@@": 1558, 
  "Economic": 1559, 
  "opened": 1560, 
  "Stuttgart": 1561, 
  "animals": 1562, 
  "significantly": 1563, 
  "activity": 1564, 
  "confidence": 1565, 
  "goals": 1566, 
  "maximum": 1567, 
  "effort": 1568, 
  "forms": 1569, 
  "criminal": 1570, 
  "ates": 1571, 
  "31": 1572, 
  "instruments": 1573, 
  "ans": 1574, 
  "transfer": 1575, 
  "explained": 1576, 
  "borders": 1577, 
  "ck": 1578, 
  "followed": 1579, 
  "Y@@": 1580, 
  "Bo@@": 1581, 
  "1.@@": 1582, 
  "efficient": 1583, 
  "9@@": 1584, 
  "den": 1585, 
  "web": 1586, 
  "clean": 1587, 
  "-@@": 1588, 
  "fixed": 1589, 
  "analysis": 1590, 
  "credit": 1591, 
  "playing": 1592, 
  "integrated": 1593, 
  "placed": 1594, 
  "it@@": 1595, 
  "implement": 1596, 
  "carry": 1597, 
  "enlargement": 1598, 
  "avoid": 1599, 
  "nice": 1600, 
  "dis@@": 1601, 
  "2011": 1602, 
  "complex": 1603, 
  "colleagues": 1604, 
  "cover": 1605, 
  "vehicle": 1606, 
  "becomes": 1607, 
  "innovation": 1608, 
  "Mediterranean": 1609, 
  "payment": 1610, 
  "usually": 1611, 
  "reading": 1612, 
  "Western": 1613, 
  "fishing": 1614, 
  "ideas": 1615, 
  "opposition": 1616, 
  "ne@@": 1617, 
  "at@@": 1618, 
  "agenda": 1619, 
  "Spanish": 1620, 
  "Agreement": 1621, 
  "equal": 1622, 
  "creating": 1623, 
  "Turkish": 1624, 
  "plant": 1625, 
  "persons": 1626, 
  "island": 1627, 
  "produced": 1628, 
  "relationship": 1629, 
  "anyone": 1630, 
  "contribute": 1631, 
  "thousands": 1632, 
  "Ober@@": 1633, 
  "enable": 1634, 
  "Austrian": 1635, 
  "square": 1636, 
  "internet": 1637, 
  "amendment": 1638, 
  "function": 1639, 
  "expect": 1640, 
  "fun": 1641, 
  "criteria": 1642, 
  "sectors": 1643, 
  "reforms": 1644, 
  "confirmed": 1645, 
  "word": 1646, 
  "Board": 1647, 
  "ons": 1648, 
  "St.": 1649, 
  "90": 1650, 
  "moreover": 1651, 
  "Ma@@": 1652, 
  "link": 1653, 
  "bed": 1654, 
  "apartment": 1655, 
  "materials": 1656, 
  "und": 1657, 
  "buildings": 1658, 
  "challenge": 1659, 
  "alternative": 1660, 
  "accession": 1661, 
  "debt": 1662, 
  "structure": 1663, 
  "spokesman": 1664, 
  "Di@@": 1665, 
  "target": 1666, 
  "improved": 1667, 
  "AF@@": 1668, 
  "shot": 1669, 
  "insurance": 1670, 
  "operations": 1671, 
  "45": 1672, 
  "operating": 1673, 
  "lines": 1674, 
  "35": 1675, 
  "a.m.": 1676, 
  "lo@@": 1677, 
  "Ireland": 1678, 
  "looks": 1679, 
  "nevertheless": 1680, 
  "doesn": 1681, 
  "candidate": 1682, 
  "regulations": 1683, 
  "des": 1684, 
  "race": 1685, 
  "transparency": 1686, 
  "ter@@": 1687, 
  "require": 1688, 
  "interesting": 1689, 
  "historical": 1690, 
  "domestic": 1691, 
  "applied": 1692, 
  "UK": 1693, 
  "terrorism": 1694, 
  "Greek": 1695, 
  "explains": 1696, 
  "status": 1697, 
  "farmers": 1698, 
  "les": 1699, 
  "monitoring": 1700, 
  "x": 1701, 
  "discussed": 1702, 
  "track": 1703, 
  "70": 1704, 
  "atmosphere": 1705, 
  "um": 1706, 
  "2012": 1707, 
  "die": 1708, 
  "reference": 1709, 
  "teams": 1710, 
  "scene": 1711, 
  "3@@": 1712, 
  "w": 1713, 
  "saying": 1714, 
  "limit": 1715, 
  "schools": 1716, 
  "Mayor": 1717, 
  "mountain": 1718, 
  "rich": 1719, 
  "picture": 1720, 
  "Regulation": 1721, 
  "conclusions": 1722, 
  "ck@@": 1723, 
  "contains": 1724, 
  "turned": 1725, 
  "priorities": 1726, 
  "poverty": 1727, 
  "ber@@": 1728, 
  "rural": 1729, 
  "German@@": 1730, 
  "financing": 1731, 
  "base": 1732, 
  "scientific": 1733, 
  "requires": 1734, 
  "ors": 1735, 
  "weekend": 1736, 
  "furthermore": 1737, 
  "fine": 1738, 
  "ability": 1739, 
  "officials": 1740, 
  "comprehensive": 1741, 
  "urban": 1742, 
  "St@@": 1743, 
  "heavy": 1744, 
  "K": 1745, 
  "showed": 1746, 
  "solidarity": 1747, 
  "stated": 1748, 
  "families": 1749, 
  "als": 1750, 
  "launched": 1751, 
  "exactly": 1752, 
  "T": 1753, 
  "critical": 1754, 
  "talks": 1755, 
  "tour": 1756, 
  "reality": 1757, 
  "efficiency": 1758, 
  "join": 1759, 
  "measure": 1760, 
  "path": 1761, 
  "killed": 1762, 
  "paper": 1763, 
  "giving": 1764, 
  "getting": 1765, 
  "stock": 1766, 
  "structural": 1767, 
  "Czech": 1768, 
  "ker": 1769, 
  "legislative": 1770, 
  "yesterday": 1771, 
  "Chinese": 1772, 
  "administrative": 1773, 
  "Green": 1774, 
  "initiatives": 1775, 
  "illegal": 1776, 
  "regards": 1777, 
  "establish": 1778, 
  "mid": 1779, 
  "terrorist": 1780, 
  "ator": 1781, 
  "section": 1782, 
  "ly": 1783, 
  "evidence": 1784, 
  "wrong": 1785, 
  "moved": 1786, 
  "discussions": 1787, 
  "wine": 1788, 
  "loss": 1789, 
  "os": 1790, 
  "elements": 1791, 
  "numbers": 1792, 
  "seriously": 1793, 
  "dangerous": 1794, 
  "concrete": 1795, 
  "afternoon": 1796, 
  "nine": 1797, 
  "compared": 1798, 
  "is@@": 1799, 
  "August": 1800, 
  "informed": 1801, 
  "finance": 1802, 
  "as@@": 1803, 
  "bi@@": 1804, 
  "In@@": 1805, 
  "crucial": 1806, 
  "precisely": 1807, 
  "street": 1808, 
  "accordance": 1809, 
  "television": 1810, 
  "box": 1811, 
  "files": 1812, 
  "Mar@@": 1813, 
  "fourth": 1814, 
  "heard": 1815, 
  "strengthen": 1816, 
  "Ri@@": 1817, 
  "hotels": 1818, 
  "Hamburg": 1819, 
  "selection": 1820, 
  "Swiss": 1821, 
  "mother": 1822, 
  "pre": 1823, 
  "ting": 1824, 
  "per@@": 1825, 
  "unemployment": 1826, 
  "hold": 1827, 
  "exhibition": 1828, 
  "competitive": 1829, 
  "Ar@@": 1830, 
  "networks": 1831, 
  "am@@": 1832, 
  "worth": 1833, 
  "demands": 1834, 
  "sign": 1835, 
  "emissions": 1836, 
  "secure": 1837, 
  "du@@": 1838, 
  "politics": 1839, 
  "fear": 1840, 
  "story": 1841, 
  "Agency": 1842, 
  "uses": 1843, 
  "ones": 1844, 
  "knows": 1845, 
  "authority": 1846, 
  "initial": 1847, 
  "scale": 1848, 
  "Policy": 1849, 
  "conclusion": 1850, 
  "talking": 1851, 
  "father": 1852, 
  "driving": 1853, 
  "battle": 1854, 
  "tell": 1855, 
  "defence": 1856, 
  "hit": 1857, 
  "Netherlands": 1858, 
  "mainly": 1859, 
  "pass": 1860, 
  "worldwide": 1861, 
  "Service": 1862, 
  "practical": 1863, 
  "fields": 1864, 
  "regular": 1865, 
  "mer": 1866, 
  "agency": 1867, 
  "Martin": 1868, 
  "1999": 1869, 
  "completed": 1870, 
  "agriculture": 1871, 
  "Bad": 1872, 
  "option": 1873, 
  "us@@": 1874, 
  "establishment": 1875, 
  "collection": 1876, 
  "parking": 1877, 
  "Ro@@": 1878, 
  "didn": 1879, 
  "hardly": 1880, 
  "phase": 1881, 
  "humanitarian": 1882, 
  "failed": 1883, 
  "bodies": 1884, 
  "Her@@": 1885, 
  "income": 1886, 
  "machine": 1887, 
  "produce": 1888, 
  "improving": 1889, 
  "adopt": 1890, 
  "band": 1891, 
  "ations": 1892, 
  "York": 1893, 
  "summit": 1894, 
  "covered": 1895, 
  "manager": 1896, 
  "Greens": 1897, 
  "hands": 1898, 
  "burg": 1899, 
  "missing": 1900, 
  "closely": 1901, 
  "telephone": 1902, 
  "Rights": 1903, 
  "lies": 1904, 
  "regime": 1905, 
  "normal": 1906, 
  "sh@@": 1907, 
  "yes": 1908, 
  "fish": 1909, 
  "gi@@": 1910, 
  "et@@": 1911, 
  "ten@@": 1912, 
  "advance": 1913, 
  "tools": 1914, 
  "wing": 1915, 
  "signed": 1916, 
  "ating": 1917, 
  "la@@": 1918, 
  "0@@": 1919, 
  "sp@@": 1920, 
  "Switzerland": 1921, 
  "runs": 1922, 
  "300": 1923, 
  "happen": 1924, 
  "influence": 1925, 
  "compromise": 1926, 
  "technologies": 1927, 
  "trip": 1928, 
  "audience": 1929, 
  "extra": 1930, 
  "discuss": 1931, 
  "risks": 1932, 
  "council": 1933, 
  "tried": 1934, 
  "reviews": 1935, 
  "fell": 1936, 
  "co@@": 1937, 
  ".com": 1938, 
  "tomorrow": 1939, 
  "door": 1940, 
  "Ber@@": 1941, 
  "relation": 1942, 
  "match": 1943, 
  "garden": 1944, 
  "ad@@": 1945, 
  "variety": 1946, 
  "Israel": 1947, 
  "Japan": 1948, 
  "po@@": 1949, 
  "developments": 1950, 
  "men@@": 1951, 
  "introduced": 1952, 
  "con@@": 1953, 
  "spring": 1954, 
  "justice": 1955, 
  "2@@": 1956, 
  "released": 1957, 
  "quiet": 1958, 
  "types": 1959, 
  "clubs": 1960, 
  "Ukraine": 1961, 
  "votes": 1962, 
  "champion": 1963, 
  "Iran": 1964, 
  "contacts": 1965, 
  "ban": 1966, 
  "threat": 1967, 
  "ha@@": 1968, 
  "elected": 1969, 
  "larger": 1970, 
  "Iraq": 1971, 
  "categories": 1972, 
  "plants": 1973, 
  "strategic": 1974, 
  "Centre": 1975, 
  "expert": 1976, 
  "apartments": 1977, 
  "Li@@": 1978, 
  "ac@@": 1979, 
  "instrument": 1980, 
  "processes": 1981, 
  "ensuring": 1982, 
  "partnership": 1983, 
  "competitiveness": 1984, 
  "ma@@": 1985, 
  "Belgium": 1986, 
  "powerful": 1987, 
  "Chancellor": 1988, 
  "st": 1989, 
  "save": 1990, 
  "mo@@": 1991, 
  "flight": 1992, 
  "invited": 1993, 
  "O": 1994, 
  "buy": 1995, 
  "ling": 1996, 
  "Security": 1997, 
  "else": 1998, 
  "career": 1999, 
  "code": 2000, 
  "host": 2001, 
  "scope": 2002, 
  "ö@@": 2003, 
  "�": 2004, 
  "weather": 2005, 
  "ourselves": 2006, 
  "links": 2007, 
  "meetings": 2008, 
  ".co.uk": 2009, 
  "keyword": 2010, 
  "fresh": 2011, 
  "innovative": 2012, 
  "In": 2013, 
  "letter": 2014, 
  "aims": 2015, 
  "consumption": 2016, 
  "doubt": 2017, 
  "gone": 2018, 
  "extended": 2019, 
  "ster": 2020, 
  "forest": 2021, 
  "gen@@": 2022, 
  "removed": 2023, 
  "experienced": 2024, 
  ".de": 2025, 
  "guidelines": 2026, 
  "speech": 2027, 
  "payments": 2028, 
  "Sea": 2029, 
  "Conference": 2030, 
  "arrived": 2031, 
  "wind": 2032, 
  "ant": 2033, 
  "founded": 2034, 
  "Kingdom": 2035, 
  "criticism": 2036, 
  "aimed": 2037, 
  "tool": 2038, 
  "Sweden": 2039, 
  "Easter": 2040, 
  "fighting": 2041, 
  "powers": 2042, 
  "shopping": 2043, 
  "hand@@": 2044, 
  "accepted": 2045, 
  "concert": 2046, 
  "minister": 2047, 
  "Democrats": 2048, 
  "electronic": 2049, 
  "Ministry": 2050, 
  "whom": 2051, 
  "ff": 2052, 
  "Wei@@": 2053, 
  "died": 2054, 
  "provision": 2055, 
  "hot": 2056, 
  "cohesion": 2057, 
  "tourism": 2058, 
  "Market": 2059, 
  "housing": 2060, 
  "supports": 2061, 
  "detailed": 2062, 
  "negative": 2063, 
  "extent": 2064, 
  "introduction": 2065, 
  "watch": 2066, 
  "session": 2067, 
  "waiting": 2068, 
  "couple": 2069, 
  "laws": 2070, 
  "adoption": 2071, 
  "disease": 2072, 
  "sold": 2073, 
  "trading": 2074, 
  "advertising": 2075, 
  "x@@": 2076, 
  "relating": 2077, 
  "protected": 2078, 
  "comments": 2079, 
  "skills": 2080, 
  "origin": 2081, 
  "camera": 2082, 
  "hospital": 2083, 
  "organised": 2084, 
  "sources": 2085, 
  "properly": 2086, 
  "ice": 2087, 
  "Be@@": 2088, 
  "est": 2089, 
  "ex": 2090, 
  "previously": 2091, 
  "failure": 2092, 
  "wife": 2093, 
  "que": 2094, 
  "encourage": 2095, 
  "Euro": 2096, 
  "happened": 2097, 
  "under@@": 2098, 
  "described": 2099, 
  "em@@": 2100, 
  "currency": 2101, 
  "budgetary": 2102, 
  "investors": 2103, 
  "gen": 2104, 
  "options": 2105, 
  "SG": 2106, 
  "ß@@": 2107, 
  "ni@@": 2108, 
  "deep": 2109, 
  "specifically": 2110, 
  "speaking": 2111, 
  "circumstances": 2112, 
  "Müller": 2113, 
  "promoting": 2114, 
  "African": 2115, 
  "acts": 2116, 
  "presence": 2117, 
  "Day": 2118, 
  "raised": 2119, 
  "appears": 2120, 
  "straße": 2121, 
  "voting": 2122, 
  "biggest": 2123, 
  "easier": 2124, 
  "understanding": 2125, 
  "exist": 2126, 
  "express": 2127, 
  "began": 2128, 
  "N": 2129, 
  "metres": 2130, 
  "separate": 2131, 
  "begin": 2132, 
  "stress": 2133, 
  "languages": 2134, 
  "AG": 2135, 
  "maintain": 2136, 
  "leadership": 2137, 
  "selected": 2138, 
  "ded": 2139, 
  "GDP": 2140, 
  "ut@@": 2141, 
  "politicians": 2142, 
  "plays": 2143, 
  "items": 2144, 
  "Year": 2145, 
  "broad": 2146, 
  "studies": 2147, 
  "cash": 2148, 
  "registered": 2149, 
  "applies": 2150, 
  "declared": 2151, 
  "union": 2152, 
  "laid": 2153, 
  "suitable": 2154, 
  "Middle": 2155, 
  "E": 2156, 
  "tasks": 2157, 
  "closer": 2158, 
  "piece": 2159, 
  "ver@@": 2160, 
  "Park": 2161, 
  "IS": 2162, 
  "GmbH": 2163, 
  "appear": 2164, 
  "ders": 2165, 
  "patients": 2166, 
  "proper": 2167, 
  "route": 2168, 
  "email": 2169, 
  "Co@@": 2170, 
  "granted": 2171, 
  "winner": 2172, 
  "shares": 2173, 
  "represents": 2174, 
  "Hall": 2175, 
  "residents": 2176, 
  "supporting": 2177, 
  "shortly": 2178, 
  "Barcelona": 2179, 
  "methods": 2180, 
  "coordination": 2181, 
  "Vice": 2182, 
  "useful": 2183, 
  "south": 2184, 
  "restaurants": 2185, 
  "facing": 2186, 
  "degree": 2187, 
  "claim": 2188, 
  "Le@@": 2189, 
  "department": 2190, 
  "R": 2191, 
  "sides": 2192, 
  "implementing": 2193, 
  "ings": 2194, 
  "models": 2195, 
  "PA": 2196, 
  "op@@": 2197, 
  "purchase": 2198, 
  "membership": 2199, 
  "processing": 2200, 
  "dead": 2201, 
  "THE": 2202, 
  "commitments": 2203, 
  "houses": 2204, 
  "secondly": 2205, 
  "positions": 2206, 
  "estate": 2207, 
  "India": 2208, 
  "article": 2209, 
  "Nations": 2210, 
  "voice": 2211, 
  "ine": 2212, 
  "offering": 2213, 
  "®": 2214, 
  "enterprises": 2215, 
  "Z": 2216, 
  "radio": 2217, 
  "improvement": 2218, 
  "becoming": 2219, 
  "duty": 2220, 
  "marketing": 2221, 
  "pointed": 2222, 
  "generation": 2223, 
  "seem": 2224, 
  "participate": 2225, 
  "dorf": 2226, 
  "moving": 2227, 
  "camp": 2228, 
  "sub": 2229, 
  "awarded": 2230, 
  "sen": 2231, 
  "stable": 2232, 
  "Red": 2233, 
  "sets": 2234, 
  "out@@": 2235, 
  "notes": 2236, 
  "advice": 2237, 
  "claims": 2238, 
  "Programme": 2239, 
  "launch": 2240, 
  "extensive": 2241, 
  "download": 2242, 
  "Portugal": 2243, 
  "Mr.": 2244, 
  "ina": 2245, 
  "finished": 2246, 
  "@": 2247, 
  "clients": 2248, 
  "controls": 2249, 
  "decades": 2250, 
  "railway": 2251, 
  "sen@@": 2252, 
  "follows": 2253, 
  "Andreas": 2254, 
  "im@@": 2255, 
  "courses": 2256, 
  "managing": 2257, 
  "Hans": 2258, 
  "consultation": 2259, 
  "referred": 2260, 
  "effectively": 2261, 
  "warm": 2262, 
  "historic": 2263, 
  "sale": 2264, 
  "expensive": 2265, 
  "absolutely": 2266, 
  "delivery": 2267, 
  "sub@@": 2268, 
  "Environment": 2269, 
  "port": 2270, 
  "Luxembourg": 2271, 
  "mass": 2272, 
  "method": 2273, 
  "ff@@": 2274, 
  "scheduled": 2275, 
  "item": 2276, 
  "Press": 2277, 
  "ks": 2278, 
  "X": 2279, 
  "da@@": 2280, 
  "sufficient": 2281, 
  "supposed": 2282, 
  "learning": 2283, 
  "stands": 2284, 
  "spread": 2285, 
  "strongly": 2286, 
  "Islamic": 2287, 
  "weapons": 2288, 
  "shop": 2289, 
  "someone": 2290, 
  "High": 2291, 
  "electricity": 2292, 
  "Health": 2293, 
  "north": 2294, 
  "profit": 2295, 
  "generally": 2296, 
  "bo@@": 2297, 
  "associated": 2298, 
  "inside": 2299, 
  "statements": 2300, 
  "Black": 2301, 
  "recognition": 2302, 
  "to@@": 2303, 
  "ol@@": 2304, 
  "organization": 2305, 
  "represented": 2306, 
  "friend": 2307, 
  "2.@@": 2308, 
  "fiscal": 2309, 
  "difference": 2310, 
  "nearly": 2311, 
  "brand": 2312, 
  "attractive": 2313, 
  "practices": 2314, 
  "convinced": 2315, 
  "&apos;ve": 2316, 
  "ge": 2317, 
  "kitchen": 2318, 
  "candidates": 2319, 
  "firm": 2320, 
  "Free": 2321, 
  "primarily": 2322, 
  "listed": 2323, 
  "ja": 2324, 
  "master": 2325, 
  "Asia": 2326, 
  "quick": 2327, 
  "reception": 2328, 
  "zone": 2329, 
  "ger@@": 2330, 
  "recovery": 2331, 
  "possibilities": 2332, 
  "Car@@": 2333, 
  "swimming": 2334, 
  "mark": 2335, 
  "fisheries": 2336, 
  "core": 2337, 
  "OF": 2338, 
  "wood": 2339, 
  "spent": 2340, 
  "operators": 2341, 
  "fer": 2342, 
  "neither": 2343, 
  "War": 2344, 
  "thinking": 2345, 
  "fit": 2346, 
  "&gt;": 2347, 
  "News": 2348, 
  "cold": 2349, 
  "inter@@": 2350, 
  "danger": 2351, 
  "Mo@@": 2352, 
  "organisation": 2353, 
  "fund": 2354, 
  "shared": 2355, 
  "linked": 2356, 
  "blue": 2357, 
  "spoke": 2358, 
  "forced": 2359, 
  "seekers": 2360, 
  "zer": 2361, 
  "Hanover": 2362, 
  "spend": 2363, 
  "Facebook": 2364, 
  "berger": 2365, 
  "IT": 2366, 
  "perspective": 2367, 
  "unable": 2368, 
  "defeat": 2369, 
  "Ministers": 2370, 
  "tourist": 2371, 
  "yourself": 2372, 
  "structures": 2373, 
  "producers": 2374, 
  "combined": 2375, 
  "Lu@@": 2376, 
  "devices": 2377, 
  "Bor@@": 2378, 
  "Windows": 2379, 
  "immigration": 2380, 
  "ach": 2381, 
  "targets": 2382, 
  "2020": 2383, 
  "Ms": 2384, 
  "School": 2385, 
  "preparation": 2386, 
  "ds": 2387, 
  "noted": 2388, 
  "Romania": 2389, 
  "te@@": 2390, 
  "sized": 2391, 
  "ous": 2392, 
  "0.@@": 2393, 
  "multi": 2394, 
  "obligations": 2395, 
  "promotion": 2396, 
  "gets": 2397, 
  "lose": 2398, 
  "entered": 2399, 
  "combat": 2400, 
  "namely": 2401, 
  "discrimination": 2402, 
  "Syrian": 2403, 
  "Ni@@": 2404, 
  "remained": 2405, 
  "coalition": 2406, 
  "coffee": 2407, 
  "monetary": 2408, 
  "strengthening": 2409, 
  "saw": 2410, 
  "outstanding": 2411, 
  "fifth": 2412, 
  "ur@@": 2413, 
  "ding": 2414, 
  "topic": 2415, 
  "vital": 2416, 
  "communities": 2417, 
  "trial": 2418, 
  "Hungary": 2419, 
  "F": 2420, 
  "sitting": 2421, 
  "Ger@@": 2422, 
  "trust": 2423, 
  "foot": 2424, 
  "limits": 2425, 
  "Bundesliga": 2426, 
  "serve": 2427, 
  "gate": 2428, 
  "remember": 2429, 
  "store": 2430, 
  "mention": 2431, 
  "differences": 2432, 
  "author": 2433, 
  "blood": 2434, 
  "represent": 2435, 
  "smaller": 2436, 
  "Institute": 2437, 
  "1998": 2438, 
  "ie": 2439, 
  "ed@@": 2440, 
  "proceedings": 2441, 
  "manner": 2442, 
  "firstly": 2443, 
  "photos": 2444, 
  "determined": 2445, 
  "purposes": 2446, 
  "passengers": 2447, 
  "reducing": 2448, 
  "issued": 2449, 
  "correct": 2450, 
  "IP": 2451, 
  "immediate": 2452, 
  "continuing": 2453, 
  "ta@@": 2454, 
  "operational": 2455, 
  "contrast": 2456, 
  "Ö@@": 2457, 
  "served": 2458, 
  "comment": 2459, 
  "owner": 2460, 
  "requested": 2461, 
  "character": 2462, 
  "1st": 2463, 
  "spirit": 2464, 
  "fi@@": 2465, 
  "33": 2466, 
  "steel": 2467, 
  "investments": 2468, 
  "agencies": 2469, 
  "San": 2470, 
  "festival": 2471, 
  "expenditure": 2472, 
  "singer": 2473, 
  "Bar@@": 2474, 
  "export": 2475, 
  "concluded": 2476, 
  "permanent": 2477, 
  "drug": 2478, 
  "attempt": 2479, 
  "ze": 2480, 
  "=": 2481, 
  "Trade": 2482, 
  "refer": 2483, 
  "wrote": 2484, 
  "sun": 2485, 
  "tri@@": 2486, 
  "ry": 2487, 
  "gh@@": 2488, 
  "om@@": 2489, 
  "El@@": 2490, 
  "&apos;ll": 2491, 
  "plus": 2492, 
  "WTO": 2493, 
  "interview": 2494, 
  "contracts": 2495, 
  "compensation": 2496, 
  "defined": 2497, 
  "mostly": 2498, 
  "tournament": 2499, 
  "34": 2500, 
  "Sp@@": 2501, 
  "presentation": 2502, 
  "hear": 2503, 
  "representative": 2504, 
  "looked": 2505, 
  "delivered": 2506, 
  "ou@@": 2507, 
  "ho@@": 2508, 
  "parliamentary": 2509, 
  "pi@@": 2510, 
  "sc@@": 2511, 
  "approval": 2512, 
  "actual": 2513, 
  "map": 2514, 
  "exit": 2515, 
  "stations": 2516, 
  "recommendations": 2517, 
  "leads": 2518, 
  "girls": 2519, 
  "primary": 2520, 
  "science": 2521, 
  "figure": 2522, 
  "1@@": 2523, 
  "spending": 2524, 
  "ot@@": 2525, 
  "platform": 2526, 
  "Dutch": 2527, 
  "notice": 2528, 
  "rail": 2529, 
  "automatically": 2530, 
  "Si@@": 2531, 
  "machines": 2532, 
  "rejected": 2533, 
  "seconds": 2534, 
  "SC": 2535, 
  "EIB": 2536, 
  "obviously": 2537, 
  "extension": 2538, 
  "Dr.": 2539, 
  "Ab@@": 2540, 
  "Trump": 2541, 
  "cards": 2542, 
  "trend": 2543, 
  "farm": 2544, 
  "Research": 2545, 
  "von": 2546, 
  "weight": 2547, 
  "contrary": 2548, 
  "king": 2549, 
  "museum": 2550, 
  "inform": 2551, 
  "Saxony": 2552, 
  "comply": 2553, 
  "art@@": 2554, 
  "balanced": 2555, 
  "institutional": 2556, 
  "books": 2557, 
  "fellow": 2558, 
  "ra": 2559, 
  "Po@@": 2560, 
  "pro@@": 2561, 
  "seek": 2562, 
  "celebrated": 2563, 
  "connected": 2564, 
  "artist": 2565, 
  "mi@@": 2566, 
  "burden": 2567, 
  "2017": 2568, 
  "mission": 2569, 
  "officers": 2570, 
  "scheme": 2571, 
  "ship": 2572, 
  "considerable": 2573, 
  "ko": 2574, 
  "ic": 2575, 
  "John": 2576, 
  "maybe": 2577, 
  "Christmas": 2578, 
  "discovered": 2579, 
  "names": 2580, 
  "Eastern": 2581, 
  "engine": 2582, 
  "ru@@": 2583, 
  "eyes": 2584, 
  "prevention": 2585, 
  "executive": 2586, 
  "bathroom": 2587, 
  "M": 2588, 
  "difficulties": 2589, 
  "changing": 2590, 
  "X@@": 2591, 
  "dealing": 2592, 
  "helpful": 2593, 
  "David": 2594, 
  "substantial": 2595, 
  "ruling": 2596, 
  "device": 2597, 
  "Ver@@": 2598, 
  "walking": 2599, 
  "cker": 2600, 
  "species": 2601, 
  "customs": 2602, 
  "relatively": 2603, 
  "Korea": 2604, 
  "motion": 2605, 
  "registration": 2606, 
  "Street": 2607, 
  "mis@@": 2608, 
  "rapid": 2609, 
  "tradition": 2610, 
  "artists": 2611, 
  "glass": 2612, 
  "drawn": 2613, 
  "Neu@@": 2614, 
  "outcome": 2615, 
  "identified": 2616, 
  "upper": 2617, 
  "meantime": 2618, 
  "vi@@": 2619, 
  "congratulate": 2620, 
  "respond": 2621, 
  "operate": 2622, 
  "streets": 2623, 
  "prior": 2624, 
  "36": 2625, 
  "joined": 2626, 
  "largely": 2627, 
  "screen": 2628, 
  "passed": 2629, 
  "desire": 2630, 
  "advanced": 2631, 
  "hopes": 2632, 
  "contributions": 2633, 
  "gain": 2634, 
  "regulatory": 2635, 
  "ad": 2636, 
  "Action": 2637, 
  "400": 2638, 
  ".at": 2639, 
  "ci@@": 2640, 
  "eye": 2641, 
  "feature": 2642, 
  "ment": 2643, 
  "Information": 2644, 
  "feld": 2645, 
  "People": 2646, 
  "programs": 2647, 
  "Ju@@": 2648, 
  "holidays": 2649, 
  "southern": 2650, 
  "constantly": 2651, 
  "greatest": 2652, 
  "raise": 2653, 
  "totally": 2654, 
  "apart": 2655, 
  "ended": 2656, 
  "manage": 2657, 
  "75": 2658, 
  "charged": 2659, 
  "sexual": 2660, 
  "CSU": 2661, 
  "dog": 2662, 
  "calling": 2663, 
  "car@@": 2664, 
  "gold": 2665, 
  "dance": 2666, 
  "Bulgaria": 2667, 
  "migration": 2668, 
  "hundreds": 2669, 
  "server": 2670, 
  "grounds": 2671, 
  "owners": 2672, 
  "regularly": 2673, 
  "prepare": 2674, 
  "typical": 2675, 
  "consideration": 2676, 
  "temporary": 2677, 
  "colleague": 2678, 
  "kept": 2679, 
  "van": 2680, 
  "compliance": 2681, 
  "drugs": 2682, 
  "photograph": 2683, 
  "entirely": 2684, 
  "latter": 2685, 
  "ary": 2686, 
  "mobility": 2687, 
  "De@@": 2688, 
  "feeling": 2689, 
  "stressed": 2690, 
  "Bavarian": 2691, 
  "establishing": 2692, 
  "Europeans": 2693, 
  "ongoing": 2694, 
  "wall": 2695, 
  "bear": 2696, 
  "VW": 2697, 
  "penalty": 2698, 
  "senior": 2699, 
  "experiences": 2700, 
  "economies": 2701, 
  "stri@@": 2702, 
  "snow": 2703, 
  "binding": 2704, 
  "urgent": 2705, 
  "warning": 2706, 
  "prison": 2707, 
  "extend": 2708, 
  "gra@@": 2709, 
  "hausen": 2710, 
  "detail": 2711, 
  "treated": 2712, 
  "trees": 2713, 
  "U": 2714, 
  "White": 2715, 
  "Stefan": 2716, 
  "guide": 2717, 
  "ve": 2718, 
  "ent": 2719, 
  "brings": 2720, 
  "exercise": 2721, 
  "older": 2722, 
  "welcomes": 2723, 
  "stadt": 2724, 
  "flexible": 2725, 
  "disaster": 2726, 
  "ambitious": 2727, 
  "Home": 2728, 
  "Energy": 2729, 
  "v": 2730, 
  "impossible": 2731, 
  "vision": 2732, 
  "Museum": 2733, 
  "God": 2734, 
  "components": 2735, 
  "savings": 2736, 
  "write": 2737, 
  "Con@@": 2738, 
  "Frank": 2739, 
  "remaining": 2740, 
  "signs": 2741, 
  "H": 2742, 
  "combination": 2743, 
  "ex@@": 2744, 
  "dispute": 2745, 
  "functions": 2746, 
  "sees": 2747, 
  "client": 2748, 
  "tra@@": 2749, 
  "1997": 2750, 
  "drivers": 2751, 
  "pension": 2752, 
  "wishes": 2753, 
  "successfully": 2754, 
  "qualified": 2755, 
  "stone": 2756, 
  "counter": 2757, 
  "tennis": 2758, 
  "sensitive": 2759, 
  "Ko@@": 2760, 
  "statistics": 2761, 
  "governance": 2762, 
  "shape": 2763, 
  "15@@": 2764, 
  "arrangements": 2765, 
  "ec@@": 2766, 
  "fraud": 2767, 
  "au@@": 2768, 
  "peaceful": 2769, 
  "Wolfgang": 2770, 
  "survey": 2771, 
  "55": 2772, 
  "abroad": 2773, 
  "deliver": 2774, 
  "evaluation": 2775, 
  "ins": 2776, 
  "zi@@": 2777, 
  "charges": 2778, 
  "amounts": 2779, 
  "ties": 2780, 
  "seeking": 2781, 
  "felt": 2782, 
  "ty": 2783, 
  "La": 2784, 
  "sanctions": 2785, 
  "USA": 2786, 
  "sell": 2787, 
  "Agriculture": 2788, 
  "passenger": 2789, 
  "Alexander": 2790, 
  "institution": 2791, 
  "explain": 2792, 
  "arms": 2793, 
  "Management": 2794, 
  "installation": 2795, 
  "transparent": 2796, 
  "ta": 2797, 
  "Pro@@": 2798, 
  "Chairman": 2799, 
  "millions": 2800, 
  "window": 2801, 
  "surface": 2802, 
  "corporate": 2803, 
  "accounts": 2804, 
  "intervention": 2805, 
  "Belgian": 2806, 
  "suggest": 2807, 
  "do@@": 2808, 
  "addressed": 2809, 
  "16@@": 2810, 
  "introduce": 2811, 
  "obtain": 2812, 
  "ing@@": 2813, 
  "ne": 2814, 
  "considers": 2815, 
  "comparison": 2816, 
  "mayor": 2817, 
  "presidency": 2818, 
  "wonderful": 2819, 
  "welcomed": 2820, 
  "signal": 2821, 
  "Public": 2822, 
  "territory": 2823, 
  "era": 2824, 
  "waters": 2825, 
  "SMEs": 2826, 
  "aircraft": 2827, 
  "mutual": 2828, 
  "eastern": 2829, 
  "twice": 2830, 
  "religious": 2831, 
  "wait": 2832, 
  "10@@": 2833, 
  "Obama": 2834, 
  "é": 2835, 
  "150": 2836, 
  "estimated": 2837, 
  "menu": 2838, 
  "worse": 2839, 
  "myself": 2840, 
  "bu@@": 2841, 
  "doctors": 2842, 
  "17@@": 2843, 
  "satisfied": 2844, 
  "tz@@": 2845, 
  "comfort": 2846, 
  "spot": 2847, 
  "fuel": 2848, 
  "severe": 2849, 
  "eb@@": 2850, 
  "SP@@": 2851, 
  "individuals": 2852, 
  "situations": 2853, 
  "ul@@": 2854, 
  "homes": 2855, 
  "Er@@": 2856, 
  "residence": 2857, 
  "Ru@@": 2858, 
  "exciting": 2859, 
  "cher": 2860, 
  "eh@@": 2861, 
  "ä@@": 2862, 
  "2nd": 2863, 
  "Denmark": 2864, 
  "unless": 2865, 
  "par@@": 2866, 
  "appeal": 2867, 
  "exclusive": 2868, 
  "award": 2869, 
  "Dortmund": 2870, 
  "flexibility": 2871, 
  "Croatia": 2872, 
  "meat": 2873, 
  "48": 2874, 
  "wi@@": 2875, 
  "grant": 2876, 
  "faced": 2877, 
  "ring": 2878, 
  "accused": 2879, 
  "factors": 2880, 
  "starts": 2881, 
  "Rome": 2882, 
  "Hei@@": 2883, 
  "university": 2884, 
  "winning": 2885, 
  "mar": 2886, 
  "student": 2887, 
  "rock": 2888, 
  "helped": 2889, 
  "select": 2890, 
  "massive": 2891, 
  "hi@@": 2892, 
  "teachers": 2893, 
  "suffering": 2894, 
  "Mi@@": 2895, 
  "surrounding": 2896, 
  "rose": 2897, 
  "meanwhile": 2898, 
  "accompanied": 2899, 
  "unknown": 2900, 
  "Tu@@": 2901, 
  "taxes": 2902, 
  "37": 2903, 
  "offices": 2904, 
  "condition": 2905, 
  "settlement": 2906, 
  "En@@": 2907, 
  "physical": 2908, 
  "carefully": 2909, 
  "Church": 2910, 
  "imposed": 2911, 
  "rescue": 2912, 
  "bridge": 2913, 
  "appearance": 2914, 
  "targeted": 2915, 
  "--": 2916, 
  "expansion": 2917, 
  "bur@@": 2918, 
  "noise": 2919, 
  "centres": 2920, 
  "1996": 2921, 
  "display": 2922, 
  "Plan": 2923, 
  "tickets": 2924, 
  "infringement": 2925, 
  "ce": 2926, 
  "classic": 2927, 
  "chain": 2928, 
  "apparently": 2929, 
  "Cyprus": 2930, 
  "ters": 2931, 
  "expectations": 2932, 
  "migrants": 2933, 
  "Club": 2934, 
  "voters": 2935, 
  "un": 2936, 
  "Pi@@": 2937, 
  "holding": 2938, 
  "P": 2939, 
  "increases": 2940, 
  "facilitate": 2941, 
  "Robert": 2942, 
  "song": 2943, 
  "register": 2944, 
  "stronger": 2945, 
  "memory": 2946, 
  "welfare": 2947, 
  "requests": 2948, 
  "Lo@@": 2949, 
  "print": 2950, 
  "forget": 2951, 
  "Transport": 2952, 
  "res": 2953, 
  "maintenance": 2954, 
  "ys": 2955, 
  "Kar@@": 2956, 
  "format": 2957, 
  "Ste@@": 2958, 
  "Protection": 2959, 
  "09": 2960, 
  "interior": 2961, 
  "standing": 2962, 
  "guarantees": 2963, 
  "shops": 2964, 
  "Human": 2965, 
  "landscape": 2966, 
  "Britain": 2967, 
  "Strategy": 2968, 
  "Forest": 2969, 
  "ei@@": 2970, 
  "grow": 2971, 
  "unit": 2972, 
  "injury": 2973, 
  "asking": 2974, 
  "storage": 2975, 
  "lingen": 2976, 
  "Google": 2977, 
  "transition": 2978, 
  "fashion": 2979, 
  "deficit": 2980, 
  "consistent": 2981, 
  "entitled": 2982, 
  "skin": 2983, 
  "highlight": 2984, 
  "terrace": 2985, 
  "slightly": 2986, 
  "tree": 2987, 
  "orders": 2988, 
  "ma": 2989, 
  "pieces": 2990, 
  "mechanism": 2991, 
  "examples": 2992, 
  ",000": 2993, 
  "corner": 2994, 
  "suffered": 2995, 
  "river": 2996, 
  "i.e.": 2997, 
  "Brazil": 2998, 
  "Amsterdam": 2999, 
  "Baden": 3000, 
  "lin@@": 3001, 
  "achieving": 3002, 
  "adequate": 3003, 
  "Deutsche": 3004, 
  "depending": 3005, 
  "ap@@": 3006, 
  "Stein@@": 3007, 
  "tests": 3008, 
  "propose": 3009, 
  "so@@": 3010, 
  "Summit": 3011, 
  "units": 3012, 
  "e.g.": 3013, 
  "existence": 3014, 
  "expression": 3015, 
  "autumn": 3016, 
  "element": 3017, 
  "ess": 3018, 
  "ent@@": 3019, 
  "dated": 3020, 
  "partly": 3021, 
  "departure": 3022, 
  "Ho@@": 3023, 
  "doctor": 3024, 
  "daughter": 3025, 
  "everyday": 3026, 
  "putting": 3027, 
  "sch": 3028, 
  "journey": 3029, 
  "ally": 3030, 
  "Deputy": 3031, 
  "remove": 3032, 
  "Afghanistan": 3033, 
  "performed": 3034, 
  "ism": 3035, 
  "03.@@": 3036, 
  "Department": 3037, 
  "marked": 3038, 
  "leaves": 3039, 
  "helping": 3040, 
  "healthy": 3041, 
  "seat": 3042, 
  "..": 3043, 
  "W": 3044, 
  "ba@@": 3045, 
  "Irish": 3046, 
  "tabled": 3047, 
  "reliable": 3048, 
  "Finland": 3049, 
  "im": 3050, 
  "manufacturers": 3051, 
  "Ba@@": 3052, 
  "mar@@": 3053, 
  "focused": 3054, 
  "Foundation": 3055, 
  "begins": 3056, 
  "showing": 3057, 
  "formal": 3058, 
  "dream": 3059, 
  "monitor": 3060, 
  "dedicated": 3061, 
  "ino": 3062, 
  "nearby": 3063, 
  "anniversary": 3064, 
  "05": 3065, 
  "modified": 3066, 
  "Last": 3067, 
  "collective": 3068, 
  "slow": 3069, 
  "secret": 3070, 
  "proof": 3071, 
  "Paper": 3072, 
  "Bi@@": 3073, 
  "cycle": 3074, 
  "affairs": 3075, 
  "strength": 3076, 
  "declaration": 3077, 
  "independence": 3078, 
  "pen@@": 3079, 
  "Education": 3080, 
  "Twitter": 3081, 
  "man@@": 3082, 
  "ches": 3083, 
  "factor": 3084, 
  "restrictions": 3085, 
  "dates": 3086, 
  "affect": 3087, 
  "chosen": 3088, 
  "preliminary": 3089, 
  "surprise": 3090, 
  "Au@@": 3091, 
  "discover": 3092, 
  "Bavaria": 3093, 
  "42": 3094, 
  "patient": 3095, 
  "1995": 3096, 
  "replaced": 3097, 
  "update": 3098, 
  "alcohol": 3099, 
  "ard": 3100, 
  "Sa@@": 3101, 
  "no@@": 3102, 
  "AND": 3103, 
  "classes": 3104, 
  "Gu@@": 3105, 
  "happens": 3106, 
  "providers": 3107, 
  "bringing": 3108, 
  "Finance": 3109, 
  "obligation": 3110, 
  "controlled": 3111, 
  "finds": 3112, 
  "learned": 3113, 
  "ars": 3114, 
  "ms": 3115, 
  "performances": 3116, 
  "decisive": 3117, 
  "films": 3118, 
  "enormous": 3119, 
  "causes": 3120, 
  "substances": 3121, 
  "ticket": 3122, 
  "Vi@@": 3123, 
  "Director": 3124, 
  "delegation": 3125, 
  "ran": 3126, 
  "restructuring": 3127, 
  "su@@": 3128, 
  "allowing": 3129, 
  "um@@": 3130, 
  "02.@@": 3131, 
  "coast": 3132, 
  "identity": 3133, 
  "resort": 3134, 
  "tel": 3135, 
  "Olympic": 3136, 
  "instance": 3137, 
  "Palestinian": 3138, 
  "diversity": 3139, 
  "hair": 3140, 
  "ag@@": 3141, 
  "beauty": 3142, 
  "category": 3143, 
  "Paul": 3144, 
  "east": 3145, 
  "ak": 3146, 
  "beds": 3147, 
  "prize": 3148, 
  "musical": 3149, 
  "researchers": 3150, 
  "recorded": 3151, 
  "cancer": 3152, 
  "luxury": 3153, 
  "Center": 3154, 
  "block": 3155, 
  "65": 3156, 
  "So@@": 3157, 
  "songs": 3158, 
  "Se@@": 3159, 
  "submit": 3160, 
  "800": 3161, 
  "ged": 3162, 
  "named": 3163, 
  "covers": 3164, 
  "functioning": 3165, 
  "Kosovo": 3166, 
  "conversation": 3167, 
  "fruit": 3168, 
  "©": 3169, 
  "Madrid": 3170, 
  "truly": 3171, 
  "Su@@": 3172, 
  "mer@@": 3173, 
  "Daniel": 3174, 
  "3.@@": 3175, 
  "identify": 3176, 
  "faster": 3177, 
  "volume": 3178, 
  "recognised": 3179, 
  "Web": 3180, 
  "threatened": 3181, 
  "Jürgen": 3182, 
  "ju@@": 3183, 
  "contain": 3184, 
  "acting": 3185, 
  "helps": 3186, 
  "38": 3187, 
  "proud": 3188, 
  "exports": 3189, 
  "travelling": 3190, 
  "lake": 3191, 
  "Japanese": 3192, 
  "impression": 3193, 
  "renewable": 3194, 
  "gs": 3195, 
  "NATO": 3196, 
  "index": 3197, 
  "Latin": 3198, 
  "taste": 3199, 
  "gender": 3200, 
  "dark": 3201, 
  "ultimately": 3202, 
  "definition": 3203, 
  "Pre@@": 3204, 
  "com@@": 3205, 
  "44": 3206, 
  "voluntary": 3207, 
  "opposite": 3208, 
  "roads": 3209, 
  "judge": 3210, 
  "finding": 3211, 
  "dimension": 3212, 
  "involving": 3213, 
  "Amendment": 3214, 
  "aspect": 3215, 
  "beer": 3216, 
  "finish": 3217, 
  "manufacturer": 3218, 
  "pollution": 3219, 
  "zed": 3220, 
  "pleasant": 3221, 
  "lived": 3222, 
  "hits": 3223, 
  "installed": 3224, 
  "citizen": 3225, 
  "ola": 3226, 
  "burger": 3227, 
  "touch": 3228, 
  "color": 3229, 
  "sounds": 3230, 
  "Polish": 3231, 
  "diseases": 3232, 
  "ak@@": 3233, 
  "division": 3234, 
  "sky": 3235, 
  "initially": 3236, 
  "Apple": 3237, 
  "presidential": 3238, 
  "improvements": 3239, 
  "corruption": 3240, 
  "lets": 3241, 
  "county": 3242, 
  "newly": 3243, 
  "pleasure": 3244, 
  "Grand": 3245, 
  "opponents": 3246, 
  "educational": 3247, 
  "equality": 3248, 
  "involvement": 3249, 
  "bottom": 3250, 
  "semi": 3251, 
  "opinions": 3252, 
  "except": 3253, 
  "ern@@": 3254, 
  "creative": 3255, 
  "em": 3256, 
  "mechanisms": 3257, 
  "arrival": 3258, 
  "Karl": 3259, 
  "stars": 3260, 
  "associations": 3261, 
  "England": 3262, 
  "soccer": 3263, 
  "returned": 3264, 
  "Angela": 3265, 
  "reasonable": 3266, 
  "magazine": 3267, 
  "valid": 3268, 
  "channel": 3269, 
  "opposed": 3270, 
  "resulting": 3271, 
  "mandate": 3272, 
  "obvious": 3273, 
  "visible": 3274, 
  "41": 3275, 
  "inhabitants": 3276, 
  "che": 3277, 
  "appeared": 3278, 
  "flow": 3279, 
  "accessible": 3280, 
  "49": 3281, 
  "assets": 3282, 
  "eventually": 3283, 
  "strike": 3284, 
  "suit": 3285, 
  "row": 3286, 
  "Ne@@": 3287, 
  "taxation": 3288, 
  "Schmidt": 3289, 
  "availability": 3290, 
  "perfectly": 3291, 
  "leaving": 3292, 
  "ert": 3293, 
  "proved": 3294, 
  "technological": 3295, 
  "falls": 3296, 
  "Services": 3297, 
  "96": 3298, 
  "seats": 3299, 
  "industries": 3300, 
  "pictures": 3301, 
  "flat": 3302, 
  "39": 3303, 
  "description": 3304, 
  "electric": 3305, 
  "Wal@@": 3306, 
  "qu@@": 3307, 
  "arrested": 3308, 
  "{": 3309, 
  "me@@": 3310, 
  "exclusively": 3311, 
  "revenue": 3312, 
  "heating": 3313, 
  "pe@@": 3314, 
  "finals": 3315, 
  "Rhine": 3316, 
  "visited": 3317, 
  "inflation": 3318, 
  "database": 3319, 
  "First": 3320, 
  "bilateral": 3321, 
  "é@@": 3322, 
  "banking": 3323, 
  "£": 3324, 
  "prove": 3325, 
  "actors": 3326, 
  "milk": 3327, 
  "injuries": 3328, 
  "west": 3329, 
  "army": 3330, 
  "somewhat": 3331, 
  "Ha@@": 3332, 
  "feed": 3333, 
  "filled": 3334, 
  "Maria": 3335, 
  "divided": 3336, 
  "giant": 3337, 
  "relate": 3338, 
  "ECB": 3339, 
  "edge": 3340, 
  "Financial": 3341, 
  "relax": 3342, 
  "Representative": 3343, 
  "respective": 3344, 
  "genuine": 3345, 
  "VAT": 3346, 
  "mountains": 3347, 
  "Regional": 3348, 
  "cutting": 3349, 
  "testing": 3350, 
  "liability": 3351, 
  "equally": 3352, 
  "04": 3353, 
  "firms": 3354, 
  "Markus": 3355, 
  "determine": 3356, 
  "43": 3357, 
  "Old": 3358, 
  "translation": 3359, 
  "ministers": 3360, 
  "cht": 3361, 
  "Klaus": 3362, 
  "Swedish": 3363, 
  "architecture": 3364, 
  "delay": 3365, 
  "responsibilities": 3366, 
  "Photo": 3367, 
  "boat": 3368, 
  "album": 3369, 
  "Har@@": 3370, 
  "tic": 3371, 
  "rapidly": 3372, 
  "puts": 3373, 
  "absolute": 3374, 
  "edition": 3375, 
  "600": 3376, 
  "keeping": 3377, 
  "disposal": 3378, 
  "accidents": 3379, 
  "applause": 3380, 
  "He@@": 3381, 
  "Düsseldorf": 3382, 
  "entrance": 3383, 
  "guaranteed": 3384, 
  "applicable": 3385, 
  "awareness": 3386, 
  "spacious": 3387, 
  "believes": 3388, 
  "merely": 3389, 
  "professionals": 3390, 
  "DF@@": 3391, 
  "ung": 3392, 
  "consists": 3393, 
  "ance": 3394, 
  "personally": 3395, 
  "recommended": 3396, 
  "conduct": 3397, 
  "satellite": 3398, 
  "46": 3399, 
  "weak": 3400, 
  "intention": 3401, 
  "des@@": 3402, 
  "14@@": 3403, 
  "ia": 3404, 
  "mood": 3405, 
  "depth": 3406, 
  "gar@@": 3407, 
  "ini": 3408, 
  "sa@@": 3409, 
  "ser": 3410, 
  "impressive": 3411, 
  "trained": 3412, 
  "crimes": 3413, 
  "provider": 3414, 
  "ancient": 3415, 
  "sporting": 3416, 
  "enforcement": 3417, 
  "conducted": 3418, 
  "sum": 3419, 
  "furniture": 3420, 
  "creates": 3421, 
  "spaces": 3422, 
  "proposes": 3423, 
  "Zi@@": 3424, 
  "intensive": 3425, 
  "Youth": 3426, 
  "Canada": 3427, 
  "Gra@@": 3428, 
  "Do@@": 3429, 
  "packages": 3430, 
  "usual": 3431, 
  "texts": 3432, 
  "examined": 3433, 
  "presents": 3434, 
  "victim": 3435, 
  "ü@@": 3436, 
  "multiple": 3437, 
  "3rd": 3438, 
  "hundred": 3439, 
  "Arab": 3440, 
  "bath": 3441, 
  "judgment": 3442, 
  "ven@@": 3443, 
  "attitude": 3444, 
  "}": 3445, 
  "walls": 3446, 
  "emphasis": 3447, 
  "judicial": 3448, 
  "Framework": 3449, 
  "cal": 3450, 
  "dynamic": 3451, 
  "strategies": 3452, 
  "unacceptable": 3453, 
  "valuable": 3454, 
  "ships": 3455, 
  "heads": 3456, 
  "demanding": 3457, 
  "cheap": 3458, 
  "movie": 3459, 
  "gu@@": 3460, 
  "constant": 3461, 
  "recommend": 3462, 
  "messages": 3463, 
  "appointed": 3464, 
  "losses": 3465, 
  "object": 3466, 
  "prefer": 3467, 
  "Wi@@": 3468, 
  "ens": 3469, 
  "meaning": 3470, 
  "Moscow": 3471, 
  "suddenly": 3472, 
  "reflect": 3473, 
  "visa": 3474, 
  "sort": 3475, 
  "compatible": 3476, 
  "ca": 3477, 
  "cor@@": 3478, 
  "capable": 3479, 
  "rising": 3480, 
  "dealt": 3481, 
  "Bu@@": 3482, 
  "enables": 3483, 
  "back@@": 3484, 
  "PC": 3485, 
  "Salzburg": 3486, 
  "metal": 3487, 
  "ren@@": 3488, 
  "northern": 3489, 
  "solve": 3490, 
  "topics": 3491, 
  "actively": 3492, 
  "los": 3493, 
  "reaching": 3494, 
  "ana": 3495, 
  "King": 3496, 
  "abuse": 3497, 
  "constitutional": 3498, 
  "4.@@": 3499, 
  "à": 3500, 
  "1990": 3501, 
  "fighters": 3502, 
  "we@@": 3503, 
  "ps": 3504, 
  "coun@@": 3505, 
  "Fre@@": 3506, 
  "wasn": 3507, 
  "crash": 3508, 
  "We": 3509, 
  "sought": 3510, 
  "specialist": 3511, 
  "stopped": 3512, 
  "panel": 3513, 
  "organized": 3514, 
  "One": 3515, 
  "considering": 3516, 
  "examine": 3517, 
  "Democratic": 3518, 
  "Business": 3519, 
  "he@@": 3520, 
  "tz": 3521, 
  "tu@@": 3522, 
  "indicated": 3523, 
  "scientists": 3524, 
  "Schengen": 3525, 
  "naturally": 3526, 
  "Airport": 3527, 
  "contents": 3528, 
  "ball@@": 3529, 
  "length": 3530, 
  "rent": 3531, 
  "99": 3532, 
  "ched": 3533, 
  "feet": 3534, 
  "heavily": 3535, 
  "stein": 3536, 
  "ton": 3537, 
  "ses": 3538, 
  "shower": 3539, 
  "20@@": 3540, 
  "thereby": 3541, 
  "ves": 3542, 
  "AM": 3543, 
  "button": 3544, 
  "Slovenia": 3545, 
  "Du@@": 3546, 
  "communications": 3547, 
  "ER": 3548, 
  "CD": 3549, 
  "ach@@": 3550, 
  "Washington": 3551, 
  "Land@@": 3552, 
  "secured": 3553, 
  "Lord": 3554, 
  "competent": 3555, 
  "politician": 3556, 
  "maintained": 3557, 
  "lu@@": 3558, 
  "imports": 3559, 
  "onto": 3560, 
  "vice": 3561, 
  "Go@@": 3562, 
  "officer": 3563, 
  "System": 3564, 
  "Fi@@": 3565, 
  "straight": 3566, 
  "tions": 3567, 
  "ek": 3568, 
  "surrounded": 3569, 
  "Chamber": 3570, 
  "acquisition": 3571, 
  "preparing": 3572, 
  "requirement": 3573, 
  "theatre": 3574, 
  "degrees": 3575, 
  "tor": 3576, 
  "DE": 3577, 
  "carbon": 3578, 
  "reserve": 3579, 
  "manufacturing": 3580, 
  "castle": 3581, 
  "contained": 3582, 
  "repeatedly": 3583, 
  "soft": 3584, 
  "super@@": 3585, 
  "ators": 3586, 
  "truth": 3587, 
  "hearing": 3588, 
  "ek@@": 3589, 
  "tur@@": 3590, 
  "Executive": 3591, 
  "ish": 3592, 
  "Constitution": 3593, 
  "teacher": 3594, 
  "none": 3595, 
  "post@@": 3596, 
  "depends": 3597, 
  "transferred": 3598, 
  "Leipzig": 3599, 
  "52": 3600, 
  "controversial": 3601, 
  "Lau@@": 3602, 
  "trains": 3603, 
  "Great": 3604, 
  "hr@@": 3605, 
  "Un@@": 3606, 
  "employed": 3607, 
  "neighbouring": 3608, 
  "ep@@": 3609, 
  "effectiveness": 3610, 
  "owned": 3611, 
  "sten": 3612, 
  "defend": 3613, 
  "fee": 3614, 
  "fer@@": 3615, 
  "District": 3616, 
  "extreme": 3617, 
  "wealth": 3618, 
  "circle": 3619, 
  "soldiers": 3620, 
  "est@@": 3621, 
  "spoken": 3622, 
  "All": 3623, 
  "Communication": 3624, 
  "ga": 3625, 
  "Mexico": 3626, 
  "articles": 3627, 
  "mm": 3628, 
  "decline": 3629, 
  "destination": 3630, 
  "wage": 3631, 
  "sentence": 3632, 
  "mid@@": 3633, 
  "expertise": 3634, 
  "12@@": 3635, 
  "ite": 3636, 
  "tours": 3637, 
  "Bal@@": 3638, 
  "Football": 3639, 
  "08": 3640, 
  "min": 3641, 
  "consensus": 3642, 
  "electoral": 3643, 
  "vulnerable": 3644, 
  "engineering": 3645, 
  "13@@": 3646, 
  "meant": 3647, 
  "legally": 3648, 
  "els": 3649, 
  "colour": 3650, 
  "sing": 3651, 
  "whatever": 3652, 
  "Geneva": 3653, 
  "etz@@": 3654, 
  "invest": 3655, 
  "lie": 3656, 
  "bike": 3657, 
  "catch": 3658, 
  "rei@@": 3659, 
  "beat": 3660, 
  "Ku@@": 3661, 
  "tip": 3662, 
  "elegant": 3663, 
  "competence": 3664, 
  "solid": 3665, 
  "ein@@": 3666, 
  "speakers": 3667, 
  "Town": 3668, 
  "champions": 3669, 
  "For@@": 3670, 
  "booking": 3671, 
  "drawing": 3672, 
  "Ge@@": 3673, 
  "heat": 3674, 
  "negotiating": 3675, 
  "up@@": 3676, 
  "faces": 3677, 
  "broke": 3678, 
  "dan": 3679, 
  "Norway": 3680, 
  "resistance": 3681, 
  "nation": 3682, 
  "conclude": 3683, 
  "Northern": 3684, 
  "for@@": 3685, 
  "resolved": 3686, 
  "cuts": 3687, 
  "imagine": 3688, 
  "handling": 3689, 
  "recommendation": 3690, 
  "che@@": 3691, 
  "47": 3692, 
  "occasion": 3693, 
  "paragraph": 3694, 
  "pro": 3695, 
  "politically": 3696, 
  "01": 3697, 
  "answers": 3698, 
  "whilst": 3699, 
  "rental": 3700, 
  "Or@@": 3701, 
  "yang": 3702, 
  "Ch@@": 3703, 
  "rec@@": 3704, 
  "95": 3705, 
  "il@@": 3706, 
  "broken": 3707, 
  "1994": 3708, 
  "smoking": 3709, 
  "tourists": 3710, 
  "Pe@@": 3711, 
  "stood": 3712, 
  "checks": 3713, 
  "sharing": 3714, 
  "exceptional": 3715, 
  "acceptable": 3716, 
  "conflicts": 3717, 
  "#": 3718, 
  "drink": 3719, 
  "Investment": 3720, 
  "strict": 3721, 
  "sight": 3722, 
  "foundation": 3723, 
  "sex": 3724, 
  "chemical": 3725, 
  "sit": 3726, 
  "bars": 3727, 
  "Microsoft": 3728, 
  "ale": 3729, 
  "operator": 3730, 
  "assist": 3731, 
  "journalists": 3732, 
  "eat": 3733, 
  "suspected": 3734, 
  "ko@@": 3735, 
  "gap": 3736, 
  "51": 3737, 
  "courts": 3738, 
  "ster@@": 3739, 
  "adults": 3740, 
  "Star": 3741, 
  "obtained": 3742, 
  "reservation": 3743, 
  "frequently": 3744, 
  "Putin": 3745, 
  "va": 3746, 
  "emerging": 3747, 
  "tive": 3748, 
  "belong": 3749, 
  "protest": 3750, 
  "admitted": 3751, 
  "facts": 3752, 
  "ceremony": 3753, 
  "plastic": 3754, 
  "escape": 3755, 
  "exists": 3756, 
  "facility": 3757, 
  "mix": 3758, 
  "opponent": 3759, 
  "1000": 3760, 
  "il": 3761, 
  "entertainment": 3762, 
  "worst": 3763, 
  "lessons": 3764, 
  "ki": 3765, 
  "leisure": 3766, 
  "directed": 3767, 
  "formed": 3768, 
  "cuisine": 3769, 
  "happening": 3770, 
  "error": 3771, 
  "parallel": 3772, 
  "maritime": 3773, 
  "ls": 3774, 
  "stories": 3775, 
  "Lower": 3776, 
  "temperature": 3777, 
  "stocks": 3778, 
  "roof": 3779, 
  "contemporary": 3780, 
  "Lin@@": 3781, 
  "Up@@": 3782, 
  "storm": 3783, 
  "golf": 3784, 
  "maker": 3785, 
  "No@@": 3786, 
  "Report": 3787, 
  "Culture": 3788, 
  "Macedonia": 3789, 
  "wins": 3790, 
  "doors": 3791, 
  "enhance": 3792, 
  "Ki@@": 3793, 
  "Law": 3794, 
  "municipality": 3795, 
  "birth": 3796, 
  "ore": 3797, 
  "originally": 3798, 
  "collected": 3799, 
  "miss": 3800, 
  "98": 3801, 
  "careful": 3802, 
  "sugar": 3803, 
  "mode": 3804, 
  "beaches": 3805, 
  "empty": 3806, 
  "fill": 3807, 
  "barriers": 3808, 
  "spokes@@": 3809, 
  "pp@@": 3810, 
  "Jan": 3811, 
  "fail": 3812, 
  "ang": 3813, 
  "Bre@@": 3814, 
  "ride": 3815, 
  "chances": 3816, 
  "Israeli": 3817, 
  "ceiling": 3818, 
  "discussing": 3819, 
  "hurt": 3820, 
  "bs": 3821, 
  "guard": 3822, 
  "alleged": 3823, 
  "Kur@@": 3824, 
  "Man@@": 3825, 
  "EM": 3826, 
  "eligible": 3827, 
  "Art": 3828, 
  "confirm": 3829, 
  "Pet@@": 3830, 
  "personnel": 3831, 
  "tor@@": 3832, 
  "perform": 3833, 
  "protecting": 3834, 
  "ser@@": 3835, 
  "overcome": 3836, 
  "supporters": 3837, 
  "pilot": 3838, 
  "inclusion": 3839, 
  "yellow": 3840, 
  "unclear": 3841, 
  "routes": 3842, 
  "02": 3843, 
  "transaction": 3844, 
  "trafficking": 3845, 
  "toward": 3846, 
  "nations": 3847, 
  "willing": 3848, 
  "Serbia": 3849, 
  "overview": 3850, 
  "subsequently": 3851, 
  "percentage": 3852, 
  "Food": 3853, 
  "terror": 3854, 
  "automatic": 3855, 
  "objects": 3856, 
  "Main": 3857, 
  "fan": 3858, 
  "tackle": 3859, 
  "meets": 3860, 
  "Hessen": 3861, 
  "sheet": 3862, 
  "Tra@@": 3863, 
  "prime": 3864, 
  "spa": 3865, 
  "zero": 3866, 
  "85": 3867, 
  "excessive": 3868, 
  "gained": 3869, 
  "tru@@": 3870, 
  "competitors": 3871, 
  "Germans": 3872, 
  "wa@@": 3873, 
  "outdoor": 3874, 
  "musicians": 3875, 
  "celebrate": 3876, 
  "reply": 3877, 
  "paying": 3878, 
  "armed": 3879, 
  "deals": 3880, 
  "missed": 3881, 
  "ces": 3882, 
  "ell": 3883, 
  "knew": 3884, 
  "Werner": 3885, 
  "advantages": 3886, 
  "wild": 3887, 
  "kilometers": 3888, 
  "profile": 3889, 
  "Vf@@": 3890, 
  "driven": 3891, 
  "behaviour": 3892, 
  "Square": 3893, 
  "lat@@": 3894, 
  "Ben@@": 3895, 
  "Employment": 3896, 
  "involve": 3897, 
  "loans": 3898, 
  "07": 3899, 
  "plenty": 3900, 
  "virus": 3901, 
  "definitely": 3902, 
  "rare": 3903, 
  "na": 3904, 
  "rightly": 3905, 
  "aries": 3906, 
  "heritage": 3907, 
  "dependent": 3908, 
  "warned": 3909, 
  "privacy": 3910, 
  "ordered": 3911, 
  "Road": 3912, 
  "rain": 3913, 
  "financed": 3914, 
  "constructive": 3915, 
  "organizations": 3916, 
  "struck": 3917, 
  "Saudi": 3918, 
  "III": 3919, 
  "dt": 3920, 
  "girl": 3921, 
  "subsidies": 3922, 
  "mon@@": 3923, 
  "complaints": 3924, 
  "distributed": 3925, 
  "AS@@": 3926, 
  "kilometres": 3927, 
  "combating": 3928, 
  "ll@@": 3929, 
  "Congress": 3930, 
  "ya": 3931, 
  "06": 3932, 
  "connections": 3933, 
  "flights": 3934, 
  "Pa@@": 3935, 
  "fire@@": 3936, 
  "Wil@@": 3937, 
  "ver": 3938, 
  "possibly": 3939, 
  "dy": 3940, 
  "islands": 3941, 
  "spectators": 3942, 
  "cu@@": 3943, 
  "pretty": 3944, 
  "Slovakia": 3945, 
  "posts": 3946, 
  "Roman": 3947, 
  "cra@@": 3948, 
  "Cal@@": 3949, 
  "treaty": 3950, 
  "Gi@@": 3951, 
  "officially": 3952, 
  "Debian": 3953, 
  "replace": 3954, 
  "Bremen": 3955, 
  "Baltic": 3956, 
  "Am@@": 3957, 
  "yer": 3958, 
  "liberalisation": 3959, 
  "stages": 3960, 
  "wear": 3961, 
  "wake": 3962, 
  "Linux": 3963, 
  "raw": 3964, 
  "Max": 3965, 
  "corresponding": 3966, 
  "turns": 3967, 
  "ken": 3968, 
  "ends": 3969, 
  "allegations": 3970, 
  "pl@@": 3971, 
  "54": 3972, 
  "maintaining": 3973, 
  "suppliers": 3974, 
  "occurred": 3975, 
  "winners": 3976, 
  "offensive": 3977, 
  "Alliance": 3978, 
  "demonstrated": 3979, 
  "af@@": 3980, 
  "closing": 3981, 
  "bri@@": 3982, 
  "ese": 3983, 
  "precise": 3984, 
  "secondary": 3985, 
  "boost": 3986, 
  "Funds": 3987, 
  "ness": 3988, 
  "secretary": 3989, 
  "transactions": 3990, 
  "Rot@@": 3991, 
  "falling": 3992, 
  "hence": 3993, 
  "exception": 3994, 
  "Franz": 3995, 
  "earth": 3996, 
  "default": 3997, 
  "Cor@@": 3998, 
  "discharge": 3999, 
  "Australia": 4000, 
  "output": 4001, 
  "favourite": 4002, 
  "11.@@": 4003, 
  "tested": 4004, 
  "Festival": 4005, 
  "amongst": 4006, 
  "listen": 4007, 
  "Wer@@": 4008, 
  "Portuguese": 4009, 
  "consequently": 4010, 
  "Area": 4011, 
  "engaged": 4012, 
  "highway": 4013, 
  "pped": 4014, 
  "tells": 4015, 
  "Per@@": 4016, 
  "Lake": 4017, 
  "cks": 4018, 
  "Mon@@": 4019, 
  "lift": 4020, 
  "remind": 4021, 
  "saving": 4022, 
  "versions": 4023, 
  "notified": 4024, 
  "unlike": 4025, 
  "duties": 4026, 
  "wald": 4027, 
  "ian": 4028, 
  "surveillance": 4029, 
  "holds": 4030, 
  "female": 4031, 
  "luck": 4032, 
  "directives": 4033, 
  "tobacco": 4034, 
  "disabled": 4035, 
  "tough": 4036, 
  "western": 4037, 
  "trouble": 4038, 
  "obstacles": 4039, 
  "sustainability": 4040, 
  "kinds": 4041, 
  "dry": 4042, 
  "absence": 4043, 
  "lunch": 4044, 
  "pick": 4045, 
  "profits": 4046, 
  "surprised": 4047, 
  "promised": 4048, 
  "relaxing": 4049, 
  "deadline": 4050, 
  "1992": 4051, 
  "actor": 4052, 
  "accordingly": 4053, 
  "widely": 4054, 
  "Matthias": 4055, 
  "Euro@@": 4056, 
  "murder": 4057, 
  "ung@@": 4058, 
  "proportion": 4059, 
  "alongside": 4060, 
  "And": 4061, 
  "dinner": 4062, 
  "besides": 4063, 
  "auer": 4064, 
  "cht@@": 4065, 
  "hosts": 4066, 
  "reserves": 4067, 
  "determination": 4068, 
  "justified": 4069, 
  "col@@": 4070, 
  "copy": 4071, 
  "bar@@": 4072, 
  "keeper": 4073, 
  "tion": 4074, 
  "collaboration": 4075, 
  "tim@@": 4076, 
  "Champions": 4077, 
  "war@@": 4078, 
  "reconstruction": 4079, 
  "debates": 4080, 
  "scored": 4081, 
  "Ta@@": 4082, 
  "Safety": 4083, 
  "parliament": 4084, 
  "fears": 4085, 
  "switch": 4086, 
  "Charter": 4087, 
  "bra@@": 4088, 
  "pu@@": 4089, 
  "Assembly": 4090, 
  "referendum": 4091, 
  "forum": 4092, 
  "honourable": 4093, 
  "arrest": 4094, 
  "buffet": 4095, 
  "pure": 4096, 
  "Soviet": 4097, 
  "producing": 4098, 
  "studied": 4099, 
  "Interior": 4100, 
  "examination": 4101, 
  "forthcoming": 4102, 
  "install": 4103, 
  "dollar": 4104, 
  "residential": 4105, 
  "Ra@@": 4106, 
  "Wolf": 4107, 
  "turning": 4108, 
  "elderly": 4109, 
  "03": 4110, 
  "interface": 4111, 
  "windows": 4112, 
  "boss": 4113, 
  "seeing": 4114, 
  "FR": 4115, 
  "sharp": 4116, 
  "lay": 4117, 
  "attorney": 4118, 
  "afraid": 4119, 
  "assess": 4120, 
  "findings": 4121, 
  "ein": 4122, 
  "fo@@": 4123, 
  "250": 4124, 
  "Ö": 4125, 
  "removal": 4126, 
  "demonstrate": 4127, 
  "teaching": 4128, 
  "Tel": 4129, 
  "attractions": 4130, 
  "score": 4131, 
  "ying": 4132, 
  "Sebastian": 4133, 
  "sel@@": 4134, 
  "ell@@": 4135, 
  "ats": 4136, 
  "64": 4137, 
  "ky": 4138, 
  "rely": 4139, 
  "count": 4140, 
  "super": 4141, 
  "perpetrators": 4142, 
  "thousand": 4143, 
  "oral": 4144, 
  "Single": 4145, 
  "constitution": 4146, 
  "du": 4147, 
  "recognized": 4148, 
  "push": 4149, 
  "stadium": 4150, 
  "18@@": 4151, 
  "resolve": 4152, 
  "vessels": 4153, 
  "lists": 4154, 
  "sed": 4155, 
  "destroyed": 4156, 
  "brigade": 4157, 
  "Hungarian": 4158, 
  "bel": 4159, 
  "12.@@": 4160, 
  "representation": 4161, 
  "ah": 4162, 
  "renewed": 4163, 
  "immigrants": 4164, 
  "fees": 4165, 
  "56": 4166, 
  "makers": 4167, 
  "zing": 4168, 
  "aus@@": 4169, 
  "relief": 4170, 
  "successor": 4171, 
  "attempts": 4172, 
  "Forum": 4173, 
  "Jan@@": 4174, 
  "producer": 4175, 
  "cleaning": 4176, 
  "suspended": 4177, 
  "intellectual": 4178, 
  "Hil@@": 4179, 
  "Jewish": 4180, 
  "das": 4181, 
  "Act": 4182, 
  "ruled": 4183, 
  "husband": 4184, 
  "cinema": 4185, 
  "theme": 4186, 
  "Mer@@": 4187, 
  "elsewhere": 4188, 
  "believed": 4189, 
  "za": 4190, 
  "cable": 4191, 
  "belongs": 4192, 
  "sk@@": 4193, 
  "brother": 4194, 
  "lau@@": 4195, 
  "bought": 4196, 
  "prospects": 4197, 
  "sleep": 4198, 
  "encouraging": 4199, 
  "Me@@": 4200, 
  "urge": 4201, 
  "ir@@": 4202, 
  "ments": 4203, 
  "drinks": 4204, 
  "stor@@": 4205, 
  "continent": 4206, 
  "vast": 4207, 
  "Pact": 4208, 
  "invite": 4209, 
  "retail": 4210, 
  "writes": 4211, 
  "allocated": 4212, 
  "diverse": 4213, 
  "audio": 4214, 
  "minority": 4215, 
  "understood": 4216, 
  "scar@@": 4217, 
  "bill": 4218, 
  "funded": 4219, 
  "ative": 4220, 
  "una": 4221, 
  "Chief": 4222, 
  "pain": 4223, 
  "junior": 4224, 
  "coordinated": 4225, 
  "ges": 4226, 
  "defense": 4227, 
  "Ker@@": 4228, 
  "clinic": 4229, 
  "ies": 4230, 
  "Decision": 4231, 
  "enhanced": 4232, 
  "53": 4233, 
  "Earth": 4234, 
  "theory": 4235, 
  "bor@@": 4236, 
  "serves": 4237, 
  "tics": 4238, 
  "1993": 4239, 
  "ID": 4240, 
  "vo@@": 4241, 
  "Air": 4242, 
  "recognise": 4243, 
  "selling": 4244, 
  "pursue": 4245, 
  "label": 4246, 
  "wal@@": 4247, 
  "George": 4248, 
  "700": 4249, 
  "highlights": 4250, 
  "interpretation": 4251, 
  "pulled": 4252, 
  "delighted": 4253, 
  "tre@@": 4254, 
  "familiar": 4255, 
  "eu@@": 4256, 
  "explore": 4257, 
  "occur": 4258, 
  "headquarters": 4259, 
  "succeed": 4260, 
  "ES": 4261, 
  "mu@@": 4262, 
  "suffer": 4263, 
  "oriented": 4264, 
  "completion": 4265, 
  "meier": 4266, 
  "lasting": 4267, 
  "Egypt": 4268, 
  "ised": 4269, 
  "concentration": 4270, 
  "saved": 4271, 
  "charming": 4272, 
  "handed": 4273, 
  "medicine": 4274, 
  "locations": 4275, 
  "hof": 4276, 
  "Constitutional": 4277, 
  "Pakistan": 4278, 
  "av@@": 4279, 
  "studio": 4280, 
  "6.@@": 4281, 
  "Cooperation": 4282, 
  "meter": 4283, 
  "jo@@": 4284, 
  "suggested": 4285, 
  "On": 4286, 
  "wave": 4287, 
  "ro": 4288, 
  "alliance": 4289, 
  "participating": 4290, 
  "birthday": 4291, 
  "Company": 4292, 
  "movements": 4293, 
  "reporting": 4294, 
  "spectacular": 4295, 
  "speaker": 4296, 
  "inner": 4297, 
  "olds": 4298, 
  "boy": 4299, 
  "invites": 4300, 
  "Mainz": 4301, 
  "5.@@": 4302, 
  "substance": 4303, 
  "4th": 4304, 
  "schemes": 4305, 
  "desired": 4306, 
  "supplies": 4307, 
  "Roma": 4308, 
  "regret": 4309, 
  "and@@": 4310, 
  "wooden": 4311, 
  "violent": 4312, 
  "trips": 4313, 
  "micro@@": 4314, 
  "20th": 4315, 
  "contributed": 4316, 
  "equivalent": 4317, 
  "Gr@@": 4318, 
  "fewer": 4319, 
  "chair": 4320, 
  "neues": 4321, 
  "ill": 4322, 
  "everywhere": 4323, 
  "encouraged": 4324, 
  "Common": 4325, 
  "incident": 4326, 
  "native": 4327, 
  "Indian": 4328, 
  "universal": 4329, 
  "define": 4330, 
  "Hu@@": 4331, 
  "cast": 4332, 
  "witnesses": 4333, 
  "Heinz": 4334, 
  "respected": 4335, 
  "Hel@@": 4336, 
  "Picture": 4337, 
  "Württemberg": 4338, 
  "ethnic": 4339, 
  "periods": 4340, 
  "brief": 4341, 
  "19th": 4342, 
  "Mu@@": 4343, 
  "intends": 4344, 
  "enjoyed": 4345, 
  "Society": 4346, 
  "fitness": 4347, 
  "CO2": 4348, 
  "publication": 4349, 
  "drop": 4350, 
  "Sports": 4351, 
  "covering": 4352, 
  "opens": 4353, 
  "websites": 4354, 
  "ced": 4355, 
  "Lithuania": 4356, 
  "remote": 4357, 
  "stored": 4358, 
  "ECU": 4359, 
  "drove": 4360, 
  "Y": 4361, 
  "refers": 4362, 
  "characters": 4363, 
  "Rules": 4364, 
  "vocational": 4365, 
  "regardless": 4366, 
  "Gre@@": 4367, 
  "ga@@": 4368, 
  "inc@@": 4369, 
  "cooperate": 4370, 
  "Partnership": 4371, 
  "boys": 4372, 
  "foot@@": 4373, 
  "impose": 4374, 
  "factory": 4375, 
  "supplier": 4376, 
  "Hol@@": 4377, 
  "Guardi@@": 4378, 
  "Win@@": 4379, 
  "renovated": 4380, 
  "ages": 4381, 
  "records": 4382, 
  "stores": 4383, 
  "receives": 4384, 
  "ob@@": 4385, 
  "wheel": 4386, 
  "Mor@@": 4387, 
  "internationally": 4388, 
  "Augsburg": 4389, 
  "liked": 4390, 
  "57": 4391, 
  "workshop": 4392, 
  "investigations": 4393, 
  "Walter": 4394, 
  "Organisation": 4395, 
  "Guest": 4396, 
  "Open": 4397, 
  "It": 4398, 
  "repeat": 4399, 
  "Mal@@": 4400, 
  "Authority": 4401, 
  "extraordinary": 4402, 
  "ich": 4403, 
  "command": 4404, 
  "appreciate": 4405, 
  "ki@@": 4406, 
  "organic": 4407, 
  "cell": 4408, 
  "treat": 4409, 
  "valley": 4410, 
  "conservation": 4411, 
  "gallery": 4412, 
  "fallen": 4413, 
  "Enterprise": 4414, 
  "IN": 4415, 
  "furnished": 4416, 
  "quotas": 4417, 
  "regarded": 4418, 
  "ensured": 4419, 
  "mini": 4420, 
  "This": 4421, 
  "necessarily": 4422, 
  "generated": 4423, 
  "Jo@@": 4424, 
  "assembly": 4425, 
  "ology": 4426, 
  "universities": 4427, 
  "El": 4428, 
  "Th@@": 4429, 
  "plane": 4430, 
  "prosecutor": 4431, 
  "realistic": 4432, 
  "labor": 4433, 
  "tner": 4434, 
  "si": 4435, 
  "scandal": 4436, 
  "Structural": 4437, 
  "asks": 4438, 
  "transmission": 4439, 
  "threats": 4440, 
  "Clinton": 4441, 
  "Socialist": 4442, 
  "Par@@": 4443, 
  "58": 4444, 
  "essen@@": 4445, 
  "del@@": 4446, 
  "sat": 4447, 
  "ence": 4448, 
  "visiting": 4449, 
  "ity": 4450, 
  "booking.com": 4451, 
  "inter": 4452, 
  "caught": 4453, 
  "flows": 4454, 
  "channels": 4455, 
  "Protocol": 4456, 
  "120": 4457, 
  "Monetary": 4458, 
  "Balkans": 4459, 
  "writer": 4460, 
  "aviation": 4461, 
  "Rio": 4462, 
  "shipping": 4463, 
  "horse": 4464, 
  "cells": 4465, 
  "7.@@": 4466, 
  "coal": 4467, 
  "Jean": 4468, 
  "ft": 4469, 
  "troops": 4470, 
  "formation": 4471, 
  "pushed": 4472, 
  "Technology": 4473, 
  "glad": 4474, 
  "baby": 4475, 
  "cancelled": 4476, 
  "eri@@": 4477, 
  "destruction": 4478, 
  "undertaken": 4479, 
  "supervision": 4480, 
  "arrive": 4481, 
  "reflected": 4482, 
  "sending": 4483, 
  "beings": 4484, 
  "Co": 4485, 
  "lawyer": 4486, 
  "fantastic": 4487, 
  "You": 4488, 
  "championship": 4489, 
  "library": 4490, 
  "j": 4491, 
  "bound": 4492, 
  "ss": 4493, 
  "gradually": 4494, 
  "enburg": 4495, 
  "grown": 4496, 
  "ss@@": 4497, 
  "Copenhagen": 4498, 
  "adapt": 4499, 
  "observed": 4500, 
  "lights": 4501, 
  "dishes": 4502, 
  "10.@@": 4503, 
  "complicated": 4504, 
  "raising": 4505, 
  "Agenda": 4506, 
  "ali@@": 4507, 
  "grateful": 4508, 
  "Costa": 4509, 
  "Sal@@": 4510, 
  "For": 4511, 
  "La@@": 4512, 
  "wonder": 4513, 
  "stresses": 4514, 
  "Marco": 4515, 
  "59": 4516, 
  "expects": 4517, 
  "athletes": 4518, 
  "Prize": 4519, 
  "ke@@": 4520, 
  "cl@@": 4521, 
  "Kra@@": 4522, 
  "8.@@": 4523, 
  "strengthened": 4524, 
  "tables": 4525, 
  "assume": 4526, 
  "lar": 4527, 
  "sis": 4528, 
  "wider": 4529, 
  "Fisheries": 4530, 
  "ise": 4531, 
  "procurement": 4532, 
  "notably": 4533, 
  "height": 4534, 
  "Federation": 4535, 
  "tonnes": 4536, 
  "har@@": 4537, 
  "mixed": 4538, 
  "Gabriel": 4539, 
  "entering": 4540, 
  "religion": 4541, 
  "Danish": 4542, 
  "promises": 4543, 
  "argument": 4544, 
  "mistake": 4545, 
  "fried": 4546, 
  "subsequent": 4547, 
  "sa": 4548, 
  "kan": 4549, 
  "parish": 4550, 
  "pla@@": 4551, 
  "can@@": 4552, 
  "shift": 4553, 
  "tracks": 4554, 
  "boards": 4555, 
  "estimates": 4556, 
  "ble": 4557, 
  "defensive": 4558, 
  "Joint": 4559, 
  "judges": 4560, 
  "Ka@@": 4561, 
  "receiving": 4562, 
  "Rhineland": 4563, 
  "FDP": 4564, 
  "compete": 4565, 
  "gel@@": 4566, 
  "ley": 4567, 
  "married": 4568, 
  "promoted": 4569, 
  "underground": 4570, 
  "unto": 4571, 
  "FIFA": 4572, 
  "fied": 4573, 
  "Ti@@": 4574, 
  "excluded": 4575, 
  "false": 4576, 
  "dorfer": 4577, 
  "counter@@": 4578, 
  "bro@@": 4579, 
  "silver": 4580, 
  "applying": 4581, 
  "exclusion": 4582, 
  "trends": 4583, 
  "aus": 4584, 
  "AL@@": 4585, 
  "damaged": 4586, 
  "5th": 4587, 
  "deeply": 4588, 
  "Villa": 4589, 
  "6th": 4590, 
  "end@@": 4591, 
  "Sport": 4592, 
  "decorated": 4593, 
  "kl@@": 4594, 
  "Josef": 4595, 
  "OS": 4596, 
  "promise": 4597, 
  "ACP": 4598, 
  "Americans": 4599, 
  "ens@@": 4600, 
  "forests": 4601, 
  "praised": 4602, 
  "Com@@": 4603, 
  "Music": 4604, 
  "confident": 4605, 
  "roughly": 4606, 
  "ports": 4607, 
  "1.5": 4608, 
  "packaging": 4609, 
  "reputation": 4610, 
  "ati@@": 4611, 
  "Sil@@": 4612, 
  "Kr@@": 4613, 
  "Rooms": 4614, 
  "bag": 4615, 
  "mistakes": 4616, 
  "browser": 4617, 
  "subjects": 4618, 
  "Mario": 4619, 
  "arguments": 4620, 
  "satisfaction": 4621, 
  "employee": 4622, 
  "male": 4623, 
  "00@@": 4624, 
  "je": 4625, 
  "1991": 4626, 
  "exact": 4627, 
  "ve@@": 4628, 
  "deployment": 4629, 
  "motor": 4630, 
  "radical": 4631, 
  "towns": 4632, 
  "younger": 4633, 
  "Cuba": 4634, 
  "novel": 4635, 
  "addresses": 4636, 
  "rarely": 4637, 
  "unanimously": 4638, 
  "peoples": 4639, 
  "loan": 4640, 
  "fly": 4641, 
  "IN@@": 4642, 
  "jump": 4643, 
  "constitute": 4644, 
  "BMW": 4645, 
  "vers": 4646, 
  "camps": 4647, 
  "min@@": 4648, 
  "Tor@@": 4649, 
  "cur@@": 4650, 
  "employers": 4651, 
  "import": 4652, 
  "intelligence": 4653, 
  "Control": 4654, 
  "bedroom": 4655, 
  "courage": 4656, 
  "DVD": 4657, 
  "exchanges": 4658, 
  "decade": 4659, 
  "occupied": 4660, 
  "guided": 4661, 
  "motto": 4662, 
  "therapy": 4663, 
  "concepts": 4664, 
  "01.@@": 4665, 
  "preparations": 4666, 
  "97": 4667, 
  "captain": 4668, 
  "ben@@": 4669, 
  "unusual": 4670, 
  "witness": 4671, 
  "chi@@": 4672, 
  "buses": 4673, 
  "Asian": 4674, 
  "unemployed": 4675, 
  "AR@@": 4676, 
  "virtual": 4677, 
  "copyright": 4678, 
  "mat@@": 4679, 
  "attacked": 4680, 
  "pace": 4681, 
  "videos": 4682, 
  "refused": 4683, 
  "techniques": 4684, 
  "dropped": 4685, 
  "firmly": 4686, 
  "ously": 4687, 
  "returns": 4688, 
  "patent": 4689, 
  "programming": 4690, 
  "intend": 4691, 
  "Championship": 4692, 
  "involves": 4693, 
  "ussi@@": 4694, 
  "characteristics": 4695, 
  "her@@": 4696, 
  "convenient": 4697, 
  "ending": 4698, 
  "transportation": 4699, 
  "component": 4700, 
  "Joachim": 4701, 
  "suite": 4702, 
  "moves": 4703, 
  "reject": 4704, 
  "obliged": 4705, 
  "diesel": 4706, 
  "62": 4707, 
  "parliaments": 4708, 
  "ST@@": 4709, 
  "pensions": 4710, 
  "Land": 4711, 
  "stakeholders": 4712, 
  "seeks": 4713, 
  "Vo@@": 4714, 
  "speaks": 4715, 
  "Best": 4716, 
  "ye": 4717, 
  "grand": 4718, 
  "faith": 4719, 
  "Han@@": 4720, 
  "farming": 4721, 
  "surprising": 4722, 
  "1,@@": 4723, 
  "Vil@@": 4724, 
  "branch": 4725, 
  "tal": 4726, 
  "Catholic": 4727, 
  "Atlantic": 4728, 
  "suggests": 4729, 
  "printing": 4730, 
  "proven": 4731, 
  "prosperity": 4732, 
  "sha@@": 4733, 
  "Mat@@": 4734, 
  "aside": 4735, 
  "doubts": 4736, 
  "solar": 4737, 
  "carrying": 4738, 
  "anti@@": 4739, 
  "input": 4740, 
  "terrorists": 4741, 
  "Dieter": 4742, 
  "reaction": 4743, 
  "narrow": 4744, 
  "displayed": 4745, 
  "managers": 4746, 
  "birds": 4747, 
  "Estonia": 4748, 
  "ARD": 4749, 
  "bit@@": 4750, 
  "air@@": 4751, 
  "joy": 4752, 
  "sions": 4753, 
  "72": 4754, 
  "sixth": 4755, 
  "license": 4756, 
  "twenty": 4757, 
  "symbol": 4758, 
  "frame": 4759, 
  "merger": 4760, 
  "adds": 4761, 
  "spite": 4762, 
  "legitimate": 4763, 
  "productivity": 4764, 
  "labelling": 4765, 
  "liberal": 4766, 
  "Saint": 4767, 
  "breaking": 4768, 
  "Bur@@": 4769, 
  "revised": 4770, 
  "emphasise": 4771, 
  "noticed": 4772, 
  "ensures": 4773, 
  "fought": 4774, 
  "societies": 4775, 
  "damages": 4776, 
  "cool": 4777, 
  "dramatic": 4778, 
  "hiking": 4779, 
  "gel": 4780, 
  "tes": 4781, 
  "conditioning": 4782, 
  "ir": 4783, 
  "Code": 4784, 
  "supplied": 4785, 
  "feels": 4786, 
  "ll": 4787, 
  "committees": 4788, 
  "significance": 4789, 
  "Fin@@": 4790, 
  "artistic": 4791, 
  "portal": 4792, 
  "containing": 4793, 
  "pe": 4794, 
  "seemed": 4795, 
  "Ombudsman": 4796, 
  "Consumer": 4797, 
  "ane": 4798, 
  "phrase": 4799, 
  "considerably": 4800, 
  "Internal": 4801, 
  "Belarus": 4802, 
  "id": 4803, 
  "similarly": 4804, 
  "Southern": 4805, 
  "Region": 4806, 
  "resolutions": 4807, 
  "br@@": 4808, 
  "attached": 4809, 
  "investigators": 4810, 
  "cre@@": 4811, 
  "picked": 4812, 
  "smooth": 4813, 
  "virtually": 4814, 
  "CAP": 4815, 
  "Muslim": 4816, 
  "gardens": 4817, 
  "carnival": 4818, 
  "Annex": 4819, 
  "Auditors": 4820, 
  "continuous": 4821, 
  "repeated": 4822, 
  "ph@@": 4823, 
  "occasions": 4824, 
  "Prague": 4825, 
  "allocation": 4826, 
  "minor": 4827, 
  "revealed": 4828, 
  "brain": 4829, 
  "ts@@": 4830, 
  "Minutes": 4831, 
  "Latvia": 4832, 
  "viewers": 4833, 
  "aged": 4834, 
  "pop": 4835, 
  "relaxation": 4836, 
  "credibility": 4837, 
  "defender": 4838, 
  "globalisation": 4839, 
  "minorities": 4840, 
  "oc@@": 4841, 
  "compulsory": 4842, 
  "Br@@": 4843, 
  "We@@": 4844, 
  "Bro@@": 4845, 
  "66": 4846, 
  "mental": 4847, 
  "fre@@": 4848, 
  "temperatures": 4849, 
  "Athens": 4850, 
  "highlighted": 4851, 
  "whereas": 4852, 
  "River": 4853, 
  "ingly": 4854, 
  "consent": 4855, 
  "after@@": 4856, 
  "ari@@": 4857, 
  "61": 4858, 
  "Royal": 4859, 
  "properties": 4860, 
  "Schal@@": 4861, 
  "preventing": 4862, 
  "PM": 4863, 
  "VfB": 4864, 
  "proposing": 4865, 
  "kirchen": 4866, 
  "emphasized": 4867, 
  "multi@@": 4868, 
  "subsidiarity": 4869, 
  "sovereign": 4870, 
  "Christoph": 4871, 
  "closure": 4872, 
  "deaths": 4873, 
  "normally": 4874, 
  "urgently": 4875, 
  "Gel@@": 4876, 
  "introducing": 4877, 
  "suspects": 4878, 
  "agents": 4879, 
  "Hor@@": 4880, 
  "45@@": 4881, 
  "lin": 4882, 
  "sole": 4883, 
  "banned": 4884, 
  "dra@@": 4885, 
  "lan@@": 4886, 
  "balcony": 4887, 
  "fulfil": 4888, 
  "licence": 4889, 
  "Chi@@": 4890, 
  "editor": 4891, 
  "generations": 4892, 
  "á@@": 4893, 
  "Special": 4894, 
  "Fran@@": 4895, 
  "Bernd": 4896, 
  "mandatory": 4897, 
  "ba": 4898, 
  "planet": 4899, 
  "Kre@@": 4900, 
  "struggle": 4901, 
  "describes": 4902, 
  "blog": 4903, 
  "Dresden": 4904, 
  "Horst": 4905, 
  "Games": 4906, 
  "letters": 4907, 
  "tower": 4908, 
  "Gro@@": 4909, 
  "province": 4910, 
  "Dax": 4911, 
  "Industry": 4912, 
  "Michel": 4913, 
  "safeguard": 4914, 
  "Bra@@": 4915, 
  "eighth": 4916, 
  "airports": 4917, 
  "ON": 4918, 
  "°": 4919, 
  "consequence": 4920, 
  "dining": 4921, 
  "Bush": 4922, 
  "Istanbul": 4923, 
  "Bar": 4924, 
  "Palace": 4925, 
  "suggestions": 4926, 
  "sections": 4927, 
  "conc@@": 4928, 
  "wer@@": 4929, 
  "delegations": 4930, 
  "integrate": 4931, 
  "resource": 4932, 
  "adopting": 4933, 
  "indoor": 4934, 
  "gli@@": 4935, 
  "Stability": 4936, 
  "deposit": 4937, 
  "Brandenburg": 4938, 
  "Palatinate": 4939, 
  "depend": 4940, 
  "Fischer": 4941, 
  "unlikely": 4942, 
  "IMF": 4943, 
  "pa@@": 4944, 
  "marks": 4945, 
  "announce": 4946, 
  "engines": 4947, 
  "surely": 4948, 
  "Gar@@": 4949, 
  "permit": 4950, 
  "subsidiary": 4951, 
  "approaches": 4952, 
  "head@@": 4953, 
  "71": 4954, 
  "password": 4955, 
  "pp": 4956, 
  "93": 4957, 
  "Valley": 4958, 
  "correctly": 4959, 
  "63": 4960, 
  "ality": 4961, 
  "Tri@@": 4962, 
  "fairly": 4963, 
  "scenes": 4964, 
  "quota": 4965, 
  "ic@@": 4966, 
  "Arabia": 4967, 
  "choir": 4968, 
  "enterprise": 4969, 
  "fleet": 4970, 
  "app": 4971, 
  "freight": 4972, 
  "colors": 4973, 
  "processed": 4974, 
  "De": 4975, 
  "Qu@@": 4976, 
  "suspect": 4977, 
  "revision": 4978, 
  "ranked": 4979, 
  "convergence": 4980, 
  "disputes": 4981, 
  "bl@@": 4982, 
  "telecommunications": 4983, 
  "finances": 4984, 
  "adapted": 4985, 
  "7th": 4986, 
  "bre@@": 4987, 
  "villages": 4988, 
  "dogs": 4989, 
  "Bundestag": 4990, 
  "ther": 4991, 
  "updates": 4992, 
  "Media": 4993, 
  "Zurich": 4994, 
  "computers": 4995, 
  "printed": 4996, 
  "shock": 4997, 
  "lots": 4998, 
  "Meeting": 4999, 
  "ast": 5000, 
  "yed": 5001, 
  "inspired": 5002, 
  "uniform": 5003, 
  "surroundings": 5004, 
  "united": 5005, 
  "nobody": 5006, 
  "yo@@": 5007, 
  "checked": 5008, 
  "Bosnia": 5009, 
  "clarify": 5010, 
  "prevented": 5011, 
  "heading": 5012, 
  "willingness": 5013, 
  "neighbours": 5014, 
  "violations": 5015, 
  "coherent": 5016, 
  "Exchange": 5017, 
  "freely": 5018, 
  "shareholders": 5019, 
  "ines": 5020, 
  "appointment": 5021, 
  "Van": 5022, 
  "Carnival": 5023, 
  "tens": 5024, 
  "Le": 5025, 
  "sauna": 5026, 
  "relaxed": 5027, 
  "cas@@": 5028, 
  "airlines": 5029, 
  "founder": 5030, 
  "ban@@": 5031, 
  "Georgia": 5032, 
  "bigger": 5033, 
  "economically": 5034, 
  "smoke": 5035, 
  "afford": 5036, 
  "jointly": 5037, 
  "ass@@": 5038, 
  "skiing": 5039, 
  "soil": 5040, 
  "Station": 5041, 
  "acquired": 5042, 
  "Kat@@": 5043, 
  "specified": 5044, 
  "Mercedes": 5045, 
  "Em@@": 5046, 
  "announcement": 5047, 
  "generate": 5048, 
  "railways": 5049, 
  "restore": 5050, 
  "Bas@@": 5051, 
  "premium": 5052, 
  "moral": 5053, 
  "expense": 5054, 
  "Morocco": 5055, 
  "Sie@@": 5056, 
  "EN@@": 5057, 
  "Donald": 5058, 
  "replacement": 5059, 
  "reservations": 5060, 
  "heimer": 5061, 
  "gr@@": 5062, 
  "resulted": 5063, 
  "governing": 5064, 
  "guidance": 5065, 
  "Lan@@": 5066, 
  "AS": 5067, 
  "shooting": 5068, 
  "IV": 5069, 
  "plenary": 5070, 
  "cs": 5071, 
  "greatly": 5072, 
  "fli@@": 5073, 
  "Wol@@": 5074, 
  "paths": 5075, 
  "emp@@": 5076, 
  "venture": 5077, 
  "pull": 5078, 
  "enabling": 5079, 
  "cosy": 5080, 
  "talent": 5081, 
  "hostels": 5082, 
  "centuries": 5083, 
  "Wolfsburg": 5084, 
  "Manuel": 5085, 
  "TO": 5086, 
  "Women": 5087, 
  "Kol@@": 5088, 
  "Pal@@": 5089, 
  "admission": 5090, 
  "ath": 5091, 
  "ste@@": 5092, 
  "Castle": 5093, 
  "Second": 5094, 
  "Science": 5095, 
  "leg": 5096, 
  "taxi": 5097, 
  "92": 5098, 
  "ordinary": 5099, 
  "documentation": 5100, 
  "causing": 5101, 
  "ca@@": 5102, 
  "ern": 5103, 
  "proceed": 5104, 
  "Civil": 5105, 
  "handle": 5106, 
  "satisfactory": 5107, 
  "achievement": 5108, 
  "harmonisation": 5109, 
  "graphics": 5110, 
  "bomb": 5111, 
  "volunteers": 5112, 
  "settings": 5113, 
  "tea": 5114, 
  "Inter@@": 5115, 
  "Real": 5116, 
  "Procedure": 5117, 
  "certificate": 5118, 
  "difficulty": 5119, 
  "strictly": 5120, 
  "Pan@@": 5121, 
  "gers": 5122, 
  "VB": 5123, 
  "blocks": 5124, 
  "hardware": 5125, 
  "twelve": 5126, 
  "conversion": 5127, 
  "bedrooms": 5128, 
  "denied": 5129, 
  "law@@": 5130, 
  "acceptance": 5131, 
  "wines": 5132, 
  "phenomenon": 5133, 
  "oppose": 5134, 
  "rank": 5135, 
  "MEPs": 5136, 
  "collect": 5137, 
  "Al": 5138, 
  "concerts": 5139, 
  "attend": 5140, 
  "hidden": 5141, 
  "Has@@": 5142, 
  "ti": 5143, 
  "Af@@": 5144, 
  "negotiation": 5145, 
  "ini@@": 5146, 
  "protests": 5147, 
  "cked": 5148, 
  "recognize": 5149, 
  "Oliver": 5150, 
  "adjustment": 5151, 
  "RO@@": 5152, 
  "profession": 5153, 
  "calendar": 5154, 
  "Balkan": 5155, 
  "clause": 5156, 
  "ought": 5157, 
  "EEC": 5158, 
  "Time": 5159, 
  "Left": 5160, 
  "haven": 5161, 
  "hostel": 5162, 
  "Barroso": 5163, 
  "repair": 5164, 
  "nights": 5165, 
  "sho@@": 5166, 
  "Malta": 5167, 
  "Dre@@": 5168, 
  "negotiated": 5169, 
  "pr@@": 5170, 
  "han@@": 5171, 
  "haus": 5172, 
  "ori@@": 5173, 
  "crew": 5174, 
  "commit": 5175, 
  "artificial": 5176, 
  "med": 5177, 
  "nonetheless": 5178, 
  "load": 5179, 
  "connect": 5180, 
  "conservative": 5181, 
  "expand": 5182, 
  "sand": 5183, 
  "grants": 5184, 
  "67": 5185, 
  "oldest": 5186, 
  "alarm": 5187, 
  "clothes": 5188, 
  "addressing": 5189, 
  "thinks": 5190, 
  "visits": 5191, 
  "territorial": 5192, 
  "Anna": 5193, 
  "roll": 5194, 
  "consulting": 5195, 
  "buying": 5196, 
  "2.5": 5197, 
  "bright": 5198, 
  "Rule": 5199, 
  "beck": 5200, 
  "Richard": 5201, 
  "commented": 5202, 
  "communicate": 5203, 
  "accounting": 5204, 
  "gl@@": 5205, 
  "CEO": 5206, 
  "AT@@": 5207, 
  "losing": 5208, 
  "painting": 5209, 
  "Sh@@": 5210, 
  "shadow": 5211, 
  "Dor@@": 5212, 
  "arm": 5213, 
  "Bau@@": 5214, 
  "eng@@": 5215, 
  "uncertainty": 5216, 
  "wireless": 5217, 
  "errors": 5218, 
  "thirdly": 5219, 
  "intense": 5220, 
  "1989": 5221, 
  "Seeh@@": 5222, 
  "bonds": 5223, 
  "diplomatic": 5224, 
  "Rural": 5225, 
  "specialists": 5226, 
  "Upper": 5227, 
  "medicines": 5228, 
  "bags": 5229, 
  "ha": 5230, 
  "zation": 5231, 
  "penalties": 5232, 
  "Ad@@": 5233, 
  "combine": 5234, 
  "phones": 5235, 
  "einer": 5236, 
  "complaint": 5237, 
  "slowly": 5238, 
  "municipal": 5239, 
  "welcoming": 5240, 
  "Software": 5241, 
  "mouth": 5242, 
  "grew": 5243, 
  "Ein@@": 5244, 
  "layer": 5245, 
  "remarkable": 5246, 
  "referring": 5247, 
  "tips": 5248, 
  "ER@@": 5249, 
  "Head": 5250, 
  "Arena": 5251, 
  "jury": 5252, 
  "awards": 5253, 
  "ano": 5254, 
  "™": 5255, 
  "are@@": 5256, 
  "gift": 5257, 
  "surplus": 5258, 
  "varied": 5259, 
  "Ankara": 5260, 
  "settled": 5261, 
  "struggling": 5262, 
  "favourable": 5263, 
  "solely": 5264, 
  "invested": 5265, 
  "ran@@": 5266, 
  "forgotten": 5267, 
  "sh": 5268, 
  "Q@@": 5269, 
  "criticised": 5270, 
  "breach": 5271, 
  "compact": 5272, 
  "ads": 5273, 
  "iPhone": 5274, 
  "commission": 5275, 
  "incentives": 5276, 
  "duration": 5277, 
  "electrical": 5278, 
  "tin": 5279, 
  "reflects": 5280, 
  "suspicion": 5281, 
  "bert": 5282, 
  "delays": 5283, 
  "lei@@": 5284, 
  "Kal@@": 5285, 
  "War@@": 5286, 
  "confirms": 5287, 
  "tro@@": 5288, 
  "crises": 5289, 
  "cameras": 5290, 
  "Ai@@": 5291, 
  "execution": 5292, 
  "chose": 5293, 
  "prisoners": 5294, 
  "defendant": 5295, 
  "Jörg": 5296, 
  "environmentally": 5297, 
  "confirmation": 5298, 
  "PDF": 5299, 
  "desk": 5300, 
  "Europa": 5301, 
  "con": 5302, 
  "investor": 5303, 
  "transfers": 5304, 
  "Prince": 5305, 
  "Münster": 5306, 
  "Nazi": 5307, 
  "linger": 5308, 
  "AM@@": 5309, 
  "spare": 5310, 
  "widespread": 5311, 
  "amended": 5312, 
  "multilateral": 5313, 
  "tha": 5314, 
  "premises": 5315, 
  "all@@": 5316, 
  "rapporteurs": 5317, 
  "bid": 5318, 
  "forecast": 5319, 
  "ple@@": 5320, 
  "mel@@": 5321, 
  "ai@@": 5322, 
  "mere": 5323, 
  "ela": 5324, 
  "flowers": 5325, 
  "exploitation": 5326, 
  "EN": 5327, 
  "disappointed": 5328, 
  "2,@@": 5329, 
  "engage": 5330, 
  "regulated": 5331, 
  "Volkswagen": 5332, 
  "drinking": 5333, 
  "mit": 5334, 
  "enberg": 5335, 
  "dies": 5336, 
  "gri@@": 5337, 
  "ai": 5338, 
  "ade": 5339, 
  "ths": 5340, 
  "Award": 5341, 
  "worker": 5342, 
  "enemy": 5343, 
  "nationals": 5344, 
  "9.@@": 5345, 
  "barely": 5346, 
  "Sam@@": 5347, 
  "emerged": 5348, 
  "recording": 5349, 
  "claimed": 5350, 
  "critics": 5351, 
  "wen@@": 5352, 
  "focuses": 5353, 
  "principal": 5354, 
  "Te@@": 5355, 
  "68": 5356, 
  "basically": 5357, 
  "cleared": 5358, 
  "sta@@": 5359, 
  "arrangement": 5360, 
  "investigating": 5361, 
  "explanation": 5362, 
  "ranging": 5363, 
  "Permanent": 5364, 
  "stake": 5365, 
  "IT@@": 5366, 
  "IS@@": 5367, 
  "win@@": 5368, 
  "honour": 5369, 
  "papers": 5370, 
  "To@@": 5371, 
  "preserve": 5372, 
  "fishermen": 5373, 
  "gross": 5374, 
  "apparent": 5375, 
  "ranks": 5376, 
  "accurate": 5377, 
  "Global": 5378, 
  "Network": 5379, 
  "freedoms": 5380, 
  "Min@@": 5381, 
  "comm@@": 5382, 
  "anyway": 5383, 
  "philosophy": 5384, 
  "transit": 5385, 
  "briefly": 5386, 
  "upcoming": 5387, 
  "retirement": 5388, 
  "ack": 5389, 
  "authorisation": 5390, 
  "indicate": 5391, 
  "composition": 5392, 
  "dri@@": 5393, 
  "unity": 5394, 
  "drew": 5395, 
  "mm@@": 5396, 
  "expenses": 5397, 
  "Post": 5398, 
  "exposed": 5399, 
  "mirror": 5400, 
  "roots": 5401, 
  "authors": 5402, 
  "ef@@": 5403, 
  "split": 5404, 
  "pillar": 5405, 
  "2018": 5406, 
  "cultures": 5407, 
  "disasters": 5408, 
  "publicly": 5409, 
  "approve": 5410, 
  "Bel@@": 5411, 
  "differently": 5412, 
  "Zeitung": 5413, 
  "recalled": 5414, 
  "Oscar": 5415, 
  "presenting": 5416, 
  "protocol": 5417, 
  "Fi": 5418, 
  "volunteer": 5419, 
  "defeated": 5420, 
  "Hof@@": 5421, 
  "adult": 5422, 
  "ure": 5423, 
  "def@@": 5424, 
  "dollars": 5425, 
  "ED": 5426, 
  "acc@@": 5427, 
  "airline": 5428, 
  "drives": 5429, 
  "James": 5430, 
  "Ei@@": 5431, 
  "ara": 5432, 
  "passion": 5433, 
  "Florian": 5434, 
  "Ke@@": 5435, 
  "produces": 5436, 
  "civilian": 5437, 
  "Islands": 5438, 
  "zones": 5439, 
  "....": 5440, 
  "CO@@": 5441, 
  "asset": 5442, 
  "thanked": 5443, 
  "Rei@@": 5444, 
  "instructions": 5445, 
  "lock": 5446, 
  "Aid": 5447, 
  "calm": 5448, 
  "Aus@@": 5449, 
  "off@@": 5450, 
  "vacation": 5451, 
  "cat@@": 5452, 
  "sm@@": 5453, 
  "NGOs": 5454, 
  "Tour": 5455, 
  "ble@@": 5456, 
  "ey": 5457, 
  "ov": 5458, 
  "­": 5459, 
  "Manager": 5460, 
  "finger": 5461, 
  "foundations": 5462, 
  "mas@@": 5463, 
  "zo@@": 5464, 
  "cke": 5465, 
  "ING": 5466, 
  "Simon": 5467, 
  "indicators": 5468, 
  "remarks": 5469, 
  "circles": 5470, 
  "conventional": 5471, 
  "expanded": 5472, 
  "blame": 5473, 
  "demonstration": 5474, 
  "sufficiently": 5475, 
  "successes": 5476, 
  "afterwards": 5477, 
  "enz@@": 5478, 
  "restored": 5479, 
  "sphere": 5480, 
  "representing": 5481, 
  "councils": 5482, 
  "worry": 5483, 
  "non@@": 5484, 
  "traditions": 5485, 
  "cally": 5486, 
  "revolution": 5487, 
  "Wit@@": 5488, 
  "Lö@@": 5489, 
  "gains": 5490, 
  "shots": 5491, 
  "ching": 5492, 
  "passing": 5493, 
  "behavior": 5494, 
  "attract": 5495, 
  "invitation": 5496, 
  "Hö@@": 5497, 
  "urged": 5498, 
  "lovely": 5499, 
  "69": 5500, 
  "eggs": 5501, 
  "West@@": 5502, 
  "initiated": 5503, 
  "ün@@": 5504, 
  "renowned": 5505, 
  "attended": 5506, 
  "ben": 5507, 
  "praise": 5508, 
  "racing": 5509, 
  "ier": 5510, 
  "identification": 5511, 
  "partial": 5512, 
  "15.@@": 5513, 
  "With": 5514, 
  "Lei@@": 5515, 
  "ES@@": 5516, 
  "89": 5517, 
  "affects": 5518, 
  "loaded": 5519, 
  "fur@@": 5520, 
  "dominant": 5521, 
  "tors": 5522, 
  "strikes": 5523, 
  "info": 5524, 
  "ownership": 5525, 
  "Process": 5526, 
  "Bonn": 5527, 
  "Academy": 5528, 
  "lia": 5529, 
  "81": 5530, 
  "farms": 5531, 
  "noon": 5532, 
  "designer": 5533, 
  "bacher": 5534, 
  "equity": 5535, 
  "ata": 5536, 
  "geographical": 5537, 
  "portfolio": 5538, 
  "ller": 5539, 
  "Men@@": 5540, 
  "ère": 5541, 
  "soul": 5542, 
  "boats": 5543, 
  "Mark": 5544, 
  "permitted": 5545, 
  "individually": 5546, 
  "Lam@@": 5547, 
  "je@@": 5548, 
  "kick": 5549, 
  "logical": 5550, 
  "cul@@": 5551, 
  "Data": 5552, 
  "arise": 5553, 
  "dominated": 5554, 
  "dignity": 5555, 
  "Santa": 5556, 
  "trans@@": 5557, 
  "busy": 5558, 
  "Uwe": 5559, 
  "ful": 5560, 
  "measured": 5561, 
  "prominent": 5562, 
  "counts": 5563, 
  "premiere": 5564, 
  "Directors": 5565, 
  "literature": 5566, 
  "Bayer": 5567, 
  "eurozone": 5568, 
  "sti@@": 5569, 
  "reserved": 5570, 
  "moments": 5571, 
  "sister": 5572, 
  "offen@@": 5573, 
  "gun": 5574, 
  "hoped": 5575, 
  "ada": 5576, 
  "Mari@@": 5577, 
  "withdrawal": 5578, 
  "Cross": 5579, 
  "comparable": 5580, 
  "Kurdish": 5581, 
  "moderate": 5582, 
  "implications": 5583, 
  "rit@@": 5584, 
  "marriage": 5585, 
  "medi@@": 5586, 
  "acquis": 5587, 
  "violation": 5588, 
  "ering": 5589, 
  "interim": 5590, 
  "serving": 5591, 
  "smart": 5592, 
  "captured": 5593, 
  "alternatives": 5594, 
  "everybody": 5595, 
  "domain": 5596, 
  "adventure": 5597, 
  "Garden": 5598, 
  "fired": 5599, 
  "Gau@@": 5600, 
  "kg": 5601, 
  "terrible": 5602, 
  "evident": 5603, 
  "suicide": 5604, 
  "82": 5605, 
  "für": 5606, 
  "iron": 5607, 
  "transitional": 5608, 
  "ers@@": 5609, 
  "Na@@": 5610, 
  "boxes": 5611, 
  "harmful": 5612, 
  "chen": 5613, 
  "ven": 5614, 
  "relative": 5615, 
  "operates": 5616, 
  "Friedrich": 5617, 
  "ec.europa.eu": 5618, 
  "Beijing": 5619, 
  "functional": 5620, 
  "rating": 5621, 
  "Commissioners": 5622, 
  "zz@@": 5623, 
  "operated": 5624, 
  "Nor@@": 5625, 
  "Val@@": 5626, 
  "Milan": 5627, 
  "3D": 5628, 
  "Ex@@": 5629, 
  "applicant": 5630, 
  "len@@": 5631, 
  "pf@@": 5632, 
  "ants": 5633, 
  "PL": 5634, 
  "Helmut": 5635, 
  "authorised": 5636, 
  "Ah@@": 5637, 
  "unions": 5638, 
  "com": 5639, 
  "sl@@": 5640, 
  "matches": 5641, 
  "donations": 5642, 
  "anywhere": 5643, 
  "Annual": 5644, 
  "Strasbourg": 5645, 
  "adding": 5646, 
  "suited": 5647, 
  "adjusted": 5648, 
  "delicious": 5649, 
  "enabled": 5650, 
  "undertakings": 5651, 
  "Westphalia": 5652, 
  "SA": 5653, 
  "73": 5654, 
  "cancellation": 5655, 
  "ado": 5656, 
  "eleven": 5657, 
  "actress": 5658, 
  "mor@@": 5659, 
  "Patrick": 5660, 
  "silence": 5661, 
  "restricted": 5662, 
  "realize": 5663, 
  "zes": 5664, 
  "Albania": 5665, 
  "na@@": 5666, 
  "lounge": 5667, 
  "jungle": 5668, 
  "signing": 5669, 
  "RE@@": 5670, 
  "wer": 5671, 
  "ur": 5672, 
  "timely": 5673, 
  "ör@@": 5674, 
  "meal": 5675, 
  "essentially": 5676, 
  "Thi@@": 5677, 
  "organise": 5678, 
  "considerations": 5679, 
  "arising": 5680, 
  "geb@@": 5681, 
  "fits": 5682, 
  "chapter": 5683, 
  "mine": 5684, 
  "cup": 5685, 
  "colours": 5686, 
  "Ul@@": 5687, 
  "agrees": 5688, 
  "magnificent": 5689, 
  "unnecessary": 5690, 
  "Star@@": 5691, 
  "salt": 5692, 
  "mp@@": 5693, 
  "museums": 5694, 
  "AC": 5695, 
  "miles": 5696, 
  "schedule": 5697, 
  "succeeded": 5698, 
  "Room": 5699, 
  "constitutes": 5700, 
  "donors": 5701, 
  "22@@": 5702, 
  "romantic": 5703, 
  "las": 5704, 
  "Col@@": 5705, 
  "ere": 5706, 
  "assessed": 5707, 
  "budgets": 5708, 
  "converted": 5709, 
  "stylish": 5710, 
  "basketball": 5711, 
  "singing": 5712, 
  "ingredients": 5713, 
  "Life": 5714, 
  "chamber": 5715, 
  "pays": 5716, 
  "marine": 5717, 
  "formally": 5718, 
  "districts": 5719, 
  "Hi@@": 5720, 
  "Island": 5721, 
  "acted": 5722, 
  "contributing": 5723, 
  "²": 5724, 
  "thermal": 5725, 
  "collapse": 5726, 
  "floors": 5727, 
  "St": 5728, 
  "offences": 5729, 
  "acknowledged": 5730, 
  "77": 5731, 
  "motor@@": 5732, 
  "Tourism": 5733, 
  "ener@@": 5734, 
  "snow@@": 5735, 
  "whenever": 5736, 
  "cheaper": 5737, 
  "occupation": 5738, 
  "tt@@": 5739, 
  "workshops": 5740, 
  "belief": 5741, 
  "cal@@": 5742, 
  "24@@": 5743, 
  "opera": 5744, 
  "engagement": 5745, 
  "certainty": 5746, 
  "sin@@": 5747, 
  "EL": 5748, 
  "elle": 5749, 
  "ratio": 5750, 
  "travellers": 5751, 
  "choices": 5752, 
  "Copyright": 5753, 
  "timetable": 5754, 
  "monthly": 5755, 
  "S.": 5756, 
  "deployed": 5757, 
  "sovereignty": 5758, 
  "Defence": 5759, 
  "í@@": 5760, 
  "crossing": 5761, 
  "Labour": 5762, 
  "piano": 5763, 
  "URL": 5764, 
  "configuration": 5765, 
  "reasoned": 5766, 
  "gs@@": 5767, 
  "discipline": 5768, 
  "theater": 5769, 
  "ah@@": 5770, 
  "CH@@": 5771, 
  "the@@": 5772, 
  "sad": 5773, 
  "stops": 5774, 
  "Cap@@": 5775, 
  "ot": 5776, 
  "qualifications": 5777, 
  "Libya": 5778, 
  "74": 5779, 
  "purely": 5780, 
  "dan@@": 5781, 
  "Sel@@": 5782, 
  "Nice": 5783, 
  "ep": 5784, 
  "blocked": 5785, 
  "brands": 5786, 
  "Fo@@": 5787, 
  "log": 5788, 
  "greenhouse": 5789, 
  "joining": 5790, 
  "bling": 5791, 
  "dress": 5792, 
  "Bir@@": 5793, 
  "Growth": 5794, 
  "EEA": 5795, 
  "bel@@": 5796, 
  "und@@": 5797, 
  "capabilities": 5798, 
  "lowest": 5799, 
  "VP": 5800, 
  "suites": 5801, 
  "88": 5802, 
  "•": 5803, 
  "tr@@": 5804, 
  "sensible": 5805, 
  "bearing": 5806, 
  "Golden": 5807, 
  "Potsdam": 5808, 
  "assigned": 5809, 
  "journalist": 5810, 
  "Gri@@": 5811, 
  "Philipp": 5812, 
  "incorporated": 5813, 
  "ee": 5814, 
  "spectrum": 5815, 
  "flag": 5816, 
  "chemicals": 5817, 
  "13.@@": 5818, 
  "78": 5819, 
  "flying": 5820, 
  "dumping": 5821, 
  "Australian": 5822, 
  "Online": 5823, 
  "ins@@": 5824, 
  "harm": 5825, 
  "platz": 5826, 
  "lawyers": 5827, 
  "reliability": 5828, 
  "Islam": 5829, 
  "lich": 5830, 
  "Ham@@": 5831, 
  "Senate": 5832, 
  "avoided": 5833, 
  "els@@": 5834, 
  "Hollywood": 5835, 
  "municipalities": 5836, 
  "unfair": 5837, 
  "riding": 5838, 
  "calculated": 5839, 
  "24.@@": 5840, 
  "sentenced": 5841, 
  "coastal": 5842, 
  "metre": 5843, 
  "Nuremberg": 5844, 
  "sorry": 5845, 
  "zu": 5846, 
  "Anhalt": 5847, 
  "activists": 5848, 
  "keeps": 5849, 
  "aggressive": 5850, 
  "extending": 5851, 
  "Sk@@": 5852, 
  "preserved": 5853, 
  "gre@@": 5854, 
  "performing": 5855, 
  "assure": 5856, 
  "wei@@": 5857, 
  "negotiate": 5858, 
  "hole": 5859, 
  "Mün@@": 5860, 
  "fu@@": 5861, 
  "countryside": 5862, 
  "bread": 5863, 
  "Angeles": 5864, 
  "runner": 5865, 
  "zu@@": 5866, 
  "tel@@": 5867, 
  "ny": 5868, 
  "91": 5869, 
  "ns": 5870, 
  "branches": 5871, 
  "permission": 5872, 
  "titles": 5873, 
  "supervisory": 5874, 
  "lands": 5875, 
  "Team": 5876, 
  "Gerhard": 5877, 
  "Schw@@": 5878, 
  "Wiesbaden": 5879, 
  "wages": 5880, 
  "concentrate": 5881, 
  "stick": 5882, 
  "ists": 5883, 
  "thick": 5884, 
  "explicitly": 5885, 
  "classical": 5886, 
  "Los": 5887, 
  "optimal": 5888, 
  "root": 5889, 
  "ws": 5890, 
  "Kyoto": 5891, 
  "Johannes": 5892, 
  "drama": 5893, 
  "posted": 5894, 
  "bin": 5895, 
  "throw": 5896, 
  "Pacific": 5897, 
  "navigation": 5898, 
  "heated": 5899, 
  "After": 5900, 
  "app@@": 5901, 
  "describe": 5902, 
  "ev@@": 5903, 
  "shoes": 5904, 
  "Schneider": 5905, 
  "honorary": 5906, 
  "sw@@": 5907, 
  "citizenship": 5908, 
  "Lebanon": 5909, 
  "Mö@@": 5910, 
  "pri@@": 5911, 
  "fails": 5912, 
  "audit": 5913, 
  "ots": 5914, 
  "·": 5915, 
  "Tobias": 5916, 
  "earn": 5917, 
  "achievements": 5918, 
  "transformation": 5919, 
  "affordable": 5920, 
  "sto@@": 5921, 
  "assumed": 5922, 
  "Iceland": 5923, 
  "ministry": 5924, 
  "ß": 5925, 
  "Pro": 5926, 
  "consolidation": 5927, 
  "dom@@": 5928, 
  "Erdogan": 5929, 
  "motivated": 5930, 
  "om": 5931, 
  "humanity": 5932, 
  "technique": 5933, 
  "gro@@": 5934, 
  "California": 5935, 
  "consistently": 5936, 
  "sessions": 5937, 
  "eck": 5938, 
  "failing": 5939, 
  "Dublin": 5940, 
  "orientation": 5941, 
  "shut": 5942, 
  "Hong": 5943, 
  "Mobile": 5944, 
  "postal": 5945, 
  "exhaust": 5946, 
  "IC@@": 5947, 
  "stra@@": 5948, 
  "20.@@": 5949, 
  "Manchester": 5950, 
  "focusing": 5951, 
  "designs": 5952, 
  "criminals": 5953, 
  "TS@@": 5954, 
  "ess@@": 5955, 
  "ecological": 5956, 
  "composed": 5957, 
  "lo": 5958, 
  "sal@@": 5959, 
  "tight": 5960, 
  "1,000": 5961, 
  "sequel": 5962, 
  "tariff": 5963, 
  "ette": 5964, 
  "metro": 5965, 
  "inspection": 5966, 
  "vic": 5967, 
  "undoubtedly": 5968, 
  "vis": 5969, 
  "Gei@@": 5970, 
  "bonus": 5971, 
  "leg@@": 5972, 
  "coverage": 5973, 
  "hospitality": 5974, 
  "campaigns": 5975, 
  "Bü@@": 5976, 
  "eller": 5977, 
  "perpetr@@": 5978, 
  "truck": 5979, 
  "thoughts": 5980, 
  "AN@@": 5981, 
  "pping": 5982, 
  "motorway": 5983, 
  "40@@": 5984, 
  "sample": 5985, 
  "Bö@@": 5986, 
  "hu@@": 5987, 
  "skilled": 5988, 
  "ation@@": 5989, 
  "modules": 5990, 
  "arranged": 5991, 
  "new@@": 5992, 
  "ür@@": 5993, 
  "sharply": 5994, 
  "relationships": 5995, 
  "emission": 5996, 
  "thin": 5997, 
  "pack": 5998, 
  "Manfred": 5999, 
  "references": 6000, 
  "founding": 6001, 
  "76": 6002, 
  "Karlsruhe": 6003, 
  "Alps": 6004, 
  "AD@@": 6005, 
  "chef": 6006, 
  "TH@@": 6007, 
  "abandoned": 6008, 
  "colli@@": 6009, 
  "fe@@": 6010, 
  "convince": 6011, 
  "Sol@@": 6012, 
  "cycling": 6013, 
  "hoping": 6014, 
  "earned": 6015, 
  "detention": 6016, 
  "wn": 6017, 
  "inn@@": 6018, 
  "clock": 6019, 
  "pressing": 6020, 
  "ward": 6021, 
  "argued": 6022, 
  "Georg": 6023, 
  "healthcare": 6024, 
  "Wies@@": 6025, 
  "underlined": 6026, 
  "productive": 6027, 
  "surprisingly": 6028, 
  "prospect": 6029, 
  "publications": 6030, 
  "beaten": 6031, 
  "wedding": 6032, 
  "amazing": 6033, 
  "Front": 6034, 
  "bio": 6035, 
  "94": 6036, 
  "liable": 6037, 
  "dro@@": 6038, 
  "react": 6039, 
  "affecting": 6040, 
  "Assad": 6041, 
  "cope": 6042, 
  "stream": 6043, 
  "hockey": 6044, 
  "killing": 6045, 
  "sophisticated": 6046, 
  "seventh": 6047, 
  "commerce": 6048, 
  "Express": 6049, 
  "Fri@@": 6050, 
  "Stockholm": 6051, 
  "21st": 6052, 
  "tone": 6053, 
  "clothing": 6054, 
  "Restaurant": 6055, 
  "Peace": 6056, 
  "Bru@@": 6057, 
  "ey@@": 6058, 
  "separation": 6059, 
  "fate": 6060, 
  "securities": 6061, 
  "disk": 6062, 
  "agent": 6063, 
  "External": 6064, 
  "bicycle": 6065, 
  "likes": 6066, 
  "golden": 6067, 
  "tender": 6068, 
  "Leverkusen": 6069, 
  "superior": 6070, 
  "advisory": 6071, 
  "household": 6072, 
  "lar@@": 6073, 
  "atic": 6074, 
  "granting": 6075, 
  "Liverpool": 6076, 
  "defending": 6077, 
  "underlying": 6078, 
  "broadband": 6079, 
  "ella": 6080, 
  "honest": 6081, 
  "Pri@@": 6082, 
  "manufacture": 6083, 
  "retain": 6084, 
  "lad@@": 6085, 
  "sick": 6086, 
  "Kong": 6087, 
  "Ralf": 6088, 
  "Europol": 6089, 
  "Bay": 6090, 
  "Rö@@": 6091, 
  "endorf": 6092, 
  "referee": 6093, 
  "18th": 6094, 
  "14.@@": 6095, 
  "Francis": 6096, 
  "overnight": 6097, 
  "module": 6098, 
  "separated": 6099, 
  "len": 6100, 
  "Rosen@@": 6101, 
  "parks": 6102, 
  "efficiently": 6103, 
  "olive": 6104, 
  "smartphone": 6105, 
  "öh@@": 6106, 
  "translated": 6107, 
  "Small": 6108, 
  "isn": 6109, 
  "signals": 6110, 
  "lastly": 6111, 
  "OR@@": 6112, 
  "char@@": 6113, 
  "tion@@": 6114, 
  "clo@@": 6115, 
  "Local": 6116, 
  "devoted": 6117, 
  "sn@@": 6118, 
  "publishing": 6119, 
  "couldn": 6120, 
  "Muslims": 6121, 
  "sted": 6122, 
  "Felix": 6123, 
  "satisfy": 6124, 
  "Gö@@": 6125, 
  "chancell@@": 6126, 
  "frequent": 6127, 
  "clarity": 6128, 
  "DG": 6129, 
  "quarters": 6130, 
  "Eve": 6131, 
  "Wi": 6132, 
  "ups": 6133, 
  "bands": 6134, 
  "dust": 6135, 
  "lighting": 6136, 
  "Is@@": 6137, 
  "No.": 6138, 
  "pal@@": 6139, 
  "Andrea": 6140, 
  "prosecution": 6141, 
  "Dra@@": 6142, 
  "pursued": 6143, 
  "A.": 6144, 
  "evil": 6145, 
  "Heads": 6146, 
  "households": 6147, 
  "racism": 6148, 
  "19.@@": 6149, 
  "donation": 6150, 
  "appropriations": 6151, 
  "realise": 6152, 
  "79": 6153, 
  "nominated": 6154, 
  "Korean": 6155, 
  "Marcel": 6156, 
  "criticized": 6157, 
  "inadequate": 6158, 
  "discount": 6159, 
  "Bahn": 6160, 
  "900": 6161, 
  "weekly": 6162, 
  "consecutive": 6163, 
  "relatives": 6164, 
  "vegetables": 6165, 
  "Ga@@": 6166, 
  "nationwide": 6167, 
  "83": 6168, 
  "demanded": 6169, 
  "tension": 6170, 
  "Finnish": 6171, 
  "Il@@": 6172, 
  "holder": 6173, 
  "biodiversity": 6174, 
  "sia": 6175, 
  "logistics": 6176, 
  "ear@@": 6177, 
  "Argentina": 6178, 
  "Spa": 6179, 
  "carrier": 6180, 
  "County": 6181, 
  "hor@@": 6182, 
  "ay": 6183, 
  "broader": 6184, 
  "ultimate": 6185, 
  "gn@@": 6186, 
  "dar@@": 6187, 
  "taught": 6188, 
  "AL": 6189, 
  "twin": 6190, 
  "Sky": 6191, 
  "publish": 6192, 
  "ked": 6193, 
  "ani": 6194, 
  "deputy": 6195, 
  "foreigners": 6196, 
  "temporarily": 6197, 
  "ant@@": 6198, 
  "35@@": 6199, 
  "counted": 6200, 
  "ratification": 6201, 
  "withdraw": 6202, 
  "arb@@": 6203, 
  "Iranian": 6204, 
  "expecting": 6205, 
  "enthusiasm": 6206, 
  "Nieder@@": 6207, 
  "expanding": 6208, 
  "threatening": 6209, 
  "honor": 6210, 
  "chairs": 6211, 
  "bird": 6212, 
  "Julia": 6213, 
  "textile": 6214, 
  "COM": 6215, 
  "town@@": 6216, 
  "vest@@": 6217, 
  "decides": 6218, 
  "allies": 6219, 
  "watching": 6220, 
  "sizes": 6221, 
  "parameters": 6222, 
  "ISO": 6223, 
  "Tunisia": 6224, 
  "tribute": 6225, 
  "observation": 6226, 
  "stayed": 6227, 
  "EL@@": 6228, 
  "fa": 6229, 
  "Inn": 6230, 
  "momentum": 6231, 
  "reviewed": 6232, 
  "Venice": 6233, 
  "hardt": 6234, 
  "directory": 6235, 
  "Journal": 6236, 
  "Nar@@": 6237, 
  "arts": 6238, 
  "craft": 6239, 
  "mb@@": 6240, 
  "lending": 6241, 
  "partially": 6242, 
  "informal": 6243, 
  "readers": 6244, 
  "trail": 6245, 
  "Kri@@": 6246, 
  "Private": 6247, 
  "breaks": 6248, 
  "une": 6249, 
  "130": 6250, 
  "wellness": 6251, 
  "ably": 6252, 
  "9th": 6253, 
  "mill": 6254, 
  "conferences": 6255, 
  "threshold": 6256, 
  "Wall": 6257, 
  "roles": 6258, 
  "installations": 6259, 
  "cooking": 6260, 
  "meals": 6261, 
  "mouse": 6262, 
  "cm": 6263, 
  "San@@": 6264, 
  "ational": 6265, 
  "complained": 6266, 
  "departments": 6267, 
  "guys": 6268, 
  "quoted": 6269, 
  "sting": 6270, 
  "signature": 6271, 
  "160": 6272, 
  "broadcast": 6273, 
  "billions": 6274, 
  "packed": 6275, 
  "kers": 6276, 
  "stays": 6277, 
  "elling": 6278, 
  "ken@@": 6279, 
  "pra@@": 6280, 
  "chan@@": 6281, 
  "cease": 6282, 
  "Fab@@": 6283, 
  "fax": 6284, 
  "stolen": 6285, 
  "inclusive": 6286, 
  "luxurious": 6287, 
  "Shi@@": 6288, 
  "Premier": 6289, 
  "EH@@": 6290, 
  "sheim": 6291, 
  "pharmaceutical": 6292, 
  "intelligent": 6293, 
  "partnerships": 6294, 
  "outset": 6295, 
  "charm": 6296, 
  "acknowledge": 6297, 
  "feedback": 6298, 
  "equ@@": 6299, 
  "purchased": 6300, 
  "fat": 6301, 
  "preferred": 6302, 
  "silent": 6303, 
  "Criminal": 6304, 
  "tragic": 6305, 
  "Airbus": 6306, 
  "fulfilled": 6307, 
  "usage": 6308, 
  "alia": 6309, 
  "practically": 6310, 
  "resident": 6311, 
  "filed": 6312, 
  "returning": 6313, 
  "consult": 6314, 
  "taxpayers": 6315, 
  "Ram@@": 6316, 
  "ker@@": 6317, 
  "credible": 6318, 
  "Family": 6319, 
  "Gal@@": 6320, 
  "magic": 6321, 
  "promising": 6322, 
  "observers": 6323, 
  "chat": 6324, 
  "87": 6325, 
  "acquire": 6326, 
  "ri": 6327, 
  "competitions": 6328, 
  "Julian": 6329, 
  "graphic": 6330, 
  "listening": 6331, 
  "PD": 6332, 
  "visual": 6333, 
  "Beach": 6334, 
  "Page": 6335, 
  "wa": 6336, 
  "inquiry": 6337, 
  "kindergarten": 6338, 
  "consultations": 6339, 
  "importantly": 6340, 
  "entrepreneurs": 6341, 
  "answered": 6342, 
  "watched": 6343, 
  "deficits": 6344, 
  "chen@@": 6345, 
  "Little": 6346, 
  "Tre@@": 6347, 
  "integrity": 6348, 
  "races": 6349, 
  "advised": 6350, 
  "eine": 6351, 
  "keys": 6352, 
  "churches": 6353, 
  "reinforce": 6354, 
  "ideally": 6355, 
  "pper": 6356, 
  "newspapers": 6357, 
  "duo": 6358, 
  "ita": 6359, 
  "fa@@": 6360, 
  "Professor": 6361, 
  "jurisdiction": 6362, 
  "purchasing": 6363, 
  "scenario": 6364, 
  "Kevin": 6365, 
  "Louis": 6366, 
  "thirds": 6367, 
  "ash": 6368, 
  "fin@@": 6369, 
  "Hal@@": 6370, 
  "visitor": 6371, 
  "lobby": 6372, 
  "emotional": 6373, 
  "lucky": 6374, 
  "renovation": 6375, 
  "container": 6376, 
  "dual": 6377, 
  "folk": 6378, 
  "Blue": 6379, 
  "colorful": 6380, 
  "guilty": 6381, 
  "enhancing": 6382, 
  "10th": 6383, 
  "USB": 6384, 
  "25@@": 6385, 
  "gun@@": 6386, 
  "celebration": 6387, 
  "Pu@@": 6388, 
  "continuously": 6389, 
  "treatments": 6390, 
  "capture": 6391, 
  "ene": 6392, 
  "Treaties": 6393, 
  "thrown": 6394, 
  "coaches": 6395, 
  "beef": 6396, 
  "Round": 6397, 
  "vent@@": 6398, 
  "stones": 6399, 
  "booked": 6400, 
  "ease": 6401, 
  "poorest": 6402, 
  "battery": 6403, 
  "Legal": 6404, 
  "investigated": 6405, 
  "leather": 6406, 
  "archive": 6407, 
  "unforgettable": 6408, 
  "relates": 6409, 
  "celebrates": 6410, 
  "revenues": 6411, 
  "hunting": 6412, 
  "badly": 6413, 
  "eliminate": 6414, 
  "circulation": 6415, 
  "Rainer": 6416, 
  "86": 6417, 
  "weapon": 6418, 
  "vel@@": 6419, 
  "surgery": 6420, 
  "tunnel": 6421, 
  "stepped": 6422, 
  "16.@@": 6423, 
  "safely": 6424, 
  "continuation": 6425, 
  "combines": 6426, 
  "mining": 6427, 
  "Mil@@": 6428, 
  "0,000": 6429, 
  "az@@": 6430, 
  "hat": 6431, 
  "directions": 6432, 
  "applicants": 6433, 
  "condemned": 6434, 
  "Schulz": 6435, 
  "developers": 6436, 
  "stuff": 6437, 
  "EADS": 6438, 
  "ved": 6439, 
  "recall": 6440, 
  "urgency": 6441, 
  "qualification": 6442, 
  "frequency": 6443, 
  "Theatre": 6444, 
  "summary": 6445, 
  "tech": 6446, 
  "theft": 6447, 
  "halls": 6448, 
  "traditionally": 6449, 
  "belt": 6450, 
  "wouldn": 6451, 
  "prohibited": 6452, 
  "M.": 6453, 
  "intervene": 6454, 
  "swe@@": 6455, 
  "cri@@": 6456, 
  "scher": 6457, 
  "ona": 6458, 
  "oh@@": 6459, 
  "pending": 6460, 
  "Hermann": 6461, 
  "84": 6462, 
  "Ser@@": 6463, 
  "lively": 6464, 
  "Cl@@": 6465, 
  "chocolate": 6466, 
  "shausen": 6467, 
  "neighbourhood": 6468, 
  "As": 6469, 
  "hospitals": 6470, 
  "incidents": 6471, 
  "openness": 6472, 
  "viable": 6473, 
  "speculation": 6474, 
  "wed": 6475, 
  "Sw@@": 6476, 
  "cheese": 6477, 
  "cap@@": 6478, 
  "homepage": 6479, 
  "deserved": 6480, 
  "tend": 6481, 
  "precious": 6482, 
  "lovers": 6483, 
  "ann@@": 6484, 
  "script": 6485, 
  "reactions": 6486, 
  "ered": 6487, 
  "past@@": 6488, 
  "affair": 6489, 
  "wars": 6490, 
  "legendary": 6491, 
  "fled": 6492, 
  "reflection": 6493, 
  "Tyrol": 6494, 
  "Cameron": 6495, 
  "pedestrian": 6496, 
  "AIDS": 6497, 
  "forth": 6498, 
  "Test": 6499, 
  "indication": 6500, 
  "isation": 6501, 
  "Zu@@": 6502, 
  "Marc": 6503, 
  "passes": 6504, 
  "scoreboard": 6505, 
  "fl@@": 6506, 
  "Opera": 6507, 
  "defended": 6508, 
  "specially": 6509, 
  "participated": 6510, 
  "amending": 6511, 
  "dener": 6512, 
  "humans": 6513, 
  "platforms": 6514, 
  "Systems": 6515, 
  "View": 6516, 
  "ising": 6517, 
  "sur@@": 6518, 
  "mal@@": 6519, 
  "convention": 6520, 
  "Spring": 6521, 
  "EESC": 6522, 
  "At@@": 6523, 
  "ka@@": 6524, 
  "Sim@@": 6525, 
  "functionality": 6526, 
  "BSE": 6527, 
  "blind": 6528, 
  "aff@@": 6529, 
  "massage": 6530, 
  "sustained": 6531, 
  "endorse": 6532, 
  "squ@@": 6533, 
  "enjoys": 6534, 
  "dly": 6535, 
  "Initiative": 6536, 
  "rival": 6537, 
  "Super": 6538, 
  "Weber": 6539, 
  "Sudan": 6540, 
  "posed": 6541, 
  "gy": 6542, 
  "ov@@": 6543, 
  "kill": 6544, 
  "ving": 6545, 
  "speeches": 6546, 
  "DR": 6547, 
  "Joseph": 6548, 
  "striking": 6549, 
  "18.@@": 6550, 
  "cru@@": 6551, 
  "Golf": 6552, 
  "dr@@": 6553, 
  "Sei@@": 6554, 
  "academic": 6555, 
  "debut": 6556, 
  "exhibitions": 6557, 
  "Show": 6558, 
  "assi@@": 6559, 
  "loved": 6560, 
  "neo": 6561, 
  "kan@@": 6562, 
  "loud": 6563, 
  "Caribbean": 6564, 
  "Ukrainian": 6565, 
  "Regions": 6566, 
  "shoot": 6567, 
  "Kon@@": 6568, 
  "imported": 6569, 
  "cancel": 6570, 
  "responded": 6571, 
  "respects": 6572, 
  "Mur@@": 6573, 
  "edi@@": 6574, 
  "waves": 6575, 
  "certified": 6576, 
  "recommends": 6577, 
  "foremost": 6578, 
  "auf": 6579, 
  "Stra@@": 6580, 
  "Republican": 6581, 
  "concentrated": 6582, 
  "3000": 6583, 
  "structured": 6584, 
  "statistical": 6585, 
  "insufficient": 6586, 
  "Nos": 6587, 
  "peak": 6588, 
  "governmental": 6589, 
  "ett@@": 6590, 
  "Ulrich": 6591, 
  "refuse": 6592, 
  "PT": 6593, 
  "li": 6594, 
  "Ol@@": 6595, 
  "protective": 6596, 
  "ill@@": 6597, 
  "beside": 6598, 
  "Don@@": 6599, 
  "SE": 6600, 
  "ani@@": 6601, 
  "low@@": 6602, 
  "pan@@": 6603, 
  "shaped": 6604, 
  "Prodi": 6605, 
  "certification": 6606, 
  "sol@@": 6607, 
  "specialized": 6608, 
  "garage": 6609, 
  "ena": 6610, 
  "financially": 6611, 
  "excited": 6612, 
  "Wagner": 6613, 
  "pat@@": 6614, 
  "str@@": 6615, 
  "measuring": 6616, 
  "Ale@@": 6617, 
  "incredible": 6618, 
  "landed": 6619, 
  "15th": 6620, 
  "gner": 6621, 
  "motori@@": 6622, 
  "string": 6623, 
  "Fire": 6624, 
  "Supervisory": 6625, 
  "Mc@@": 6626, 
  "lers": 6627, 
  "gan": 6628, 
  "alist": 6629, 
  "aire": 6630, 
  "threatens": 6631, 
  "Danube": 6632, 
  "Kor@@": 6633, 
  "brown": 6634, 
  "hur@@": 6635, 
  "MEMO": 6636, 
  "patterns": 6637, 
  "Sanders": 6638, 
  "machinery": 6639, 
  "ets": 6640, 
  "enjoying": 6641, 
  "populist": 6642, 
  "OR": 6643, 
  "investing": 6644, 
  "transformed": 6645, 
  "innovations": 6646, 
  "nu@@": 6647, 
  "herself": 6648, 
  "legs": 6649, 
  "Design": 6650, 
  "EUROPEAN": 6651, 
  "bears": 6652, 
  "fra@@": 6653, 
  "formats": 6654, 
  "AFP": 6655, 
  "gation": 6656, 
  "advise": 6657, 
  "justify": 6658, 
  "fy": 6659, 
  "alism": 6660, 
  "Nature": 6661, 
  "Darmstadt": 6662, 
  "play@@": 6663, 
  "30@@": 6664, 
  "Iraqi": 6665, 
  "architect": 6666, 
  "notification": 6667, 
  "quantities": 6668, 
  "Water": 6669, 
  "sake": 6670, 
  "populations": 6671, 
  "bers": 6672, 
  "urs": 6673, 
  "Kretsch@@": 6674, 
  "undertake": 6675, 
  "shortcomings": 6676, 
  "10,000": 6677, 
  "Non": 6678, 
  "crowd": 6679, 
  "ler@@": 6680, 
  "Mei@@": 6681, 
  "gan@@": 6682, 
  "ther@@": 6683, 
  "parent": 6684, 
  "reductions": 6685, 
  "para": 6686, 
  "musician": 6687, 
  "Project": 6688, 
  "Fundamental": 6689, 
  "quote": 6690, 
  "potentially": 6691, 
  "mit@@": 6692, 
  "28@@": 6693, 
  "Jesus": 6694, 
  "Charles": 6695, 
  "J": 6696, 
  "modernisation": 6697, 
  "bi": 6698, 
  "filter": 6699, 
  "NRW": 6700, 
  "upgrade": 6701, 
  "argue": 6702, 
  "thorough": 6703, 
  "begun": 6704, 
  "auto@@": 6705, 
  "Digital": 6706, 
  "custom": 6707, 
  "Police": 6708, 
  "declare": 6709, 
  "blow": 6710, 
  "bond": 6711, 
  "hill": 6712, 
  "180": 6713, 
  "guitar": 6714, 
  "creativity": 6715, 
  "gates": 6716, 
  "rin": 6717, 
  "Tur@@": 6718, 
  "cro@@": 6719, 
  "yards": 6720, 
  "ong": 6721, 
  "warns": 6722, 
  "cher@@": 6723, 
  "gathered": 6724, 
  "Jews": 6725, 
  "fuels": 6726, 
  "insight": 6727, 
  "integral": 6728, 
  "victories": 6729, 
  "isolated": 6730, 
  "exceptions": 6731, 
  "survive": 6732, 
  "ash@@": 6733, 
  "employer": 6734, 
  "foster": 6735, 
  "College": 6736, 
  "brothers": 6737, 
  "excitement": 6738, 
  "Space": 6739, 
  "automotive": 6740, 
  "genetic": 6741, 
  "Dirk": 6742, 
  "ausen": 6743, 
  "holders": 6744, 
  "plug": 6745, 
  "3,@@": 6746, 
  "ang@@": 6747, 
  "destroy": 6748, 
  "deserves": 6749, 
  "wel@@": 6750, 
  "Palestinians": 6751, 
  "ET@@": 6752, 
  "utmost": 6753, 
  "neck": 6754, 
  "loses": 6755, 
  "ory": 6756, 
  "Desk": 6757, 
  "Site": 6758, 
  "broadcasting": 6759, 
  "casino": 6760, 
  "prim@@": 6761, 
  "Amazon": 6762, 
  "Power": 6763, 
  "Im@@": 6764, 
  "bet": 6765, 
  "fines": 6766, 
  "slopes": 6767, 
  "carriers": 6768, 
  "sheets": 6769, 
  "contractual": 6770, 
  "vol@@": 6771, 
  "pas@@": 6772, 
  "themes": 6773, 
  "bal@@": 6774, 
  "minus": 6775, 
  "Dar@@": 6776, 
  "gym": 6777, 
  "admit": 6778, 
  "hal@@": 6779, 
  "manual": 6780, 
  "logo": 6781, 
  "EC@@": 6782, 
  "Sau@@": 6783, 
  "Herzegovina": 6784, 
  "shoulder": 6785, 
  "slight": 6786, 
  "fortunately": 6787, 
  "robust": 6788, 
  "servers": 6789, 
  "bul@@": 6790, 
  "measurement": 6791, 
  "ie@@": 6792, 
  "Norbert": 6793, 
  "ffen": 6794, 
  "pol@@": 6795, 
  "organ": 6796, 
  "Technical": 6797, 
  "steam": 6798, 
  "AC@@": 6799, 
  "What": 6800, 
  "proximity": 6801, 
  "staying": 6802, 
  "custody": 6803, 
  "ac": 6804, 
  "austerity": 6805, 
  "FOR": 6806, 
  "tw@@": 6807, 
  "systematic": 6808, 
  "Norwegian": 6809, 
  "fix": 6810, 
  "consulted": 6811, 
  "HA@@": 6812, 
  "tragedy": 6813, 
  "ture": 6814, 
  "headed": 6815, 
  "yl@@": 6816, 
  "ze@@": 6817, 
  "releases": 6818, 
  "lacking": 6819, 
  "permits": 6820, 
  "tape": 6821, 
  "bat@@": 6822, 
  "Eber@@": 6823, 
  "delayed": 6824, 
  "militia": 6825, 
  "radi@@": 6826, 
  "plate": 6827, 
  "survival": 6828, 
  "destinations": 6829, 
  "worthy": 6830, 
  "Cruz": 6831, 
  "knee": 6832, 
  "cau@@": 6833, 
  "Sen@@": 6834, 
  "wherever": 6835, 
  "shelter": 6836, 
  "cian": 6837, 
  "perceived": 6838, 
  "encounter": 6839, 
  "mechanical": 6840, 
  "Mel@@": 6841, 
  "Wa@@": 6842, 
  "exercises": 6843, 
  "tons": 6844, 
  "substantially": 6845, 
  "restrictive": 6846, 
  "zen@@": 6847, 
  "ageing": 6848, 
  "biological": 6849, 
  "vary": 6850, 
  "DR@@": 6851, 
  "beneficial": 6852, 
  "territories": 6853, 
  "gy@@": 6854, 
  "Thor@@": 6855, 
  "suspension": 6856, 
  "bauer": 6857, 
  "organize": 6858, 
  "lions": 6859, 
  "somehow": 6860, 
  "undertaking": 6861, 
  "sights": 6862, 
  "raises": 6863, 
  "simplification": 6864, 
  "missions": 6865, 
  "Can@@": 6866, 
  "Dis@@": 6867, 
  "OK": 6868, 
  "simultaneously": 6869, 
  "reck@@": 6870, 
  "ZDF": 6871, 
  "my@@": 6872, 
  "pregnant": 6873, 
  "optimistic": 6874, 
  "cam@@": 6875, 
  "1990s": 6876, 
  "Bernhard": 6877, 
  "Budapest": 6878, 
  "Gulf": 6879, 
  "PHP": 6880, 
  "acher": 6881, 
  "Jordan": 6882, 
  "progressive": 6883, 
  "socially": 6884, 
  "villa": 6885, 
  "350": 6886, 
  "SS@@": 6887, 
  "Republicans": 6888, 
  "whereby": 6889, 
  "tolerance": 6890, 
  "Anne": 6891, 
  "break@@": 6892, 
  "handled": 6893, 
  "draws": 6894, 
  "risen": 6895, 
  "tries": 6896, 
  "compare": 6897, 
  "Thuringia": 6898, 
  "Mag@@": 6899, 
  "permanently": 6900, 
  "My": 6901, 
  "Rü@@": 6902, 
  "hom@@": 6903, 
  "od@@": 6904, 
  "clearer": 6905, 
  "bathrooms": 6906, 
  "ink": 6907, 
  "ste": 6908, 
  "infringements": 6909, 
  "assured": 6910, 
  "bil@@": 6911, 
  "vor@@": 6912, 
  "atten@@": 6913, 
  "pan": 6914, 
  "hasn": 6915, 
  "abandon": 6916, 
  "coordinate": 6917, 
  "eit@@": 6918, 
  "ham@@": 6919, 
  "respectively": 6920, 
  "feelings": 6921, 
  "water@@": 6922, 
  "LR": 6923, 
  "sten@@": 6924, 
  "Declaration": 6925, 
  "breeding": 6926, 
  "long@@": 6927, 
  "Wilhelm": 6928, 
  "circuit": 6929, 
  "dancing": 6930, 
  "ó@@": 6931, 
  "deliberately": 6932, 
  "solo": 6933, 
  "Turin": 6934, 
  "nowadays": 6935, 
  "ase": 6936, 
  "toilet": 6937, 
  "observe": 6938, 
  "wearing": 6939, 
  "enn@@": 6940, 
  "Bon@@": 6941, 
  "helicopter": 6942, 
  "sweet": 6943, 
  "knife": 6944, 
  "atory": 6945, 
  "fires": 6946, 
  "legitimacy": 6947, 
  "enlarged": 6948, 
  "demographic": 6949, 
  "ass": 6950, 
  "quar@@": 6951, 
  "Da@@": 6952, 
  "prestigious": 6953, 
  "stu@@": 6954, 
  "17th": 6955, 
  "Montenegro": 6956, 
  "--@@": 6957, 
  "warming": 6958, 
  "Sy@@": 6959, 
  "pools": 6960, 
  "Pol@@": 6961, 
  "Bureau": 6962, 
  "slide": 6963, 
  "civilians": 6964, 
  "envisaged": 6965, 
  "examining": 6966, 
  "Pf@@": 6967, 
  "hide": 6968, 
  "aded": 6969, 
  "incentive": 6970, 
  "Gaza": 6971, 
  "23@@": 6972, 
  "manufactured": 6973, 
  "rises": 6974, 
  "estimate": 6975, 
  "OL@@": 6976, 
  "don@@": 6977, 
  "dimensions": 6978, 
  "ethical": 6979, 
  "movies": 6980, 
  "rear": 6981, 
  "ab": 6982, 
  "barrier": 6983, 
  "sta": 6984, 
  "Cu@@": 6985, 
  "Ban@@": 6986, 
  "star@@": 6987, 
  "alo@@": 6988, 
  "landing": 6989, 
  "overlooking": 6990, 
  "discovery": 6991, 
  "intentions": 6992, 
  "UN@@": 6993, 
  "rehabilitation": 6994, 
  "pattern": 6995, 
  "Moldova": 6996, 
  "routine": 6997, 
  "failures": 6998, 
  "defining": 6999, 
  "oni@@": 7000, 
  "Book": 7001, 
  "mut@@": 7002, 
  "vicinity": 7003, 
  "DI@@": 7004, 
  "grey": 7005, 
  "occurs": 7006, 
  "institute": 7007, 
  "copies": 7008, 
  "insist": 7009, 
  "000@@": 7010, 
  "tis": 7011, 
  "rehear@@": 7012, 
  "sberg": 7013, 
  "eating": 7014, 
  "än@@": 7015, 
  "ham": 7016, 
  "tackling": 7017, 
  "cking": 7018, 
  "Herr@@": 7019, 
  "ce@@": 7020, 
  "edited": 7021, 
  "generous": 7022, 
  "Jens": 7023, 
  "Support": 7024, 
  "spra@@": 7025, 
  "reaches": 7026, 
  "Force": 7027, 
  "fascinating": 7028, 
  "Card": 7029, 
  "cat": 7030, 
  "Formula": 7031, 
  "mothers": 7032, 
  "margin": 7033, 
  "donor": 7034, 
  "instantly": 7035, 
  "tically": 7036, 
  "rejection": 7037, 
  "cabin": 7038, 
  "Barack": 7039, 
  "crops": 7040, 
  "amp@@": 7041, 
  "telling": 7042, 
  "Bol@@": 7043, 
  "Tom": 7044, 
  "Kim": 7045, 
  "C.": 7046, 
  "Bri@@": 7047, 
  "convincing": 7048, 
  "inquiries": 7049, 
  "funny": 7050, 
  "jazz": 7051, 
  "evaluate": 7052, 
  "typically": 7053, 
  "traders": 7054, 
  "attracted": 7055, 
  "fence": 7056, 
  "encourages": 7057, 
  "TC": 7058, 
  "picturesque": 7059, 
  "impressed": 7060, 
  "lon@@": 7061, 
  "recycling": 7062, 
  "gear": 7063, 
  "monitored": 7064, 
  "till": 7065, 
  "restoration": 7066, 
  "logic": 7067, 
  "recalls": 7068, 
  "From": 7069, 
  "par": 7070, 
  "panoramic": 7071, 
  "flower": 7072, 
  "fault": 7073, 
  "strongest": 7074, 
  "MS": 7075, 
  "ast@@": 7076, 
  "amenities": 7077, 
  "characteristic": 7078, 
  "Queen": 7079, 
  "hesitate": 7080, 
  "terminal": 7081, 
  "2,000": 7082, 
  "PPE": 7083, 
  "ghs": 7084, 
  "ort": 7085, 
  "stuck": 7086, 
  "Kirch@@": 7087, 
  "ambition": 7088, 
  "shed": 7089, 
  "alization": 7090, 
  "ok@@": 7091, 
  "viewed": 7092, 
  "trainer": 7093, 
  "trans": 7094, 
  "Len@@": 7095, 
  "pitch": 7096, 
  "Rein@@": 7097, 
  "cli@@": 7098, 
  "Doha": 7099, 
  "rated": 7100, 
  "Tat@@": 7101, 
  "segment": 7102, 
  "weaknesses": 7103, 
  "imposing": 7104, 
  "Coast": 7105, 
  "AB@@": 7106, 
  "exceed": 7107, 
  "fed": 7108, 
  "horizontal": 7109, 
  "medal": 7110, 
  "torture": 7111, 
  "adjust": 7112, 
  "recover": 7113, 
  "1980": 7114, 
  "orchestra": 7115, 
  "Barbara": 7116, 
  "eli@@": 7117, 
  "professor": 7118, 
  "demonstrations": 7119, 
  "Schön@@": 7120, 
  "Freiburg": 7121, 
  "3.5": 7122, 
  "wo@@": 7123, 
  "entries": 7124, 
  "deserve": 7125, 
  "BC": 7126, 
  "stance": 7127, 
  "ging": 7128, 
  "attempted": 7129, 
  "nie": 7130, 
  "voices": 7131, 
  "excursions": 7132, 
  "tie": 7133, 
  "holes": 7134, 
  "Yugoslavia": 7135, 
  "qui@@": 7136, 
  "sunny": 7137, 
  "gau": 7138, 
  "enthusiastic": 7139, 
  "alisation": 7140, 
  "Klo@@": 7141, 
  "emphasised": 7142, 
  "ning": 7143, 
  "rid": 7144, 
  "Capital": 7145, 
  "painted": 7146, 
  "corporations": 7147, 
  "fabric": 7148, 
  "bio@@": 7149, 
  "Volker": 7150, 
  "memories": 7151, 
  "worried": 7152, 
  "mate": 7153, 
  "restrict": 7154, 
  "thu@@": 7155, 
  "quantity": 7156, 
  "oo@@": 7157, 
  "ign@@": 7158, 
  "earthquake": 7159, 
  "investigate": 7160, 
  "foods": 7161, 
  "pushing": 7162, 
  "ön@@": 7163, 
  "Linz": 7164, 
  "ci": 7165, 
  "transported": 7166, 
  "influx": 7167, 
  "supplementary": 7168, 
  "inf@@": 7169, 
  "att@@": 7170, 
  "lesson": 7171, 
  "offence": 7172, 
  "medieval": 7173, 
  "fore@@": 7174, 
  "ping": 7175, 
  "suits": 7176, 
  "por@@": 7177, 
  "indirect": 7178, 
  "rounds": 7179, 
  "deb@@": 7180, 
  "pursuing": 7181, 
  "fication": 7182, 
  "basement": 7183, 
  "Ros@@": 7184, 
  "containers": 7185, 
  "Tro@@": 7186, 
  "organizers": 7187, 
  "swi@@": 7188, 
  "Budget": 7189, 
  "alized": 7190, 
  "accommodate": 7191, 
  "21.@@": 7192, 
  "lane": 7193, 
  "exemption": 7194, 
  "Ak@@": 7195, 
  "Ur@@": 7196, 
  "Koch": 7197, 
  "13th": 7198, 
  "Fu@@": 7199, 
  "Fair": 7200, 
  "college": 7201, 
  "balls": 7202, 
  "Siemens": 7203, 
  "Hau@@": 7204, 
  "elementary": 7205, 
  "challenging": 7206, 
  "calculation": 7207, 
  "likewise": 7208, 
  "qualifying": 7209, 
  "Yugoslav": 7210, 
  "alle": 7211, 
  "Economy": 7212, 
  "assistant": 7213, 
  "23.@@": 7214, 
  "contest": 7215, 
  "eper": 7216, 
  "Indonesia": 7217, 
  "reconciliation": 7218, 
  "assessments": 7219, 
  "consistency": 7220, 
  "Kir@@": 7221, 
  "ght": 7222, 
  "mi": 7223, 
  "experiencing": 7224, 
  "Stad@@": 7225, 
  "EM@@": 7226, 
  "2.0": 7227, 
  "honoured": 7228, 
  "az": 7229, 
  "accessories": 7230, 
  "kin": 7231, 
  "recession": 7232, 
  "tar@@": 7233, 
  "delicate": 7234, 
  "Ve@@": 7235, 
  "deeper": 7236, 
  "burning": 7237, 
  "Ernst": 7238, 
  "1.2": 7239, 
  "RA@@": 7240, 
  "carries": 7241, 
  "locked": 7242, 
  "contributes": 7243, 
  "stunning": 7244, 
  "appreciated": 7245, 
  "maintains": 7246, 
  "mini@@": 7247, 
  "polls": 7248, 
  "Mol@@": 7249, 
  "Ben": 7250, 
  "settle": 7251, 
  "predecessor": 7252, 
  "lecture": 7253, 
  "rie@@": 7254, 
  "grade": 7255, 
  "egg": 7256, 
  "solved": 7257, 
  "plot": 7258, 
  "ton@@": 7259, 
  "unanimous": 7260, 
  "Cas@@": 7261, 
  "prerequisite": 7262, 
  "André": 7263, 
  "newsletter": 7264, 
  "eco": 7265, 
  "breakdown": 7266, 
  "hi": 7267, 
  "backed": 7268, 
  "episode": 7269, 
  "weiler": 7270, 
  "NL": 7271, 
  "strange": 7272, 
  "Mannheim": 7273, 
  "Official": 7274, 
  "book@@": 7275, 
  "flood": 7276, 
  "oria": 7277, 
  "Graz": 7278, 
  "Intergovernmental": 7279, 
  "directors": 7280, 
  "independently": 7281, 
  "grave": 7282, 
  "wheels": 7283, 
  "BR@@": 7284, 
  "alive": 7285, 
  "laser": 7286, 
  "ams": 7287, 
  "Innovation": 7288, 
  "Box": 7289, 
  "indicates": 7290, 
  "sson": 7291, 
  "dangers": 7292, 
  "listings": 7293, 
  "Ter@@": 7294, 
  "gg": 7295, 
  "OECD": 7296, 
  "MO@@": 7297, 
  "clicking": 7298, 
  "coins": 7299, 
  "electronics": 7300, 
  "anger": 7301, 
  "influenced": 7302, 
  "yp@@": 7303, 
  "boot": 7304, 
  "exposure": 7305, 
  "IM@@": 7306, 
  "additionally": 7307, 
  "abolition": 7308, 
  "US@@": 7309, 
  "offenders": 7310, 
  "Por@@": 7311, 
  "Lukas": 7312, 
  "Liechtenstein": 7313, 
  "Amendments": 7314, 
  "Rotary": 7315, 
  "royal": 7316, 
  "testimony": 7317, 
  "exceeded": 7318, 
  "tin@@": 7319, 
  "bay": 7320, 
  "bitter": 7321, 
  "forecasts": 7322, 
  "advises": 7323, 
  "suggestion": 7324, 
  "grass": 7325, 
  "eit": 7326, 
  "couples": 7327, 
  "supplement": 7328, 
  "ener": 7329, 
  "Cam@@": 7330, 
  "hire": 7331, 
  "Mas@@": 7332, 
  "Children": 7333, 
  "Countries": 7334, 
  "earnings": 7335, 
  "dating": 7336, 
  "weg": 7337, 
  "federation": 7338, 
  "tangible": 7339, 
  "Pope": 7340, 
  "stimulate": 7341, 
  "displaced": 7342, 
  "HIV": 7343, 
  "Met@@": 7344, 
  "Rose": 7345, 
  "explosive": 7346, 
  "OLAF": 7347, 
  "110": 7348, 
  "urges": 7349, 
  "guaranteeing": 7350, 
  "ero": 7351, 
  "Vol@@": 7352, 
  "observations": 7353, 
  "congratulations": 7354, 
  "Florence": 7355, 
  "dozens": 7356, 
  "rolling": 7357, 
  "helpers": 7358, 
  "complement": 7359, 
  "grand@@": 7360, 
  "grid": 7361, 
  "keen": 7362, 
  "Tim": 7363, 
  "Newspapers": 7364, 
  "talked": 7365, 
  "adaptation": 7366, 
  "sentences": 7367, 
  "counting": 7368, 
  "gather": 7369, 
  "maps": 7370, 
  "ji@@": 7371, 
  "reverse": 7372, 
  "Mac@@": 7373, 
  "publisher": 7374, 
  "openly": 7375, 
  "Sand@@": 7376, 
  "simplify": 7377, 
  "rat@@": 7378, 
  "explosion": 7379, 
  "nik": 7380, 
  "renewal": 7381, 
  "sheep": 7382, 
  "reinforced": 7383, 
  "mixture": 7384, 
  "samples": 7385, 
  "economics": 7386, 
  "son@@": 7387, 
  "amateur": 7388, 
  "Herbert": 7389, 
  "comp@@": 7390, 
  "demonstrates": 7391, 
  "conditioned": 7392, 
  "gh": 7393, 
  "hectares": 7394, 
  "accompanying": 7395, 
  "öl@@": 7396, 
  "furt": 7397, 
  "postponed": 7398, 
  "searched": 7399, 
  "bottle": 7400, 
  "rubber": 7401, 
  "laboratory": 7402, 
  "sters": 7403, 
  "necessity": 7404, 
  "Günter": 7405, 
  "Alten@@": 7406, 
  "shr@@": 7407, 
  "lic@@": 7408, 
  "Citizens": 7409, 
  "diving": 7410, 
  "Fritz": 7411, 
  "Schröder": 7412, 
  "favorite": 7413, 
  "amend": 7414, 
  "twi@@": 7415, 
  "TA": 7416, 
  "placing": 7417, 
  "reader": 7418, 
  "Sony": 7419, 
  "Kl@@": 7420, 
  "trigger": 7421, 
  "pact": 7422, 
  "uncertain": 7423, 
  "hopefully": 7424, 
  "ignore": 7425, 
  "Fl@@": 7426, 
  "emerge": 7427, 
  "proceeds": 7428, 
  "passage": 7429, 
  "borne": 7430, 
  "endorsed": 7431, 
  "rings": 7432, 
  "Stephan": 7433, 
  "creditors": 7434, 
  "horses": 7435, 
  "Scotland": 7436, 
  "respecting": 7437, 
  "reminded": 7438, 
  "documented": 7439, 
  "Sig@@": 7440, 
  "Beck@@": 7441, 
  "wh@@": 7442, 
  "hed": 7443, 
  "orer": 7444, 
  "dru@@": 7445, 
  "warrant": 7446, 
  "ignored": 7447, 
  "fri@@": 7448, 
  "IC": 7449, 
  "16th": 7450, 
  "rel@@": 7451, 
  "icon": 7452, 
  "celebrating": 7453, 
  "dar": 7454, 
  "accuracy": 7455, 
  "appreciation": 7456, 
  "recovered": 7457, 
  "passport": 7458, 
  "leaf": 7459, 
  "macroeconomic": 7460, 
  "sdorf": 7461, 
  "Breakfast": 7462, 
  "shuttle": 7463, 
  "catalogue": 7464, 
  "eck@@": 7465, 
  "fiel@@": 7466, 
  "decent": 7467, 
  "capacities": 7468, 
  "af": 7469, 
  "kon@@": 7470, 
  "interactive": 7471, 
  "Derby": 7472, 
  "Benjamin": 7473, 
  "&apos;d": 7474, 
  "nose": 7475, 
  "comprises": 7476, 
  "glasses": 7477, 
  "crystal": 7478, 
  "conductor": 7479, 
  "hin@@": 7480, 
  "desirable": 7481, 
  "paintings": 7482, 
  "gt": 7483, 
  "Pierre": 7484, 
  "tent": 7485, 
  "Berg@@": 7486, 
  "Good": 7487, 
  "engineers": 7488, 
  "352": 7489, 
  "Fried@@": 7490, 
  "Taiwan": 7491, 
  "technically": 7492, 
  "Roland": 7493, 
  "Sha@@": 7494, 
  "deny": 7495, 
  "37@@": 7496, 
  "housed": 7497, 
  "conciliation": 7498, 
  "excess": 7499, 
  "eng": 7500, 
  "kids": 7501, 
  "Hum@@": 7502, 
  "orf": 7503, 
  "14th": 7504, 
  "cap": 7505, 
  "laying": 7506, 
  "watch@@": 7507, 
  "Parliamentary": 7508, 
  "dre@@": 7509, 
  "Cathedral": 7510, 
  "Times": 7511, 
  "conviction": 7512, 
  "annually": 7513, 
  "dear": 7514, 
  "tt": 7515, 
  "Syrians": 7516, 
  "assurance": 7517, 
  "weakness": 7518, 
  "ate@@": 7519, 
  "bureaucracy": 7520, 
  "Christians": 7521, 
  "anymore": 7522, 
  "responses": 7523, 
  "fac@@": 7524, 
  "Nag@@": 7525, 
  "Sar@@": 7526, 
  "fen": 7527, 
  "Alt@@": 7528, 
  "separately": 7529, 
  "assaults": 7530, 
  "theim": 7531, 
  "down@@": 7532, 
  "Nord@@": 7533, 
  "featuring": 7534, 
  "Vietnam": 7535, 
  "gue": 7536, 
  "enforce": 7537, 
  "Sabine": 7538, 
  "pupils": 7539, 
  "hills": 7540, 
  "Rad@@": 7541, 
  "centers": 7542, 
  "Big": 7543, 
  "mates": 7544, 
  "Captain": 7545, 
  "fatal": 7546, 
  "FP@@": 7547, 
  "derived": 7548, 
  "dor@@": 7549, 
  "horror": 7550, 
  "bes": 7551, 
  "analyses": 7552, 
  "Resort": 7553, 
  "sel": 7554, 
  "rally": 7555, 
  "Romanian": 7556, 
  "fighter": 7557, 
  "Fr@@": 7558, 
  "compensate": 7559, 
  "march": 7560, 
  "connecting": 7561, 
  "All@@": 7562, 
  "precision": 7563, 
  "entity": 7564, 
  "Strasse": 7565, 
  "RO": 7566, 
  "confusion": 7567, 
  "pose": 7568, 
  "cill@@": 7569, 
  "ATION": 7570, 
  "tioned": 7571, 
  "deleted": 7572, 
  "GDR": 7573, 
  "ological": 7574, 
  "belonging": 7575, 
  "dreams": 7576, 
  "Marie": 7577, 
  "alike": 7578, 
  "panels": 7579, 
  "tly": 7580, 
  "patents": 7581, 
  "comeback": 7582, 
  "dy@@": 7583, 
  "pun@@": 7584, 
  "constructed": 7585, 
  "My@@": 7586, 
  "rat": 7587, 
  "competitor": 7588, 
  "Nordic": 7589, 
  "bench": 7590, 
  "singles": 7591, 
  "harder": 7592, 
  "Hotels": 7593, 
  "distinction": 7594, 
  "somewhere": 7595, 
  "140": 7596, 
  "Check": 7597, 
  "fle@@": 7598, 
  "Basel": 7599, 
  "singers": 7600, 
  "workforce": 7601, 
  "opt": 7602, 
  "fel@@": 7603, 
  "Relations": 7604, 
  "controlling": 7605, 
  "Plus": 7606, 
  "liquid": 7607, 
  "Beck": 7608, 
  "authentic": 7609, 
  "olo@@": 7610, 
  "Roger": 7611, 
  "dairy": 7612, 
  "autonomous": 7613, 
  "raid": 7614, 
  "Facilities": 7615, 
  "ards": 7616, 
  "SC@@": 7617, 
  "tan@@": 7618, 
  "vessel": 7619, 
  "modest": 7620, 
  "moon": 7621, 
  "worrying": 7622, 
  "Country": 7623, 
  "launching": 7624, 
  "filling": 7625, 
  "harbour": 7626, 
  "zen": 7627, 
  "fs": 7628, 
  "pursuant": 7629, 
  "kernel": 7630, 
  "seminar": 7631, 
  "cabinet": 7632, 
  "tube": 7633, 
  "Stock": 7634, 
  "frank@@": 7635, 
  "Frei@@": 7636, 
  "unprecedented": 7637, 
  "ly@@": 7638, 
  "Man": 7639, 
  "collecting": 7640, 
  "polar": 7641, 
  "sons": 7642, 
  "Ford": 7643, 
  "Sti@@": 7644, 
  "ato": 7645, 
  "trace": 7646, 
  "bles": 7647, 
  "consisting": 7648, 
  "layers": 7649, 
  "ratified": 7650, 
  "Sin@@": 7651, 
  "pride": 7652, 
  "nen": 7653, 
  "Find": 7654, 
  "Sven": 7655, 
  "Schö@@": 7656, 
  "uri@@": 7657, 
  "alert": 7658, 
  "power@@": 7659, 
  "Budgets": 7660, 
  "codecision": 7661, 
  "aiming": 7662, 
  "Presidents": 7663, 
  "Canadian": 7664, 
  "Otto": 7665, 
  "iner": 7666, 
  "arriving": 7667, 
  "ckner": 7668, 
  "debated": 7669, 
  "clarification": 7670, 
  "cillor": 7671, 
  "transmitted": 7672, 
  "disabilities": 7673, 
  "Maastricht": 7674, 
  "és": 7675, 
  "runway": 7676, 
  "chal@@": 7677, 
  "formula": 7678, 
  "neutral": 7679, 
  "wil@@": 7680, 
  "tram": 7681, 
  "izi@@": 7682, 
  "perspectives": 7683, 
  "cents": 7684, 
  "acks": 7685, 
  "disappeared": 7686, 
  "sie": 7687, 
  "hang": 7688, 
  "ou": 7689, 
  "Straße": 7690, 
  "Meyer": 7691, 
  "ome": 7692, 
  "tank": 7693, 
  "Master": 7694, 
  "walks": 7695, 
  "cookies": 7696, 
  "utter": 7697, 
  "Slovak": 7698, 
  "Ludwig": 7699, 
  "Johann": 7700, 
  "Hitler": 7701, 
  "girlfriend": 7702, 
  "lam@@": 7703, 
  "purchases": 7704, 
  "thoroughly": 7705, 
  "flo@@": 7706, 
  "Alpine": 7707, 
  "beneficiaries": 7708, 
  "commissioned": 7709, 
  "Training": 7710, 
  "lacks": 7711, 
  "Pen@@": 7712, 
  "trucks": 7713, 
  "tal@@": 7714, 
  "unhappy": 7715, 
  "Algeria": 7716, 
  "bug": 7717, 
  "Nobel": 7718, 
  "fast@@": 7719, 
  "Dun@@": 7720, 
  "ely": 7721, 
  "1980s": 7722, 
  "JavaScript": 7723, 
  "confidential": 7724, 
  "eling": 7725, 
  "countless": 7726, 
  "bas@@": 7727, 
  "angle": 7728, 
  "uni@@": 7729, 
  "Climate": 7730, 
  "ical": 7731, 
  "Günther": 7732, 
  "offspring": 7733, 
  "column": 7734, 
  "295": 7735, 
  "Player": 7736, 
  "ologist": 7737, 
  "80@@": 7738, 
  "triple": 7739, 
  "gaps": 7740, 
  "outs": 7741, 
  "classified": 7742, 
  "photographs": 7743, 
  "bronze": 7744, 
  "floods": 7745, 
  "ID@@": 7746, 
  "Server": 7747, 
  "diagnosis": 7748, 
  "infected": 7749, 
  "architectural": 7750, 
  "Mön@@": 7751, 
  "met@@": 7752, 
  "60@@": 7753, 
  "chi": 7754, 
  "condemn": 7755, 
  "ville": 7756, 
  "Bridge": 7757, 
  "tensions": 7758, 
  "ron@@": 7759, 
  "illness": 7760, 
  "50@@": 7761, 
  "differ": 7762, 
  "m2": 7763, 
  "Kassel": 7764, 
  "angry": 7765, 
  "breast": 7766, 
  "sits": 7767, 
  "catering": 7768, 
  "benefited": 7769, 
  "photography": 7770, 
  "Schu@@": 7771, 
  "searching": 7772, 
  "preparatory": 7773, 
  "salary": 7774, 
  "regulate": 7775, 
  "sends": 7776, 
  "fying": 7777, 
  "sem@@": 7778, 
  "UNION": 7779, 
  "Holy": 7780, 
  "kes": 7781, 
  "dying": 7782, 
  "emphasises": 7783, 
  "Burma": 7784, 
  "CA": 7785, 
  "TS": 7786, 
  "trio": 7787, 
  "teach": 7788, 
  "judiciary": 7789, 
  "finishing": 7790, 
  "conten@@": 7791, 
  "thi@@": 7792, 
  "cer@@": 7793, 
  "arid": 7794, 
  "characterised": 7795, 
  "fitted": 7796, 
  "folder": 7797, 
  "venue": 7798, 
  "ée": 7799, 
  "Ran@@": 7800, 
  "AT": 7801, 
  "Sul@@": 7802, 
  "han": 7803, 
  "smile": 7804, 
  "Thailand": 7805, 
  "ges@@": 7806, 
  "Tan@@": 7807, 
  "sur": 7808, 
  "ales": 7809, 
  "wholesale": 7810, 
  "Officer": 7811, 
  "requiring": 7812, 
  "outlook": 7813, 
  "Warsaw": 7814, 
  "indispensable": 7815, 
  "rape": 7816, 
  "evaluated": 7817, 
  "Brit@@": 7818, 
  "wise": 7819, 
  "To": 7820, 
  "punishment": 7821, 
  "turnover": 7822, 
  "luggage": 7823, 
  "chaos": 7824, 
  "Mac": 7825, 
  "variable": 7826, 
  "1860": 7827, 
  "Cha@@": 7828, 
  "Olympics": 7829, 
  "conventions": 7830, 
  "\\": 7831, 
  "7,@@": 7832, 
  "USD": 7833, 
  "EMU": 7834, 
  "hl": 7835, 
  "Resolution": 7836, 
  "autonomy": 7837, 
  "As@@": 7838, 
  "coherence": 7839, 
  "youngest": 7840, 
  "Casino": 7841, 
  "Cohesion": 7842, 
  "Las": 7843, 
  "litres": 7844, 
  "questionable": 7845, 
  "bathing": 7846, 
  "micro": 7847, 
  "reads": 7848, 
  "childhood": 7849, 
  "pour": 7850, 
  "Work": 7851, 
  "harmonised": 7852, 
  "complain": 7853, 
  "socio": 7854, 
  "Medical": 7855, 
  "podium": 7856, 
  "elite": 7857, 
  "compiled": 7858, 
  "hearts": 7859, 
  "genuinely": 7860, 
  "writers": 7861, 
  "sun@@": 7862, 
  "hei@@": 7863, 
  "las@@": 7864, 
  "res@@": 7865, 
  "designated": 7866, 
  "provincial": 7867, 
  "preventive": 7868, 
  "entities": 7869, 
  "Competition": 7870, 
  "poker": 7871, 
  "sec@@": 7872, 
  "shortage": 7873, 
  "8th": 7874, 
  "propaganda": 7875, 
  "sailing": 7876, 
  "championships": 7877, 
  "supermarket": 7878, 
  "recognises": 7879, 
  "realized": 7880, 
  "Notes": 7881, 
  "ED@@": 7882, 
  "ath@@": 7883, 
  "Guidelines": 7884, 
  "paradise": 7885, 
  "Q": 7886, 
  "Commerce": 7887, 
  "clu@@": 7888, 
  "AN": 7889, 
  "securing": 7890, 
  "en.htm": 7891, 
  "17.@@": 7892, 
  "Gen@@": 7893, 
  "Heinrich": 7894, 
  "ites": 7895, 
  "ari": 7896, 
  "psychological": 7897, 
  "slogan": 7898, 
  "sm": 7899, 
  "tian": 7900, 
  "cooperative": 7901, 
  "farmer": 7902, 
  "fruits": 7903, 
  "Third": 7904, 
  "whi@@": 7905, 
  "din@@": 7906, 
  "ades": 7907, 
  "reveal": 7908, 
  "ums": 7909, 
  "warmly": 7910, 
  "fies": 7911, 
  "infrastructures": 7912, 
  "promotes": 7913, 
  "Trek": 7914, 
  "Vladimir": 7915, 
  "dial": 7916, 
  "doping": 7917, 
  "checking": 7918, 
  "surveys": 7919, 
  "codes": 7920, 
  "contextual": 7921, 
  "pen": 7922, 
  "Objective": 7923, 
  "concludes": 7924, 
  "defeats": 7925, 
  "hunger": 7926, 
  "undermine": 7927, 
  "delegates": 7928, 
  "motivation": 7929, 
  "Fer@@": 7930, 
  "200@@": 7931, 
  "school@@": 7932, 
  "resignation": 7933, 
  "spi@@": 7934, 
  "arrange": 7935, 
  "Brazilian": 7936, 
  "hero": 7937, 
  "statutory": 7938, 
  "Leon@@": 7939, 
  "seed": 7940, 
  "Frank@@": 7941, 
  "pair": 7942, 
  "tern": 7943, 
  "70@@": 7944, 
  "removing": 7945, 
  "5,000": 7946, 
  "wire": 7947, 
  "problematic": 7948, 
  "Industrial": 7949, 
  "spiritual": 7950, 
  "yield": 7951, 
  "bes@@": 7952, 
  "Unter@@": 7953, 
  "Schul@@": 7954, 
  "Administration": 7955, 
  "wan@@": 7956, 
  "tropical": 7957, 
  "casting": 7958, 
  "poll": 7959, 
  "Audi": 7960, 
  "evolution": 7961, 
  "competences": 7962, 
  "kel": 7963, 
  "11@@": 7964, 
  "house@@": 7965, 
  "ford": 7966, 
  "array": 7967, 
  "1988": 7968, 
  "takeover": 7969, 
  "At": 7970, 
  "bis@@": 7971, 
  "executed": 7972, 
  "grams": 7973, 
  "conversations": 7974, 
  "dish": 7975, 
  "GB": 7976, 
  "dad": 7977, 
  "ist@@": 7978, 
  "extends": 7979, 
  "dozen": 7980, 
  "compatibility": 7981, 
  "safeguards": 7982, 
  "lifting": 7983, 
  "runners": 7984, 
  "fare": 7985, 
  "protesters": 7986, 
  "Bern@@": 7987, 
  "Java": 7988, 
  "IA": 7989, 
  "isolation": 7990, 
  "adequately": 7991, 
  "pers": 7992, 
  "reasonably": 7993, 
  "retreat": 7994, 
  "bureaucratic": 7995, 
  "deposits": 7996, 
  "Albert": 7997, 
  "Kiel": 7998, 
  "severely": 7999, 
  "privileged": 8000, 
  "boom": 8001, 
  "interpreted": 8002, 
  "infection": 8003, 
  "pot": 8004, 
  "lic": 8005, 
  "cho@@": 8006, 
  "Night": 8007, 
  "radiation": 8008, 
  "Tokyo": 8009, 
  "ensemble": 8010, 
  "José": 8011, 
  "Bl@@": 8012, 
  "rejects": 8013, 
  "hes": 8014, 
  "fastest": 8015, 
  "decrease": 8016, 
  "tall": 8017, 
  "feasible": 8018, 
  "s.@@": 8019, 
  "tired": 8020, 
  "imp@@": 8021, 
  "ik": 8022, 
  "ack@@": 8023, 
  "Fed": 8024, 
  "stroke": 8025, 
  "conf@@": 8026, 
  "How": 8027, 
  "downtown": 8028, 
  "develops": 8029, 
  "tus": 8030, 
  "brutal": 8031, 
  "impetus": 8032, 
  "concessions": 8033, 
  "ats@@": 8034, 
  "ned": 8035, 
  "backing": 8036, 
  "Afghan": 8037, 
  "simplified": 8038, 
  "ECHO": 8039, 
  "underlines": 8040, 
  "documentary": 8041, 
  "counters": 8042, 
  "arena": 8043, 
  "modify": 8044, 
  "Skype": 8045, 
  "specialised": 8046, 
  "horn": 8047, 
  "triggered": 8048, 
  "Samsung": 8049, 
  "ris@@": 8050, 
  "symptoms": 8051, 
  "trainers": 8052, 
  "unchanged": 8053, 
  "objections": 8054, 
  "Kas@@": 8055, 
  "excellence": 8056, 
  "seminars": 8057, 
  "withdrawn": 8058, 
  "dem": 8059, 
  "finale": 8060, 
  "4,@@": 8061, 
  "listened": 8062, 
  "ery": 8063, 
  "lan": 8064, 
  "mounted": 8065, 
  "realised": 8066, 
  "solving": 8067, 
  "Jerusalem": 8068, 
  "anna": 8069, 
  "ment@@": 8070, 
  "istic": 8071, 
  "spots": 8072, 
  "Klö@@": 8073, 
  "preferences": 8074, 
  "Tru@@": 8075, 
  "economists": 8076, 
  "albeit": 8077, 
  "petrol": 8078, 
  "climbing": 8079, 
  "27@@": 8080, 
  "Reuters": 8081, 
  "Empire": 8082, 
  "ungen": 8083, 
  "sive": 8084, 
  "Bauer": 8085, 
  "gaming": 8086, 
  "bridges": 8087, 
  "stem": 8088, 
  "notion": 8089, 
  "profound": 8090, 
  "GMOs": 8091, 
  "dismissed": 8092, 
  "ander": 8093, 
  "scrutiny": 8094, 
  "critique": 8095, 
  "debating": 8096, 
  "á": 8097, 
  "adjacent": 8098, 
  "continental": 8099, 
  "sli@@": 8100, 
  "Les@@": 8101, 
  "Ay@@": 8102, 
  "Bulgarian": 8103, 
  "fold": 8104, 
  "Mau@@": 8105, 
  "Hein@@": 8106, 
  "More": 8107, 
  "avi@@": 8108, 
  "commodity": 8109, 
  "Islamist": 8110, 
  "Göttingen": 8111, 
  "loading": 8112, 
  "Flash": 8113, 
  "buyers": 8114, 
  "displays": 8115, 
  "Glad@@": 8116, 
  "powered": 8117, 
  "OS@@": 8118, 
  "ORF": 8119, 
  "gradual": 8120, 
  "esch@@": 8121, 
  "eni": 8122, 
  "harmony": 8123, 
  "midnight": 8124, 
  "Chile": 8125, 
  "Marina": 8126, 
  "Studio": 8127, 
  "credits": 8128, 
  "Kan@@": 8129, 
  "specify": 8130, 
  "cooling": 8131, 
  "cake": 8132, 
  "Erasmus": 8133, 
  "treaties": 8134, 
  "studying": 8135, 
  "defects": 8136, 
  "SW@@": 8137, 
  "correction": 8138, 
  "Christopher": 8139, 
  "If": 8140, 
  "muscle": 8141, 
  "splendid": 8142, 
  "convert": 8143, 
  "Christ": 8144, 
  "dam@@": 8145, 
  "toxic": 8146, 
  "tailored": 8147, 
  "sleeping": 8148, 
  "ME@@": 8149, 
  "Plaza": 8150, 
  "Young": 8151, 
  "delivers": 8152, 
  "Harald": 8153, 
  "Reserve": 8154, 
  "toll": 8155, 
  "meaningfully": 8156, 
  "ckers": 8157, 
  "photographer": 8158, 
  "Bie@@": 8159, 
  "thei@@": 8160, 
  "Communities": 8161, 
  "CE": 8162, 
  "mergers": 8163, 
  "bases": 8164, 
  "monuments": 8165, 
  "Film": 8166, 
  "Antonio": 8167, 
  "ner@@": 8168, 
  "editorial": 8169, 
  "fundamentally": 8170, 
  "layout": 8171, 
  "ambitions": 8172, 
  "termination": 8173, 
  "inequality": 8174, 
  "experiment": 8175, 
  "outlined": 8176, 
  "1.1": 8177, 
  "Bou@@": 8178, 
  "shame": 8179, 
  "centrally": 8180, 
  "dec@@": 8181, 
  "Articles": 8182, 
  "ON@@": 8183, 
  "ark@@": 8184, 
  "formerly": 8185, 
  "festivals": 8186, 
  "lifted": 8187, 
  "presenter": 8188, 
  "Porsche": 8189, 
  "1500": 8190, 
  "etten": 8191, 
  "travelled": 8192, 
  "desert": 8193, 
  "Section": 8194, 
  "lifestyle": 8195, 
  "fen@@": 8196, 
  "dia": 8197, 
  "arises": 8198, 
  "Kro@@": 8199, 
  "cyclists": 8200, 
  "superb": 8201, 
  "Rem@@": 8202, 
  "ide@@": 8203, 
  "but@@": 8204, 
  "digit": 8205, 
  "SU@@": 8206, 
  "audi@@": 8207, 
  "optical": 8208, 
  "ries": 8209, 
  "van@@": 8210, 
  "Becker": 8211, 
  "Nigeria": 8212, 
  "acute": 8213, 
  "expressly": 8214, 
  "Terms": 8215, 
  "Port": 8216, 
  "culinary": 8217, 
  "wished": 8218, 
  "governed": 8219, 
  "safer": 8220, 
  "fe": 8221, 
  "ceilings": 8222, 
  "convenience": 8223, 
  "accompany": 8224, 
  "Series": 8225, 
  "sion": 8226, 
  "specifications": 8227, 
  "val": 8228, 
  "Kam@@": 8229, 
  "Communist": 8230, 
  "Sto@@": 8231, 
  "cattle": 8232, 
  "Zimbabwe": 8233, 
  "Directives": 8234, 
  "linguistic": 8235, 
  "mild": 8236, 
  "adjustments": 8237, 
  "genetically": 8238, 
  "reward": 8239, 
  "Mess@@": 8240, 
  "Schmid": 8241, 
  "Winter": 8242, 
  "feeding": 8243, 
  "sin": 8244, 
  "pointing": 8245, 
  "Ac@@": 8246, 
  "signatures": 8247, 
  "assessing": 8248, 
  "RTL": 8249, 
  "transposition": 8250, 
  "cy": 8251, 
  "desktop": 8252, 
  "ranking": 8253, 
  "alerted": 8254, 
  "rewarded": 8255, 
  "choosing": 8256, 
  "shorter": 8257, 
  "burn": 8258, 
  "Chris": 8259, 
  "bankruptcy": 8260, 
  "racist": 8261, 
  "insisted": 8262, 
  "pocket": 8263, 
  "Wo@@": 8264, 
  "shore": 8265, 
  "brake": 8266, 
  "Your": 8267, 
  "är@@": 8268, 
  "User": 8269, 
  "coaching": 8270, 
  "respondents": 8271, 
  "nit@@": 8272, 
  "qualities": 8273, 
  "diet": 8274, 
  "1970": 8275, 
  "declarations": 8276, 
  "Army": 8277, 
  "preservation": 8278, 
  "evi@@": 8279, 
  "deck": 8280, 
  "networking": 8281, 
  "communist": 8282, 
  "Prof.": 8283, 
  "builds": 8284, 
  "ong@@": 8285, 
  "Valencia": 8286, 
  "GM": 8287, 
  "dealers": 8288, 
  "responding": 8289, 
  "grammatically": 8290, 
  "distribute": 8291, 
  "plates": 8292, 
  "contextually": 8293, 
  "hip": 8294, 
  "36@@": 8295, 
  "backdrop": 8296, 
  "delivering": 8297, 
  "constraints": 8298, 
  "beautifully": 8299, 
  "Hom@@": 8300, 
  "minds": 8301, 
  "interaction": 8302, 
  "weaker": 8303, 
  "regimes": 8304, 
  "tering": 8305, 
  "loose": 8306, 
  "identical": 8307, 
  "scientist": 8308, 
  "Division": 8309, 
  "complexity": 8310, 
  "boundaries": 8311, 
  "volleyball": 8312, 
  "justification": 8313, 
  "terrain": 8314, 
  "dic@@": 8315, 
  "popularity": 8316, 
  "EG@@": 8317, 
  "intermediate": 8318, 
  "UEFA": 8319, 
  "comedy": 8320, 
  "transatlantic": 8321, 
  "boasts": 8322, 
  "obstacle": 8323, 
  "facilitating": 8324, 
  "painful": 8325, 
  "Gold": 8326, 
  "AU@@": 8327, 
  "confronted": 8328, 
  "hazardous": 8329, 
  "cker@@": 8330, 
  "AG@@": 8331, 
  "abuses": 8332, 
  "Bit@@": 8333, 
  "Anti": 8334, 
  "legend": 8335, 
  "inland": 8336, 
  "WHO": 8337, 
  "tied": 8338, 
  "65@@": 8339, 
  "delete": 8340, 
  "Wein@@": 8341, 
  "prizes": 8342, 
  "procedural": 8343, 
  "ited": 8344, 
  "46@@": 8345, 
  "arbitrary": 8346, 
  "conjunction": 8347, 
  "allegedly": 8348, 
  "AP@@": 8349, 
  "Dem@@": 8350, 
  "ez": 8351, 
  "enti@@": 8352, 
  "intensity": 8353, 
  "cargo": 8354, 
  "mem@@": 8355, 
  "ello": 8356, 
  "existed": 8357, 
  "1986": 8358, 
  "Video": 8359, 
  "Hand@@": 8360, 
  "Char@@": 8361, 
  "Hen@@": 8362, 
  "indirectly": 8363, 
  "charging": 8364, 
  "ura": 8365, 
  "cel@@": 8366, 
  "1.3": 8367, 
  "Far@@": 8368, 
  "eta": 8369, 
  "val@@": 8370, 
  "exploit": 8371, 
  "mented": 8372, 
  "competing": 8373, 
  "essence": 8374, 
  "forestry": 8375, 
  "450": 8376, 
  "explanations": 8377, 
  "exc@@": 8378, 
  "Ir@@": 8379, 
  "perception": 8380, 
  "ultra": 8381, 
  "incomes": 8382, 
  "Nazis": 8383, 
  "Working": 8384, 
  "adverse": 8385, 
  "buyer": 8386, 
  "tured": 8387, 
  "subjected": 8388, 
  "charity": 8389, 
  "appearances": 8390, 
  "curious": 8391, 
  "jet": 8392, 
  "integrating": 8393, 
  "landscapes": 8394, 
  "recordings": 8395, 
  "asi": 8396, 
  "AV@@": 8397, 
  "Radio": 8398, 
  "gases": 8399, 
  "bbed": 8400, 
  "ol": 8401, 
  "mot@@": 8402, 
  "wording": 8403, 
  "ols": 8404, 
  "hot@@": 8405, 
  "Ron@@": 8406, 
  "Daimler": 8407, 
  "pricing": 8408, 
  "complementary": 8409, 
  "Supreme": 8410, 
  "reacted": 8411, 
  "ministerial": 8412, 
  "Florida": 8413, 
  "hy@@": 8414, 
  "toys": 8415, 
  "whatsoever": 8416, 
  "adi@@": 8417, 
  "Essen": 8418, 
  "washing": 8419, 
  "bla@@": 8420, 
  "Del@@": 8421, 
  "Smoking": 8422, 
  "ele": 8423, 
  "Stu@@": 8424, 
  "bans": 8425, 
  "work@@": 8426, 
  "exclude": 8427, 
  "glu": 8428, 
  "ender": 8429, 
  "ama": 8430, 
  "reduces": 8431, 
  "&lt;": 8432, 
  "valued": 8433, 
  "systematically": 8434, 
  "dialog": 8435, 
  "NI": 8436, 
  "spo@@": 8437, 
  "inspec@@": 8438, 
  "deemed": 8439, 
  "lung": 8440, 
  "Order": 8441, 
  "ala": 8442, 
  "pipeline": 8443, 
  "owing": 8444, 
  "seasons": 8445, 
  "soci@@": 8446, 
  "5000": 8447, 
  "certificates": 8448, 
  "symbolic": 8449, 
  ".org": 8450, 
  "Rock": 8451, 
  "hate": 8452, 
  "LIN@@": 8453, 
  "interventions": 8454, 
  "Nau@@": 8455, 
  "profitable": 8456, 
  "IF@@": 8457, 
  "knowing": 8458, 
  "tonight": 8459, 
  "modes": 8460, 
  "Rhein@@": 8461, 
  "administrations": 8462, 
  "clinical": 8463, 
  "accessibility": 8464, 
  "collision": 8465, 
  "discriminatory": 8466, 
  "Holstein": 8467, 
  "PS": 8468, 
  "Ci@@": 8469, 
  "shoe": 8470, 
  "Coun@@": 8471, 
  "29@@": 8472, 
  "auction": 8473, 
  "confidentiality": 8474, 
  "forming": 8475, 
  "validity": 8476, 
  "broadly": 8477, 
  "Customer": 8478, 
  "medicinal": 8479, 
  "capitalism": 8480, 
  "incorporate": 8481, 
  "retro@@": 8482, 
  "ji": 8483, 
  "plain": 8484, 
  "Hague": 8485, 
  "restriction": 8486, 
  "inspections": 8487, 
  "ester@@": 8488, 
  "sche": 8489, 
  "Je@@": 8490, 
  "Zealand": 8491, 
  "ater": 8492, 
  "Heritage": 8493, 
  "traces": 8494, 
  "gi": 8495, 
  "tsch@@": 8496, 
  "incurred": 8497, 
  "thumbnail": 8498, 
  "34@@": 8499, 
  "EU@@": 8500, 
  "mo": 8501, 
  "bone": 8502, 
  "cab@@": 8503, 
  "amb@@": 8504, 
  "emotions": 8505, 
  "lit": 8506, 
  "Oslo": 8507, 
  "Claudia": 8508, 
  "Scha@@": 8509, 
  "thirty": 8510, 
  "Congo": 8511, 
  "TR@@": 8512, 
  "Age": 8513, 
  "Stabilisation": 8514, 
  "editors": 8515, 
  "eti@@": 8516, 
  "fifteen": 8517, 
  "rice": 8518, 
  "personality": 8519, 
  "BA": 8520, 
  "receipt": 8521, 
  "Dom@@": 8522, 
  "avoiding": 8523, 
  "hair@@": 8524, 
  "chman": 8525, 
  "clarified": 8526, 
  "translations": 8527, 
  "Kiev": 8528, 
  "ined": 8529, 
  "tag": 8530, 
  "ents": 8531, 
  "Brun@@": 8532, 
  "descent": 8533, 
  "subway": 8534, 
  "cheng@@": 8535, 
  "Future": 8536, 
  "Guido": 8537, 
  "dictatorship": 8538, 
  "Innsbruck": 8539, 
  "cia": 8540, 
  "gifts": 8541, 
  "sorted": 8542, 
  "Cultural": 8543, 
  "Ltd": 8544, 
  "chains": 8545, 
  "pursuit": 8546, 
  "monastery": 8547, 
  "oni": 8548, 
  "lam": 8549, 
  "auch": 8550, 
  "dividend": 8551, 
  "Sun": 8552, 
  "combining": 8553, 
  "indigenous": 8554, 
  "mul@@": 8555, 
  "damaging": 8556, 
  "seller": 8557, 
  "häuser": 8558, 
  "Egyptian": 8559, 
  "remedy": 8560, 
  "expresses": 8561, 
  "Change": 8562, 
  "mediation": 8563, 
  "activated": 8564, 
  "downloaded": 8565, 
  "EP@@": 8566, 
  "25th": 8567, 
  "uns": 8568, 
  "Fax": 8569, 
  "Dav@@": 8570, 
  "announces": 8571, 
  "38@@": 8572, 
  "declining": 8573, 
  "plac@@": 8574, 
  "B.": 8575, 
  "conscious": 8576, 
  "bad@@": 8577, 
  "Sieg@@": 8578, 
  "Building": 8579, 
  "commonly": 8580, 
  "hunt": 8581, 
  "kar@@": 8582, 
  "VI": 8583, 
  "healing": 8584, 
  "Singapore": 8585, 
  "emerges": 8586, 
  "Net@@": 8587, 
  "cream": 8588, 
  "cle@@": 8589, 
  "e.@@": 8590, 
  "Gol@@": 8591, 
  "regulators": 8592, 
  "sam@@": 8593, 
  "mes": 8594, 
  "Kö@@": 8595, 
  "camp@@": 8596, 
  "sudden": 8597, 
  "homeland": 8598, 
  "D.": 8599, 
  "incredibly": 8600, 
  "obtaining": 8601, 
  "drafting": 8602, 
  "vin@@": 8603, 
  "pledged": 8604, 
  "accountability": 8605, 
  "rows": 8606, 
  "Quality": 8607, 
  "exchanged": 8608, 
  "underline": 8609, 
  "laundering": 8610, 
  "jacket": 8611, 
  "Cre@@": 8612, 
  "Colombia": 8613, 
  "dé@@": 8614, 
  "Pra@@": 8615, 
  "pilots": 8616, 
  "disadvantaged": 8617, 
  "1.6": 8618, 
  "Top": 8619, 
  "travels": 8620, 
  "hanging": 8621, 
  "ware": 8622, 
  "analyse": 8623, 
  "HD": 8624, 
  "absurd": 8625, 
  "accepting": 8626, 
  "understandable": 8627, 
  "ni": 8628, 
  "lays": 8629, 
  "specialities": 8630, 
  "cult": 8631, 
  "audiovisual": 8632, 
  "MySQL": 8633, 
  "rac@@": 8634, 
  "DC": 8635, 
  "relies": 8636, 
  "swing": 8637, 
  "mers": 8638, 
  "panorama": 8639, 
  "Tar@@": 8640, 
  "translate": 8641, 
  "Tal@@": 8642, 
  "lakes": 8643, 
  "Inst@@": 8644, 
  "1970s": 8645, 
  "ft@@": 8646, 
  "spreading": 8647, 
  "divide": 8648, 
  "0.5": 8649, 
  "exploited": 8650, 
  "auto": 8651, 
  "An": 8652, 
  "Ocean": 8653, 
  "classification": 8654, 
  "tic@@": 8655, 
  "breakthrough": 8656, 
  "oning": 8657, 
  "akan": 8658, 
  "alised": 8659, 
  "globally": 8660, 
  "yst@@": 8661, 
  "wings": 8662, 
  "Lufthansa": 8663, 
  "identifying": 8664, 
  "burned": 8665, 
  "composer": 8666, 
  "Fro@@": 8667, 
  "22.@@": 8668, 
  "Bis@@": 8669, 
  "criterion": 8670, 
  "ffs": 8671, 
  "guides": 8672, 
  "ics": 8673, 
  "frozen": 8674, 
  "inspiration": 8675, 
  "vil@@": 8676, 
  "feared": 8677, 
  "worlds": 8678, 
  "skill": 8679, 
  "consist": 8680, 
  "aro@@": 8681, 
  "brass": 8682, 
  "sk": 8683, 
  "dle": 8684, 
  "ku@@": 8685, 
  "let@@": 8686, 
  "supposedly": 8687, 
  "arch@@": 8688, 
  "Product": 8689, 
  "consolidated": 8690, 
  "wie": 8691, 
  "stretch": 8692, 
  "detained": 8693, 
  "globalization": 8694, 
  "reveals": 8695, 
  "currencies": 8696, 
  "appealing": 8697, 
  "Aachen": 8698, 
  "Wel@@": 8699, 
  "rhythm": 8700, 
  "Sab@@": 8701, 
  "max": 8702, 
  "nationality": 8703, 
  "dl": 8704, 
  "mineral": 8705, 
  "History": 8706, 
  "Mad@@": 8707, 
  "designers": 8708, 
  "Russians": 8709, 
  "limitation": 8710, 
  "A5": 8711, 
  "ska": 8712, 
  "Rolf": 8713, 
  "remembered": 8714, 
  "26@@": 8715, 
  "offset": 8716, 
  "yen": 8717, 
  "weren": 8718, 
  "AD": 8719, 
  "Alb@@": 8720, 
  "minded": 8721, 
  "Stro@@": 8722, 
  "flash": 8723, 
  "Rie@@": 8724, 
  "tariffs": 8725, 
  "threw": 8726, 
  "Dan@@": 8727, 
  "refusal": 8728, 
  "cy@@": 8729, 
  "worthwhile": 8730, 
  "Main@@": 8731, 
  "ali": 8732, 
  "macro": 8733, 
  "deadlines": 8734, 
  "literary": 8735, 
  "creature": 8736, 
  "Hir@@": 8737, 
  "fran@@": 8738, 
  "sbach": 8739, 
  "enth@@": 8740, 
  "dramatically": 8741, 
  "Var@@": 8742, 
  "Lee": 8743, 
  "pillars": 8744, 
  "gg@@": 8745, 
  "blocking": 8746, 
  "AP": 8747, 
  "hosting": 8748, 
  "witz": 8749, 
  "ause": 8750, 
  "fever": 8751, 
  "rivers": 8752, 
  "aluminium": 8753, 
  "cla@@": 8754, 
  "unlimited": 8755, 
  "sponsors": 8756, 
  "subscribe": 8757, 
  "Arn@@": 8758, 
  "collections": 8759, 
  "disappointment": 8760, 
  "footing": 8761, 
  "detected": 8762, 
  "attacker": 8763, 
  "Jonas": 8764, 
  "1987": 8765, 
  "op": 8766, 
  "mature": 8767, 
  "Rudolf": 8768, 
  "tiny": 8769, 
  "implies": 8770, 
  "Dennis": 8771, 
  "memorial": 8772, 
  "uter": 8773, 
  "locally": 8774, 
  "onic": 8775, 
  "roundabout": 8776, 
  "Fe@@": 8777, 
  "dd@@": 8778, 
  "lady": 8779, 
  "Vel@@": 8780, 
  "styles": 8781, 
  "ire": 8782, 
  "costly": 8783, 
  "Holger": 8784, 
  "ay@@": 8785, 
  "Helsinki": 8786, 
  "minors": 8787, 
  "verify": 8788, 
  "courtyard": 8789, 
  "Organization": 8790, 
  "ole": 8791, 
  "red@@": 8792, 
  "Arts": 8793, 
  "distant": 8794, 
  "side@@": 8795, 
  "constituency": 8796, 
  "sectoral": 8797, 
  "mas": 8798, 
  "incidentally": 8799, 
  "placement": 8800, 
  "Berlinale": 8801, 
  "ray": 8802, 
  "Taliban": 8803, 
  "illegally": 8804, 
  "Schleswig": 8805, 
  "commander": 8806, 
  "confrontation": 8807, 
  "flu": 8808, 
  "ffer": 8809, 
  "1985": 8810, 
  "1945": 8811, 
  "EP": 8812, 
  "disappointing": 8813, 
  "Plat@@": 8814, 
  "hygiene": 8815, 
  "Car": 8816, 
  "bottles": 8817, 
  "sensitivity": 8818, 
  "Die": 8819, 
  "extremists": 8820, 
  "Millennium": 8821, 
  "mil@@": 8822, 
  "uring": 8823, 
  "Hour": 8824, 
  "Rom@@": 8825, 
  "MP": 8826, 
  "Diet@@": 8827, 
  "Bochum": 8828, 
  "transnational": 8829, 
  "Treasury": 8830, 
  "Kun@@": 8831, 
  "rum@@": 8832, 
  "Bei@@": 8833, 
  "multimedia": 8834, 
  "advocate": 8835, 
  "bin@@": 8836, 
  "sion@@": 8837, 
  "headlines": 8838, 
  "cultivation": 8839, 
  "pel@@": 8840, 
  "eries": 8841, 
  "crazy": 8842, 
  "professions": 8843, 
  "friendship": 8844, 
  "ica": 8845, 
  "sympathy": 8846, 
  "stre@@": 8847, 
  "imbalances": 8848, 
  "introduces": 8849, 
  "Hin@@": 8850, 
  "SE@@": 8851, 
  "wounded": 8852, 
  "nat@@": 8853, 
  "gar": 8854, 
  "pressed": 8855, 
  "bold": 8856, 
  "Eck@@": 8857, 
  "replied": 8858, 
  "sums": 8859, 
  "poly@@": 8860, 
  "ables": 8861, 
  "LI@@": 8862, 
  "vain": 8863, 
  "betting": 8864, 
  "ty@@": 8865, 
  "shirt": 8866, 
  "care@@": 8867, 
  "dal": 8868, 
  "Str@@": 8869, 
  "Schäuble": 8870, 
  "Ob@@": 8871, 
  "Wald@@": 8872, 
  "anders": 8873, 
  "š@@": 8874, 
  "by@@": 8875, 
  "reg@@": 8876, 
  "Val": 8877, 
  "Liberal": 8878, 
  "с@@": 8879, 
  "poli@@": 8880, 
  "wet": 8881, 
  "lacked": 8882, 
  "ferry": 8883, 
  "Stadium": 8884, 
  "bilee": 8885, 
  "Neighbourhood": 8886, 
  "eth": 8887, 
  "literally": 8888, 
  "textiles": 8889, 
  "Standard": 8890, 
  "ICT": 8891, 
  "bom@@": 8892, 
  "Level": 8893, 
  "trademark": 8894, 
  "lord": 8895, 
  "favor": 8896, 
  "hatred": 8897, 
  "SK": 8898, 
  "ut": 8899, 
  "Adam": 8900, 
  "prejudice": 8901, 
  "Socialists": 8902, 
  "When": 8903, 
  "foreseen": 8904, 
  "dos": 8905, 
  "Anton": 8906, 
  "üb@@": 8907, 
  "sandy": 8908, 
  "flies": 8909, 
  "din": 8910, 
  "reunification": 8911, 
  "detection": 8912, 
  "ologists": 8913, 
  "cil@@": 8914, 
  "benchmark": 8915, 
  "trials": 8916, 
  "Fur@@": 8917, 
  "Kaiser": 8918, 
  "pur@@": 8919, 
  "meaningful": 8920, 
  "GNU": 8921, 
  "Laura": 8922, 
  "bow": 8923, 
  "SAP": 8924, 
  "dealer": 8925, 
  "Storage": 8926, 
  "breathing": 8927, 
  "unfortunate": 8928, 
  "optional": 8929, 
  "Suite": 8930, 
  "favourites": 8931, 
  "chers": 8932, 
  "William": 8933, 
  "Des@@": 8934, 
  "Love": 8935, 
  "advances": 8936, 
  "cloud": 8937, 
  "herd": 8938, 
  "monopoly": 8939, 
  "hing": 8940, 
  "IL@@": 8941, 
  "awaiting": 8942, 
  "cotton": 8943, 
  "ech@@": 8944, 
  "EX@@": 8945, 
  "CON@@": 8946, 
  "vin": 8947, 
  "qualify": 8948, 
  "Palestine": 8949, 
  "wor@@": 8950, 
  "seniors": 8951, 
  "Bai@@": 8952, 
  "automated": 8953, 
  "retailers": 8954, 
  "Mark@@": 8955, 
  "sensor": 8956, 
  "Sc@@": 8957, 
  "tenth": 8958, 
  "DS": 8959, 
  "bru@@": 8960, 
  "resorts": 8961, 
  "grain": 8962, 
  "proliferation": 8963, 
  "distinguished": 8964, 
  "fragile": 8965, 
  "leap": 8966, 
  "analysts": 8967, 
  "verein": 8968, 
  "vertical": 8969, 
  "backs": 8970, 
  "detect": 8971, 
  "attraction": 8972, 
  "m.": 8973, 
  "labels": 8974, 
  "proves": 8975, 
  "interviews": 8976, 
  "establishes": 8977, 
  "APA": 8978, 
  "fi": 8979, 
  "prohibition": 8980, 
  "Moritz": 8981, 
  "к@@": 8982, 
  "Francisco": 8983, 
  "Nord": 8984, 
  "Ap@@": 8985, 
  "ction": 8986, 
  "Serbian": 8987, 
  "Eva": 8988, 
  "19@@": 8989, 
  "smo@@": 8990, 
  "limiting": 8991, 
  "inventory": 8992, 
  "accelerate": 8993, 
  "fal@@": 8994, 
  "licences": 8995, 
  "enters": 8996, 
  "punished": 8997, 
  "Poker": 8998, 
  "Cold": 8999, 
  "automation": 9000, 
  "chs": 9001, 
  "Ren@@": 9002, 
  "manipulation": 9003, 
  "sor@@": 9004, 
  "dol": 9005, 
  "iness": 9006, 
  "ili@@": 9007, 
  "fant@@": 9008, 
  "Dür@@": 9009, 
  "mmer": 9010, 
  "winds": 9011, 
  "ron": 9012, 
  "Game": 9013, 
  "rob@@": 9014, 
  "hol@@": 9015, 
  "sprint": 9016, 
  "salaries": 9017, 
  "vacuum": 9018, 
  "disp@@": 9019, 
  "stimulus": 9020, 
  "smallest": 9021, 
  "breath": 9022, 
  "sil@@": 9023, 
  "ine@@": 9024, 
  "utz@@": 9025, 
  "Bet@@": 9026, 
  "black@@": 9027, 
  "switched": 9028, 
  "sation": 9029, 
  "ranges": 9030, 
  "overseas": 9031, 
  "oned": 9032, 
  "café": 9033, 
  "Aegean": 9034, 
  "preference": 9035, 
  "disability": 9036, 
  "Op@@": 9037, 
  "ord@@": 9038, 
  "presentations": 9039, 
  "bir@@": 9040, 
  "100,000": 9041, 
  "Kurt": 9042, 
  "trailer": 9043, 
  "fitting": 9044, 
  "Stor@@": 9045, 
  "fro@@": 9046, 
  "switching": 9047, 
  "inevitable": 9048, 
  "Det@@": 9049, 
  "2019": 9050, 
  "age@@": 9051, 
  "a.@@": 9052, 
  "regrettable": 9053, 
  "determining": 9054, 
  "bli@@": 9055, 
  "ances": 9056, 
  "q": 9057, 
  "spirits": 9058, 
  "Hai@@": 9059, 
  "tier": 9060, 
  "Reform": 9061, 
  "traded": 9062, 
  "Opinion": 9063, 
  "suspicious": 9064, 
  "yard": 9065, 
  "teeth": 9066, 
  "ett": 9067, 
  "rebels": 9068, 
  "donated": 9069, 
  "COUNCIL": 9070, 
  "minimal": 9071, 
  "yoffs": 9072, 
  "sadly": 9073, 
  "distances": 9074, 
  "Elisabeth": 9075, 
  "DJ": 9076, 
  "Leonardo": 9077, 
  "SS": 9078, 
  "remuneration": 9079, 
  "ently": 9080, 
  "Lewandowski": 9081, 
  "scor@@": 9082, 
  "Mexican": 9083, 
  "tat@@": 9084, 
  "devastating": 9085, 
  "flee": 9086, 
  "seeds": 9087, 
  "Ca@@": 9088, 
  "BO@@": 9089, 
  "paint": 9090, 
  "agram": 9091, 
  "celebrations": 9092, 
  "meister": 9093, 
  "possession": 9094, 
  "Shop": 9095, 
  "Class": 9096, 
  "evange@@": 9097, 
  "Mary": 9098, 
  "Qatar": 9099, 
  "curve": 9100, 
  "batteries": 9101, 
  "Fas@@": 9102, 
  "controversy": 9103, 
  "Rec@@": 9104, 
  "Pap@@": 9105, 
  "acid": 9106, 
  "shake": 9107, 
  "ped": 9108, 
  "thy": 9109, 
  "trails": 9110, 
  "workplace": 9111, 
  "exhibitors": 9112, 
  "gur@@": 9113, 
  "OSCE": 9114, 
  "html": 9115, 
  "J.": 9116, 
  "accepts": 9117, 
  "sy@@": 9118, 
  "outer": 9119, 
  "Son@@": 9120, 
  "bing": 9121, 
  "web@@": 9122, 
  "Tower": 9123, 
  "educated": 9124, 
  "Fol@@": 9125, 
  "pity": 9126, 
  "gist": 9127, 
  "ocean": 9128, 
  "linking": 9129, 
  "Pr@@": 9130, 
  "bus@@": 9131, 
  "posters": 9132, 
  "kovic": 9133, 
  "End": 9134, 
  "4000": 9135, 
  "retained": 9136, 
  "refined": 9137, 
  "disastrous": 9138, 
  "Ges@@": 9139, 
  "environments": 9140, 
  "storms": 9141, 
  "visas": 9142, 
  "Gentoo": 9143, 
  "Hillary": 9144, 
  "demo": 9145, 
  "les@@": 9146, 
  "lion": 9147, 
  "New@@": 9148, 
  "forever": 9149, 
  "Line": 9150, 
  "lach": 9151, 
  "Rob@@": 9152, 
  "sooner": 9153, 
  "brilliant": 9154, 
  "neighborhood": 9155, 
  "Roth": 9156, 
  "thanking": 9157, 
  "continuity": 9158, 
  "disc": 9159, 
  "interference": 9160, 
  "foodstuffs": 9161, 
  "positively": 9162, 
  "A4": 9163, 
  "Administrative": 9164, 
  "viewing": 9165, 
  "Galileo": 9166, 
  "Via": 9167, 
  "dependence": 9168, 
  "umbrella": 9169, 
  "top@@": 9170, 
  "threaten": 9171, 
  "centi@@": 9172, 
  "5,@@": 9173, 
  "indications": 9174, 
  "onn@@": 9175, 
  "consolidate": 9176, 
  "faithful": 9177, 
  "Sarah": 9178, 
  "disappear": 9179, 
  "Reinhard": 9180, 
  "fol@@": 9181, 
  "strengths": 9182, 
  "divisions": 9183, 
  "stringent": 9184, 
  "socialist": 9185, 
  "steering": 9186, 
  "cou@@": 9187, 
  "drafted": 9188, 
  "Hart@@": 9189, 
  "odds": 9190, 
  "ased": 9191, 
  "Pat@@": 9192, 
  "hoff": 9193, 
  "Kn@@": 9194, 
  "palace": 9195, 
  "Way": 9196, 
  "eff@@": 9197, 
  "Opel": 9198, 
  "Communications": 9199, 
  "cadre": 9200, 
  "timing": 9201, 
  "mines": 9202, 
  "Fal@@": 9203, 
  "Wild": 9204, 
  "SME": 9205, 
  "ssi@@": 9206, 
  "steadily": 9207, 
  "Ingol@@": 9208, 
  "ele@@": 9209, 
  "approached": 9210, 
  "Gru@@": 9211, 
  "participant": 9212, 
  "Bul@@": 9213, 
  "axis": 9214, 
  "tho@@": 9215, 
  "170": 9216, 
  "initiate": 9217, 
  "organising": 9218, 
  "collapsed": 9219, 
  "embedded": 9220, 
  "25.@@": 9221, 
  "Week": 9222, 
  "shi@@": 9223, 
  "capability": 9224, 
  "legacy": 9225, 
  "1960s": 9226, 
  "cook": 9227, 
  "incompatible": 9228, 
  "xenophobic": 9229, 
  "ye@@": 9230, 
  "ok": 9231, 
  "theoretical": 9232, 
  "rolled": 9233, 
  "clever": 9234, 
  "vegetable": 9235, 
  "xenophobia": 9236, 
  "ül@@": 9237, 
  "reminiscent": 9238, 
  "tanks": 9239, 
  "swept": 9240, 
  "bass": 9241, 
  "kno@@": 9242, 
  "playground": 9243, 
  "completing": 9244, 
  "coexistence": 9245, 
  "earliest": 9246, 
  "lude": 9247, 
  "excluding": 9248, 
  "serial": 9249, 
  "dol@@": 9250, 
  "profiles": 9251, 
  "Customs": 9252, 
  "appeals": 9253, 
  "enemies": 9254, 
  "ral": 9255, 
  "ceasefire": 9256, 
  "corporation": 9257, 
  "explicit": 9258, 
  "innocent": 9259, 
  "Gallery": 9260, 
  "ppo": 9261, 
  "capita": 9262, 
  "happiness": 9263, 
  "tren@@": 9264, 
  "volumes": 9265, 
  "gger": 9266, 
  "vo": 9267, 
  "conveniently": 9268, 
  "DNA": 9269, 
  "Carinthia": 9270, 
  "Kul@@": 9271, 
  "internally": 9272, 
  "oms": 9273, 
  "Mars": 9274, 
  "thri@@": 9275, 
  "murdered": 9276, 
  "lifts": 9277, 
  "Wes@@": 9278, 
  "warnings": 9279, 
  "CO": 9280, 
  "ante": 9281, 
  "promptly": 9282, 
  "stal@@": 9283, 
  "strip": 9284, 
  "alpine": 9285, 
  "Pas@@": 9286, 
  "su": 9287, 
  "altitude": 9288, 
  "Library": 9289, 
  "expressing": 9290, 
  "Kurds": 9291, 
  "Web@@": 9292, 
  "assumption": 9293, 
  "Fischler": 9294, 
  "immigrant": 9295, 
  "ungs@@": 9296, 
  "guy": 9297, 
  "Railway": 9298, 
  "experiments": 9299, 
  "subscription": 9300, 
  "steep": 9301, 
  "Hü@@": 9302, 
  "1.4": 9303, 
  "immense": 9304, 
  "Our": 9305, 
  "assumes": 9306, 
  "Cuban": 9307, 
  "blin@@": 9308, 
  "erk@@": 9309, 
  "TV@@": 9310, 
  "Corporation": 9311, 
  "keepers": 9312, 
  "rocket": 9313, 
  "advocates": 9314, 
  "CS": 9315, 
  "ESC": 9316, 
  "ours": 9317, 
  "definitive": 9318, 
  "limitations": 9319, 
  "Eis@@": 9320, 
  "edit": 9321, 
  "eni@@": 9322, 
  "sorts": 9323, 
  "fathers": 9324, 
  "mbach": 9325, 
  "warn": 9326, 
  "nervous": 9327, 
  "parked": 9328, 
  "360": 9329, 
  "stock@@": 9330, 
  "39@@": 9331, 
  "Kit@@": 9332, 
  "lectures": 9333, 
  "challenged": 9334, 
  "recruitment": 9335, 
  "notify": 9336, 
  "Cot@@": 9337, 
  "incoming": 9338, 
  "Hamas": 9339, 
  "finest": 9340, 
  "anticipated": 9341, 
  "litre": 9342, 
  "bay@@": 9343, 
  "Jacques": 9344, 
  "wick@@": 9345, 
  "aux": 9346, 
  "disadvantage": 9347, 
  "merged": 9348, 
  "Uni@@": 9349, 
  "omm@@": 9350, 
  "encountered": 9351, 
  "kov": 9352, 
  "Schäfer": 9353, 
  "Dr": 9354, 
  "Hospital": 9355, 
  "invented": 9356, 
  "Café": 9357, 
  "calculations": 9358, 
  "OT@@": 9359, 
  "Mountains": 9360, 
  "longest": 9361, 
  "Tr@@": 9362, 
  "psycho@@": 9363, 
  "Shanghai": 9364, 
  "Environmental": 9365, 
  "lab@@": 9366, 
  "fr@@": 9367, 
  "await": 9368, 
  "endless": 9369, 
  "exploring": 9370, 
  "beats": 9371, 
  "resistant": 9372, 
  "dioxide": 9373, 
  "gas@@": 9374, 
  "viruses": 9375, 
  "Hostelsclub": 9376, 
  "Holz@@": 9377, 
  "productions": 9378, 
  "Hoch@@": 9379, 
  "sofa": 9380, 
  "circular": 9381, 
  "lorry": 9382, 
  "scha": 9383, 
  "surfaces": 9384, 
  "rou@@": 9385, 
  "approx": 9386, 
  "physically": 9387, 
  "Refugees": 9388, 
  "Kremlin": 9389, 
  "т@@": 9390, 
  "gay": 9391, 
  "Directorate": 9392, 
  "lifetime": 9393, 
  "petition": 9394, 
  "Coach": 9395, 
  "inevitably": 9396, 
  "etz": 9397, 
  "Ashton": 9398, 
  "blown": 9399, 
  "pse": 9400, 
  "ahr@@": 9401, 
  "oring": 9402, 
  "chner": 9403, 
  "Freedom": 9404, 
  "forums": 9405, 
  "ically": 9406, 
  "Licht@@": 9407, 
  "resumed": 9408, 
  "Burg@@": 9409, 
  "substitute": 9410, 
  "KS": 9411, 
  "allowance": 9412, 
  "amp": 9413, 
  "Hofer": 9414, 
  "clash": 9415, 
  "lifelong": 9416, 
  "characterized": 9417, 
  "Lisa": 9418, 
  "Che@@": 9419, 
  "privatisation": 9420, 
  "ace": 9421, 
  "nutrition": 9422, 
  "Wie@@": 9423, 
  "Urban": 9424, 
  "wind@@": 9425, 
  "colonial": 9426, 
  "Airlines": 9427, 
  "noble": 9428, 
  "CFSP": 9429, 
  "show@@": 9430, 
  "м@@": 9431, 
  "distinguish": 9432, 
  "Conditions": 9433, 
  "fest": 9434, 
  "4.5": 9435, 
  "Christine": 9436, 
  "athlete": 9437, 
  "ballot": 9438, 
  "greeting": 9439, 
  "deliveries": 9440, 
  "47@@": 9441, 
  "tional": 9442, 
  "strive": 9443, 
  "passive": 9444, 
  "governor": 9445, 
  "poster": 9446, 
  "boarding": 9447, 
  "100@@": 9448, 
  "jan": 9449, 
  "crop": 9450, 
  "triumph": 9451, 
  "swift": 9452, 
  "opp@@": 9453, 
  "Schwei@@": 9454, 
  "cared": 9455, 
  "asi@@": 9456, 
  "measurements": 9457, 
  "abolished": 9458, 
  "FBI": 9459, 
  "san@@": 9460, 
  "nowhere": 9461, 
  "cautious": 9462, 
  "assuming": 9463, 
  "6,@@": 9464, 
  "organisers": 9465, 
  "databases": 9466, 
  "tournaments": 9467, 
  "aids": 9468, 
  "Somalia": 9469, 
  "guiding": 9470, 
  "universe": 9471, 
  "Puerto": 9472, 
  "Smith": 9473, 
  "width": 9474, 
  "CR@@": 9475, 
  "halt": 9476, 
  "smoothly": 9477, 
  "IG@@": 9478, 
  "Sciences": 9479, 
  "editing": 9480, 
  "occupational": 9481, 
  "sle@@": 9482, 
  "AK@@": 9483, 
  "bargaining": 9484, 
  "jumping": 9485, 
  "ick": 9486, 
  "dive": 9487, 
  "breathtaking": 9488, 
  "nar@@": 9489, 
  "Jones": 9490, 
  "Leh@@": 9491, 
  "sich": 9492, 
  "authorized": 9493, 
  "Maritime": 9494, 
  "counterpart": 9495, 
  "alom": 9496, 
  "utility": 9497, 
  "po": 9498, 
  "Von@@": 9499, 
  "WC": 9500, 
  "Asylum": 9501, 
  "consultant": 9502, 
  "kel@@": 9503, 
  "negara": 9504, 
  "Croatian": 9505, 
  "Lena": 9506, 
  "fossil": 9507, 
  "abilities": 9508, 
  "Adobe": 9509, 
  "There": 9510, 
  "mails": 9511, 
  "Mir@@": 9512, 
  "Hollande": 9513, 
  "consultants": 9514, 
  "ases": 9515, 
  "RT@@": 9516, 
  "chip": 9517, 
  "partisan": 9518, 
  "dler": 9519, 
  "tones": 9520, 
  "demolition": 9521, 
  "orange": 9522, 
  "AR": 9523, 
  "Kin@@": 9524, 
  "Vor@@": 9525, 
  "Bab@@": 9526, 
  "scenery": 9527, 
  "demonstrating": 9528, 
  "EA": 9529, 
  "targeting": 9530, 
  "29.@@": 9531, 
  "musi@@": 9532, 
  "occasionally": 9533, 
  "ney": 9534, 
  "Ali@@": 9535, 
  "revolutionary": 9536, 
  "ann": 9537, 
  "hau@@": 9538, 
  "copper": 9539, 
  "exemplary": 9540, 
  "liquidity": 9541, 
  "timber": 9542, 
  "64@@": 9543, 
  "patience": 9544, 
  "bronn": 9545, 
  "Live": 9546, 
  "Bayreuth": 9547, 
  "distortions": 9548, 
  "Ty@@": 9549, 
  "aler": 9550, 
  "stic": 9551, 
  "Harry": 9552, 
  "wheelchair": 9553, 
  "pets": 9554, 
  "May@@": 9555, 
  "cathedral": 9556, 
  "Lars": 9557, 
  "gathering": 9558, 
  "untuk": 9559, 
  "Mann@@": 9560, 
  "eve": 9561, 
  "blo@@": 9562, 
  "dirty": 9563, 
  "tively": 9564, 
  "inviting": 9565, 
  "entrepreneur": 9566, 
  "costume": 9567, 
  "schule": 9568, 
  "ening": 9569, 
  "persecution": 9570, 
  "UNESCO": 9571, 
  "&apos;clock": 9572, 
  "Texas": 9573, 
  "Guinea": 9574, 
  "12th": 9575, 
  "visibility": 9576, 
  "Gor@@": 9577, 
  "ideological": 9578, 
  "glance": 9579, 
  "pic@@": 9580, 
  "Clo@@": 9581, 
  "Ja@@": 9582, 
  "Edition": 9583, 
  "Eu@@": 9584, 
  "vor": 9585, 
  "crown": 9586, 
  "booth": 9587, 
  "fun@@": 9588, 
  "screening": 9589, 
  "Hä@@": 9590, 
  "juice": 9591, 
  "hr": 9592, 
  "ora": 9593, 
  "Dam@@": 9594, 
  "guards": 9595, 
  "vi": 9596, 
  "2.2": 9597, 
  "entrepreneurship": 9598, 
  "align": 9599, 
  "cod": 9600, 
  "poses": 9601, 
  "Kron@@": 9602, 
  "Nad@@": 9603, 
  "positioned": 9604, 
  "CoR": 9605, 
  "refrain": 9606, 
  "engineer": 9607, 
  "Cur@@": 9608, 
  "prevail": 9609, 
  "q@@": 9610, 
  "PL@@": 9611, 
  "stan@@": 9612, 
  "Economics": 9613, 
  "shocked": 9614, 
  "bei": 9615, 
  "open@@": 9616, 
  "bombing": 9617, 
  "WG": 9618, 
  "tico": 9619, 
  "onwards": 9620, 
  "fusion": 9621, 
  "pole": 9622, 
  "complied": 9623, 
  "cing": 9624, 
  "eter": 9625, 
  "retired": 9626, 
  "Agricultural": 9627, 
  "cigarettes": 9628, 
  "insured": 9629, 
  "por": 9630, 
  "Kai": 9631, 
  "aman": 9632, 
  "ail@@": 9633, 
  "fibre": 9634, 
  "EI@@": 9635, 
  "Conservative": 9636, 
  "Christ@@": 9637, 
  "posting": 9638, 
  "va@@": 9639, 
  "Website": 9640, 
  "Venezuela": 9641, 
  "Agreements": 9642, 
  "Vet@@": 9643, 
  "pos@@": 9644, 
  "experimental": 9645, 
  "rep@@": 9646, 
  "Canon": 9647, 
  "prevents": 9648, 
  "mile": 9649, 
  "overwhelming": 9650, 
  "Regensburg": 9651, 
  "mp": 9652, 
  "ement": 9653, 
  "sni@@": 9654, 
  "imperative": 9655, 
  "tot@@": 9656, 
  "Fa@@": 9657, 
  "appealed": 9658, 
  "marathon": 9659, 
  "bombs": 9660, 
  "downloading": 9661, 
  "protein": 9662, 
  "declined": 9663, 
  "30th": 9664, 
  "Tel@@": 9665, 
  "attach": 9666, 
  "Austrians": 9667, 
  "pin@@": 9668, 
  "lt": 9669, 
  "tter": 9670, 
  "ear": 9671, 
  "optimum": 9672, 
  "tenants": 9673, 
  "ager": 9674, 
  "unstable": 9675, 
  "hammer": 9676, 
  "catching": 9677, 
  "pop@@": 9678, 
  "Viennese": 9679, 
  "naked": 9680, 
  "thesis": 9681, 
  "ame": 9682, 
  "Solidarity": 9683, 
  "burst": 9684, 
  "gang": 9685, 
  "auf@@": 9686, 
  "varieties": 9687, 
  "gler": 9688, 
  "Tim@@": 9689, 
  "loyalty": 9690, 
  "inspire": 9691, 
  "och": 9692, 
  "predicted": 9693, 
  "resume": 9694, 
  "owns": 9695, 
  "elled": 9696, 
  "launches": 9697, 
  "reich": 9698, 
  "princ@@": 9699, 
  "Is": 9700, 
  "aller@@": 9701, 
  "EFTA": 9702, 
  "basket": 9703, 
  "anonymous": 9704, 
  "insolvency": 9705, 
  "Ferrari": 9706, 
  "architects": 9707, 
  "metals": 9708, 
  "sciences": 9709, 
  "understands": 9710, 
  "worship": 9711, 
  "Pin@@": 9712, 
  "Petra": 9713, 
  "presumably": 9714, 
  "ming": 9715, 
  "outbreak": 9716, 
  "annoying": 9717, 
  "neighboring": 9718, 
  "featured": 9719, 
  "anda": 9720, 
  "poorly": 9721, 
  "rhetoric": 9722, 
  "reproduction": 9723, 
  "companion": 9724, 
  "safeguarding": 9725, 
  "anc@@": 9726, 
  "approaching": 9727, 
  "Leon": 9728, 
  "wski": 9729, 
  "wanting": 9730, 
  "interinstitutional": 9731, 
  "hard@@": 9732, 
  "strain": 9733, 
  "11th": 9734, 
  "settlements": 9735, 
  "provisional": 9736, 
  "stand@@": 9737, 
  "DJ@@": 9738, 
  "jumped": 9739, 
  "miracle": 9740, 
  "defendants": 9741, 
  "invasion": 9742, 
  "approves": 9743, 
  "The@@": 9744, 
  "issuing": 9745, 
  "globe": 9746, 
  "07@@": 9747, 
  "informs": 9748, 
  "touched": 9749, 
  "sati@@": 9750, 
  "Ly@@": 9751, 
  "organisms": 9752, 
  "admits": 9753, 
  "relevance": 9754, 
  "panic": 9755, 
  "wishing": 9756, 
  "wit@@": 9757, 
  "repression": 9758, 
  "setup": 9759, 
  "defines": 9760, 
  "rented": 9761, 
  "defect": 9762, 
  "ET": 9763, 
  "Meier": 9764, 
  "sei@@": 9765, 
  "Jah@@": 9766, 
  "inde@@": 9767, 
  "Program": 9768, 
  "mes@@": 9769, 
  "lens": 9770, 
  "Chicago": 9771, 
  "licensing": 9772, 
  "stei@@": 9773, 
  "assault": 9774, 
  "dam": 9775, 
  "discretion": 9776, 
  "sy": 9777, 
  "sic": 9778, 
  "nel": 9779, 
  "Fay@@": 9780, 
  "Ü@@": 9781, 
  "libraries": 9782, 
  "elt": 9783, 
  "unified": 9784, 
  "assisted": 9785, 
  "Nico": 9786, 
  "EV@@": 9787, 
  "flames": 9788, 
  "aren": 9789, 
  "Alex": 9790, 
  "Bruno": 9791, 
  "attacking": 9792, 
  "Ursula": 9793, 
  "Go": 9794, 
  "Statute": 9795, 
  "07.@@": 9796, 
  "dressed": 9797, 
  "gaining": 9798, 
  "charter": 9799, 
  "Child": 9800, 
  "pipe": 9801, 
  "SH@@": 9802, 
  "coordinating": 9803, 
  "desperate": 9804, 
  "lined": 9805, 
  "evenings": 9806, 
  "distributors": 9807, 
  "Eric": 9808, 
  "Carl": 9809, 
  "isch": 9810, 
  "Natural": 9811, 
  "Lat@@": 9812, 
  "thro@@": 9813, 
  "у@@": 9814, 
  "viewer": 9815, 
  "hybrid": 9816, 
  "Ambassador": 9817, 
  "78@@": 9818, 
  "Bamberg": 9819, 
  "ony": 9820, 
  "conformity": 9821, 
  "Axel": 9822, 
  "IR@@": 9823, 
  "arch": 9824, 
  "Dubai": 9825, 
  "fil@@": 9826, 
  "stro@@": 9827, 
  "Mus@@": 9828, 
  "pressures": 9829, 
  "Integration": 9830, 
  "MB": 9831, 
  "appointments": 9832, 
  "Williams": 9833, 
  "person@@": 9834, 
  "aria": 9835, 
  "gambling": 9836, 
  "Tehran": 9837, 
  "ahl@@": 9838, 
  "04@@": 9839, 
  "PR@@": 9840, 
  "Rum@@": 9841, 
  "Jackson": 9842, 
  "delight": 9843, 
  "opted": 9844, 
  "coin": 9845, 
  "irrespective": 9846, 
  "ography": 9847, 
  "exceptionally": 9848, 
  "density": 9849, 
  "reinforcing": 9850, 
  "thal": 9851, 
  "ises": 9852, 
  "flat@@": 9853, 
  "bets": 9854, 
  "ninth": 9855, 
  "ideology": 9856, 
  "Representatives": 9857, 
  "nomination": 9858, 
  "kamp": 9859, 
  "fulfilling": 9860, 
  "spell": 9861, 
  "deciding": 9862, 
  "Defense": 9863, 
  "Governments": 9864, 
  "Dominik": 9865, 
  "margins": 9866, 
  "migrant": 9867, 
  "chronic": 9868, 
  "Gran": 9869, 
  "ati": 9870, 
  "crossed": 9871, 
  "itas": 9872, 
  "dge": 9873, 
  "IP@@": 9874, 
  "succession": 9875, 
  "Bill": 9876, 
  "List": 9877, 
  "submission": 9878, 
  "motions": 9879, 
  "whis@@": 9880, 
  "mur@@": 9881, 
  "TE": 9882, 
  "hunters": 9883, 
  "clauses": 9884, 
  "colourful": 9885, 
  "nursing": 9886, 
  "flu@@": 9887, 
  "ordination": 9888, 
  "quantitative": 9889, 
  "Parties": 9890, 
  "W.": 9891, 
  "Köln": 9892, 
  "sla@@": 9893, 
  "fairy": 9894, 
  "24th": 9895, 
  "baggage": 9896, 
  "login": 9897, 
  "attitudes": 9898, 
  "unexpected": 9899, 
  "ori": 9900, 
  ".de.": 9901, 
  "vic@@": 9902, 
  "protects": 9903, 
  "run@@": 9904, 
  "lie@@": 9905, 
  "220": 9906, 
  "roll@@": 9907, 
  "Melbourne": 9908, 
  "keyboard": 9909, 
  "bon@@": 9910, 
  "voluntarily": 9911, 
  "Sri": 9912, 
  "Gy@@": 9913, 
  "developer": 9914, 
  "USS": 9915, 
  "phases": 9916, 
  "warehouse": 9917, 
  "elimination": 9918, 
  "20,000": 9919, 
  "pump": 9920, 
  "eds": 9921, 
  "ethics": 9922, 
  "itz": 9923, 
  "variant": 9924, 
  "professionally": 9925, 
  "priest": 9926, 
  "distinctive": 9927, 
  "alists": 9928, 
  "greeted": 9929, 
  "chy": 9930, 
  "unilateral": 9931, 
  "SK@@": 9932, 
  "Tom@@": 9933, 
  "Migration": 9934, 
  "cemetery": 9935, 
  "90@@": 9936, 
  "incorrect": 9937, 
  "Kru@@": 9938, 
  "Bay@@": 9939, 
  "nitz": 9940, 
  "Workers": 9941, 
  "printer": 9942, 
  "stakes": 9943, 
  "controller": 9944, 
  "Ost@@": 9945, 
  "acqu@@": 9946, 
  "Juncker": 9947, 
  "ania": 9948, 
  "kin@@": 9949, 
  "missile": 9950, 
  "intimate": 9951, 
  "Susanne": 9952, 
  "climbed": 9953, 
  "Ali": 9954, 
  "Deposit": 9955, 
  "Eurostat": 9956, 
  "veterinary": 9957, 
  "symbols": 9958, 
  "burdens": 9959, 
  "rational": 9960, 
  "tap": 9961, 
  "Eff@@": 9962, 
  "He": 9963, 
  "camping": 9964, 
  "extingu@@": 9965, 
  "swim": 9966, 
  "ei": 9967, 
  "listing": 9968, 
  "magazines": 9969, 
  "Alfred": 9970, 
  "Ice": 9971, 
  "excuse": 9972, 
  "acquain@@": 9973, 
  "generating": 9974, 
  "edges": 9975, 
  "surprises": 9976, 
  "athlon": 9977, 
  "Henry": 9978, 
  "SU": 9979, 
  "dat@@": 9980, 
  "ils": 9981, 
  "indicator": 9982, 
  "monument": 9983, 
  "Š@@": 9984, 
  "Malaysia": 9985, 
  "reti@@": 9986, 
  "continually": 9987, 
  "GPS": 9988, 
  "spor@@": 9989, 
  "hike": 9990, 
  "instability": 9991, 
  "argues": 9992, 
  "2030": 9993, 
  "improves": 9994, 
  "alien": 9995, 
  "Awards": 9996, 
  "Wild@@": 9997, 
  "Mountain": 9998, 
  "SO@@": 9999, 
  "OM@@": 10000, 
  "slogans": 10001, 
  "alcoholic": 10002, 
  "Porto": 10003, 
  "Mis@@": 10004, 
  "employ": 10005, 
  "laundry": 10006, 
  "disciplines": 10007, 
  "audiences": 10008, 
  "aber": 10009, 
  "servants": 10010, 
  "cats": 10011, 
  "tracking": 10012, 
  "formulated": 10013, 
  "MA": 10014, 
  "costumes": 10015, 
  "cken@@": 10016, 
  "rigorous": 10017, 
  "tical": 10018, 
  "Plan@@": 10019, 
  "125": 10020, 
  "coat": 10021, 
  "conscience": 10022, 
  "ard@@": 10023, 
  "DH@@": 10024, 
  "pet": 10025, 
  "Ski": 10026, 
  "1976": 10027, 
  "bulk": 10028, 
  "inserted": 10029, 
  "coup": 10030, 
  "regul@@": 10031, 
  "28th": 10032, 
  "cruise": 10033, 
  "preserving": 10034, 
  "pul@@": 10035, 
  "ander@@": 10036, 
  "cry": 10037, 
  "Pir@@": 10038, 
  "RELEASE": 10039, 
  "carpet": 10040, 
  "kit": 10041, 
  "zei@@": 10042, 
  "template": 10043, 
  "fan@@": 10044, 
  "SMS": 10045, 
  "OF@@": 10046, 
  "Strau@@": 10047, 
  "Budgetary": 10048, 
  "cure": 10049, 
  "kilograms": 10050, 
  "pig": 10051, 
  "05@@": 10052, 
  "lian": 10053, 
  "criticisms": 10054, 
  "stroll": 10055, 
  "Hoh@@": 10056, 
  "tremendous": 10057, 
  "Sierra": 10058, 
  "Tyrolean": 10059, 
  "francs": 10060, 
  "rough": 10061, 
  "Nov@@": 10062, 
  "buttons": 10063, 
  "Mayer": 10064, 
  "closures": 10065, 
  "harassment": 10066, 
  "het": 10067, 
  "eded": 10068, 
  "instrumental": 10069, 
  "imagination": 10070, 
  "eless": 10071, 
  "Marx": 10072, 
  "iled": 10073, 
  "Question": 10074, 
  "forbidden": 10075, 
  "resolving": 10076, 
  "UR@@": 10077, 
  "clinics": 10078, 
  "Tau@@": 10079, 
  "squad": 10080, 
  "gala": 10081, 
  "unding": 10082, 
  "telecoms": 10083, 
  "explosives": 10084, 
  "7.30": 10085, 
  "oder": 10086, 
  "Orchestra": 10087, 
  "Jochen": 10088, 
  "civic": 10089, 
  "Spar@@": 10090, 
  "genocide": 10091, 
  "chart": 10092, 
  "origins": 10093, 
  "tightening": 10094, 
  "buried": 10095, 
  "beginners": 10096, 
  "xes": 10097, 
  "followers": 10098, 
  "elaborate": 10099, 
  "pub": 10100, 
  "Scottish": 10101, 
  "drawings": 10102, 
  "ears": 10103, 
  "downhill": 10104, 
  "int": 10105, 
  "accounted": 10106, 
  "dom": 10107, 
  "Charlie": 10108, 
  "bodily": 10109, 
  "spectacle": 10110, 
  "pin": 10111, 
  "consultative": 10112, 
  "tom@@": 10113, 
  "premier": 10114, 
  "subsidy": 10115, 
  "allowances": 10116, 
  "institutes": 10117, 
  "elles": 10118, 
  "convicted": 10119, 
  "matching": 10120, 
  "Democrat": 10121, 
  "screens": 10122, 
  "SV@@": 10123, 
  "Gab@@": 10124, 
  "athletic": 10125, 
  "interro@@": 10126, 
  "bikes": 10127, 
  "random": 10128, 
  "reaffirmed": 10129, 
  "immune": 10130, 
  "fake": 10131, 
  "alla": 10132, 
  "Mallorca": 10133, 
  "cell@@": 10134, 
  "livestock": 10135, 
  "log@@": 10136, 
  "ap": 10137, 
  "ón": 10138, 
  "ы@@": 10139, 
  "cr@@": 10140, 
  "ruins": 10141, 
  "reiterate": 10142, 
  "alen": 10143, 
  "è": 10144, 
  "Two": 10145, 
  "nach": 10146, 
  "1.8": 10147, 
  "climb": 10148, 
  "Bot@@": 10149, 
  "dedication": 10150, 
  "scarce": 10151, 
  "steady": 10152, 
  "tab@@": 10153, 
  "HTML": 10154, 
  "corners": 10155, 
  "Village": 10156, 
  "recipe": 10157, 
  "vocal": 10158, 
  "sent@@": 10159, 
  "kne@@": 10160, 
  "sser": 10161, 
  "elli": 10162, 
  "Res@@": 10163, 
  "shell": 10164, 
  "economical": 10165, 
  "slaughter": 10166, 
  "Frontex": 10167, 
  "painter": 10168, 
  "Duisburg": 10169, 
  "ren": 10170, 
  "Kle@@": 10171, 
  "Partner": 10172, 
  "evolved": 10173, 
  "schen@@": 10174, 
  "Place": 10175, 
  "eye@@": 10176, 
  "LE": 10177, 
  "Macedonian": 10178, 
  "dau": 10179, 
  "varies": 10180, 
  "archives": 10181, 
  "Joe": 10182, 
  "tackled": 10183, 
  "Brown": 10184, 
  "portion": 10185, 
  "30.@@": 10186, 
  "convey": 10187, 
  "Adriatic": 10188, 
  "Nu@@": 10189, 
  "Elevator": 10190, 
  "Slovenian": 10191, 
  "68@@": 10192, 
  "28.@@": 10193, 
  "deterioration": 10194, 
  "Cli@@": 10195, 
  "lis": 10196, 
  "injection": 10197, 
  "03@@": 10198, 
  "lend": 10199, 
  "aboard": 10200, 
  "refuge": 10201, 
  "cleaned": 10202, 
  "Super@@": 10203, 
  "Heidelberg": 10204, 
  "vineyards": 10205, 
  "Castro": 10206, 
  "della": 10207, 
  "decoration": 10208, 
  "cigarette": 10209, 
  "Gör@@": 10210, 
  "marquis": 10211, 
  "relay": 10212, 
  "sealed": 10213, 
  "tune": 10214, 
  "irregularities": 10215, 
  "impacts": 10216, 
  "activate": 10217, 
  "75@@": 10218, 
  "gens": 10219, 
  "Gü@@": 10220, 
  "Confederation": 10221, 
  "survived": 10222, 
  "metropolis": 10223, 
  "v.@@": 10224, 
  "precautionary": 10225, 
  "Now": 10226, 
  "aging": 10227, 
  "Summer": 10228, 
  "employs": 10229, 
  "tendency": 10230, 
  "intergovernmental": 10231, 
  "Tibet": 10232, 
  "2.3": 10233, 
  "main@@": 10234, 
  "stepping": 10235, 
  "accessed": 10236, 
  "attracts": 10237, 
  "Sport@@": 10238, 
  "seas": 10239, 
  "Top@@": 10240, 
  "doubled": 10241, 
  "coordinator": 10242, 
  "energies": 10243, 
  "deci@@": 10244, 
  "mutually": 10245, 
  "1984": 10246, 
  "zer@@": 10247, 
  "grab": 10248, 
  "Mission": 10249, 
  "jum@@": 10250, 
  "debts": 10251, 
  "depression": 10252, 
  "Victoria": 10253, 
  "automobile": 10254, 
  "weakened": 10255, 
  "rebuilt": 10256, 
  "č@@": 10257, 
  "seasonal": 10258, 
  "chest": 10259, 
  "readiness": 10260, 
  "jo": 10261, 
  "desperately": 10262, 
  "vaccination": 10263, 
  "App": 10264, 
  "Klein@@": 10265, 
  "ück@@": 10266, 
  "emergence": 10267, 
  "AF": 10268, 
  "sensors": 10269, 
  "Mike": 10270, 
  "amounting": 10271, 
  "form@@": 10272, 
  "versus": 10273, 
  "distinct": 10274, 
  "Saxon": 10275, 
  "cos": 10276, 
  "showers": 10277, 
  "chess": 10278, 
  "slope": 10279, 
  "apple": 10280, 
  "POLICY": 10281, 
  "MEP": 10282, 
  "powder": 10283, 
  "қ@@": 10284, 
  "alter": 10285, 
  "Out": 10286, 
  "tears": 10287, 
  "Luggage": 10288, 
  "bak@@": 10289, 
  "Hahn": 10290, 
  "Travel": 10291, 
  "neighbour": 10292, 
  "cables": 10293, 
  "brush": 10294, 
  "dubious": 10295, 
  "recipient": 10296, 
  "tures": 10297, 
  "stricter": 10298, 
  "spec@@": 10299, 
  "biotechnology": 10300, 
  "smell": 10301, 
  "Black@@": 10302, 
  "yours": 10303, 
  "motorcycle": 10304, 
  "Pau@@": 10305, 
  "disagree": 10306, 
  "uss@@": 10307, 
  "locals": 10308, 
  "sports@@": 10309, 
  "statute": 10310, 
  "rankings": 10311, 
  "utt@@": 10312, 
  "Wall@@": 10313, 
  "accountable": 10314, 
  "wisdom": 10315, 
  "ando": 10316, 
  "shep@@": 10317, 
  "confused": 10318, 
  "Lady": 10319, 
  "emann": 10320, 
  "Johnson": 10321, 
  "reformed": 10322, 
  "mentally": 10323, 
  "extremist": 10324, 
  "Sun@@": 10325, 
  "Wales": 10326, 
  "onia": 10327, 
  "Heating": 10328, 
  "dare": 10329, 
  "2.4": 10330, 
  "scre@@": 10331, 
  "filters": 10332, 
  "Humanitarian": 10333, 
  "fic@@": 10334, 
  "immunity": 10335, 
  "flan@@": 10336, 
  "Monika": 10337, 
  "hab@@": 10338, 
  "parameter": 10339, 
  "installing": 10340, 
  "ambience": 10341, 
  "inch": 10342, 
  "cop@@": 10343, 
  "CC@@": 10344, 
  "radioactive": 10345, 
  "tense": 10346, 
  "wling": 10347, 
  "seaside": 10348, 
  "recreational": 10349, 
  "firing": 10350, 
  "rebuild": 10351, 
  "Kenya": 10352, 
  "graduated": 10353, 
  "Frankfurter": 10354, 
  "alling": 10355, 
  "poorer": 10356, 
  "Abu": 10357, 
  "subsidiaries": 10358, 
  "1979": 10359, 
  "Metro": 10360, 
  "enshrined": 10361, 
  "lease": 10362, 
  "tissue": 10363, 
  "pragmatic": 10364, 
  "HC": 10365, 
  "mmed": 10366, 
  "Ed@@": 10367, 
  "attentive": 10368, 
  "Hell@@": 10369, 
  "EPA": 10370, 
  "sightseeing": 10371, 
  "rer": 10372, 
  "Pla@@": 10373, 
  "abstained": 10374, 
  "Stre@@": 10375, 
  "apps": 10376, 
  "laugh": 10377, 
  "unanimity": 10378, 
  "warranty": 10379, 
  "grammar": 10380, 
  "congress": 10381, 
  "syn@@": 10382, 
  "Claude": 10383, 
  "bis": 10384, 
  "selecting": 10385, 
  "psych@@": 10386, 
  "gal@@": 10387, 
  "Horn": 10388, 
  "backlog": 10389, 
  "RWE": 10390, 
  "Pot@@": 10391, 
  "Fort@@": 10392, 
  "maier": 10393, 
  "Advisory": 10394, 
  "conditional": 10395, 
  "Lü@@": 10396, 
  "OP@@": 10397, 
  "§": 10398, 
  "usable": 10399, 
  "establishments": 10400, 
  "merits": 10401, 
  "50th": 10402, 
  "Bak@@": 10403, 
  "tongue": 10404, 
  "Tor": 10405, 
  "juni@@": 10406, 
  "Mail": 10407, 
  "poultry": 10408, 
  "Apartments": 10409, 
  "definitions": 10410, 
  "speeds": 10411, 
  "Sustainable": 10412, 
  "Janeiro": 10413, 
  "shareholder": 10414, 
  "caution": 10415, 
  "expressions": 10416, 
  "Haiti": 10417, 
  "intensively": 10418, 
  "worn": 10419, 
  "Off@@": 10420, 
  "enforced": 10421, 
  "entertaining": 10422, 
  "Gut@@": 10423, 
  "organs": 10424, 
  "eth@@": 10425, 
  "altogether": 10426, 
  "Bad@@": 10427, 
  "sz@@": 10428, 
  "retention": 10429, 
  "economist": 10430, 
  "multinational": 10431, 
  "masters": 10432, 
[...]
