the 9106205
, 6055488
. 5329445
of 4304981
and 3810010
to 3583414
in 2851040
a 2268952
is 1728208
for 1498471
that 1382248
on 1120834
@-@ 1059121
with 927000
this 914379
be 862905
it 831233
are 818962
as 812508
we 778477
by 689543
I 643466
will 585889
have 583036
&quot; 569493
not 567041
you 549385
( 532385
) 531992
which 514735
from 508220
at 503404
&apos;s 470529
European 464471
an 462439
has 456010
: 445822
or 444069
- 439089
all 380110
our 365442
can 358811
was 336510
Commission 334974
also 334462
its 303964
but 287527
more 268040
their 265739
your 247229
would 245377
/ 242930
there 239026
been 237682
one 236570
EU 236092
they 224866
if 223681
Mr 222678
should 221260
new 212111
these 206637
other 197039
&apos; 187604
must 186541
Member 185014
Council 184831
only 179126
States 176404
do 171652
very 171321
so 171257
President 169095
time 168189
Union 165744
about 164578
up 164236
like 159210
? 154091
what 152768
Europe 152135
; 151402
countries 148752
no 147656
when 145165
such 145030
into 143242
who 142888
any 141031
out 139601
people 135475
us 134928
well 134345
between 132150
Parliament 131152
were 130031
first 128751
some 127964
than 126053
use 126051
information 125790
report 125096
need 123934
now 123670
most 122260
work 118470
my 115974
many 115740
make 114435
support 114131
% 114086
his 113841
important 112875
take 112791
he 110103
two 109436
them 109132
policy 107731
market 105775
! 104338
made 103982
because 103860
years 101675
those 101599
over 100928
after 98153
economic 97850
development 97655
where 97101
under 95683
way 94823
year 93843
however 93602
may 92986
world 92984
hotel 92935
just 92603
had 91782
public 89988
system 89920
being 88882
even 88125
how 87295
... 86872
through 86822
order 86294
therefore 85863
part 84988
area 84260
within 84079
see 83359
both 82087
here 81480
today 80890
right 80381
services 79947
political 79489
am 78530
against 78434
possible 78229
good 78148
could 76790
place 75646
country 75541
international 75324
rights 75223
national 75174
measures 74837
same 74687
social 74664
then 73665
number 72778
high 72081
does 71792
financial 70925
available 70866
level 70821
de 70623
since 70608
2 70116
own 69905
used 69607
without 68698
Commissioner 68228
products 67879
future 67542
able 66868
free 66235
long 65869
much 65856
want 65796
set 65628
further 65616
Community 65569
during 65139
before 65075
process 64333
already 64250
find 64191
still 63562
case 63426
view 63332
last 62790
particular 62483
1 62354
including 61805
proposal 61774
different 61412
end 60564
each 60276
energy 60117
data 59999
quality 59986
based 59855
point 59099
said 59029
areas 58814
ensure 58665
human 57722
agreement 57620
great 57617
cooperation 57531
fact 57423
service 57053
access 56833
s 56138
while 55849
help 55740
common 55731
know 55030
provide 54354
say 54131
three 54047
situation 53840
State 53813
course 53463
business 53453
every 53410
aid 53364
me 53332
too 53276
law 53217
cannot 53173
room 53015
Committee 52860
get 52763
believe 52693
day 52182
action 51990
means 51937
citizens 51610
rules 51610
best 51602
taken 51596
trade 51587
small 51309
3 51075
question 50979
protection 50637
example 50599
issue 50417
security 50366
debate 50336
necessary 50013
next 49950
given 49651
programme 49617
think 49481
offers 48892
clear 48406
sector 48134
why 48068
large 47003
full 46516
following 46395
city 46304
give 46260
change 46119
decision 45944
current 45937
company 45791
million 45707
state 45320
better 45295
main 45221
companies 45205
United 44975
put 44893
far 44871
needs 44815
problems 44666
adopted 44607
offer 44600
Hotel 44240
10 44172
basis 43698
legal 43607
position 43537
health 43507
another 43446
issues 43381
whether 43356
&#91; 43201
few 43113
conditions 42972
rooms 42957
&#93; 42773
together 42731
working 42592
production 42586
The 42496
problem 42370
come 42102
growth 42040
role 41987
go 41954
research 41831
making 41591
again 41535
second 41465
certain 41342
group 41160
present 41120
term 41069
life 41052
located 40889
open 40842
Minister 40814
systems 40729
non 40632
real 40539
industry 40527
back 40506
4 40169
specific 40068
form 40058
particularly 40043
shall 40041
using 40000
general 39935
account 39927
management 39892
please 39885
special 39820
transport 39768
local 39704
continue 39626
around 39581
third 39492
her 39324
control 39244
framework 39087
environment 38908
down 38899
5 38888
authorities 38854
Germany 38710
government 38677
terms 38606
region 38469
result 38287
activities 38237
Treaty 38185
e 38112
progress 37992
Court 37879
budget 37688
become 37675
respect 37512
projects 37465
vote 37460
legislation 37342
always 37298
power 37241
less 37174
Group 36961
global 36883
project 36872
major 36824
implementation 36743
once 36672
hope 36573
did 36414
women 36321
children 36294
&amp; 36196
stay 36148
re@@ 36024
crisis 36002
&apos;t 35954
various 35922
line 35901
competition 35782
several 35770
towards 35758
per 35712
experience 35705
period 35683
food 35505
US 35491
increase 35473
water 35330
especially 35155
un@@ 34987
subject 34980
institutions 34921
create 34873
single 34569
key 34512
called 34498
i 34404
private 34337
close 34266
whole 34181
regional 34132
economy 34104
let 34089
policies 33973
German 33544
approach 33525
thank 33449
effective 33352
provided 33290
proposals 33194
fully 33183
resources 33069
proposed 33066
yet 33046
Directive 32974
matter 32830
due 32800
field 32554
Mrs 32537
members 32479
safety 32442
interest 32265
regard 32030
done 31990
site 31938
environmental 31896
centre 31864
House 31790
found 31790
+ 31662
strategy 31589
among 31576
concerned 31465
price 31445
start 31403
employment 31294
welcome 31278
forward 31102
directive 31021
investment 30978
least 30912
look 30880
old 30822
until 30817
include 30771
taking 30693
itself 30583
efforts 30552
often 30485
importance 30340
2009 30249
costs 30137
range 30120
air 30103
allow 30051
20 30030
website 29992
meeting 29945
Affairs 29826
markets 29653
hand 29646
product 29618
training 29618
individual 29574
having 29572
application 29551
results 29533
she 29336
according 29245
money 29219
really 29213
value 29147
modern 29108
society 29044
list 29029
opinion 29026
resolution 28972
provides 28666
going 28635
China 28554
opportunity 28449
improve 28405
staff 28404
standards 28380
something 28315
page 28306
technology 28203
although 28199
rapporteur 28139
days 28138
technical 28118
family 28038
above 28028
addition 28017
wish 27973
customers 27939
short 27913
risk 27885
rather 27877
internal 27848
o 27843
off 27818
call 27760
parties 27722
thus 27709
recent 27705
education 27607
regions 27566
total 27513
building 27511
negotiations 27469
name 27370
currently 27337
play 27320
enjoy 27310
away 27281
contact 27277
ask 27268
programmes 27255
location 27222
30 27203
months 27156
responsibility 27142
home 27036
ladies 27033
excellent 26985
personal 26959
gentlemen 26845
15 26842
finally 26755
known 26661
press 26631
France 26576
software 26457
things 26424
requirements 26404
2010 26395
principle 26367
little 26321
responsible 26315
tax 26222
points 26022
procedure 26014
step 25987
required 25972
four 25968
greater 25869
solution 25847
6 25827
related 25815
developing 25751
might 25737
address 25706
cases 25697
12 25674
groups 25672
reform 25654
existing 25517
regulation 25515
2000 25409
essential 25342
text 25329
2007 25326
wide 25284
amendments 25277
2008 25182
quite 25175
questions 25122
en 25118
others 25074
rate 25066
agree 25039
Madam 25022
attention 24990
Presidency 24985
achieve 24942
content 24884
impact 24862
needed 24850
him 24847
bring 24768
concerning 24750
operation 24707
makes 24643
prices 24580
appropriate 24572
cost 24555
difficult 24548
co 24498
light 24480
network 24432
EUR 24358
la 24311
times 24303
design 24290
additional 24278
states 24170
clearly 24157
Russia 24018
objectives 24009
show 23988
natural 23984
force 23952
€ 23942
favour 23886
funds 23846
reason 23755
context 23675
left 23664
young 23661
simply 23654
serious 23650
strong 23645
relations 23638
indeed 23608
climate 23591
Members 23539
developed 23524
capital 23506
complete 23498
behalf 23487
sustainable 23462
assistance 23411
cultural 23359
note 23308
visit 23207
concerns 23113
easy 23053
agreed 23001
7 22999
changes 22981
involved 22972
Article 22941
decisions 22940
significant 22936
meet 22896
in@@ 22885
town 22779
share 22775
along 22771
past 22770
side 22742
central 22732
Internet 22716
across 22713
upon 22710
peace 22694
workers 22614
8 22569
plan 22532
interests 22525
member 22504
date 22498
established 22490
longer 22480
deal 22479
World 22435
y 22385
positive 22359
freedom 22347
foreign 22239
version 22238
themselves 22158
* 22153
nature 22073
objective 22073
directly 22041
held 22036
solutions 22020
five 21924
sea 21908
euro 21890
S@@ 21867
minutes 21850
es 21815
democracy 21814
communication 21754
request 21730
potential 21685
low 21630
online 21629
consumers 21618
Republic 21600
_ 21571
border 21557
views 21515
aim 21503
agreements 21498
partners 21471
50 21380
direct 21279
final 21261
Justice 21252
International 21228
French 21194
2006 21189
soon 21120
apply 21080
events 21062
dialogue 21042
joint 21030
democratic 21028
integration 21015
beautiful 20991
initiative 20953
jobs 20906
words 20897
effect 20880
Italy 20853
early 20848
almost 20847
priority 20787
11 20781
fundamental 20778
throughout 20773
benefit 20759
m 20718
Spain 20717
lead 20709
&apos;@@ 20702
user 20672
C@@ 20669
pay 20666
P@@ 20636
event 20617
took 20616
road 20613
via 20598
consider 20586
ed 20576
language 20569
kind 20566
keep 20527
A@@ 20518
decided 20485
either 20458
heart 20406
guests 20390
promote 20355
develop 20344
situated 20324
d 20305
facilities 20287
sure 20271
created 20245
enough 20241
takes 20233
agricultural 20207
knowledge 20193
though 20187
regarding 20180
top 20144
later 20124
actions 20122
designed 20119
history 20071
century 20069
majority 20059
feel 20053
goods 19999
person 19993
funding 19982
active 19962
commitment 19936
success 19917
exchange 19909
population 19899
Turkey 19871
car 19840
near 19826
Government 19809
ago 19780
never 19715
A 19711
house 19675
levels 19673
pages 19661
follow 19633
outside 19610
remain 19550
increased 19503
Development 19438
T@@ 19430
standard 19412
receive 19398
living 19310
comes 19289
reach 19277
run 19225
capacity 19200
procedures 19196
included 19156
looking 19128
focus 19119
live 19063
Bank 19051
practice 19045
provisions 19009
25 19003
amount 18998
type 18995
civil 18962
2005 18950
package 18943
users 18939
B@@ 18925
principles 18911
guarantee 18908
ing 18906
care 18896
s@@ 18887
&#124; 18881
higher 18874
voted 18859
breakfast 18852
performance 18834
art 18829
media 18757
everything 18744
external 18744
June 18714
extremely 18710
fight 18697
thanks 18598
relevant 18591
reduce 18558
true 18554
treatment 18536
leading 18416
war 18411
seen 18409
includes 18403
consumer 18388
community 18342
concern 18341
General 18303
basic 18302
below 18268
opportunities 18259
supply 18257
Office 18221
2004 18221
restaurant 18205
Lisbon 18193
100 18177
D@@ 18167
parts 18163
EC 18109
works 18106
creation 18085
achieved 18073
industrial 18036
land 18029
demand 18023
actually 18013
team 18007
age 17945
rates 17937
check 17902
presented 17883
unique 17875
military 17873
contribution 17819
2003 17808
received 17807
space 17802
stage 17781
al 17758
providing 17746
half 17736
equipment 17713
cross 17704
G@@ 17695
24 17689
ever 17669
carried 17651
music 17641
click 17626
recently 17623
turn 17614
doing 17595
K@@ 17562
increasing 17547
lot 17544
South 17537
friendly 17534
traditional 17495
reports 17483
idea 17464
professional 17402
draft 17384
M@@ 17368
understand 17359
accept 17358
billion 17354
etc 17342
release 17328
L@@ 17313
week 17304
9 17291
allows 17266
act 17259
thing 17245
built 17216
file 17215
response 17191
stability 17188
certainly 17184
Convention 17181
added 17176
add 17164
V@@ 17148
applications 17129
December 17112
effects 17093
reasons 17083
prevent 17048
book 17045
enlargement 17044
N@@ 17035
features 16974
review 16953
setting 16950
America 16920
job 16910
mentioned 16895
party 16880
considered 16873
values 16854
culture 16835
return 16815
km 16810
governments 16806
man 16805
perhaps 16804
2001 16799
instead 16777
C 16772
limited 16764
try 16741
2002 16713
body 16711
connection 16701
program 16677
successful 16666
customer 16658
American 16658
aspects 16655
labour 16653
face 16639
background 16627
hours 16611
big 16611
enable 16586
model 16508
challenges 16497
reached 16480
latest 16466
Africa 16453
move 16444
send 16421
der 16414
Agreement 16406
comfortable 16400
famous 16395
nothing 16355
remains 16352
hard 16352
beach 16351
despite 16316
men 16300
bar 16287
East 16272
nuclear 16268
choice 16254
mail 16248
internet 16231
overall 16209
.@@ 16201
ideal 16197
previous 16172
night 16154
efficient 16132
benefits 16129
led 16128
lack 16128
O@@ 16120
organisations 16118
balance 16112
y@@ 16112
Regulation 16097
c@@ 16075
submitted 16074
station 16061
gas 16041
E@@ 16034
aware 16029
oil 16014
sectors 16012
committee 16007
innovation 15999
e@@ 15990
former 15979
instruments 15963
l 15921
Economic 15891
commercial 15881
web 15880
accession 15829
read 15817
moment 15795
New 15787
H@@ 15786
movement 15767
matters 15740
F@@ 15737
Greece 15709
de@@ 15708
TV 15693
waste 15686
completely 15678
ways 15652
original 15646
shows 15607
writing 15607
everyone 15594
32 15588
material 15584
quickly 15581
steps 15576
conference 15569
series 15560
Fund 15557
d@@ 15525
beginning 15501
fishing 15487
regards 15484
er 15477
asked 15472
choose 15467
amendment 15430
Central 15418
medium 15400
di 15396
possibility 15391
Mediterranean 15389
six 15386
contains 15382
000 15373
details 15368
entire 15359
13 15345
conclusions 15339
highly 15338
g@@ 15324
similar 15308
contribute 15304
infrastructure 15299
coming 15291
rule 15291
self 15281
priorities 15259
protect 15259
independent 15256
criteria 15240
travel 15232
stop 15217
re 15214
purpose 15213
supported 15189
perfect 15141
UN 15131
March 15104
equipped 15089
annual 15083
game 15072
ate 15067
office 15060
furthermore 15035
di@@ 15027
monitoring 15025
discussion 15022
holiday 15017
pool 15016
Austria 14996
ers 14991
Foreign 14990
simple 14963
reduction 14956
businesses 14941
whose 14933
R@@ 14911
Ireland 14905
transparency 14886
fair 14885
financing 14840
18 14797
creating 14777
May 14755
integrated 14751
sense 14745
t@@ 14742
moreover 14705
table 14702
English 14688
activity 14664
September 14656
mean 14637
No 14625
card 14605
October 14591
persons 14584
brought 14571
Brussels 14569
implemented 14559
legislative 14556
don 14516
study 14513
o@@ 14509
efficiency 14476
14 14475
document 14465
sound 14456
seems 14454
implement 14446
walk 14441
function 14419
January 14418
size 14415
UK 14396
image 14381
construction 14374
i@@ 14366
forms 14366
Policy 14365
approved 14357
reforms 14346
calls 14326
prepared 14325
assessment 14318
shown 14315
mind 14312
published 14303
materials 14280
double 14240
initiatives 14231
B 14224
comprehensive 14219
pressure 14185
gives 14182
credit 14166
40 14162
behind 14146
July 14133
expected 14114
applied 14107
effort 14099
complex 14088
largest 14085
structural 14079
agenda 14074
v@@ 14069
huge 14048
improving 14048
en@@ 14036
files 14020
answer 14002
style 13989
written 13986
ten 13975
establish 13950
le 13949
computer 13925
p@@ 13915
documents 13902
analysis 13896
nor 13884
partner 13874
require 13857
charge 13832
ability 13815
property 13811
distribution 13802
payment 13799
Italian 13782
el 13724
direction 13707
requires 13653
regulations 13653
sites 13648
minimum 13634
poverty 13619
accordance 13606
competitive 13604
� 13590
search 13566
hotels 13563
scientific 13554
technologies 13546
rest 13523
November 13519
guest 13518
$ 13513
Berlin 13510
reviews 13500
beyond 13492
competitiveness 13486
source 13468
growing 13461
16 13456
center 13400
leave 13393
elements 13388
ensuring 13385
unfortunately 13364
digital 13362
banks 13362
mobile 13347
produced 13326
c 13321
test 13294
keyword 13283
safe 13280
board 13270
structure 13247
paid 13241
u@@ 13240
status 13238
emissions 13237
summer 13233
link 13218
b 13212
participation 13201
speed 13177
avoid 13167
anti 13164
rural 13164
easily 13163
Spanish 13158
statement 13157
strengthen 13155
1999 13124
ground 13120
violence 13118
enter 13115
und 13111
tools 13108
elections 13094
Poland 13086
al@@ 13085
W@@ 13077
conflict 13076
agriculture 13057
came 13050
allowed 12998
II 12996
cause 12993
relation 12984
u 12975
a@@ 12968
equal 12950
started 12922
k@@ 12900
closed 12893
aims 12888
Social 12882
reference 12842
giving 12838
relating 12834
crucial 12832
categories 12827
star 12817
representatives 12813
Secretary 12755
target 12753
plans 12743
strategic 12729
administrative 12696
places 12676
practical 12657
damage 12654
accommodation 12647
humanitarian 12642
adoption 12639
North 12634
die 12622
speak 12619
I@@ 12605
produce 12599
k 12595
front 12568
video 12564
00 12557
floor 12545
popular 12528
t 12522
Rights 12515
scope 12509
National 12507
improved 12503
ated 12481
D 12481
official 12476
Kingdom 12473
operating 12455
innovative 12452
British 12443
nice 12442
post 12440
partnership 12431
types 12419
farmers 12417
sent 12404
pleased 12402
developments 12396
an@@ 12381
maximum 12373
lower 12362
aimed 12358
build 12358
April 12350
solidarity 12349
z@@ 12348
clean 12343
opening 12338
budgetary 12337
terrorism 12335
bus 12331
cohesion 12277
consequences 12255
cover 12254
school 12253
® 12231
j@@ 12224
adopt 12203
instrument 12202
ts 12191
committed 12189
task 12163
atmosphere 12158
carry 12157
m@@ 12153
message 12153
bed 12130
guidelines 12129
compromise 12122
tool 12115
links 12089
starting 12088
island 12080
variety 12072
J@@ 12069
Czech 12068
encourage 12065
reading 12060
establishment 12053
highest 12047
Netherlands 12047
average 12033
-@@ 12022
THE 12017
transfer 12016
et 12009
base 12006
unemployment 12004
b@@ 12004
Conference 11996
airport 11994
concept 11989
ready 11939
affected 11938
Western 11926
immediately 11918
employees 11917
offered 11916
lines 11862
expressed 11834
Programme 11811
sometimes 11810
contacts 11802
code 11801
challenge 11787
option 11780
li@@ 11779
forces 11774
intended 11763
implementing 11758
became 11738
T 11737
promoting 11737
GDP 11723
processes 11708
enterprises 11690
operations 11642
discussions 11641
measure 11636
ation 11629
networks 11613
bank 11609
sales 11607
fields 11606
interested 11602
class 11599
mainly 11598
fisheries 11597
scale 11589
decide 11585
numerous 11559
reduced 11555
section 11549
OF 11546
contract 11545
download 11545
coordination 11535
5@@ 11534
leaders 11522
ar@@ 11520
cities 11515
secondly 11514
provision 11496
borders 11469
des 11462
risks 11453
daily 11436
Market 11423
confidence 11406
debt 11401
offering 11389
extent 11388
apartment 11384
powers 11376
drive 11372
sub 11370
conclusion 11355
distance 11351
x 11333
ideas 11307
languages 11296
illegal 11280
draw 11272
Service 11271
covered 11253
interesting 11238
electronic 11225
detailed 11224
players 11220
commitments 11219
late 11217
express 11208
17 11206
reality 11206
worldwide 11184
6@@ 11179
se 11176
wine 11176
tell 11168
stand 11168
month 11164
historical 11163
death 11162
caused 11157
phone 11155
useful 11139
lives 11100
effectively 11090
supporting 11085
round 11084
secure 11075
methods 11068
alternative 11045
likely 11043
advantage 11034
firstly 11030
goes 11024
da 11020
Security 11019
options 10997
weeks 10992
item 10990
p 10985
Russian 10983
finance 10956
sources 10896
regime 10891
crime 10886
met 10878
administration 10864
4@@ 10850
Israel 10843
practices 10837
maintain 10832
traffic 10830
bodies 10825
IP 10822
ro@@ 10819
Vice 10817
justice 10813
child 10812
ourselves 10805
join 10803
consultation 10797
poor 10792
restaurants 10792
rise 10792
fish 10786
WTO 10781
tomorrow 10774
animal 10772
expect 10759
learn 10758
processing 10747
60 10732
Z@@ 10718
income 10716
Ms 10705
raised 10699
green 10687
EIB 10685
otherwise 10680
introduced 10669
discussed 10661
planning 10660
cut 10659
U@@ 10659
relationship 10654
Association 10651
students 10648
Portugal 10638
Japan 10633
entry 10622
extra 10614
del 10604
closely 10602
dis@@ 10599
introduction 10593
&apos;ll 10572
voting 10564
goal 10551
8@@ 10546
supports 10538
circumstances 10537
nevertheless 10532
increasingly 10509
delivery 10504
items 10502
colleagues 10486
obligations 10483
payments 10467
n@@ 10466
f@@ 10450
que 10449
sufficient 10443
Nations 10442
method 10436
hold 10431
fine 10418
Ministers 10412
granted 10406
news 10400
strengthening 10393
word 10382
vital 10381
village 10365
red 10356
7@@ 10346
currency 10339
Sweden 10329
selection 10317
19 10313
train 10313
refer 10312
ar 10304
talk 10292
discrimination 10291
apartments 10287
begin 10284
film 10282
laws 10280
signed 10273
Chinese 10259
experts 10258
ones 10256
domestic 10255
institutional 10245
fast 10242
Paris 10232
park 10227
friends 10222
accepted 10222
discuss 10219
ch@@ 10216
limit 10204
Party 10204
saying 10201
Windows 10195
27 10191
rich 10172
alone 10163
S 10152
animals 10123
victims 10122
n 10120
Romania 10117
historic 10113
O 10106
happy 10105
probably 10099
si@@ 10092
Belgium 10086
broad 10079
Ukraine 10077
21 10066
ti@@ 10066
Centre 10063
fall 10061
proper 10048
participants 10041
stated 10033
generally 10027
concrete 10025
recommendations 10024
clients 10005
quiet 10004
listed 9994
reducing 9990
Luxembourg 9988
namely 9984
influence 9983
substantial 9983
= 9982
parking 9939
congratulate 9927
West 9913
vehicles 9910
2013 9879
co@@ 9877
compared 9865
0 9861
lost 9860
Trade 9860
associated 9857
chance 9853
placed 9845
comments 9845
continued 9845
followed 9834
establishing 9823
authority 9816
server 9813
considerable 9808
usually 9802
represent 9795
protected 9794
February 9791
represents 9787
purposes 9769
head 9759
opened 9753
Iraq 9744
selected 9744
linked 9736
thought 9726
defined 9722
India 9719
bit 9717
visitors 9715
meetings 9710
scheme 9710
medical 9699
plant 9694
pre 9685
concluded 9683
machine 9681
separate 9681
mountain 9675
l@@ 9657
specifically 9656
uses 9653
email 9652
anything 9646
0@@ 9641
marketing 9637
tourism 9634
regular 9631
London 9623
critical 9622
Action 9588
informed 9587
Y@@ 9584
duty 9574
organised 9571
demands 9563
sports 9559
expenditure 9554
worked 9537
improvement 9532
fiscal 9530
Sea 9529
investigation 9528
University 9521
managed 9515
compliance 9499
1998 9473
trading 9466
collection 9456
shopping 9450
manner 9448
running 9441
ra@@ 9439
fixed 9431
E 9428
regulatory 9422
paper 9418
got 9409
Asia 9406
SMEs 9402
consumption 9400
22 9397
police 9393
changed 9388
mention 9383
operators 9373
Eastern 9371
participate 9368
stress 9357
200 9354
prior 9344
g 9343
insurance 9337
heard 9337
skills 9335
families 9326
AG 9321
figures 9319
producers 9319
organisation 9306
earlier 9300
Environment 9297
sets 9293
morning 9288
9@@ 9279
referred 9278
correct 9274
session 9272
doubt 9258
or@@ 9258
recognition 9255
sized 9229
games 9229
facing 9218
targets 9216
Prime 9213
failure 9208
extensive 9207
80 9203
er@@ 9202
origin 9201
IT 9182
trying 9179
player 9176
wanted 9165
ates 9154
images 9148
launched 9145
GmbH 9127
serve 9124
difficulties 9122
es@@ 9120
http 9119
export 9117
suitable 9108
lies 9106
X 9095
governance 9088
Middle 9085
sign 9080
speaking 9068
over@@ 9062
candidate 9058
absolutely 9052
Bulgaria 9045
investments 9036
bathroom 9035
pass 9032
structures 9026
comply 9024
exist 9011
criminal 9011
understanding 8993
Federal 8986
economies 8972
recovery 8959
se@@ 8957
founded 8953
garden 8952
ating 8948
at@@ 8946
combat 8940
evidence 8936
larger 8930
Iran 8927
Switzerland 8925
swimming 8922
ations 8913
500 8904
select 8899
street 8898
monetary 8897
promotion 8894
loss 8892
degree 8873
Strategy 8868
raise 8868
functions 8867
port 8854
components 8849
presence 8840
ahead 8832
immigration 8825
h@@ 8824
powerful 8821
arrangements 8815
2020 8811
fund 8804
feature 8804
os 8796
announced 8796
automatically 8782
les 8777
record 8777
comfort 8775
welcomes 8771
African 8764
ri@@ 8754
minute 8752
San 8752
positions 8751
Euro 8748
Agriculture 8729
urban 8727
membership 8725
learning 8723
generation 8712
plants 8708
Research 8705
www.@@ 8705
infringement 8701
walking 8700
City 8694
flexibility 8688
23 8687
Park 8679
@ 8668
born 8668
white 8667
unless 8645
worth 8644
hour 8642
becoming 8626
getting 8624
consideration 8620
began 8618
talking 8617
h 8617
tourist 8614
properly 8607
says 8590
e.g. 8590
played 8583
appear 8579
Europeans 8572
studies 8569
.com 8544
1997 8541
territory 8541
Public 8541
pre@@ 8540
yourself 8540
inside 8536
advanced 8535
track 8522
buildings 8519
stock 8519
ski 8516
whom 8510
defence 8503
Hungary 8497
mutual 8496
controls 8495
continues 8495
outcome 8489
thousands 8487
menu 8477
playing 8477
purchase 8475
shared 8468
3@@ 8468
closer 8468
agencies 8467
2011 8464
installation 8460
Cyprus 8459
AND 8456
significantly 8454
asylum 8449
wants 8448
path 8447
applies 8435
trust 8419
differences 8410
&apos;re 8404
Health 8399
evening 8392
buy 8389
fresh 8388
evaluation 8386
love 8385
easier 8370
propose 8368
on@@ 8367
exclusive 8361
facilitate 8358
con@@ 8339
Energy 8325
operational 8325
combined 8324
tabled 8324
save 8322
stable 8318
August 8312
flexible 8312
approval 8303
Barcelona 8294
precisely 8285
Greek 8274
achieving 8273
respond 8266
summit 8257
binding 8254
immediate 8254
terrace 8251
prevention 8250
modified 8245
negative 8243
south 8236
spend 8229
laid 8228
transparent 8225
electricity 8224
mechanism 8224
sides 8224
allowing 8220
balanced 8219
Agency 8219
initial 8214
mobility 8206
bad 8205
dealing 8196
presidency 8194
le@@ 8194
ting 8190
z 8184
exercise 8174
High 8173
Amendment 8172
exactly 8162
remember 8158
wrong 8148
follows 8146
speech 8143
per@@ 8137
served 8135
programs 8133
phase 8132
mission 8126
r@@ 8124
Paper 8114
ly 8109
spending 8100
map 8086
threat 8083
actual 8082
um 8073
yes 8071
Summit 8070
waters 8064
ist 8058
spirit 8054
customs 8051
acts 8049
ban 8045
element 8038
considers 8023
proceedings 8015
won 8005
te 8003
fellow 8003
inter@@ 7997
else 7991
declaration 7985
gave 7975
helpful 7973
Information 7972
completed 7968
motion 7964
am@@ 7960
inform 7949
sport 7948
guarantees 7947
anyone 7943
numbers 7941
normal 7928
sitting 7927
ambitious 7927
photo 7923
La 7919
continuing 7913
Finland 7907
individuals 7904
rapid 7901
th@@ 7896
noted 7889
L 7871
happen 7870
cars 7870
neither 7868
planned 7868
tasks 7865
Croatia 7862
telephone 7859
introduce 7855
registered 7855
as@@ 7848
als 7846
statements 7845
R 7843
peaceful 7843
seek 7833
goals 7825
core 7810
advice 7808
Kosovo 7807
represented 7806
obviously 7804
science 7804
campaign 7800
sub@@ 7798
contrary 7797
70 7796
Plan 7796
im@@ 7794
possibilities 7791
relate 7789
factors 7787
adequate 7785
den 7780
90 7763
r 7756
court 7751
Web 7750
definition 7747
1996 7734
species 7732
Al@@ 7731
ac@@ 7730
taxation 7713
client 7708
difference 7702
seem 7697
instance 7681
{ 7681
Green 7677
deliver 7674
thinking 7672
spent 7669
G 7667
i.e. 7667
entirely 7660
intervention 7658
28 7652
operate 7650
mechanisms 7635
extended 7633
camera 7630
suggest 7628
tour 7627
Amsterdam 7622
availability 7619
warm 7617
sale 7616
firm 7605
corporate 7604
formal 7604
deep 7604
Representative 7601
dangerous 7600
strongly 7599
Irish 7589
metres 7585
urgent 7581
season 7576
functioning 7574
winter 7572
deficit 7572
seven 7571
bilateral 7570
net 7569
X@@ 7566
institution 7566
failed 7565
went 7564
wonderful 7562
Framework 7559
permanent 7558
addressed 7552
typical 7548
preparation 7538
advance 7538
models 7532
po@@ 7528
screen 7525
genuine 7518
USA 7515
un 7513
drawn 7510
2012 7510
300 7510
attractive 7507
Services 7506
monitor 7502
technological 7493
requested 7492
renewable 7491
election 7490
politics 7484
.. 7481
box 7477
VAT 7458
enables 7453
picture 7451
detail 7450
connected 7448
perspective 7444
independence 7437
rail 7437
advertising 7436
applicable 7435
delegation 7434
steel 7432
union 7431
Palestinian 7428
parliamentary 7425
claims 7421
obtain 7419
appears 7410
launch 7409
seriously 7404
update 7394
bringing 7385
w@@ 7383
men@@ 7381
dimension 7379
limits 7377
45 7373
combination 7368
disease 7365
becomes 7362
2@@ 7353
identified 7353
Denmark 7352
Board 7346
character 7343
ad@@ 7342
} 7338
prepare 7330
experienced 7327
kitchen 7326
database 7325
entitled 7322
aspect 7320
approximately 7313
manage 7313
1995 7309
el@@ 7300
devices 7293
railway 7290
st@@ 7288
hear 7283
vehicle 7282
leader 7280
ship 7276
translation 7274
improvements 7273
machines 7268
voice 7267
35 7259
ted 7256
carefully 7250
opposition 7239
article 7233
discover 7233
nearly 7229
houses 7225
communities 7224
fraud 7222
refugees 7214
requests 7211
1.@@ 7211
M 7207
welcomed 7203
relax 7202
examples 7199
television 7195
moving 7195
equality 7190
War 7189
contain 7182
contracts 7180
registration 7180
be@@ 7176
covers 7163
fuel 7162
sensitive 7159
fun 7157
changing 7157
platform 7154
26 7151
shops 7144
hands 7142
hot 7142
display 7138
qualified 7137
spacious 7137
ab@@ 7135
reliable 7118
released 7117
mo@@ 7116
reception 7115
In 7115
Human 7113
ci@@ 7105
restructuring 7102
bi@@ 7097
district 7093
estate 7091
Management 7089
yesterday 7089
format 7081
calling 7077
F 7067
whilst 7066
obligation 7064
compensation 7059
ons 7048
accounts 7046
condition 7041
Communication 7036
storage 7035
description 7030
beds 7029
Austrian 7026
multi 7019
stands 7018
substances 7017
courses 7014
Swiss 7013
brand 7013
votes 7012
reasonable 7011
pleasant 7011
resulting 7010
System 7008
grounds 6999
dedicated 6990
proposes 6986
wishes 6985
restrictions 6984
elected 6977
forget 6975
biggest 6971
extend 6970
x@@ 6967
strategies 6966
attempt 6962
impossible 6950
DE 6946
letter 6933
responsibilities 6933
primary 6927
tradition 6923
migration 6919
it@@ 6918
black 6917
described 6916
industries 6913
conduct 6913
outstanding 6911
truly 6911
intention 6903
maintenance 6900
north 6895
consistent 6895
Financial 6889
helping 6889
shop 6887
zone 6886
charged 6875
gain 6873
determined 6869
cards 6867
identify 6859
em@@ 6858
situations 6853
is@@ 6853
firms 6852
names 6849
thereby 6844
middle 6843
ant 6843
told 6843
Ministry 6842
ter@@ 6828
manufacturing 6827
diversity 6817
greatest 6813
confirmed 6812
notes 6812
vision 6807
ans 6804
à 6800
notice 6800
exhibition 6797
emergency 6792
compatible 6790
convinced 6776
ongoing 6771
kept 6770
burden 6769
31 6768
ne@@ 6766
contained 6759
effectiveness 6757
involving 6757
In@@ 6752
submit 6743
affect 6739
pollution 6737
weapons 6736
issued 6735
coffee 6734
architecture 6734
manufacturers 6729
contributions 6729
son 6727
Airport 6726
resort 6716
religious 6714
sanctions 6708
mandate 6706
transition 6703
seeking 6701
pictures 6697
himself 6697
myself 6690
physical 6689
Turkish 6688
enhance 6686
lo@@ 6679
Dutch 6678
fire 6676
disposal 6666
testing 6663
Investment 6663
chosen 6663
Christian 6661
unacceptable 6659
dynamic 6651
fear 6650
Latin 6647
presentation 6646
affairs 6644
wood 6643
bear 6639
liability 6638
previously 6634
imports 6632
successfully 6630
surface 6626
God 6626
reservation 6625
factor 6623
satellite 6622
York 6619
aircraft 6618
P 6612
putting 6612
happened 6604
ancient 6601
ber@@ 6597
shower 6591
awareness 6588
nearby 6579
remove 6578
packages 6576
assist 6566
grant 6562
gender 6560
forced 6558
naturally 6553
desire 6553
sun 6551
guide 6549
driving 6549
smaller 6542
schools 6538
delivered 6538
extension 6533
Re@@ 6533
enormous 6532
apart 6529
mass 6522
cuisine 6521
brings 6505
category 6501
claim 6499
remaining 6498
to@@ 6497
paragraph 6494
host 6493
unable 6492
involvement 6490
amounts 6488
pro@@ 6486
association 6483
accessible 6478
Debian 6478
talks 6476
agency 6475
exports 6470
delay 6463
judicial 6458
keeping 6457
beaches 6452
trip 6447
comment 6446
valid 6444
CD 6439
emphasis 6438
la@@ 6438
combating 6437
Vienna 6434
transaction 6426
break 6419
th 6414
expression 6411
door 6410
arrival 6408
installed 6397
surrounding 6395
Rome 6389
opinions 6389
reply 6389
existence 6388
ad 6385
register 6385
investors 6380
Funds 6380
drugs 6379
spread 6377
29 6376
recognised 6371
primarily 6370
communications 6368
relatively 6367
temporary 6364
conclude 6360
est 6358
consensus 6355
meters 6349
patients 6348
elegant 6346
examine 6345
Regional 6342
flight 6340
contents 6336
depth 6336
plus 6335
consists 6330
booking 6329
weight 6328
respective 6324
enforcement 6323
yang 6323
reaching 6319
eight 6316
Press 6316
amongst 6312
ous 6311
passed 6302
pointed 6300
v 6300
Linux 6299
guaranteed 6299
feed 6297
mark 6296
passengers 6291
V 6289
appeal 6282
diseases 6281
whatever 6274
reflect 6273
carbon 6267
decades 6265
capable 6264
unit 6264
river 6263
Constitution 6262
17@@ 6258
recommend 6256
except 6256
coast 6256
asking 6247
Business 6243
expertise 6240
depending 6240
vi@@ 6238
meaning 6234
centres 6234
button 6232
faced 6222
Protection 6209
maritime 6209
statistics 6201
color 6200
liberalisation 6197
ine 6196
causes 6195
attacks 6186
1@@ 6175
officials 6174
consequently 6163
PC 6161
&gt; 6161
holidays 6160
engine 6158
taxes 6157
sort 6157
Con@@ 6154
signal 6147
era 6146
totally 6146
ma@@ 6141
finding 6135
Report 6129
assets 6127
directives 6124
surrounded 6123
title 6119
leadership 6112
om@@ 6111
Ar@@ 6109
saw 6109
attack 6106
foot 6094
organization 6094
Employment 6090
fighting 6090
invited 6084
competence 6084
ings 6081
youth 6079
honourable 6068
Charter 6057
visa 6057
beauty 6053
et@@ 6050
banking 6048
representative 6047
imposed 6047
Democrats 6045
radio 6039
leads 6038
Area 6037
ka 6033
tackle 6029
ce 6023
window 6022
relaxing 6020
Afghanistan 6018
tests 6018
device 6010
books 6006
luxury 6006
determine 6006
older 6003
inflation 5995
route 5994
memory 5993
identity 5988
tried 5985
constantly 5981
win 5980
focused 5976
pension 5968
mid 5966
stocks 5965
acceptable 5962
heavy 5958
0.@@ 5955
ni@@ 5955
Swedish 5948
equally 5948
protecting 5946
Single 5943
recommendation 5941
requirement 5939
Co@@ 5936
dan 5933
acquisition 5929
artists 5927
rightly 5924
sold 5923
arms 5922
Museum 5919
story 5919
perfectly 5914
expectations 5908
St. 5908
interface 5907
charges 5897
square 5896
competent 5894
largely 5890
orders 5889
involve 5887
shares 5884
increases 5881
treated 5881
Decision 5877
Mar@@ 5876
ic 5870
1994 5859
entered 5857
multiple 5857
Finance 5854
glass 5853
And 5845
residence 5841
chain 5834
fruit 5834
updated 5832
ec@@ 5829
merely 5827
Deputy 5825
latter 5824
attractions 5821
von 5820
meat 5818
Polish 5816
Transport 5810
profit 5807
remind 5805
southern 5804
abroad 5800
recommended 5799
ECU 5797
forest 5796
f 5792
Common 5792
race 5787
install 5784
holding 5784
someone 5777
object 5775
op@@ 5770
Canada 5768
mm 5767
write 5765
obvious 5763
An@@ 5759
explain 5758
sell 5757
handling 5755
ina 5754
van 5750
All 5749
mountains 5741
barriers 5741
so@@ 5740
landscape 5739
indicated 5737
piece 5734
ships 5728
16@@ 5727
ch 5723
trafficking 5718
te@@ 5717
N 5717
constructive 5714
obtained 5713
2014 5712
H 5707
smoking 5702
Ro@@ 5698
Structural 5698
photos 5692
do@@ 5692
collective 5689
volume 5687
lake 5687
waiting 5686
booking.com 5684
advantages 5681
church 5681
é 5680
buffet 5679
disaster 5679
dealt 5679
rapidly 5678
encouraging 5676
welfare 5675
ap@@ 5674
Pact 5672
passenger 5670
nations 5660
sts 5660
looks 5655
sh@@ 5653
75 5649
excessive 5645
controlled 5638
colleague 5634
Safety 5630
ke 5628
Center 5626
experiences 5625
recognise 5624
Slovenia 5624
gi@@ 5623
resolve 5617
touch 5616
ultimately 5616
Schengen 5616
&apos;ve 5615
tobacco 5614
schemes 5613
Protocol 5611
judgment 5609
Partnership 5606
personally 5605
corruption 5601
vulnerable 5600
é@@ 5599
president 5599
figure 5586
privacy 5585
Guest 5577
texts 5571
Cooperation 5569
stone 5567
ties 5564
shape 5562
Enterprise 5561
urge 5560
settlement 5559
White 5556
bars 5554
appointed 5553
People 5551
10@@ 5549
maintained 5548
articles 5539
discussing 5536
Lithuania 5532
named 5530
Club 5528
providers 5526
Free 5526
inclusion 5524
suffering 5522
furnished 5517
Fisheries 5513
politicians 5513
bath 5508
exists 5505
par@@ 5503
engineering 5499
15@@ 5499
ca 5498
conducted 5498
units 5497
Food 5495
du 5495
da@@ 5492
valuable 5491
sustainability 5488
helps 5486
subsidies 5485
exceptional 5485
flow 5481
contemporary 5478
actively 5477
sharing 5476
Slovakia 5473
millions 5471
maintaining 5469
farm 5467
turned 5458
store 5455
marked 5454
regularly 5450
helped 5448
emerging 5447
stronger 5446
Education 5443
qu@@ 5439
strength 5439
noise 5436
chemical 5433
ge@@ 5433
output 5431
ent 5429
highlight 5428
award 5426
transactions 5425
club 5425
Baltic 5423
Grand 5421
ACP 5421
unto 5420
Agenda 5418
golf 5418
producing 5406
Red 5403
Microsoft 5401
hence 5397
ze 5391
Rooms 5390
enhanced 5386
length 5383
define 5383
copy 5379
Korea 5373
kinds 5372
spaces 5370
websites 5369
Portuguese 5364
Institute 5361
Rules 5359
pleasure 5359
versions 5357
assess 5355
runs 5351
pi@@ 5351
healthy 5347
creative 5344
speakers 5339
spring 5335
automatic 5334
ta 5333
09 5332
undertaken 5329
ES 5322
no@@ 5321
skin 5321
sp@@ 5312
ur@@ 5312
constitute 5309
pursue 5308
drawing 5306
destination 5305
besides 5300
audio 5297
duties 5289
covering 5286
car@@ 5286
leaving 5284
error 5283
under@@ 5283
stations 5281
out@@ 5276
moved 5275
K 5275
tri@@ 5269
expensive 5263
2015 5261
ol@@ 5260
quick 5260
strict 5251
Director 5250
Britain 5249
constant 5248
Y 5247
lose 5246
mis@@ 5246
opposite 5238
occasion 5237
universal 5236
quarter 5234
default 5230
ex@@ 5230
terrorist 5228
blue 5225
watch 5225
1990 5224
rejected 5223
intellectual 5221
depends 5220
ana 5217
fail 5216
fill 5210
nation 5209
Company 5209
onto 5208
IN 5207
newly 5204
owned 5203
vast 5196
ism 5195
Japanese 5190
2.@@ 5189
financed 5184
determination 5184
exclusively 5181
organizations 5180
milk 5180
reserve 5174
NATO 5172
applying 5169
bo@@ 5167
ds 5167
soft 5163
author 5162
preparing 5161
us@@ 5158
conflicts 5158
counter 5157
drug 5156
treaty 5152
ou@@ 5150
suppliers 5146
wind 5142
mode 5141
ha@@ 5139
das 5139
offices 5136
Brazil 5134
cutting 5130
feeling 5124
felt 5123
standing 5120
notified 5119
Copenhagen 5114
Serbia 5110
solve 5109
Roma 5108
suite 5108
Monetary 5105
convenient 5099
voluntary 5099
continent 5097
explore 5091
spa 5090
Annex 5087
collaboration 5083
attitude 5083
cycle 5082
proof 5078
ally 5077
involves 5076
vessels 5074
w 5072
notably 5071
forthcoming 5070
faster 5068
debates 5068
creates 5068
CAP 5067
print 5064
reported 5058
im 5057
characteristics 5057
courts 5056
widely 5055
ve 5050
prove 5050
heritage 5048
subsidiarity 5047
allocated 5044
il 5044
hit 5042
Car@@ 5039
objects 5038
precise 5038
Ombudsman 5034
1992 5032
mi@@ 5032
impose 5031
absence 5027
considering 5027
supplies 5026
wider 5025
emphasise 5025
ethnic 5025
Joint 5024
DVD 5021
Estonia 5019
boost 5016
knows 5016
ment 5014
obstacles 5014
-- 5012
accompanied 5005
wealth 5004
procurement 5001
danger 4996
savings 4993
ot@@ 4992
Internal 4991
block 4991
removed 4990
coordinated 4989
peoples 4987
Minutes 4981
import 4979
stakeholders 4978
flat 4977
Norway 4971
grow 4971
temperature 4971
00@@ 4970
joined 4965
index 4959
Lake 4959
acting 4956
aviation 4955
opposed 4947
willing 4947
ma 4944
demonstrate 4944
regret 4944
sugar 4943
400 4939
king 4939
estimated 4939
eye 4939
whereas 4939
ports 4939
ator 4937
Chamber 4934
trees 4932
massive 4931
perform 4929
ministers 4928
discovered 4927
serves 4927
labelling 4925
taste 4925
worse 4924
fit 4922
fi@@ 4922
globalisation 4921
CO2 4920
1993 4918
intend 4916
frequently 4916
FR 4915
Google 4910
respected 4907
99 4906
Bo@@ 4904
adopting 4904
boat 4900
truth 4898
discharge 4897
reserves 4896
happens 4895
cheap 4895
containing 4894
awarded 4893
dates 4891
copyright 4887
replace 4886
productivity 4885
Mr. 4880
targeted 4879
presents 4878
Arab 4874
fulfil 4872
su@@ 4871
p.m. 4868
confirm 4866
IN@@ 4861
browser 4861
charming 4859
hundreds 4854
Munich 4854
resolved 4853
educational 4852
appreciate 4850
declared 4848
Control 4846
furniture 4839
loans 4839
expert 4836
east 4836
Latvia 4836
parents 4829
gets 4829
mostly 4826
Mo@@ 4826
Stability 4823
organized 4821
journey 4816
Northern 4816
delegations 4814
Foundation 4812
Belgian 4812
wait 4808
inter 4806
ing@@ 4805
Home 4799
tic 4799
dishes 4798
programming 4798
citizen 4797
John 4796
convergence 4796
weather 4792
conditioning 4792
eastern 4791
minority 4787
drivers 4783
14@@ 4780
overcome 4780
rent 4778
raw 4778
impressive 4776
streets 4775
# 4773
° 4772
cash 4769
oriented 4768
bedroom 4766
Hungarian 4759
dinner 4758
interpretation 4757
criticism 4756
patent 4754
blood 4749
proposing 4746
negotiating 4745
tours 4745
der@@ 4743
cold 4742
band 4739
owners 4736
enabling 4736
ra 4735
command 4733
ary 4733
98 4731
messages 4727
01 4725
percent 4723
ors 4720
ini 4717
150 4714
personnel 4714
intends 4713
sexual 4711
ta@@ 4710
intensive 4706
prosperity 4705
stressed 4704
TO 4704
leisure 4703
ded 4702
flights 4700
expansion 4699
career 4696
proved 4695
U 4690
harmonisation 4689
connections 4687
oral 4686
resolutions 4683
participating 4680
behaviour 4679
Villa 4676
examined 4671
west 4670
Technology 4670
invest 4669
warning 4668
fee 4666
museum 4666
divided 4665
Belarus 4664
trend 4663
demonstrated 4662
Madrid 4661
defend 4660
Barroso 4660
strengthened 4655
EEC 4653
routes 4651
solid 4651
res 4645
forum 4645
entertainment 4643
accordingly 4643
gone 4637
bedrooms 4637
none 4632
hostels 4632
extreme 4632
answers 4631
III 4631
gap 4629
Law 4626
deals 4625
Pakistan 4621
provider 4620
resource 4620
addresses 4616
facility 4615
examination 4613
managing 4612
sending 4611
topic 4611
publication 4607
believes 4603
absolute 4601
man@@ 4600
ja 4599
abuse 4598
95 4598
driver 4593
Auditors 4593
ya 4592
na 4591
Ri@@ 4588
cable 4588
committees 4588
equivalent 4587
component 4583
33 4583
enterprise 4582
dining 4582
rising 4581
techniques 4580
contrast 4580
los 4580
Rule 4579
supervision 4576
transportation 4576
revision 4574
happening 4572
outdoor 4572
™ 4572
Procedure 4571
legally 4571
fantastic 4570
packaging 4570
signs 4566
repeat 4564
partly 4563
shipping 4561
saving 4556
ty 4556
kan 4555
ver@@ 4555
fourth 4554
Mexico 4551
Code 4551
profile 4550
bu@@ 4550
justified 4549
Frankfurt 4548
employed 4546
Israeli 4542
inhabitants 4541
showing 4541
colour 4537
channels 4536
minorities 4535
Culture 4533
cooperate 4533
Forum 4530
applause 4530
ensures 4530
parliaments 4528
ice 4527
heating 4526
exception 4526
owner 4525
transmission 4525
updates 4524
pen@@ 4523
seat 4521
invite 4521
motor 4518
performed 4515
Bar 4515
northern 4514
ding 4514
introducing 4508
corresponding 4507
safeguard 4506
Great 4505
adapt 4504
carrying 4502
plenary 4501
constitutional 4499
pe@@ 4498
You 4498
Software 4493
hi@@ 4493
Soviet 4492
returned 4491
ON 4490
800 4485
roads 4484
periods 4483
Di@@ 4483
decisive 4483
decline 4481
Ma@@ 4481
farming 4480
eyes 4479
satisfaction 4479
multilateral 4479
professionals 4476
me@@ 4476
preventing 4475
funded 4470
generated 4468
Star 4465
rapporteurs 4461
proud 4453
visible 4453
facts 4446
topics 4446
den@@ 4445
lasting 4444
Alliance 4444
ia 4443
13@@ 4443
couple 4441
meant 4439
metal 4438
recorded 4434
heat 4433
delighted 4432
Li@@ 4431
glad 4430
receiving 4429
occur 4428
wall 4428
printing 4427
thirdly 4427
seeing 4425
legitimate 4425
specified 4424
manufacturer 4424
MEPs 4421
crimes 4419
exclusion 4418
ance 4418
Art 4417
AR@@ 4411
overview 4411
satisfied 4410
possibly 4406
du@@ 4406
correctly 4404
doesn 4403
classic 4403
exit 4403
obliged 4402
finished 4401
slow 4401
Balkans 4400
turning 4400
ER 4399
Authority 4397
Costa 4397
somewhat 4397
ought 4395
password 4395
match 4391
Organisation 4389
parallel 4384
formed 4382
ten@@ 4382
tive 4381
addressing 4381
ins 4381
Malta 4380
islands 4379
Egypt 4379
02 4379
bottom 4378
lists 4378
First 4376
candidates 4374
housing 4373
demanding 4373
starts 4372
Permanent 4369
renovated 4365
eventually 4364
dependent 4359
revised 4357
input 4356
penalty 4354
Rural 4354
ter 4353
Day 4353
western 4352
careful 4352
spot 4349
showed 4349
edge 4348
plays 4347
resistance 4344
Assembly 4343
hardware 4343
com@@ 4343
telecommunications 4342
destruction 4340
This 4339
ag@@ 4339
raising 4338
properties 4338
theme 4337
coherent 4337
ticket 4336
tickets 4335
Atlantic 4334
remote 4332
tions 4331
Year 4331
PDF 4330
Act 4323
drink 4323
gold 4322
checks 4320
towns 4319
Lord 4317
elsewhere 4317
slightly 4316
U.S. 4313
visited 4310
organic 4308
va 4308
percentage 4307
substance 4303
license 4303
ie 4302
reporting 4297
nine 4295
prospects 4293
actors 4290
Georgia 4288
sauna 4287
wireless 4283
films 4280
societies 4276
distributed 4269
quotas 4268
ne 4266
displayed 4264
.... 4263
En@@ 4261
We 4260
department 4260
wines 4260
36 4259
go@@ 4258
replaced 4257
con 4257
est@@ 4257
universities 4256
tourists 4253
lessons 4250
depend 4247
credibility 4246
immigrants 4246
father 4245
07 4244
impression 4243
st 4240
12@@ 4239
48 4238
Pro@@ 4237
assume 4236
acquis 4232
visiting 4231
contributed 4230
originally 4228
paying 4228
trends 4226
channel 4223
operator 4223
ling 4222
territorial 4222
ho@@ 4221
walls 4217
surroundings 4216
ec.europa.eu 4215
stored 4214
surely 4213
Bar@@ 4213
Tel 4212
arrive 4211
bound 4211
neighbouring 4211
listen 4210
settings 4210
survey 4209
regarded 4207
foundation 4207
supplier 4203
Industry 4200
attached 4196
Air 4196
Process 4195
documentation 4194
lovely 4190
3.@@ 4189
decorated 4189
Consumer 4188
consent 4186
locations 4184
losses 4182
remained 4182
zed 4179
nationals 4178
ru@@ 4176
division 4176
undertakings 4175
ye 4175
au 4174
flows 4174
prefer 4171
loan 4171
understood 4170
tip 4170
continuous 4167
teams 4164
ed@@ 4164
twenty 4162
Bosnia 4160
selling 4153
considerably 4152
geographical 4152
amended 4149
competitors 4147
grateful 4145
suggested 4144
brief 4144
regardless 4138
library 4138
representation 4137
si 4137
reservations 4137
pieces 4136
indicators 4131
satisfactory 4127
reject 4125
woman 4122
aside 4119
generate 4118
bridge 4117
sum 4116
ECB 4116
Saint 4114
fashion 4112
freedoms 4110
forests 4109
normally 4108
lay 4107
reflects 4102
Prague 4100
comparison 4098
afternoon 4097
nonetheless 4096
decade 4095
á@@ 4094
Vi@@ 4094
reconstruction 4093
university 4092
hair 4092
constitutes 4092
mix 4090
surveillance 4090
Danish 4089
producer 4088
balcony 4086
za 4085
proceed 4085
earth 4085
encouraged 4084
interior 4082
ut@@ 4081
gained 4080
hall 4080
ranging 4079
album 4077
relaxation 4076
Roman 4074
Federation 4074
subjects 4073
ry 4073
IS 4073
fees 4071
ING 4070
NGOs 4070
ring 4068
cuts 4067
ul@@ 4067
concentration 4067
dispute 4062
refers 4059
subsequent 4053
ge 4051
ators 4048
jointly 4044
greatly 4044
che 4043
valley 4042
airports 4037
rec@@ 4035
realistic 4034
friend 4033
River 4030
arising 4029
exciting 4027
allocation 4027
97 4027
sought 4026
Be@@ 4026
internationally 4026
difficulty 4026
configuration 4025
Street 4025
desired 4022
06 4022
castle 4021
entrance 4021
favourable 4020
lift 4016
usual 4014
Dr. 4013
airlines 4013
treat 4008
1991 4007
rock 4006
shortly 4003
EEA 4002
venture 4002
suggestions 4002
65 4002
restore 4002
berg 4001
ST@@ 3999
Po@@ 3999
diverse 3996
corner 3995
occasions 3993
excluded 3993
96 3993
graphics 3993
cor@@ 3992
je 3991
Commissioners 3991
AS@@ 3990
movements 3990
stages 3988
reflected 3985
Friday 3985
extraordinary 3981
proportion 3981
constitution 3977
mon@@ 3974
disabled 3974
speaker 3972
solely 3968
achievement 3967
retail 3966
enabled 3964
electric 3961
CO@@ 3961
vacation 3960
gu@@ 3960
Square 3960
tu@@ 3959
55 3959
eligible 3958
suites 3953
Aid 3952
highlights 3951
familiar 3951
tonnes 3948
deposit 3947
hostel 3946
incentives 3945
planet 3944
completion 3943
politically 3943
² 3943
spoken 3942
trial 3941
invites 3938
EN@@ 3937
ak@@ 3936
implications 3935
micro@@ 3935
proven 3933
una 3932
adjustment 3932
hearing 3931
revenue 3931
• 3928
Growth 3928
disasters 3926
plenty 3926
adults 3925
fitness 3925
clause 3925
De@@ 3924
Syria 3923
severe 3923
weak 3923
PL 3922
suffer 3921
drop 3920
Kyoto 3918
driven 3915
winning 3914
ology 3914
highlighted 3912
label 3907
domain 3907
exploitation 3901
seeks 3897
scientists 3892
virtual 3891
34 3890
Palace 3889
08 3885
Pre@@ 3884
argument 3883
Peter 3882
03 3881
threats 3879
adapted 3876
AL@@ 3874
cosy 3873
ended 3873
died 3872
departure 3871
600 3870
finances 3870
lu@@ 3866
authorised 3866
ses 3866
directed 3866
accounting 3865
ms 3865
Youth 3865
initially 3865
rental 3864
referendum 3864
mother 3864
fleet 3861
ces 3859
master 3857
artist 3852
Macedonia 3850
blog 3847
gradually 3846
Global 3844
cancer 3844
protocol 3843
lots 3841
indicate 3840
marks 3840
lunch 3837
everyday 3837
Si@@ 3835
cu@@ 3833
preliminary 3829
everybody 3827
Nice 3827
conservation 3826
ks 3826
suffered 3826
England 3824
tested 3822
permitted 3821
für 3819
armed 3819
battle 3818
Best 3818
gardens 3815
phrase 3815
mini 3815
Le@@ 3814
wing 3812
concepts 3812
alongside 3809
IMF 3808
pilot 3807
transitional 3806
Special 3805
explained 3801
Fi 3801
Media 3800
engage 3799
RO@@ 3796
shift 3796
definitely 3796
Su@@ 3793
centuries 3792
arguments 3791
governing 3785
windows 3784
travelling 3783
imagine 3780
patient 3780
marine 3780
sole 3780
av@@ 3779
au@@ 3778
straight 3777
Asian 3776
lastly 3775
lounge 3774
spectacular 3773
sa@@ 3772
filled 3771
Station 3771
External 3770
Cor@@ 3770
ters 3768
ED 3766
authorisation 3756
presenting 3755
assure 3755
beings 3753
count 3751
hundred 3749
Society 3749
attempts 3748
49 3747
Data 3744
tables 3741
firmly 3740
missing 3739
stylish 3739
OS 3738
euros 3737
Com@@ 3736
Michael 3736
Civil 3735
succeed 3734
Mon@@ 3734
environmentally 3734
ck@@ 3734
ER@@ 3733
traditions 3732
EN 3731
Jean 3729
Room 3728
toward 3727
lie 3724
ino 3723
associations 3723
army 3723
&apos;m 3720
secret 3719
De 3712
ruling 3712
AS 3712
drinks 3710
approaches 3709
acceptance 3708
ordinary 3708
accident 3708
engaged 3705
processed 3704
Australia 3704
holds 3703
collected 3700
mit 3695
significance 3695
combine 3693
religion 3691
fishermen 3690
complaints 3689
rare 3688
Per@@ 3687
thousand 3687
researchers 3686
Congress 3685
ders 3684
moral 3684
sections 3683
ence 3682
ak 3678
concentrate 3678
vocational 3678
teachers 3677
capabilities 3672
Executive 3667
appropriations 3665
negotiation 3665
miles 3664
countryside 3664
integrate 3661
violations 3658
errors 3657
magnificent 3657
wrote 3656
homes 3655
essentially 3654
4.@@ 3652
transferred 3651
Department 3648
ratification 3643
upper 3641
supplied 3637
log 3636
renowned 3635
connect 3634
football 3633
panel 3630
arrived 3629
female 3628
weekend 3627
RE@@ 3624
urgently 3623
unlike 3622
Islamic 3622
confirmation 3619
for@@ 3619
entering 3618
welcoming 3617
recognized 3617
Strasbourg 3617
So@@ 3616
37 3616
teaching 3616
IT@@ 3615
theory 3614
com 3613
up@@ 3613
Thursday 3612
pillar 3612
Pi@@ 3611
looked 3608
COM 3607
St@@ 3607
Bush 3606
mar@@ 3605
Network 3604
findings 3603
leaves 3601
ISO 3600
greenhouse 3599
arise 3598
sc@@ 3597
manufacture 3596
artistic 3596
extending 3596
approve 3595
Spa 3594
medicines 3594
pro 3593
budgets 3593
subsequently 3592
enjoyed 3592
64 3591
ga 3589
deeply 3589
cells 3588
18@@ 3586
consulting 3586
generations 3585
accurate 3584
ale 3584
j 3584
ali@@ 3584
relative 3580
frame 3579
accidents 3579
specialist 3577
tion 3571
Old 3570
05 3569
Church 3568
preparations 3568
chemicals 3565
Geneva 3565
uniform 3565
04 3565
prime 3562
functional 3561
killed 3560
hardly 3558
profits 3556
appeared 3556
85 3555
complicated 3553
heading 3553
Islands 3550
í@@ 3549
sufficiently 3549
wild 3545
gra@@ 3543
crises 3543
doors 3542
scheduled 3541
1st 3539
spoke 3537
scene 3536
finish 3535
cleaning 3535
efficiently 3533
ys 3532
villages 3530
DG 3530
maybe 3529
IS@@ 3528
ent@@ 3528
zu 3527
directory 3526
instructions 3526
bearing 3525
ars 3522
Earth 3521
skiing 3520
ches 3520
consequence 3520
portfolio 3519
acquired 3518
hopes 3518
transfers 3517
clubs 3517
parameters 3517
ler 3516
reinforce 3516
handle 3512
wonder 3511
contributing 3511
Le 3510
EADS 3510
affecting 3510
reliability 3508
colours 3507
tea 3507
guidance 3506
Euro@@ 3505
destroyed 3505
Hamburg 3504
sky 3504
compulsory 3503
harmful 3503
Royal 3503
Bi@@ 3501
Chairman 3501
W 3500
5.@@ 3498
permit 3497
Americans 3493
sheet 3493
col@@ 3492
vo@@ 3492
manager 3491
granting 3491
reasoned 3491
IC@@ 3489
Labour 3489
grants 3489
freely 3487
dumping 3486
reaction 3486
agents 3484
bike 3484
sovereignty 3482
layer 3479
zing 3477
wi@@ 3474
Lu@@ 3471
ves 3469
philosophy 3468
ownership 3467
relates 3466
EESC 3466
resulted 3462
desk 3459
meets 3458
module 3457
King 3457
audit 3454
ard 3453
representing 3452
3D 3452
whenever 3452
tennis 3451
coastal 3451
assembly 3450
anti@@ 3448
duration 3447
ke@@ 3446
Sunday 3445
David 3445
trips 3444
endorse 3444
produces 3444
underlying 3443
realise 3443
luxurious 3442
ative 3441
worst 3441
42 3440
relief 3439
disk 3439
conventional 3438
Santa 3438
catch 3437
pl@@ 3434
lets 3432
Obama 3431
BSE 3431
operates 3431
School 3431
pure 3430
clarify 3428
ness 3428
focusing 3427
consolidation 3426
Science 3424
grown 3424
enhancing 3423
alcohol 3420
nights 3420
remarks 3420
il@@ 3418
Europol 3417
soil 3416
biodiversity 3416
Gu@@ 3414
deadline 3414
widespread 3414
faith 3413
zation 3413
navigation 3412
tree 3411
Treaties 3410
dream 3409
rely 3408
El 3408
Monday 3406
AN@@ 3406
dignity 3406
he@@ 3406
opens 3405
identification 3405
satisfy 3401
undoubtedly 3400
united 3398
Prodi 3397
Regions 3397
autumn 3396
supposed 3395
Nos 3394
twice 3394
solar 3391
Lo@@ 3390
um@@ 3389
ven@@ 3388
amending 3388
It 3388
execution 3385
ster 3385
vis 3381
unfair 3381
organise 3381
collect 3380
computers 3380
ite 3380
MEMO 3376
cast 3375
damages 3375
Deutsche 3374
cultures 3372
Morocco 3372
EUROPEAN 3371
preserve 3369
stake 3369
classes 3369
38 3368
ality 3368
timetable 3367
student 3367
doubts 3366
Time 3365
strictly 3365
similarly 3364
lived 3363
Inter@@ 3363
diplomatic 3363
ID 3363
smooth 3362
ecological 3362
modules 3360
composition 3357
executive 3357
productive 3356
referring 3356
applicant 3355
economically 3354
Island 3353
suggests 3352
informal 3351
liable 3351
push 3351
AL 3349
qualifications 3347
director 3347
39 3347
Maria 3347
cre@@ 3346
parliament 3344
employers 3343
sphere 3343
gh@@ 3341
sed 3337
appointment 3337
Private 3337
necessarily 3335
inc@@ 3334
1989 3333
dominant 3333
Albania 3333
ve@@ 3332
cent 3332
merger 3332
Festival 3332
focuses 3329
signing 3326
eliminate 3326
delicious 3325
eat 3325
functionality 3321
adding 3320
secondary 3320
oc@@ 3320
switch 3318
Heads 3318
ES@@ 3318
ep@@ 3317
engines 3317
pa@@ 3317
Town 3316
emission 3316
compete 3315
healthcare 3315
para 3314
appearance 3314
Black 3312
Restaurant 3312
tra@@ 3310
ments 3310
ps 3310
Mi@@ 3308
studio 3308
everywhere 3307
Q@@ 3306
learned 3305
saved 3304
PT 3302
restricted 3301
pick 3300
43 3300
bar@@ 3299
ends 3299
asset 3298
ger 3296
exchanges 3295
load 3294
finds 3294
makers 3293
plastic 3291
fans 3289
Dublin 3288
expand 3287
trans@@ 3287
broader 3286
root 3286
publications 3286
Iceland 3283
Desk 3283
observed 3282
sex 3281
fo@@ 3281
neighbours 3280
renewed 3280
reserved 3279
labor 3279
civilian 3278
musical 3278
eurozone 3278
dry 3277
sounds 3277
gallery 3275
wellness 3274
willingness 3272
puts 3272
mann 3271
unforgettable 3271
ha 3270
gs 3269
festival 3268
93 3265
characters 3265
prize 3263
designs 3263
92 3263
olive 3261
inspection 3261
Legal 3260
snow 3260
pace 3259
Non 3259
Fundamental 3257
Co 3257
cal 3256
ordered 3254
occurred 3254
chapter 3253
lending 3252
anywhere 3252
Mobile 3251
birth 3250
incorporated 3248
partnerships 3247
individually 3245
minister 3244
FOR 3239
sight 3239
mu@@ 3238
Page 3237
liberal 3232
wage 3229
cell 3227
transit 3227
OR@@ 3223
coal 3223
utmost 3222
consult 3221
freight 3221
jurisdiction 3220
PHP 3220
choices 3218
province 3217
ano 3216
ber 3215
Martin 3214
250 3214
inclusive 3214
ratio 3212
virtually 3212
hospitality 3210
las 3209
Socialist 3207
ages 3207
Systems 3206
managers 3205
restored 3205
museums 3204
Indian 3204
ver 3204
falls 3203
edition 3201
timely 3201
compact 3200
commerce 3200
Finnish 3199
ah 3197
belief 3197
fairly 3196
pensions 3195
didn 3193
dollar 3193
considerations 3193
printed 3191
sa 3189
courage 3188
conferences 3188
ceiling 3182
IV 3181
spectrum 3179
ride 3178
USB 3177
regulated 3176
pm 3174
Ab@@ 3174
phenomenon 3173
causing 3173
dead 3173
ess 3172
anniversary 3172
44 3171
ob@@ 3170
stars 3166
dark 3166
breach 3165
heads 3165
Wi 3164
symbol 3163
Ch@@ 3160
treatments 3160
repair 3160
mental 3160
20@@ 3159
affects 3159
thermal 3158
upgrade 3158
Putin 3155
adds 3151
integrity 3150
1,@@ 3150
consultations 3150
achievements 3147
smart 3146
can@@ 3146
quota 3145
Van 3141
subsidiary 3139
explanation 3138
promise 3137
simplification 3137
Paul 3136
Region 3136
liked 3135
factory 3135
videos 3134
poorest 3133
certainty 3131
suit 3129
certification 3128
One 3127
formally 3127
zero 3127
nobody 3125
serving 3125
ck 3124
Inn 3123
populations 3122
Z 3120
inadequate 3118
visual 3116
ner 3116
beef 3116
installations 3114
governmental 3114
romantic 3114
fax 3113
Se@@ 3112
promised 3112
briefly 3111
logical 3110
attend 3107
guided 3107
faces 3107
shadow 3104
undertaking 3104
Saturday 3103
disputes 3102
underground 3102
medicine 3101
undertake 3100
CH@@ 3100
meal 3098
Michel 3097
campaigns 3095
electrical 3095
Site 3093
cur@@ 3093
insufficient 3093
initiated 3092
ously 3091
inspired 3090
acknowledge 3090
tel 3090
AD@@ 3089
eb@@ 3089
negotiated 3089
whereby 3088
journalists 3088
tracks 3086
electoral 3085
Venice 3085
varied 3084
narrow 3084
pu@@ 3084
reputation 3083
ton 3082
movie 3082
AT@@ 3082
fails 3081
ity 3080
Bay 3080
principal 3079
AIDS 3078
unity 3078
ko@@ 3076
Pacific 3076
delays 3074
massage 3074
belong 3072
substantially 3070
sing 3070
records 3069
hiking 3067
convention 3067
ultimate 3067
fewer 3065
usage 3063
zi@@ 3063
Valley 3060
sis 3059
Par@@ 3058
mandatory 3058
reductions 3058
fifth 3057
mixed 3056
Constitutional 3056
amenities 3053
sit 3052
Lebanon 3050
song 3050
Design 3049
ic@@ 3048
joining 3048
ju@@ 3047
communicate 3047
overlooking 3045
Christmas 3044
operated 3042
seats 3041
Man@@ 3041
commit 3039
OR 3038
Beach 3037
postal 3035
songs 3035
ex 3035
struggle 3035
sophisticated 3035
honour 3034
therapy 3033
falling 3030
urgency 3030
tariff 3029
Defence 3029
19th 3028
recording 3026
41 3026
ideally 3025
sensible 3025
Tourism 3023
Declaration 3023
retain 3022
tur@@ 3022
thorough 3021
foundations 3021
begins 3020
viable 3018
blocks 3017
investigations 3017
removal 3016
trans 3009
horse 3008
Moldova 3008
composed 3007
Open 3007
specialists 3006
ado 3006
PPE 3005
46 3005
ca@@ 3002
combines 3002
ba@@ 3002
summary 3001
Express 3000
imported 3000
gross 2999
des@@ 2999
exact 2998
min 2997
pretty 2996
Go@@ 2996
sand 2995
Ver@@ 2994
AC@@ 2994
pursued 2994
residents 2989
publish 2989
relationships 2989
minor 2988
war@@ 2984
EL@@ 2984
passing 2983
AM@@ 2982
recognize 2982
deficits 2981
EL 2977
amazing 2976
tor@@ 2976
statistical 2976
Amendments 2974
purely 2974
servers 2971
a.m. 2971
till 2969
air@@ 2969
succeeded 2966
wear 2966
Southern 2964
arrangement 2961
000@@ 2957
ro 2957
exposed 2956
ying 2956
surprise 2956
Award 2955
listings 2953
conversion 2953
spite 2950
federal 2949
multi@@ 2946
superior 2945
radical 2945
prisoners 2944
openness 2943
ada 2943
horizontal 2941
Bu@@ 2941
sights 2936
Intergovernmental 2935
guaranteeing 2935
ges 2934
mistake 2934
and@@ 2933
textile 2933
beer 2931
oppose 2931
Herzegovina 2931
repeated 2930
custom 2930
credible 2930
ingredients 2928
tor 2928
panoramic 2927
hidden 2926
failing 2924
posts 2924
formats 2924
legitimacy 2923
Sudan 2922
comparable 2922
wa@@ 2921
taxpayers 2921
assessed 2920
700 2919
kilometres 2917
· 2917
frequency 2916
unnecessary 2916
floors 2915
info 2915
Card 2914
Hall 2913
Countries 2913
7.@@ 2912
violation 2911
Du@@ 2910
letters 2909
notification 2909
threshold 2909
1.5 2909
tackling 2908
enlarged 2907
begun 2904
structured 2904
meanwhile 2903
releases 2903
portal 2902
withdraw 2901
Ne@@ 2900
premium 2900
ser@@ 2899
intelligent 2899
restrictive 2899
ang 2898
ise 2894
Montenegro 2893
gen@@ 2892
buses 2892
unemployed 2891
automotive 2891
uncertainty 2890
girls 2890
concert 2889
Val@@ 2889
picturesque 2888
newsletter 2888
additionally 2887
modernisation 2887
ball 2886
promises 2886
we@@ 2885
manual 2884
troops 2883
ko 2882
ease 2882
basically 2881
cm 2879
Digital 2879
fuels 2878
equity 2878
ore 2873
Exchange 2872
contractual 2871
metro 2870
stresses 2869
sorry 2867
ending 2867
vary 2864
roll 2863
visits 2862
120 2861
amend 2860
Hong 2859
signature 2859
Ex@@ 2859
senior 2858
boats 2857
ata 2857
coverage 2856
ised 2856
potentially 2855
promoted 2854
camp 2853
casino 2853
devoted 2853
chair 2852
bright 2852
surplus 2851
ki 2851
magazine 2850
agrees 2850
respectively 2850
1000 2849
Cuba 2849
ines 2846
clicking 2846
defining 2845
territories 2845
mere 2845
negotiate 2844
ble 2843
victory 2842
EC@@ 2841
buying 2841
zones 2841
foster 2841
coordinate 2841
Yugoslav 2839
staying 2839
script 2839
mouth 2838
specialized 2838
stores 2838
lobby 2838
simultaneously 2836
broken 2835
OLAF 2835
ger@@ 2834
trained 2832
sustained 2831
respects 2830
­ 2829
stories 2828
super@@ 2828
expanded 2827
Kong 2827
developers 2824
translated 2824
respecting 2823
dance 2823
oldest 2822
lo 2822
systematic 2822
George 2821
prison 2819
emphasised 2818
wherever 2816
Facilities 2815
Tour 2815
Journal 2813
Or@@ 2813
Official 2812
sessions 2812
ara 2812
Initiative 2811
Washington 2810
meals 2809
ATION 2808
pressing 2808
ren@@ 2807
conciliation 2807
sen@@ 2807
ff 2806
NL 2805
stunning 2805
Prize 2805
remarkable 2805
back@@ 2802
ged 2802
evident 2801
conditioned 2800
Gaza 2800
infringements 2800
mine 2798
manufactured 2798
certified 2797
clarity 2797
codecision 2796
returns 2795
expense 2793
sovereign 2790
studied 2790
fell 2789
closing 2788
classical 2788
filter 2788
insist 2788
cs 2788
Women 2786
penalties 2785
dy 2784
UN@@ 2783
machinery 2783
kernel 2783
enjoying 2782
collapse 2781
Castle 2781
47 2781
Breakfast 2780
6.@@ 2779
underlined 2779
pursuant 2779
simplify 2778
Col@@ 2778
native 2777
macroeconomic 2775
wave 2774
352 2771
mouse 2771
Find 2770
affordable 2768
references 2768
broadband 2768
formation 2768
assigned 2766
ingly 2766
repeatedly 2766
evaluate 2764
exposure 2761
travellers 2760
bathrooms 2760
af@@ 2759
nowadays 2758
bought 2758
supplementary 2758
51 2758
tes 2757
Muslim 2757
ein 2756
Rotary 2755
envisaged 2755
ir@@ 2754
Un@@ 2754
em 2754
Server 2753
graphic 2753
gate 2753
believed 2752
endorsed 2751
gar@@ 2750
optimal 2750
farms 2750
JavaScript 2749
bur@@ 2748
kg 2748
sk@@ 2748
boards 2747
Manager 2747
UNION 2746
cool 2739
violent 2739
,000 2738
refused 2735
chi@@ 2734
interim 2733
feet 2733
bonus 2733
pharmaceutical 2730
quantity 2730
orientation 2729
virus 2727
Budgets 2727
citizenship 2727
motorway 2725
confident 2725
Resort 2725
seconds 2724
dramatic 2723
encourages 2723
mer@@ 2721
stimulate 2721
estimates 2721
presidential 2721
crew 2720
entity 2720
placing 2718
roof 2718
progressive 2718
migrants 2718
typically 2718
ó@@ 2717
audience 2717
discount 2717
sample 2716
revealed 2716
colors 2715
cancellation 2715
Yugoslavia 2715
revolution 2714
describe 2714
Front 2713
withdrawal 2713
Moscow 2713
purchasing 2713
beneficial 2709
prospect 2709
ethical 2709
exemption 2709
crops 2708
Stockholm 2708
surprised 2707
Cohesion 2706
ratified 2706
Online 2706
checked 2705
fer@@ 2705
Hotels 2704
theatre 2704
Ber@@ 2704
permission 2703
observe 2703
wooden 2699
Relations 2699
airline 2699
academic 2698
Tra@@ 2698
min@@ 2696
en.htm 2694
officially 2692
biological 2692
chairman 2691
sizes 2690
securities 2690
miss 2688
enjoys 2687
coherence 2684
necessity 2684
Project 2684
For 2683
indoor 2683
comprises 2681
RO 2680
publishing 2680
contextual 2679
sleep 2678
ba 2678
20th 2677
ini@@ 2677
pri@@ 2676
adjusted 2676
ga@@ 2676
imposing 2676
iron 2676
SA 2675
Guidelines 2675
har@@ 2675
featuring 2674
indirect 2674
quote 2673
losing 2672
Mor@@ 2670
declare 2670
ati@@ 2669
dimensions 2668
alternatives 2668
tend 2667
No@@ 2666
deaths 2666
\ 2664
afford 2664
recycling 2664
shortcomings 2663
occupation 2662
Innovation 2662
id 2661
bigger 2661
ill 2661
Notes 2659
residential 2658
Objective 2658
Meeting 2656
continuously 2656
cookies 2654
inquiries 2654
adult 2653
fly 2653
Presidents 2645
licence 2644
non@@ 2644
exceed 2643
harmonised 2643
escape 2642
ageing 2642
infrastructures 2642
Golf 2642
om 2641
Me@@ 2640
ET@@ 2640
neighbourhood 2639
USD 2639
attended 2638
EMU 2636
reflection 2636
As 2635
Palestinians 2634
preferred 2633
calm 2633
incentive 2631
ph@@ 2631
branch 2630
foremost 2629
responses 2629
apparent 2628
birds 2628
genuinely 2628
rating 2628
harm 2628
Twitter 2628
Casino 2627
logistics 2626
Life 2625
ish 2624
strike 2623
295 2623
assurance 2622
calendar 2622
m2 2622
shareholders 2621
ese 2619
requiring 2619
Resolution 2618
schedule 2618
Box 2617
Music 2617
taxi 2616
observation 2615
measurement 2615
edited 2614
competences 2612
Gi@@ 2610
drinking 2610
expenses 2610
Maastricht 2609
hills 2608
consistently 2608
entities 2607
trains 2605
roots 2603
22@@ 2603
Burma 2602
mechanical 2601
alia 2601
reviewed 2600
tre@@ 2600
technique 2600
clothing 2598
indicates 2597
Check 2597
ai@@ 2597
reinforced 2596
intentions 2594
patents 2592
adventure 2591
medieval 2591
row 2589
villa 2589
Sch@@ 2588
ste@@ 2588
Florence 2587
acquire 2586
meaningfully 2586
empty 2585
arranged 2585
--@@ 2585
importantly 2584
justify 2584
Cup 2584
ai 2582
GMOs 2580
Annual 2580
modify 2580
adaptation 2579
partial 2579
explicitly 2578
Parliamentary 2578
seemed 2577
stuff 2576
pools 2576
une 2576
ECHO 2575
suited 2575
deserves 2574
confirms 2573
refuse 2573
investing 2571
assessments 2568
Family 2568
Java 2567
boot 2567
ek@@ 2566
likewise 2566
El@@ 2565
dra@@ 2564
Peace 2563
suspended 2563
complement 2563
Pro 2562
Democratic 2561
Budget 2558
8.@@ 2558
Chi@@ 2558
Jewish 2556
bra@@ 2556
platforms 2556
winners 2555
Space 2555
sur@@ 2554
performing 2554
donors 2553
phones 2552
purchased 2551
sions 2551
Directives 2551
unanimously 2551
ens 2550
dual 2550
authors 2549
On 2548
News 2547
52 2546
Spring 2545
height 2545
demonstrates 2545
ari@@ 2545
56 2542
patterns 2540
consulted 2540
contributes 2540
Wednesday 2540
destinations 2540
ti 2539
listening 2539
Bal@@ 2539
specially 2536
gains 2535
shuttle 2535
frequent 2533
replacement 2533
transposition 2533
conventions 2532
charm 2532
supervisory 2531
ley 2531
compatibility 2531
contextually 2531
examining 2530
certificate 2530
lands 2529
grammatically 2529
riding 2528
voters 2528
expanding 2527
restrict 2527
prohibited 2527
missions 2527
brands 2525
integral 2524
recession 2523
winner 2523
socio 2521
complaint 2521
superb 2520
lin@@ 2519
distinction 2519
fulfilled 2519
ID@@ 2518
9.@@ 2517
bri@@ 2513
ker 2510
baby 2509
heavily 2509
characteristic 2509
lowest 2509
inner 2508
emerged 2508
IM@@ 2507
Terms 2507
preserved 2506
Communities 2506
array 2506
For@@ 2505
Do@@ 2505
Robert 2504
signals 2503
diving 2501
recall 2501
vice 2501
inquiry 2499
destroy 2499
User 2497
threatened 2495
advise 2495
Sal@@ 2495
speeches 2495
Gra@@ 2493
Games 2490
wife 2487
accuracy 2487
logic 2486
tragic 2486
underlines 2485
innovations 2485
asks 2484
ir 2484
sta 2484
alike 2483
intelligence 2483
demographic 2482
prevented 2480
Ko@@ 2480
2.5 2480
tics 2479
fascinating 2479
ensured 2478
sees 2477
tragedy 2476
recognises 2476
transformation 2475
facilitating 2475
monitored 2473
capacities 2472
feedback 2470
HIV 2470
St 2469
pursuing 2466
tech 2465
micro 2463
attract 2463
debating 2463
Her@@ 2462
turns 2462
Budapest 2460
maps 2458
Slovak 2457
Caribbean 2456
Smoking 2456
themes 2456
forgotten 2455
consistency 2455
dating 2455
Academy 2454
ki@@ 2454
hand@@ 2453
College 2453
keys 2453
premises 2451
excursions 2451
thumbnail 2451
unions 2451
alization 2450
Tunisia 2450
AT 2450
stance 2449
folder 2449
undermine 2448
Scotland 2448
Support 2448
Airbus 2447
reconciliation 2447
lively 2446
outlined 2446
IA 2446
flying 2445
cope 2444
auf 2442
forth 2442
interactive 2442
89 2441
apparently 2440
EM@@ 2439
Argentina 2439
ats 2439
Libya 2439
Mal@@ 2438
ure 2438
Stabilisation 2437
62 2436
creativity 2436
splendid 2435
layout 2435
instantly 2435
constructed 2435
belongs 2434
continuation 2434
false 2433
Am@@ 2433
moves 2432
Cal@@ 2432
Plaza 2432
stick 2432
Flash 2431
Indonesia 2430
Garden 2429
ably 2429
mor@@ 2428
Olympic 2427
accessories 2425
ies 2425
54 2425
sake 2424
ambition 2424
moments 2423
boasts 2423
MS 2422
revenues 2422
ff@@ 2422
fied 2422
robust 2420
Alps 2420
discipline 2419
stopped 2419
AN 2419
Player 2419
convenience 2418
beneficiaries 2416
adjust 2416
bro@@ 2416
Th@@ 2415
pattern 2415
sal@@ 2414
plug 2414
measuring 2414
soul 2412
hill 2410
booked 2410
hospital 2409
Skype 2408
NI 2407
Milan 2407
paths 2407
dialog 2406
refugee 2405
holders 2405
perspectives 2405
terrible 2405
pays 2404
analyses 2404
aries 2403
specifications 2402
Ti@@ 2402
wages 2401
confidential 2400
2nd 2399
Capital 2398
string 2398
busy 2398
condemn 2398
privileged 2398
receives 2397
Erasmus 2395
parks 2395
58 2395
claimed 2395
expressly 2395
arts 2394
posted 2394
react 2394
cra@@ 2393
deserve 2393
evolution 2391
MySQL 2391
delivering 2390
fan 2389
meantime 2387
sunny 2387
logo 2386
gen 2384
derived 2384
acknowledged 2383
Second 2382
Climate 2381
Customer 2380
precision 2380
Sp@@ 2380
publicly 2380
Cologne 2378
Section 2377
Tri@@ 2377
judge 2377
argue 2376
genetic 2375
tors 2374
pose 2374
calculated 2373
sia 2372
wheel 2371
experiencing 2371
gradual 2371
fix 2369
Trek 2369
circulation 2369
variable 2368
Doha 2368
ek 2367
engagement 2366
bonds 2366
specify 2366
isation 2365
eri@@ 2365
removing 2364
TH@@ 2364
concentrated 2362
spare 2362
honest 2362
DI@@ 2362
OECD 2360
bs 2359
pain 2359
workshops 2358
audiovisual 2358
pending 2357
Ra@@ 2356
66 2354
bay 2354
Sa@@ 2354
split 2352
2.0 2352
SP@@ 2352
controlling 2351
mining 2351
organize 2349
slopes 2349
closure 2348
72 2348
Ad@@ 2348
declarations 2347
Competition 2346
viewed 2346
solved 2343
bug 2343
aiming 2343
precious 2342
s.@@ 2342
91 2342
atic 2341
wake 2341
combining 2341
quantities 2340
behavior 2340
departments 2339
Mac 2339
afraid 2339
specialised 2338
trouble 2338
codes 2337
announce 2337
arrest 2337
hole 2337
papers 2336
catalogue 2336
foods 2335
assessing 2334
chief 2334
ignore 2334
ey 2333
genetically 2332
accountability 2331
ev@@ 2331
Ru@@ 2331
IC 2329
Fax 2329
exceptions 2328
debated 2328
dog 2328
.de 2328
á 2327
soldiers 2326
exhibitions 2324
Zimbabwe 2323
intense 2323
Thomas 2322
pour 2322
drafting 2320
raises 2319
transatlantic 2319
gift 2319
desktop 2318
ach@@ 2318
inland 2317
worrying 2317
AC 2315
compare 2314
simplified 2313
sailing 2313
mergers 2311
slowly 2310
53 2310
flag 2309
elderly 2308
headquarters 2308
Q 2308
preventive 2307
concludes 2306
Greens 2306
gli@@ 2305
macro 2305
terminal 2302
ky 2302
с@@ 2302
94 2302
tangible 2300
Water 2300
laying 2300
settled 2299
modes 2298
intervene 2298
land@@ 2297
regimes 2297
arrange 2297
To@@ 2296
bet 2296
bio@@ 2296
designated 2296
observations 2295
caught 2294
monthly 2292
safeguards 2291
59 2291
challenging 2291
sen 2289
segment 2288
constraints 2288
treaties 2287
CE 2287
pan 2286
Product 2286
Fi@@ 2286
unlikely 2285
GNU 2284
twelve 2284
Head 2284
Mu@@ 2284
Qu@@ 2284
carriers 2283
opt 2282
subscribe 2282
Charles 2282
occurs 2281
urges 2280
sheets 2279
observers 2279
complementary 2279
fallen 2278
indication 2278
Ltd 2278
Iranian 2278
cancelled 2277
backed 2277
margin 2276
generous 2275
humanity 2275
Force 2275
fitted 2275
tr@@ 2274
preferences 2274
Kar@@ 2272
measured 2272
whatsoever 2269
chose 2269
Neighbourhood 2269
worthy 2269
ads 2269
steam 2267
poker 2267
Iraqi 2266
rescue 2266
confidentiality 2266
Vietnam 2265
newspaper 2264
homepage 2264
ched 2264
La@@ 2264
seekers 2263
ft 2263
identifying 2262
upcoming 2262
invitation 2261
Round 2261
chat 2261
cameras 2261
implies 2260
recover 2259
67 2259
ICT 2258
к@@ 2258
investigate 2258
RA@@ 2258
200@@ 2258
Team 2257
assured 2257
abolition 2257
Taiwan 2257
underline 2256
ful 2256
vegetables 2256
comp@@ 2255
discriminatory 2255
sectoral 2255
racism 2255
terrorists 2253
unusual 2253
mistakes 2252
scenario 2252
alism 2251
shot 2251
drives 2249
centers 2249
commission 2247
painting 2245
63 2245
mem@@ 2245
lighting 2244
ser 2243
Gulf 2243
entrepreneurs 2243
delete 2242
regulate 2242
permits 2241
deployment 2241
decrease 2241
71 2241
knew 2240
aged 2240
proximity 2239
connecting 2238
excess 2237
James 2237
owing 2237
displaced 2234
relaxed 2233
bureaucracy 2233
household 2232
3rd 2231
photographs 2231
complexity 2230
&apos;d 2230
unknown 2229
borne 2229
COUNCIL 2229
A5 2228
stops 2228
ON@@ 2227
skilled 2227
monuments 2227
ban@@ 2225
Opinion 2225
noon 2225
C. 2225
avoided 2224
Nordic 2223
imbalances 2223
workshop 2223
ls 2222
consisting 2222
catering 2222
twin 2220
converted 2220
launching 2218
warmly 2218
tough 2217
administrations 2215
adverse 2215
broadly 2215
Ni@@ 2214
mat@@ 2214
wars 2214
ts@@ 2214
Millennium 2213
Beijing 2212
jo@@ 2212
Ho@@ 2212
afterwards 2212
tailored 2211
returning 2211
Mer@@ 2210
AV@@ 2209
participated 2208
Bureau 2208
Training 2207
differ 2207
passion 2206
adjustments 2206
82 2206
stayed 2206
Poker 2205
explains 2205
tower 2204
earn 2203
centrally 2203
desirable 2203
Gentoo 2203
ei@@ 2202
choosing 2202
silver 2202
copies 2202
warming 2201
architectural 2200
describes 2200
ME@@ 2200
Louis 2199
establishes 2199
handled 2199
TR@@ 2197
prestigious 2197
vers 2196
Ju@@ 2196
excellence 2195
els 2195
tropical 2194
announcement 2193
crossing 2193
Quality 2192
reverse 2191
lan@@ 2191
super 2191
interventions 2190
admit 2190
chairs 2189
Suite 2188
bill 2188
capture 2188
Storage 2188
boxes 2185
reduces 2185
Salzburg 2184
fication 2182
partially 2182
11.@@ 2182
isolated 2182
integrating 2181
Road 2181
displays 2180
characterised 2180
lights 2180
AP@@ 2179
Danube 2179
realize 2178
unprecedented 2178
ell@@ 2177
lovers 2177
scrutiny 2176
hesitate 2175
asi 2174
Sony 2174
transmitted 2174
rose 2172
deemed 2172
occupied 2171
od@@ 2170
magic 2169
concerts 2167
pricing 2165
downloaded 2165
annually 2164
TS 2164
Power 2164
correction 2164
gan@@ 2164
procedural 2163
degrees 2163
18th 2162
autonomy 2161
governed 2160
Rio 2159
congratulations 2159
cul@@ 2159
entries 2159
proliferation 2158
Pal@@ 2158
sandy 2157
belonging 2157
adequately 2157
Your 2156
tolerance 2156
160 2155
hazardous 2154
doctors 2153
dri@@ 2152
coins 2151
Zurich 2150
ato 2150
Port 2149
sin@@ 2149
Jo@@ 2149
practically 2149
convert 2148
develops 2148
incorporate 2148
eco 2147
ran@@ 2146
Marina 2144
exploit 2144
harbour 2144
12.@@ 2144
linguistic 2144
restoration 2143
dollars 2143
solving 2143
avoiding 2143
par 2142
tape 2141
roughly 2141
sti@@ 2140
artificial 2139
invested 2139
ants 2139
ED@@ 2139
88 2139
keeps 2138
checking 2138
hoped 2138
clearer 2137
literature 2136
Thailand 2135
stream 2135
obtaining 2134
heated 2133
continental 2131
Organization 2130
thanking 2128
remedy 2128
transnational 2128
branches 2127
ths 2125
Can@@ 2124
cheese 2124
accommodate 2123
Hostelsclub 2123
Galileo 2123
favourite 2122
ou 2122
interaction 2122
victim 2122
cheaper 2121
calculation 2121
т@@ 2120
foreseen 2119
Ba@@ 2119
MO@@ 2119
SE 2118
stays 2117
tribute 2117
handed 2116
agent 2115
cooking 2113
seminars 2113
weaknesses 2113
protest 2113
ori@@ 2112
hire 2112
wise 2112
leather 2112
conjunction 2111
the@@ 2111
87 2111
emerge 2110
cal@@ 2110
Romanian 2110
EX@@ 2109
drafted 2108
globalization 2108
Fischler 2108
convince 2108
banned 2107
torture 2107
tro@@ 2106
EP 2106
thoroughly 2105
separately 2105
ological 2105
м@@ 2105
optional 2104
José 2104
CFSP 2103
fears 2103
CON@@ 2103
suspension 2102
yed 2102
10.@@ 2102
lays 2102
preparatory 2102
Helsinki 2101
Fo@@ 2100
ory 2100
promotes 2100
rubber 2100
ella 2099
camps 2099
eine 2099
retirement 2099
forecast 2098
approx 2097
editor 2097
novel 2097
peak 2097
her@@ 2097
Level 2097
dial 2096
.org 2095
cancel 2095
capability 2094
che@@ 2094
inspections 2094
movies 2093
ple@@ 2093
conveniently 2093
Bel@@ 2093
ona 2092
mas@@ 2092
suggestion 2092
temperatures 2092
Hans 2092
tru@@ 2091
damaged 2091
arbitrary 2091
archive 2091
demonstration 2091
61 2090
gn@@ 2090
pr@@ 2089
semi 2089
impetus 2089
Bulgarian 2088
founding 2088
condemned 2088
negara 2087
Ger@@ 2087
essence 2087
sporting 2086
donor 2086
acted 2085
fires 2085
validity 2085
és 2085
Studio 2084
clock 2083
sentence 2083
decent 2082
loading 2082
alisation 2082
ss 2081
blame 2081
male 2081
Har@@ 2076
doctor 2076
US@@ 2076
globally 2075
answered 2075
ce@@ 2074
currencies 2072
directions 2072
S. 2071
untuk 2070
bathing 2070
economics 2070
sharp 2070
workforce 2069
del@@ 2069
Opera 2068
AD 2068
authentic 2066
dairy 2066
zer 2066
laser 2065
J 2065
bureaucratic 2065
Via 2064
mel@@ 2064
cas@@ 2063
š@@ 2063
mal@@ 2063
controversial 2063
celebrate 2063
worry 2063
je@@ 2062
Main 2062
officers 2062
ong 2061
creature 2058
prominent 2058
worker 2058
humans 2058
gro@@ 2057
tips 2057
carrier 2056
churches 2054
teacher 2052
League 2052
tone 2051
autonomous 2051
blind 2049
appreciated 2049
2,@@ 2049
households 2048
fines 2047
CoR 2047
SME 2046
57 2046
akan 2046
edit 2045
awards 2044
Pri@@ 2044
Islam 2044
notify 2044
posed 2044
Palestine 2044
AM 2044
pal@@ 2043
keen 2043
textiles 2043
Website 2042
water@@ 2042
dominated 2041
isn 2040
Hour 2040
ov@@ 2039
determining 2037
alized 2037
Au@@ 2036
separation 2036
Adobe 2036
bases 2036
fifteen 2035
designer 2034
BO@@ 2034
broadcasting 2033
fu@@ 2031
favorite 2031
Conditions 2030
Congo 2029
consist 2029
brain 2028
1980 2028
sta@@ 2028
If 2028
stood 2027
silence 2026
ceremony 2026
81 2026
grade 2025
extends 2024
lacking 2023
identical 2023
Communist 2020
performances 2019
ture 2019
zes 2019
receipt 2018
shaped 2017
Apple 2017
interinstitutional 2016
77 2016
stem 2016
A. 2016
medicinal 2015
dé@@ 2015
ational 2015
engineers 2015
Series 2014
tariffs 2014
Agreements 2013
cer@@ 2012
az@@ 2012
environments 2011
gases 2010
Reform 2010
hopefully 2010
poly@@ 2010
Master 2009
regulators 2009
cher 2009
fortunately 2009
expressing 2009
outset 2008
stringent 2008
cleared 2008
Cap@@ 2007
lock 2007
automated 2006
Cas@@ 2006
lakes 2005
railways 2005
mer 2003
ales 2003
EFTA 2003
battery 2003
confusion 2002
automation 2002
deadlines 2001
multimedia 1999
accompanying 1998
resident 1998
visitor 1997
commonly 1996
Country 1996
Working 1995
recommends 1994
medi@@ 1994
yo@@ 1994
AB@@ 1994
LI@@ 1994
cap@@ 1993
specialities 1993
employee 1993
у@@ 1992
30@@ 1992
breaking 1991
optical 1991
securing 1990
Ku@@ 1990
IL@@ 1987
cotton 1987
survival 1986
analyse 1986
Video 1985
21st 1984
renewal 1984
backing 1984
Citizens 1983
Shop 1983
lesson 1983
feels 1982
grew 1981
aus 1981
seminar 1981
ruled 1981
PL@@ 1981
safeguarding 1980
filling 1979
lia 1979
argued 1979
dangers 1978
Articles 1978
roles 1978
moderate 1978
indispensable 1978
cargo 1977
incompatible 1977
inequality 1976
OSCE 1976
golden 1976
Change 1975
accessibility 1974
stra@@ 1974
harmony 1974
BR@@ 1973
executed 1973
ran 1972
safer 1971
ac 1971
Tuesday 1971
limiting 1970
toilet 1970
consolidate 1969
laboratory 1969
por 1969
entrepreneurship 1968
Administration 1968
column 1968
vertical 1968
my@@ 1967
icon 1967
Blue 1967
76 1966
accepting 1966
alliance 1966
68 1965
distortions 1964
consolidated 1963
unlimited 1963
disappointed 1963
Real 1962
fate 1962
characterized 1962
cl@@ 1962
photography 1962
exploring 1962
Dis@@ 1961
admission 1961
pan@@ 1961
watching 1961
notion 1960
Chile 1960
sur 1959
Governments 1959
beside 1958
modest 1957
pack 1957
Hi@@ 1957
ah@@ 1956
searching 1956
irrespective 1955
wording 1954
circle 1954
Canon 1954
independently 1953
ss@@ 1953
assumed 1953
ée 1953
rehabilitation 1950
24@@ 1950
suddenly 1950
kids 1949
accepts 1949
weekly 1948
bid 1948
tis 1948
downloading 1946
introduces 1946
clarification 1946
amp@@ 1946
linking 1946
denied 1946
explanations 1946
urs 1944
25@@ 1944
na@@ 1944
turnover 1944
ving 1944
tion@@ 1943
paradise 1943
eu@@ 1943
Directorate 1942
survive 1942
VI 1942
appreciation 1942
Liberal 1942
Deposit 1941
Maritime 1940
73 1940
Parties 1939
defense 1938
verify 1938
detection 1938
hosts 1937
dem 1937
districts 1937
work@@ 1937
dos 1936
translations 1936
pact 1935
surprising 1935
unanimous 1934
86 1934
conformity 1934
gre@@ 1933
Te@@ 1933
badly 1933
tension 1933
profound 1932
BMW 1931
criterion 1931
salt 1931
Car 1930
clinical 1930
ups 1930
hu@@ 1929
grand 1928
78 1928
Pa@@ 1928
promising 1927
interview 1927
win@@ 1927
Empire 1927
Interior 1926
newspapers 1926
RELEASE 1925
judges 1925
throw 1925
wishing 1925
OL@@ 1924
fre@@ 1924
databases 1924
crystal 1924
forming 1923
advocate 1922
ging 1922
loaded 1922
ster@@ 1922
justification 1921
talked 1920
momentum 1920
ignored 1920
knowing 1919
accelerate 1919
translate 1918
web@@ 1918
rejection 1918
fin@@ 1918
ell 1918
Anti 1918
Tu@@ 1917
app@@ 1916
abandoned 1916
AG@@ 1914
visas 1913
To 1913
electronics 1913
plain 1913
advances 1913
neutral 1912
emp@@ 1912
EU@@ 1911
900 1911
bl@@ 1910
Hu@@ 1910
disabilities 1909
Puerto 1908
downtown 1908
officer 1908
CS 1907
Budgetary 1906
Industrial 1905
chocolate 1905
hor@@ 1905
fought 1904
investor 1904
Singapore 1904
Customs 1903
vessel 1903
Bre@@ 1903
rivers 1902
flowers 1902
het 1901
paintings 1901
bread 1901
approves 1901
tight 1900
sun@@ 1900
explicit 1899
holder 1899
alarm 1899
ы@@ 1899
allies 1898
optimum 1898
tensions 1897
cat@@ 1897
Technical 1897
gear 1897
restriction 1895
labels 1895
certificates 1895
Chief 1894
lifelong 1893
credits 1893
hi 1890
bit@@ 1890
radiation 1889
objections 1889
tan@@ 1889
reiterate 1888
strive 1888
83 1888
Corporation 1887
Ac@@ 1887
gaps 1887
generating 1887
USS 1887
char@@ 1884
passes 1884
counter@@ 1883
HTML 1883
ola 1883
Al 1883
ani 1882
40@@ 1882
married 1882
ordination 1882
permanently 1881
offset 1881
strange 1880
defending 1879
advisory 1878
cri@@ 1878
align 1878
regrettable 1878
thoughts 1877
Communications 1876
all@@ 1876
supplement 1875
Hamas 1875
forestry 1875
ri 1874
su 1874
marquis 1874
TA 1874
systematically 1873
are@@ 1872
tim@@ 1872
deeper 1871
guides 1871
Statute 1870
ello 1869
Tor@@ 1869
activated 1869
1990s 1869
Professor 1869
GM 1869
tells 1868
indications 1868
Left 1868
cia 1868
fac@@ 1868
breathtaking 1868
striking 1867
California 1867
isolation 1867
enforce 1866
delicate 1866
accused 1866
Jordan 1866
dly 1866
spots 1866
reinforcing 1865
ultra 1864
fe@@ 1864
He@@ 1864
gy 1863
Standard 1863
74 1863
scenery 1863
interpreted 1862
incredible 1861
ambitions 1861
zo@@ 1861
Economy 1860
telling 1859
ni 1859
gathered 1859
indigenous 1858
bre@@ 1858
cod 1858
tender 1858
Elevator 1857
Liechtenstein 1857
Cam@@ 1857
expresses 1856
POLICY 1856
mineral 1856
қ@@ 1855
dependence 1855
delayed 1854
thin 1854
realized 1853
refusal 1853
formula 1853
pillars 1852
cally 1852
refined 1851
med 1850
Ashton 1850
ther@@ 1850
Luggage 1850
civilians 1849
grave 1849
OS@@ 1848
Las 1846
Bra@@ 1846
taught 1846
DC 1846
val@@ 1846
ET 1846
CEO 1845
limitations 1845
intensity 1845
landscapes 1845
parent 1845
finest 1843
Cathedral 1843
Saudi 1843
nu@@ 1843
emphasises 1843
sm@@ 1842
influenced 1842
Korean 1842
Min@@ 1842
discovery 1841
transformed 1841
commented 1841
liquid 1841
separated 1840
Gar@@ 1840
completing 1840
garage 1839
yellow 1838
ay 1838
ur 1838
23@@ 1837
nationality 1837
impacts 1837
mirror 1837
rolling 1837
A4 1837
sha@@ 1836
cycling 1836
pressures 1835
disadvantaged 1835
Ocean 1835
lawyers 1835
MB 1834
foodstuffs 1834
What 1834
SAP 1834
cinema 1834
consultative 1833
hectares 1833
incomes 1832
ang@@ 1830
socially 1830
fault 1830
damaging 1830
minds 1830
traditionally 1828
qui@@ 1827
arriving 1827
urged 1827
Chancellor 1827
hosting 1827
ze@@ 1827
responding 1826
quantitative 1825
Third 1825
Bur@@ 1825
embedded 1824
conviction 1824
loved 1824
distributors 1824
Alpine 1823
editing 1823
und@@ 1823
preservation 1822
elling 1821
comm@@ 1821
piano 1821
Gran 1820
classification 1820
telecoms 1820
fy 1819
defects 1819
privatisation 1819
differently 1819
Agricultural 1818
Pan@@ 1818
1988 1818
pe 1818
sion 1818
OK 1817
intergovernmental 1817
tar@@ 1817
login 1817
ot 1815
abilities 1815
licences 1814
shore 1814
initiate 1813
Win@@ 1813
ov 1813
por@@ 1813
bags 1813
lic@@ 1812
rain 1812
tens 1811
Socialists 1811
parameter 1811
Algeria 1811
spiritual 1811
walks 1811
divide 1810
panels 1810
end@@ 1810
unfortunate 1810
a.@@ 1809
continually 1809
struck 1809
thirty 1809
authorized 1809
sensor 1809
Edition 1809
minimal 1808
guard 1808
San@@ 1807
ari 1806
instability 1805
post@@ 1805
classified 1805
motivated 1805
Mat@@ 1804
Jan 1804
concessions 1804
exclude 1804
monopoly 1803
è 1803
presentations 1803
ade 1803
motions 1803
istic 1801
atory 1801
Barnier 1801
Nigeria 1800
profession 1798
e.@@ 1798
79 1798
4th 1798
cattle 1797
flash 1796
profiles 1796
Los 1794
Heritage 1794
Richard 1794
technically 1793
sch@@ 1793
Humanitarian 1793
anyway 1792
preserving 1791
plane 1791
maintains 1790
Eurostat 1789
Apartments 1789
cro@@ 1788
Reding 1788
aluminium 1788
lin 1787
ani@@ 1787
fits 1787
arrested 1785
cooling 1785
limitation 1785
69 1785
84 1785
abuses 1784
realised 1784
networking 1784
celebrated 1783
enthusiasm 1783
B5 1783
head@@ 1782
demanded 1782
Heating 1781
wa 1781
vol@@ 1781
estimate 1780
continuity 1780
secured 1780
inevitably 1779
cy@@ 1779
cease 1777
encounter 1777
Supervisory 1777
Cross 1777
ours 1777
ical 1776
ll 1775
younger 1775
indirectly 1774
definitions 1774
PR@@ 1773
obstacle 1773
defines 1772
clauses 1772
witness 1771
fa@@ 1771
5th 1771
dec@@ 1770
е@@ 1770
Criminal 1770
д@@ 1769
reproduction 1769
arm 1769
reaches 1768
ables 1768
recruitment 1768
incorrect 1768
venue 1768
seed 1767
eh@@ 1767
Ukrainian 1767
unstable 1767
Program 1766
deleted 1765
organisms 1765
daughter 1764
Plus 1763
murder 1763
diesel 1763
ero 1762
distinguished 1762
ama 1762
trails 1761
ising 1761
imperative 1760
listened 1759
setup 1759
inf@@ 1759
eating 1759
iPhone 1758
ane 1758
Solidarity 1756
utility 1756
leg@@ 1756
safely 1756
zz@@ 1755
sol@@ 1755
acc@@ 1755
sel@@ 1754
biotechnology 1753
ching 1752
35@@ 1752
Tyrol 1751
municipal 1750
expects 1750
bears 1749
camping 1748
definitive 1748
clothes 1748
floods 1748
enemy 1748
culinary 1748
ble@@ 1748
existed 1748
fat 1748
coalition 1747
Sustainable 1747
wholesale 1746
trademarks 1746
IGC 1746
CR@@ 1745
2016 1745
ment@@ 1744
talent 1744
burg 1744
rigorous 1744
SV 1743
dy@@ 1742
cooperative 1742
alive 1742
dogs 1741
boundaries 1741
arises 1741
unanimity 1740
founder 1740
Jacques 1739
pipeline 1738
pra@@ 1738
str@@ 1737
sted 1737
vel@@ 1737
applicants 1736
coordinating 1736
matches 1736
interference 1736
plate 1735
IF@@ 1735
waves 1735
Web@@ 1735
contest 1735
profitable 1734
evil 1734
killing 1733
UNESCO 1732
M. 1731
missed 1731
forecasts 1731
fruits 1731
circuit 1731
cks 1731
clo@@ 1730
deny 1730
competing 1729
thirds 1729
č@@ 1729
Stuttgart 1729
workplace 1728
axis 1728
sheep 1728
attach 1726
Wall 1726
gather 1726
ear@@ 1725
breeding 1725
Alexander 1725
DS 1725
methodology 1724
fundamentally 1723
Guinea 1723
inevitable 1723
ville 1723
resistant 1722
charter 1722
stones 1722
resolving 1720
AFFAIRS 1720
endeavour 1720
quarters 1719
yield 1719
sm 1718
AR 1717
sto@@ 1717
selecting 1717
della 1717
hunting 1717
mp@@ 1716
locally 1716
ERDF 1716
Basel 1715
girl 1715
styles 1714
ate@@ 1713
ant@@ 1713
Tibet 1712
inspiration 1712
sweet 1712
16th 1712
recalled 1712
pop 1712
Gold 1712
installing 1711
visibility 1711
delivers 1711
organising 1711
XP 1710
establishments 1710
discretion 1709
earned 1709
licensing 1709
AU@@ 1708
carries 1707
Land 1707
chances 1707
trademark 1706
ministerial 1706
countless 1706
dies 1706
sting 1706
tic@@ 1706
EI@@ 1705
routine 1705
Colombia 1704
resorts 1704
washing 1704
ante 1704
ware 1704
bands 1704
issuing 1703
dioxide 1703
bio 1703
albeit 1703
Siemens 1702
Sh@@ 1702
CI@@ 1701
deciding 1701
bas@@ 1701
gym 1700
dive 1700
aux 1699
ian 1699
ly@@ 1699
bag 1698
SH@@ 1698
Sierra 1697
br@@ 1697
protective 1697
elimination 1697
Book 1697
distinct 1697
kill 1697
tons 1696
EGF 1696
vicinity 1695
lifestyle 1694
dear 1694
equ@@ 1694
ely 1694
Er@@ 1694
assisted 1692
exploited 1692
collecting 1692
headed 1692
skill 1692
Bor@@ 1691
Environmental 1691
excluding 1691
actor 1691
costly 1690
hygiene 1689
ass@@ 1689
deployed 1689
controller 1688
score 1688
blocked 1688
Br@@ 1688
Europa 1687
interoperability 1687
reactions 1686
perceived 1686
partition 1686
Adriatic 1685
aids 1684
SO@@ 1684
Sar@@ 1684
Ta@@ 1684
Arts 1684
My 1683
stating 1682
forums 1682
relevance 1681
350 1681
hunger 1681
weapon 1680
divisions 1680
APPROVED 1679
Work 1679
unilateral 1679
ska 1679
Holiday 1678
Athens 1677
Patten 1676
Ban@@ 1676
commodity 1675
ben@@ 1675
Sport 1675
dated 1674
Question 1674
CO 1674
WC 1673
Nature 1672
shoes 1672
ved 1672
Golden 1672
mutually 1671
opponents 1671
в@@ 1671
3.5 1670
vacuum 1670
Chechnya 1670
preference 1669
Pu@@ 1669
© 1669
mi 1669
evaluated 1669
designers 1668
gaming 1668
vo 1668
modifications 1668
stri@@ 1667
mo 1667
rank 1667
brother 1667
prevents 1666
detention 1665
colonial 1665
imp@@ 1665
bird 1664
ced 1664
и 1664
Sie 1664
trials 1663
ins@@ 1663
libraries 1663
ocean 1662
BC 1662
marriage 1661
criminals 1661
viewing 1661
lifting 1661
OT@@ 1660
pp@@ 1660
burdens 1660
repression 1660
ering 1660
warranty 1660
hide 1659
rarely 1659
angle 1659
fabric 1658
PRO@@ 1658
Anonymous 1658
excise 1656
fossil 1656
improves 1655
cli@@ 1654
temporarily 1654
mounted 1654
Jerusalem 1654
star@@ 1653
grass 1653
haven 1653
buyer 1653
Val 1653
fulfilling 1651
dro@@ 1650
wh@@ 1650
multiannual 1650
capita 1649
powered 1649
Antonio 1648
ash 1648
modification 1648
noticed 1648
DEBATED 1648
Manuel 1648
sends 1647
barrier 1647
exceptionally 1647
shock 1647
updating 1646
allowances 1646
samples 1646
subsidiaries 1645
Ter@@ 1644
complied 1644
Mag@@ 1644
statutory 1644
finishing 1644
50@@ 1643
collections 1643
formerly 1643
ette 1642
MP3 1642
liquidity 1641
Edinburgh 1640
17th 1640
Partner 1640
verification 1640
auch 1640
dans 1640
multinational 1639
settle 1639
Hostel 1639
Direct 1639
ok@@ 1639
ION 1639
3,@@ 1637
energies 1637
volumes 1637
earthquake 1637
lens 1637
subscription 1637
sums 1636
recalls 1636
ker@@ 1636
hot@@ 1636
tremendous 1636
aggressive 1635
prerequisite 1635
incidents 1635
fi 1635
featured 1635
sofa 1635
draws 1634
configure 1634
prejudice 1633
oder 1632
pull 1631
sightseeing 1631
purchases 1631
Playa 1631
Coast 1631
Bri@@ 1631
terror 1631
ral 1631
Cu@@ 1630
ci 1630
eliminating 1629
ka@@ 1629
ink 1629
wire 1629
eries 1629
beat 1629
stimulus 1629
Line 1629
bal@@ 1628
rational 1628
£ 1627
Post 1627
ica 1627
Rhine 1627
tiny 1626
IG@@ 1626
li 1626
Tur@@ 1626
ents 1626
ire 1625
writer 1625
sad 1625
upgrading 1625
Haiti 1624
Inc 1624
ación 1624
reflecting 1624
incident 1623
ets 1623
qualities 1623
EP@@ 1622
15th 1622
pointing 1621
deterioration 1621
ty@@ 1621
reveal 1621
CHF 1620
counts 1620
traders 1620
conducting 1620
threatening 1619
Kal@@ 1619
ratify 1619
sincerely 1619
climbing 1619
reasonably 1618
alist 1618
Recommendation 1618
inviting 1618
perception 1618
screening 1617
tube 1616
Sri 1616
tuna 1616
vineyards 1616
qualification 1616
Franz 1615
Muslims 1615
ach 1615
pride 1615
Syrian 1615
sive 1615
ranges 1615
tracking 1614
Mas@@ 1614
ł@@ 1614
nicht 1614
District 1614
auto@@ 1614
PO@@ 1614
Captain 1613
thereof 1613
Kroes 1613
mailing 1613
symbolic 1613
sensitivity 1612
Wi@@ 1612
IP@@ 1612
ws 1612
radi@@ 1611
Ge@@ 1611
oni@@ 1611
abstained 1611
hat 1610
supporters 1610
Gal@@ 1610
Zealand 1609
Representatives 1609
attempted 1609
More 1609
ay@@ 1609
emergence 1608
ж@@ 1608
width 1608
ena 1608
Hague 1607
speaks 1607
meaningful 1607
dust 1606
feelings 1606
unified 1606
hospitals 1606
ambience 1605
op 1605
tal 1605
Show 1604
teach 1603
complimentary 1602
exceeded 1602
Joseph 1602
stroll 1601
livestock 1601
subjected 1601
openly 1601
precautionary 1600
ón 1600
fying 1600
Natural 1599
gr@@ 1598
GPS 1598
sin 1598
Verheugen 1597
resumed 1597
conditional 1597
My@@ 1597
statute 1596
EG@@ 1596
off@@ 1595
í 1594
ase 1594
incoming 1594
offences 1593
timing 1593
PS 1592
LO@@ 1592
Jews 1592
Fair 1592
fragile 1592
scenes 1591
compensate 1591
metals 1591
attitudes 1591
Na@@ 1590
ast@@ 1590
musicians 1590
dreams 1589
rice 1588
mas 1587
distribute 1587
How 1587
fostering 1587
democracies 1586
ation@@ 1586
broadcast 1586
q 1586
ere 1585
Ki@@ 1585
studying 1585
Ser@@ 1585
о@@ 1584
grid 1584
Case 1584
dramatically 1584
HD 1584
Scientific 1583
ene 1583
cked 1583
alleged 1582
await 1582
Vista 1582
requesting 1582
kilometers 1581
shooting 1581
Our 1580
prompt 1580
filters 1580
ole 1580
laundering 1579
Men@@ 1579
dictatorship 1579
SC@@ 1579
judiciary 1578
interfaces 1578
voices 1578
detected 1578
hydro@@ 1577
cultivation 1577
Library 1577
activate 1577
100@@ 1576
marking 1576
luggage 1575
crop 1574
180 1574
Casa 1574
don@@ 1574
sh 1573
council 1573
globe 1573
lat@@ 1572
pursuit 1572
Warsaw 1572
hom@@ 1572
Radio 1571
ven 1571
fed 1571
landing 1570
austerity 1570
Afghan 1570
ns 1570
ris@@ 1570
Regulations 1570
competitions 1569
ceilings 1569
smoke 1569
endless 1569
capitalism 1568
overnight 1568
130 1568
1987 1568
mixture 1567
licensed 1567
racing 1567
fusion 1567
Ste@@ 1566
Live 1566
Fin@@ 1566
detect 1565
Tower 1565
spell 1564
feasible 1564
gaining 1563
Nobel 1563
tional 1563
pur@@ 1562
Vo@@ 1562
sil@@ 1562
listing 1562
tonight 1561
tournament 1561
Monti 1561
UR@@ 1561
advised 1560
ita 1560
SIS 1560
withdrawn 1560
behold 1559
distant 1559
comforts 1559
replacing 1559
1980s 1558
mar 1558
PA 1557
breaks 1557
Kirk 1557
veterinary 1557
alised 1557
Mechanism 1557
additives 1555
squ@@ 1555
gers 1555
Sol 1554
Anna 1554
ham 1553
dari 1553
container 1553
swiftly 1553
elite 1553
LE 1552
Client 1552
plates 1552
incurred 1552
woods 1551
irregularities 1551
corporations 1551
charging 1551
Mark 1551
Darfur 1551
chi 1550
packed 1550
 1550
conscious 1549
highway 1549
uri@@ 1549
batteries 1549
convincing 1549
sadly 1549
03@@ 1548
Small 1548
adapting 1547
Im@@ 1547
ol 1546
refurbished 1546
restoring 1545
enshrined 1545
somewhere 1545
biofuels 1545
plugin 1545
gri@@ 1545
hosted 1544
dan@@ 1544
transported 1543
1985 1543
bond 1543
defeat 1543
outline 1542
ideological 1542
insight 1541
horses 1541
recipient 1541
beautifully 1541
Gro@@ 1541
palace 1540
graphical 1540
responded 1540
gathering 1540
concluding 1540
silent 1539
poses 1539
wer 1538
tries 1537
04@@ 1537
outermost 1536
gambling 1536
joy 1536
overwhelming 1536
passport 1536
decides 1535
1986 1534
wedding 1534
aan 1533
menus 1533
admitted 1532
immunity 1532
bes 1532
MP@@ 1531
tailor 1531
tively 1531
seaside 1530
projected 1530
Out 1529
pa 1529
belt 1528
outlook 1528
fare 1528
cereals 1528
Nero 1527
een 1526
attempting 1526
р@@ 1526
Samsung 1525
simpler 1525
generic 1525
6th 1525
provisional 1525
oni 1524
prohibition 1524
pine 1524
1.2 1524
sec@@ 1523
а@@ 1523
origins 1523
strikes 1523
trail 1523
swift 1523
Christ 1523
kit 1522
å@@ 1521
encountered 1521
Order 1521
frontier 1521
ron@@ 1520
Pen@@ 1520
punishment 1519
rel@@ 1519
Dresden 1519
Canadian 1518
Goals 1518
Croatian 1517
attraction 1517
elegance 1517
maker 1516
disparities 1516
villas 1516
Holy 1516
originating 1516
appointments 1516
protests 1515
alo@@ 1515
Sol@@ 1515
wished 1515
PSE 1514
ji 1514
fl@@ 1514
alter 1514
excuse 1514
Max 1514
boosting 1513
sciences 1513
dengan 1513
ala 1513
Merger 1512
toxic 1512
herself 1511
Valencia 1511
Bridge 1511
sincere 1510
onic 1510
Pack 1510
giant 1510
auto 1509
ASEAN 1509
printer 1508
wholly 1508
couples 1508
spreading 1508
Don@@ 1507
accompany 1507
segments 1507
thy 1507
insert 1506
Piazza 1506
low@@ 1506
pos@@ 1506
ast 1505
ferry 1505
immense 1504
thematic 1504
retained 1504
SI@@ 1504
layers 1503
Accession 1503
Warcraft 1503
settlements 1502
13.@@ 1502
Guests 1502
stricter 1502
tly 1502
tab 1502
legacy 1501
toys 1501
tin 1501
seas 1500
symbols 1500
indicator 1500
upload 1500
Army 1500
sympathy 1499
luck 1498
legendary 1498
vegetable 1498
protects 1498
Jesus 1497
Christians 1497
problematic 1496
jet 1496
transform 1496
Ambassador 1495
shed 1495
sation 1494
disagree 1494
Place 1494
injury 1493
OM@@ 1493
ati 1493
blocking 1492
bel@@ 1492
contracting 1492
Somalia 1492
HU 1492
pol@@ 1491
1970 1491
Suites 1491
rated 1491
eth 1490
tram 1490
aria 1489
guiding 1489
debts 1488
inequalities 1488
EF@@ 1488
ère 1487
Cultural 1487
abandon 1487
rep@@ 1487
bicycle 1487
Ministerial 1486
Mission 1485
ght 1485
ping 1485
fishery 1485
personality 1485
positively 1484
theoretical 1484
Karel 1484
universe 1484
Airlines 1483
Sun 1483
tically 1483
innocent 1483
ich 1482
nutrition 1482
compromises 1481
customized 1481
municipality 1481
Gallery 1480
elle 1480
posting 1480
ok 1480
Nor@@ 1480
Technologies 1480
110 1480
.The 1479
Saddam 1479
chamber 1479
Mac@@ 1479
worried 1479
Cold 1479
shorter 1479
diversification 1479
Mc@@ 1478
sho@@ 1478
submission 1478
recognising 1478
Corporate 1477
л@@ 1477
fastest 1477
pushed 1476
judgement 1476
proves 1475
van@@ 1475
simplifying 1475
stimulating 1475
Sha@@ 1475
ía 1475
Dra@@ 1474
surgery 1473
Facility 1473
ste 1473
dossier 1473
psychological 1472
distinguish 1472
tackled 1472
craft 1472
enforced 1471
attaches 1470
meter 1469
wn 1469
uring 1469
quest 1469
newest 1468
beneficiary 1468
Privacy 1468
RD 1468
adjacent 1468
Is 1468
anticipated 1467
exemptions 1467
LA 1466
derogation 1466
warrant 1466
ESF 1466
revolutionary 1466
portion 1466
healing 1465
communist 1465
Guide 1465
accountable 1465
Ka@@ 1465
Ci@@ 1465
subsidy 1464
readiness 1463
witnessed 1462
query 1462
burning 1462
deliveries 1461
distortion 1461
29@@ 1461
cou@@ 1461
Fre@@ 1461
spam 1460
booth 1460
ó 1460
holes 1460
son@@ 1460
Bad 1460
pping 1460
PM 1459
Nokia 1459
chapters 1459
underway 1459
wed 1458
ered 1458
altogether 1457
ll@@ 1457
decoration 1457
towels 1457
ists 1457
margins 1457
merged 1457
favoured 1456
ining 1456
overseas 1455
economists 1455
solo 1454
cam@@ 1454
varying 1454
tendency 1454
Cre@@ 1454
persistent 1454
hoc 1454
AF@@ 1454
Leipzig 1453
varies 1453
instant 1453
occupational 1453
7th 1453
Ö@@ 1453
disastrous 1453
ton@@ 1452
financially 1452
Neelie 1452
pushing 1452
onwards 1452
hearts 1452
admire 1451
nearest 1451
contamination 1451
Sir 1451
viability 1451
thinks 1450
sem@@ 1450
illness 1449
invoice 1449
sy@@ 1449
0.5 1449
г@@ 1448
Ben@@ 1448
organ 1448
Ha@@ 1448
distinctive 1448
max 1447
internally 1447
execute 1446
documented 1446
wanting 1446
targeting 1446
emotional 1445
dealers 1445
Rental 1445
emphasize 1444
reader 1444
baggage 1443
mines 1443
preferential 1443
diagnosis 1443
remuneration 1443
Sky 1442
shortage 1442
sixth 1442
retention 1442
guitar 1442
eliminated 1442
è@@ 1441
neo 1441
accessed 1441
surveys 1440
varieties 1440
Palacio 1440
paragraphs 1440
BE 1439
demonstrations 1438
pped 1438
Lan@@ 1438
def@@ 1437
tunnel 1437
carte 1436
bulk 1436
confronted 1436
episode 1435
Ca@@ 1435
ently 1434
unofficial 1434
ries 1434
dissemination 1434
edi@@ 1434
Riviera 1434
Explorer 1434
terraces 1434
weakness 1434
Bro@@ 1433
Access 1433
CC@@ 1432
Balkan 1432
Film 1432
coach 1432
sustain 1432
correspond 1432
designing 1431
Solana 1431
Canary 1430
Cha@@ 1430
1,000 1429
adopts 1429
ž@@ 1429
299 1429
inger 1428
impede 1428
book@@ 1428
Armenia 1428
dei 1428
pat@@ 1428
abolished 1428
lend 1428
Shi@@ 1427
Nikon 1427
earnings 1427
diet 1427
sam@@ 1427
Allah 1427
vibrant 1426
literally 1426
smallest 1426
dropped 1425
Marco 1425
dr@@ 1424
directors 1424
NOT 1424
Railway 1424
ray 1424
forwarded 1424
Sy@@ 1423
traceability 1423
reiterates 1423
municipalities 1423
SS 1422
pedestrian 1421
Pe@@ 1420
flood 1420
ordering 1419
Commerce 1419
readers 1419
comfortably 1419
enjoyable 1419
wal@@ 1419
ery 1418
hof 1418
History 1417
LCD 1417
cian 1417
stabilisation 1416
exercises 1416
frontiers 1416
instances 1416
ens@@ 1415
feeding 1415
rid 1415
accommodations 1414
rear 1414
painted 1414
б@@ 1413
harmonise 1413
democratically 1413
tied 1413
static 1413
deck 1413
TE 1412
mount 1412
painful 1412
CDs 1412
Personal 1412
XML 1412
oo@@ 1411
geared 1411
rue 1410
CL@@ 1410
valued 1410
IB@@ 1410
ori 1410
intensify 1410
G20 1409
KDE 1409
Piebalgs 1409
hy@@ 1409
Côte 1408
reformed 1408
chip 1407
arb@@ 1407
outs 1407
successes 1407
clarified 1406
Monitoring 1406
cle@@ 1406
met@@ 1406
Scottish 1406
lar@@ 1406
е 1406
wisdom 1405
Products 1405
reveals 1405
IR@@ 1404
Mil@@ 1404
CA 1404
alpine 1403
popularity 1403
enters 1403
congratulating 1402
oils 1402
ide@@ 1401
fore@@ 1401
fri@@ 1401
placement 1400
pupils 1400
severely 1400
11@@ 1400
retailers 1400
paint 1399
bach 1399
SS@@ 1399
banana 1399
Residence 1399
opera 1399
chains 1399
disappear 1398
conservative 1398
flo@@ 1397
halt 1397
processor 1397
reiterated 1397
EA 1397
protectionism 1396
disadvantage 1396
poli@@ 1395
employ 1394
diplomacy 1394
liberalization 1394
View 1394
patch 1393
Directors 1393
variables 1393
resume 1392
eggs 1392
aspirations 1392
Forest 1392
nya 1391
automobile 1390
ora 1390
sich 1390
threaten 1389
Tokyo 1389
Language 1388
Petitions 1388
experimental 1387
memories 1387
compiled 1387
grain 1387
bone 1386
judgments 1386
14.@@ 1385
Children 1385
Village 1385
Fran@@ 1385
fies 1385
surfaces 1384
res@@ 1384
unchanged 1384
Tampere 1384
bi 1384
bin 1384
strongest 1384
Guarantee 1383
developer 1383
Fer@@ 1382
mini@@ 1382
slight 1382
Catholic 1382
down@@ 1382
William 1382
seeds 1381
Mallorca 1381
ku@@ 1381
Ford 1380
Hol@@ 1380
Tre@@ 1380
ы 1380
Mountains 1380
Blair 1380
28@@ 1380
CFP 1379
Secretariat 1379
protein 1378
lifts 1378
altitude 1378
guilty 1378
VIP 1378
aff@@ 1378
60@@ 1378
License 1378
submitting 1377
absurd 1376
pesticides 1376
disability 1375
attracted 1375
ал@@ 1375
exported 1374
misleading 1374
ENT 1374
hairdryer 1374
ranking 1374
comprising 1373
acute 1373
Engineering 1373
cabin 1373
pragmatic 1373
Š@@ 1373
chaired 1373
intent 1372
suspected 1372
fold 1372
stainless 1372
fitting 1371
doc 1371
ME 1370
Arabia 1370
breakdown 1370
regulating 1370
builds 1370
з@@ 1369
boarding 1369
dic@@ 1369
bul@@ 1368
educated 1368
attending 1368
gel@@ 1368
Bas@@ 1368
organs 1367
accomplished 1367
radioactive 1367
Pol@@ 1367
keyboard 1367
.net 1367
Pierre 1367
harder 1366
CH 1366
downloads 1365
Bonn 1365
praise 1365
embargo 1365
Timor 1365
possession 1365
fixing 1364
sequence 1364
bei 1363
sli@@ 1363
Francisco 1363
pets 1363
gan 1363
Gre@@ 1362
ther 1362
45@@ 1362
identifies 1362
corresponds 1361
cy 1361
loud 1361
termination 1361
Mail 1361
Institutions 1361
economical 1361
cream 1360
uni@@ 1360
furnishings 1360
quoted 1360
syn@@ 1360
employer 1360
Reserve 1359
Serbian 1359
acid 1359
poorer 1359
Sam@@ 1359
inappropriate 1359
Azerbaijan 1358
vulnerability 1358
refund 1358
ung@@ 1358
understandable 1358
grey 1358
topical 1358
ILO 1358
cru@@ 1358
seller 1357
phases 1357
adi@@ 1356
§ 1356
Disabled 1356
Lin@@ 1356
Unit 1356
standardisation 1355
configured 1355
ré@@ 1354
eli@@ 1354
galleries 1354
cap 1354
4303 1354
‑ 1353
closest 1353
Germans 1353
incomplete 1353
eng@@ 1353
Firefox 1353
frames 1352
drew 1352
WITH 1352
tin@@ 1352
Hor@@ 1351
experiments 1351
nets 1351
exquisite 1351
Conclusions 1351
viruses 1350
peripheral 1350
worlds 1350
SK 1349
tel@@ 1349
List 1349
140 1348
treating 1348
GR@@ 1348
serial 1348
portable 1348
injection 1347
dia 1347
billions 1346
vi 1346
outbreak 1346
Sk@@ 1346
Mol@@ 1346
intimate 1346
voltage 1346
disp@@ 1346
boom 1346
Egyptian 1345
pada 1345
critique 1345
tical 1344
Star@@ 1344
density 1344
signatures 1344
failures 1344
boy 1343
і@@ 1343
avec 1343
alternatively 1342
holdings 1342
chart 1341
timber 1341
han@@ 1341
ef@@ 1341
assumption 1340
snacks 1340
Assistance 1339
deposits 1339
SQL 1339
bat@@ 1339
pas@@ 1339
successor 1338
matching 1338
Bavaria 1338
reaffirms 1338
Content 1338
policymakers 1337
15.@@ 1337
buttons 1337
RSS 1337
frozen 1336
etc. 1336
Child 1336
kon@@ 1336
earliest 1336
mild 1336
institute 1336
D. 1336
locked 1335
measurements 1335
cache 1335
sorts 1335
ente 1335
festivals 1335
reward 1335
va@@ 1335
catches 1334
enti@@ 1334
Lau@@ 1333
steady 1333
democratisation 1333
Revolution 1332
Seville 1332
Philippe 1332
liberty 1331
Christopher 1331
shaping 1331
1957 1331
Por@@ 1331
bold 1331
J. 1331
appropriately 1330
exotic 1330
ili@@ 1330
lar 1330
gy@@ 1329
q@@ 1329
Porto 1329
magazines 1329
Han@@ 1329
boys 1329
cathedral 1328
ozone 1328
A.@@ 1328
Division 1328
conc@@ 1327
mood 1327
aging 1327
assisting 1327
renovation 1327
Karl 1326
ideology 1326
coastline 1326
activists 1325
substantive 1325
Gay 1325
trigger 1324
MEP 1324
baths 1324
Norwegian 1323
10th 1323
variations 1323
commands 1323
Thai 1323
ali 1323
1.1 1323
27@@ 1322
zu@@ 1322
Slovenian 1322
copper 1322
flora 1322
Aviation 1321
jury 1321
36@@ 1321
ample 1321
Search 1321
promotional 1320
reminded 1320
Á@@ 1319
earmarked 1319
ranks 1319
rhetoric 1318
titles 1318
prosperous 1318
Istanbul 1317
EX 1317
HP 1317
tissue 1316
illegally 1316
ш@@ 1315
Trans@@ 1315
annex 1315
judged 1315
ruins 1315
Starfleet 1315
generates 1315
panorama 1314
wor@@ 1314
by@@ 1314
coupled 1313
Myanmar 1312
fer 1312
han 1311
ken 1311
Integration 1311
indicating 1311
benefited 1311
genocide 1311
invasion 1311
suits 1311
nightlife 1311
296 1311
investigated 1311
aboard 1310
camp@@ 1310
Councils 1309
ann@@ 1309
brilliant 1309
wasn 1309
Wikitravel 1309
kan@@ 1309
80@@ 1309
architect 1308
verified 1307
deepening 1307
pla@@ 1307
alle 1307
bridges 1307
servants 1306
ass 1306
recovered 1306
minors 1306
shipment 1306
petrol 1306
qualitative 1306
Malaysia 1305
tidak 1305
demonstrating 1305
Theatre 1305
writers 1305
critics 1305
Rec@@ 1304
lam@@ 1304
vous 1304
Professional 1304
brutal 1304
IBM 1303
deliberately 1302
ques 1301
Wal@@ 1301
Clinton 1301
Newspapers 1301
hing 1301
recreational 1301
lic 1301
flower 1301
tank 1300
favor 1300
outcomes 1300
cat 1300
Palma 1300
privileges 1300
plot 1299
speeds 1299
detriment 1299
Dialogue 1299
S.@@ 1299
but@@ 1298
intermediate 1298
realities 1298
bottle 1298
IX 1298
Register 1297
lian 1297
qualify 1297
races 1297
trucks 1297
merits 1297
ando 1296
scripts 1296
auction 1296
OC@@ 1296
studios 1296
advocates 1296
convey 1296
deprived 1295
fun@@ 1295
institutes 1294
450 1294
mothers 1294
OP@@ 1294
modernise 1294
historically 1294
dish 1294
mile 1294
Caucasus 1294
slide 1293
drag 1293
Da@@ 1293
commissioned 1293
captured 1293
bookings 1292
experiment 1292
analysed 1292
Point 1292
cker 1292
ics 1292
repercussions 1292
optimized 1292
chronic 1292
attacked 1291
Arctic 1291
lawyer 1291
eve 1291
iPod 1291
tie 1291
26@@ 1290
loads 1290
13th 1290
Police 1290
dryer 1290
tasty 1289
oring 1289
Awards 1289
journalist 1289
random 1288
Instance 1288
shut 1288
occasionally 1287
set@@ 1287
Full 1287
mill 1287
corrections 1287
10,000 1286
ites 1286
MA 1285
Review 1285
infected 1285
leverage 1285
bugs 1284
WHO 1284
prizes 1284
thick 1284
shoulder 1284
TO@@ 1283
disproportionate 1283
sooner 1283
inventory 1283
0,000 1283
breaches 1283
noble 1283
corrected 1282
cho@@ 1282
tanks 1282
persecution 1282
discounts 1282
inherent 1282
AP 1282
singer 1281
ron 1281
clearance 1281
Mountain 1281
Times 1281
Mario 1281
werden 1281
Rem@@ 1281
footing 1281
promptly 1281
sleeping 1280
ENT@@ 1280
ung 1280
seasonal 1280
stretch 1280
ITEMS 1280
Test 1280
gation 1279
eleven 1279
ine@@ 1279
kin 1279
entails 1279
mounting 1279
Dr 1279
architects 1278
yl@@ 1277
ñ@@ 1277
reg@@ 1276
reforming 1276
jazz 1276
mut@@ 1276
passive 1276
DO@@ 1275
ically 1275
oasis 1275
tune 1275
containers 1275
donation 1274
gi 1274
marble 1274
substitute 1274
modular 1274
ania 1273
cure 1273
Natura 1273
accelerated 1273
approving 1272
geographic 1272
Supreme 1272
DA 1272
Net 1272
orange 1272
speculation 1272
mortality 1271
Mercosur 1271
magnetic 1270
rows 1270
exempt 1270
Universal 1270
salaries 1270
pin 1270
indicative 1269
ked 1269
benefiting 1269
productions 1269
sudden 1268
ст@@ 1268
persuade 1268
arena 1267
mes 1267
lifetime 1267
Madeira 1267
tv 1267
birthday 1267
encouragement 1267
mes@@ 1267
sons 1267
RI 1266
bor@@ 1266
decreased 1266
Eurobarometer 1265
purchaser 1265
Intel 1265
Assessment 1265
Kor@@ 1265
trace 1265
crash 1265
dealer 1264
Mount 1264
bel 1264
enemies 1264
pet 1264
alert 1264
outer 1264
professions 1264
distances 1263
uncertain 1263
person@@ 1263
360 1262
moon 1261
archives 1261
ан@@ 1261
kin@@ 1261
norms 1261
devastating 1261
deb@@ 1261
intra 1261
At@@ 1260
bananas 1260
barely 1260
courtyard 1260
Ethiopia 1259
dar@@ 1259
xenophobia 1259
refrain 1259
proportionality 1259
injured 1259
ар@@ 1258
Dec@@ 1258
frameworks 1258
successive 1258
Tuscany 1258
disappeared 1258
declining 1258
ances 1257
conceived 1257
descriptions 1257
toll 1257
GU@@ 1257
contradiction 1257
malaria 1256
rises 1256
Strategic 1256
Nord 1256
occurring 1256
SM@@ 1255
imagination 1255
template 1255
coating 1255
mercury 1255
impressed 1254
URL 1254
Pra@@ 1254
Mur@@ 1254
0,@@ 1254
breast 1253
soci@@ 1253
queries 1253
14th 1253
organizing 1253
Kenya 1253
suspend 1253
UT@@ 1252
remedies 1252
Em@@ 1252
int 1252
4,@@ 1252
tag 1252
hoping 1251
wheels 1251
antique 1251
16.@@ 1251
minded 1250
anda 1250
nominated 1250
Sim@@ 1250
shell 1250
proportionate 1250
Future 1249
cent@@ 1249
exceeds 1249
Arena 1249
beverages 1249
ny 1248
Fed 1248
ela 1248
Works 1247
motivation 1247
ap 1247
Ly@@ 1247
vaccination 1246
disclosure 1246
positioned 1246
Mari@@ 1246
Venezuela 1246
1945 1246
EV@@ 1245
resist 1245
consultants 1245
TEN 1245
formulated 1245
organisational 1244
realisation 1244
counterparts 1243
steep 1243
Game 1242
ame 1242
celebration 1242
warnings 1242
Wales 1242
supplying 1242
peer 1241
scenarios 1241
prevail 1241
ined 1241
pot 1241
ern@@ 1241
synthetic 1241
boutique 1240
counting 1240
evenings 1240
poultry 1240
linen 1240
ALDE 1239
Bon@@ 1239
wo@@ 1238
derogations 1238
Vol@@ 1238
ANT@@ 1238
É@@ 1238
Wellness 1238
fabulous 1238
G8 1238
в 1237
assuming 1237
Quark 1237
Political 1237
GB 1237
tra 1236
thrown 1236
spo@@ 1236
Nazi 1236
fairness 1235
gar 1235
backup 1234
Del@@ 1234
eta 1234
With 1234
mature 1233
aci@@ 1233
commend 1233
wearing 1233
clearing 1233
acknowledges 1233
Travel 1232
gue 1232
strengthens 1232
strengths 1232
ç@@ 1231
propaganda 1231
recreation 1231
exporting 1231
multilingual 1230
spec@@ 1230
accurately 1230
fifty 1230
att@@ 1230
Platform 1230
ECOFIN 1229
symptoms 1229
Statement 1229
manually 1229
NO@@ 1228
tranquil 1228
folk 1228
cooperating 1228
transposed 1228
ie@@ 1228
Man 1228
ALE 1228
Dolomites 1227
factories 1227
shame 1227
DR@@ 1227
Officer 1227
optimistic 1227
eib.org 1226
affair 1226
refreshing 1226
Schulz 1226
commodities 1226
Queen 1226
Ak@@ 1226
aj@@ 1226
stein 1225
populated 1225
sensors 1225
SE@@ 1225
Metro 1225
Ga@@ 1225
congress 1223
bles 1223
sehr 1223
2.2 1222
forever 1222
Operational 1222
pretext 1221
accessing 1221
Marketing 1221
therapeutic 1221
ee 1221
War@@ 1220
incorporating 1220
conscience 1220
imply 1220
las@@ 1219
Use 1219
Kurdish 1219
disc 1219
insofar 1219
B. 1219
CC 1219
notable 1219
dad 1219
anymore 1218
dalam 1217
Staff 1217
calculations 1216
kes 1216
storm 1216
rac@@ 1215
Top 1215
synergies 1215
wet 1214
Daniel 1214
fs 1214
manages 1214
PHARE 1214
awaiting 1213
alarming 1213
desert 1213
Account 1213
dar 1213
highlighting 1213
HR 1213
Solutions 1212
deficiencies 1212
log@@ 1212
infection 1211
gentle 1211
There 1211
bon@@ 1211
37@@ 1211
minibar 1210
Sub@@ 1210
bn 1210
burn 1210
и@@ 1210
translators 1210
risen 1210
protocols 1209
AK@@ 1209
Ober@@ 1209
communicated 1209
remit 1209
avi@@ 1208
Shanghai 1208
Mary 1208
mediation 1208
abolish 1208
Wallström 1207
lacks 1207
Monte 1207
ú@@ 1206
elli 1206
bli@@ 1206
buffer 1205
а 1205
ji@@ 1205
vegetation 1205
Brazilian 1205
Tar@@ 1205
dre@@ 1204
Cer@@ 1204
Santer 1204
Instruments 1204
hyper@@ 1204
Char@@ 1204
swi@@ 1203
smoothly 1203
SA@@ 1203
sw@@ 1203
jo 1203
screens 1203
german 1203
selective 1203
Ps 1202
husband 1202
Terrace 1202
yearly 1202
cop@@ 1202
н@@ 1202
AB 1202
arian 1201
derivatives 1201
foreigners 1201
allocate 1200
lit 1200
switching 1200
Hitler 1200
PE 1199
devote 1199
Age 1199
entail 1198
comparative 1198
specification 1198
rocks 1198
weaker 1198
Russians 1197
ción 1197
Vel@@ 1197
thou 1197
chips 1197
dal 1197
Tro@@ 1196
Democracy 1196
triple 1196
Big 1196
LT 1195
shipbuilding 1195
20.@@ 1195
multitude 1195
evaluating 1195
I. 1195
asi@@ 1194
criticised 1194
ement 1194
undermining 1194
influences 1194
fabrics 1194
ham@@ 1193
Peru 1193
tran@@ 1193
Des@@ 1192
1.3 1192
aire 1191
й@@ 1191
ele@@ 1191
confined 1191
PER@@ 1191
ess@@ 1190
forbidden 1190
Steel 1190
yp@@ 1189
socialist 1189
aling 1189
Frontex 1188
wins 1188
1979 1188
springs 1188
exercised 1188
san@@ 1188
negligence 1188
cr@@ 1187
filed 1187
alize 1187
65@@ 1187
Cambodia 1186
ards 1186
picked 1186
Taliban 1186
milestone 1186
render 1185
transpose 1185
Globalisation 1185
trendy 1185
tiles 1185
noisy 1185
steadily 1185
uphold 1184
ye@@ 1184
eradication 1184
As@@ 1184
laundry 1184
sind 1184
Task 1184
spatial 1183
Hel@@ 1183
1984 1183
triggered 1183
cigarettes 1183
ethics 1183
dimensional 1183
fridge 1183
recourse 1182
shores 1182
dol@@ 1182
editors 1182
bol@@ 1182
Super@@ 1182
adhere 1182
sk 1181
insisted 1181
VI@@ 1181
couldn 1181
Week 1181
harmonious 1180
ace 1180
Dor@@ 1180
ра@@ 1180
stepping 1180
not@@ 1180
counterfeiting 1180
diameter 1179
chef 1179
obligatory 1179
terrain 1179
horizon 1179
nbsp 1179
MAR@@ 1178
Catherine 1178
fleets 1178
facto 1178
approaching 1178
Jan@@ 1178
coin 1177
SDL 1177
solarium 1176
agreeing 1176
simulation 1176
fibre 1175
Cotonou 1175
Contact 1175
BL@@ 1175
midst 1175
somehow 1174
participant 1174
lengthy 1173
broke 1172
frankly 1172
nationalism 1172
sion@@ 1172
aquaculture 1172
Lanka 1172
fortress 1172
cup 1171
REACH 1171
ning 1171
top@@ 1171
ited 1171
manipulation 1171
determines 1171
Medical 1171
Exhibition 1171
Düsseldorf 1171
harmonization 1170
Bed 1170
college 1170
linear 1170
attentive 1170
iness 1170
theater 1169
exceeding 1169
plastics 1169
rou@@ 1169
assumes 1169
ros 1168
licenses 1168
backdrop 1168
fulfilment 1168
terminals 1168
collectively 1167
zoom 1167
S.A. 1167
tica 1167
inn@@ 1167
220 1167
surfing 1166
childhood 1166
incredibly 1165
tongue 1165
Renaissance 1165
blow 1165
Partners 1164
suspect 1164
Land@@ 1164
merit 1164
tom@@ 1164
fairs 1163
carriage 1163
hes 1163
halls 1163
offence 1163
longest 1163
SD@@ 1162
inch 1162
phenomena 1162
transferring 1162
chan@@ 1162
Uni@@ 1162
postponed 1161
decor 1161
iz@@ 1161
Patent 1161
declined 1161
upgraded 1161
sus 1160
complying 1160
Sur@@ 1160
Prof. 1159
amp 1159
passage 1159
conception 1159
sn@@ 1159
Fu@@ 1158
jump 1158
confront 1158
Cuban 1158
stock@@ 1158
warned 1158
strip 1158
powder 1158
Albanian 1158
Building 1158
personalized 1157
pump 1157
Trump 1157
shapes 1157
possess 1157
claiming 1157
sz@@ 1157
stan@@ 1156
ecosystems 1156
dying 1156
engaging 1155
chaos 1155
1970s 1155
monopolies 1155
cycles 1155
truck 1155
ony 1154
Euros 1154
W. 1154
donations 1154
anybody 1154
unite 1154
power@@ 1154
ases 1153
Hussein 1153
Friendly 1153
Class 1153
insecurity 1152
forefront 1152
construct 1152
fauna 1152
vis@@ 1152
moratorium 1152
Wil@@ 1152
ath 1152
basin 1151
hydrogen 1151
Trans 1151
nowhere 1151
fulfill 1151
lying 1150
Visa 1150
installer 1149
Prince 1149
teeth 1149
roadmap 1149
aesthetic 1149
Holland 1149
mobilisation 1149
documentary 1148
motto 1148
unexpected 1148
injuries 1148
redundant 1148
Micro@@ 1147
pair 1147
gra 1147
connects 1147
administrator 1147
sor@@ 1146
Lounge 1146
WORD 1146
lab@@ 1146
Naples 1146
Borg 1146
SC 1145
commenting 1145
gues 1145
brown 1145
masters 1145
He 1145
posi@@ 1144
SU@@ 1144
pen 1144
deliberate 1144
bis 1144
hang 1143
Panel 1143
positioning 1143
zo 1143
wir 1143
appeals 1143
durable 1143
LIFE 1143
Ref 1142
Liberals 1142
undermined 1142
laboratories 1142
emotions 1142
ratings 1142
len@@ 1141
Ticket 1141
bikes 1141
sister 1141
Image 1141
Lamy 1141
reimbursement 1141
defended 1141
drawings 1140
pin@@ 1140
precedent 1140
informing 1140
cosmetic 1140
animation 1140
Dry 1140
ARE 1140
fra@@ 1139
rigid 1139
tends 1139
fourthly 1139
altered 1138
differing 1138
cing 1138
Andreas 1138
Air@@ 1137
criticisms 1137
exchanged 1137
Net@@ 1137
reviewing 1137
learnt 1137
Tarifa 1136
gent 1136
honor 1136
breakthrough 1136
ford 1136
heim 1136
ades 1135
sl@@ 1135
destroying 1135
encryption 1135
fruitful 1134
attributed 1134
2.1 1134
ail@@ 1134
sentences 1134
Leonardo 1133
Century 1133
EDF 1133
slot 1133
refusing 1133
Frank 1132
forcing 1132
relocation 1132
privilege 1132
Milosevic 1132
IV@@ 1132
fragmentation 1131
conform 1131
threatens 1131
Cape 1131
ill@@ 1131
Laundry 1131
retro@@ 1130
mid@@ 1130
versatile 1130
regeneration 1130
violated 1130
concerted 1130
Cro@@ 1130
Belgrade 1129
nach 1129
Bol@@ 1129
mobilise 1128
Chair 1128
mails 1128
lifted 1128
05@@ 1128
prosecution 1127
C5 1127
DNA 1127
3.0 1126
Met@@ 1126
worthwhile 1126
Summer 1126
pel@@ 1125
scan 1125
BUSINESS 1124
virtue 1124
Gothic 1124
226 1124
traded 1124
unclear 1123
buyers 1123
Mar 1123
Essen 1123
dependency 1123
Freedom 1122
instruction 1122
reaffirmed 1122
ineffective 1122
temple 1122
cartel 1122
GUE 1121
stic 1121
fic@@ 1121
mented 1121
я@@ 1121
ols 1121
cocktail 1121
dynamics 1120
incidentally 1120
Competitiveness 1120
feasibility 1119
Garda 1119
entrusted 1119
trillion 1119
brochure 1119
ea 1119
monitors 1118
seating 1118
explaining 1118
9001 1118
enchanting 1118
calculate 1118
Marie 1118
tired 1117
benchmark 1117
constituency 1117
GSP 1117
Mercedes 1117
Wa@@ 1116
Ferrero 1116
Wikicars 1116
ath@@ 1116
var 1116
Open@@ 1116
Marine 1115
zur 1115
ean 1115
traces 1115
Now 1114
Bill 1114
pity 1114
monastery 1113
API 1113
extract 1113
gourmet 1113
shelter 1113
mankind 1113
realization 1113
understands 1112
foot@@ 1112
lush 1112
remark 1112
defect 1112
disappointing 1112
photographer 1112
slaughter 1111
cement 1111
inserted 1111
vic@@ 1111
secular 1110
ab 1110
delightful 1110
Les 1110
catalog 1110
Far@@ 1110
priced 1110
ward 1110
hitherto 1110
allowance 1109
Tel@@ 1109
proceeding 1109
Photocopying 1109
Rock 1109
2.4 1109
liber@@ 1109
prints 1109
revise 1109
expecting 1109
Euratom 1108
exercising 1108
esta 1108
Local 1108
Börse 1107
tot@@ 1107
peaks 1107
emphasized 1107
hybrid 1107
PROCESSED 1107
sch 1106
salary 1106
reproductive 1106
browse 1106
bans 1106
Spirit 1106
din 1106
1.4 1106
gratitude 1105
й 1105
exert 1105
ark@@ 1105
kers 1105
complemented 1104
yard 1104
disciplines 1104
appearing 1104
pumps 1104
Limited 1104
ming 1104
tos 1104
bly 1104
volunteers 1104
comitology 1104
appliances 1104
See 1103
exp@@ 1103
End 1103
graphy 1103
wer@@ 1103
lon@@ 1103
ises 1103
var@@ 1103
RA 1102
banning 1102
ados 1102
hub 1102
slave 1102
proprietary 1102
Pet@@ 1102
caution 1102
outlines 1102
launches 1102
finger 1101
operative 1101
bin@@ 1101
einer 1101
fireplace 1101
associate 1100
professionalism 1100
premature 1100
rounds 1100
gal@@ 1099
alise 1099
observer 1099
seal 1099
Gor@@ 1098
bits 1098
Waldner 1098
confused 1098
junior 1098
sie 1098
peninsula 1098
promenade 1098
scandal 1098
Byrne 1097
hal@@ 1097
deregulation 1096
rooted 1096
PAR@@ 1096
yacht 1096
loc@@ 1096
FC 1096
bets 1095
ROM 1095
E. 1095
condemnation 1095
mainstream 1094
Juan 1094
Light 1094
mixing 1094
eds 1094
Mexican 1094
Sant 1094
harsh 1094
qui 1093
sharply 1093
disappointment 1093
entrepreneurial 1093
publicity 1093
capitalist 1093
appalling 1092
lesser 1092
loop 1092
gifts 1092
straightforward 1092
ja@@ 1092
Package 1091
Sarkozy 1091
án 1091
kar@@ 1091
Programmes 1090
Tr@@ 1090
Learning 1090
benchmarks 1090
olo@@ 1090
fur@@ 1090
Hill 1090
ack 1089
juice 1089
colourful 1089
provinces 1089
piracy 1088
break@@ 1088
approximation 1088
cave 1088
exc@@ 1088
sters 1087
Championship 1087
disarmament 1087
ert 1087
optimization 1087
challenged 1086
sick 1086
tering 1086
Sciences 1086
LE@@ 1086
Source 1086
pul@@ 1086
inspectors 1086
entirety 1085
assi@@ 1085
whi@@ 1085
ken@@ 1085
proactive 1084
Santiago 1084
Smith 1084
ø@@ 1084
rentals 1084
Baden 1084
12th 1084
tures 1084
prohibit 1084
airspace 1083
mol@@ 1083
Australian 1083
definite 1083
ao 1083
robots 1083
Good 1083
restricting 1083
Mel@@ 1083
Mayor 1083
Resources 1082
seize 1082
consultancy 1082
FR@@ 1082
alists 1082
GBP 1082
stu@@ 1082
continents 1081
Days 1081
creditors 1081
recordings 1081
ras 1081
yer 1081
employs 1081
conversation 1081
habitats 1080
PH@@ 1080
vague 1080
Ol@@ 1079
blend 1079
Instrument 1079
contaminated 1079
swim 1079
ö@@ 1078
Provence 1078
domains 1078
Eu@@ 1078
interpret 1078
dat@@ 1078
capitali@@ 1078
Province 1078
From 1078
п@@ 1077
prevailing 1077
coup 1077
1978 1077
opposing 1077
QU@@ 1077
restraint 1076
irresponsible 1076
ku 1076
unification 1076
alcoholic 1076
acceding 1076
mb@@ 1076
nominal 1075
hydraulic 1075
enthusiastic 1075
Wolfgang 1075
equitable 1074
18.@@ 1074
Position 1074
Of 1073
Part 1073
rebuild 1073
Cleaning 1073
Rom@@ 1073
Ham@@ 1073
betting 1073
balances 1072
Tibetan 1072
lec@@ 1072
readily 1072
weaken 1072
An 1072
BA 1072
deliberations 1072
casting 1072
pas 1071
FREE 1071
beginners 1071
vor@@ 1071
Frattini 1071
Other 1070
Anti@@ 1070
likes 1070
les@@ 1070
38@@ 1070
english 1070
attain 1069
GA 1069
SL 1068
intuitive 1068
poorly 1068
stepped 1068
1975 1068
Basque 1067
gates 1067
alignment 1067
SMS 1067
duplication 1067
surpluses 1067
stipulated 1067
magical 1067
Pat@@ 1067
laptop 1067
drought 1066
sanitation 1066
thread 1066
valleys 1065
gl@@ 1065
5,@@ 1065
Multi@@ 1065
butter 1065
ALL 1065
Bolkestein 1065
exemplary 1065
vari@@ 1065
scenic 1064
Cardiff 1064
cleaner 1064
Bou@@ 1063
Kazakhstan 1063
Israelis 1063
Cur@@ 1063
forty 1063
ETS 1063
sacrifice 1063
exhibitors 1062
reinforcement 1062
xi@@ 1062
exporters 1062
1.6 1062
cozy 1061
mm@@ 1061
form@@ 1061
circles 1061
eth@@ 1060
FOR@@ 1060
binary 1060
interfere 1060
On@@ 1060
VII 1060
yours 1060
bankruptcy 1060
overlap 1059
cking 1059
horny 1059
But 1059
reunification 1059
influential 1059
playground 1059
profitability 1059
mortgage 1059
appoint 1058
pper 1058
gladly 1058
.com. 1058
arch@@ 1057
refuge 1057
antitrust 1057
dress 1057
Che@@ 1057
We@@ 1057
vor 1056
farmer 1056
Mad@@ 1056
Olympus 1055
Kinnock 1055
redundancies 1055
explanatory 1055
Conciliation 1055
Liikanen 1055
predecessor 1054
dozens 1054
precondition 1054
ums 1054
demo 1054
Ibiza 1054
remembered 1054
recipients 1053
MA@@ 1053
Functioning 1053
cher@@ 1053
ft@@ 1053
Sc@@ 1053
complies 1053
awaits 1053
.&apos; 1053
Oslo 1053
UL@@ 1053
dirty 1052
swe@@ 1052
s.com 1052
TER@@ 1052
focal 1052
cloud 1052
1967 1052
val 1052
redress 1052
tap 1052
archaeological 1051
Johannesburg 1051
pipe 1051
extraction 1051
Advocate 1051
optimize 1051
cornerstone 1051
spi@@ 1051
coloured 1050
dental 1050
cos 1050
dom@@ 1050
4379 1050
delight 1050
aren 1050
hard@@ 1049
cla@@ 1049
tile 1049
winds 1049
govern 1049
ately 1049
oven 1049
Č@@ 1048
wholeheartedly 1048
CS@@ 1048
inability 1048
gran@@ 1048
copying 1048
Sales 1048
Ur@@ 1048
19@@ 1048
ingen 1047
intensified 1047
19.@@ 1047
Cambridge 1047
aqu@@ 1047
Ap@@ 1046
quo 1046
nel 1046
Bus 1046
spirits 1046
friendship 1046
composer 1045
consolidating 1045
flags 1045
ures 1045
vin@@ 1044
deepen 1044
memorable 1044
sponsored 1044
Cy@@ 1044
maize 1044
2050 1043
enthusiasts 1043
oper@@ 1043
speedy 1043
shots 1043
reconcile 1043
fathers 1043
detrimental 1042
harvest 1042
dor@@ 1042
fashionable 1041
Sports 1041
letting 1041
lucky 1041
Panasonic 1040
usable 1040
somebody 1040
File 1040
eligibility 1040
Word 1040
Fischer 1039
tastes 1039
Uruguay 1039
breath 1039
influenza 1039
EB@@ 1038
Harbour 1038
café 1038
Managing 1038
fli@@ 1038
transmit 1038
snack 1038
Tax 1037
vaccines 1037
civilisation 1037
literary 1037
roaming 1037
ECSC 1037
consciousness 1037
excessively 1037
Philippines 1036
embrace 1036
onia 1036
pluralism 1036
thresholds 1036
advocated 1036
touched 1036
columns 1035
climb 1035
celebrations 1035
particles 1035
consuming 1035
GMO 1034
bomb 1034
Treasury 1034
Ven@@ 1033
prof@@ 1033
Neu@@ 1033
gel 1033
sat 1033
locals 1032
royal 1032
expressions 1032
NGO 1032
hed 1032
Tribunal 1032
6,@@ 1032
grows 1032
EM 1032
RELATIONS 1031
Buyer 1031
Credit 1031
hereby 1031
depression 1031
Picard 1030
packing 1030
Tal@@ 1030
weakened 1030
oria 1030
destructive 1030
patented 1030
м 1030
fil@@ 1029
Fri@@ 1029
alleviate 1029
Prix 1029
eni@@ 1029
idyllic 1029
authorization 1029
tubes 1028
combinations 1028
red@@ 1028
Lam@@ 1028
cautious 1027
informations 1027
seasons 1027
como 1026
traveling 1026
icons 1026
facilitates 1026
surprisingly 1025
congestion 1025
wheat 1025
proceeds 1025
Chicago 1024
West@@ 1024
strain 1024
interviews 1024
loyalty 1024
aggregate 1024
absent 1024
pun@@ 1024
consumed 1024
dent 1024
dorf 1023
suggesting 1023
dam@@ 1023
1976 1023
1982 1023
illicit 1023
bills 1023
pollutants 1023
suicide 1023
Equality 1022
shifting 1022
Advisory 1022
zum 1022
travelers 1022
instructed 1022
extensions 1022
discovering 1022
ots 1022
8th 1022
Channel 1022
arisen 1021
Claude 1021
uns 1021
Dun@@ 1020
Insurance 1020
offshore 1020
veto 1020
oning 1020
designation 1020
nit@@ 1020
ín 1020
illustrate 1019
tastefully 1019
stopping 1019
reminder 1019
hip 1019
regulator 1018
dismantling 1018
170 1018
anc@@ 1018
supposedly 1018
epidemic 1018
amounting 1018
anna 1018
ecommerce 1017
Nuclear 1017
149 1017
Banquet 1017
PP@@ 1017
Chapter 1017
112 1017
payable 1016
Joe 1016
shi@@ 1016
Zi@@ 1016
tt@@ 1016
dare 1016
biking 1016
eda 1016
Opportunities 1016
borrowing 1016
Gift 1016
Cypriot 1016
pressed 1015
Kon@@ 1015
slowdown 1015
offensive 1015
elaborate 1014
ome 1014
Laeken 1014
migrant 1014
ash@@ 1014
Gate 1014
thesis 1014
elect 1014
2,000 1014
snow@@ 1014
hatred 1014
eur 1013
petition 1013
monument 1013
cluster 1013
Cannes 1013
unsatisfactory 1013
creatures 1012
showers 1012
anonymous 1012
progressively 1012
3000 1012
os@@ 1012
Bio@@ 1012
rejecting 1012
LAN 1012
facilitation 1011
honey 1011
infections 1011
resumption 1011
analysing 1011
engineer 1011
pic@@ 1011
appealing 1011
authoritarian 1010
sign@@ 1010
rit@@ 1010
17.@@ 1010
pipes 1010
console 1010
steering 1010
predict 1010
Franco 1009
volcanic 1009
deci@@ 1009
anticipate 1009
simultaneous 1009
relatives 1009
exhaust 1009
lowering 1008
fal@@ 1008
cellar 1008
backs 1008
designate 1008
Ali@@ 1008
11th 1008
shoot 1007
125 1007
constituted 1007
retreat 1007
overcoming 1007
Alpha 1007
Voyager 1007
Ren@@ 1007
cruise 1007
GE 1007
yst@@ 1006
lessly 1006
mainstreaming 1006
Trading 1006
slots 1006
ain 1006
loose 1006
101 1006
Cairo 1006
ura 1005
9th 1005
minimise 1005
Movement 1005
cosmetics 1005
tones 1005
dian 1005
disadvantages 1005
Airconditioning 1005
tal@@ 1004
shoe 1004
coun@@ 1004
SCH@@ 1003
habits 1003
ction 1003
duc@@ 1002
Bavarian 1002
fiction 1002
Vit@@ 1002
1960 1002
Computer 1002
LED 1002
emails 1001
Plan@@ 1001
Phase 1001
geopolitical 1001
tahun 1000
decentralised 1000
lau@@ 1000
ERS 1000
pocket 1000
downturn 1000
terminate 1000
Brok 999
Pl@@ 999
amounted 999
Version 999
Viviane 999
Pla@@ 998
activation 998
Urban 998
cio 998
lamps 998
metre 998
Volkswagen 997
port@@ 997
Infrastructure 997
refunds 997
ESC 997
enjoyment 997
0.1 997
abortion 996
disorders 996
Equal 996
accounted 996
EPP 996
2.3 996
70@@ 996
Gr@@ 996
drama 996
Read 995
Young 995
administered 995
Upper 995
odds 995
smuggling 995
Release 994
replies 994
cab@@ 994
Baroness 994
invented 994
rough 994
bus@@ 994
Ski 993
notwithstanding 993
cake 993
Kol@@ 993
guardian 993
mentioning 993
gam@@ 993
shocks 992
Update 992
antibiotics 992
ist@@ 992
Migration 992
owe 992
biomass 992
migratory 992
Premier 992
ord@@ 992
journeys 992
dle 992
immune 992
seriousness 992
venues 992
tournaments 991
Pas@@ 991
attributes 991
iting 991
Adjustment 991
Bat@@ 991
hr@@ 990
readmission 990
duly 990
Tan@@ 990
Gen@@ 990
stor@@ 990
empire 990
ong@@ 989
sulphur 989
struggling 989
Weekly 989
abide 989
catastrophe 989
County 988
reciprocity 988
eing 988
champion 988
finalised 988
compliant 988
ler@@ 987
evolved 987
distort 987
tz 987
physics 987
sail 987
lebih 987
manufactures 986
shipped 985
cloning 985
Fe@@ 985
seventh 985
brake 985
singing 985
Juncker 985
Eurojust 984
county 984
sentenced 984
FL@@ 984
contradictory 984
1960s 983
kingdom 983
Ara@@ 983
Apache 983
BY 983
Carlos 983
outlets 982
Is@@ 982
bass 982
noting 982
irregular 982
thrust 982
Buenos 982
law@@ 982
simplicity 982
Gibraltar 981
î@@ 981
time@@ 980
reciprocal 980
bot@@ 980
spheres 980
presently 980
prostitution 980
Ram@@ 980
Orchestra 980
Dan@@ 980
circum@@ 980
crowd 979
Victoria 979
comprise 979
Nu@@ 979
Lithuanian 979
radically 979
Advanced 978
aded 978
kitchenette 978
Barack 978
ho 978
compounds 978
supplemented 978
publishers 978
art@@ 977
cafes 977
invention 977
ling@@ 977
tness 977
Chris 977
Yemen 977
Ecofin 976
massages 976
Sun@@ 976
grapes 976
rolled 976
edges 975
ceramic 975
mainland 975
mit@@ 975
Aires 975
counted 975
1968 975
enhancement 975
ICE 974
performs 974
computing 974
winding 974
5,000 974
sten 973
atively 972
wealthy 972
Jacuzzi 972
handy 972
audits 972
assembled 972
4.5 972
professor 971
misuse 971
Cala 971
logging 971
brothers 971
wie 971
imbalance 971
neck 971
courageous 971
Delegation 970
investigating 970
2030 970
modernising 970
recital 970
growers 970
wellbeing 970
When 970
sible 969
dynamism 969
cel@@ 969
suspicion 969
corrupt 969
YOU 969
postpone 969
parish 968
predictable 968
Chernobyl 968
gh 968
stro@@ 968
electorate 968
ESA 968
formulate 968
palm 968
encrypted 968
sup@@ 968
Canal 968
і 968
paramount 968
ć 968
castles 968
FAQ 968
objection 968
Pin@@ 968
dedication 968
murdered 968
renew 967
fle@@ 967
Airways 967
EST 967
rests 967
cocktails 967
Facebook 966
Vassiliou 966
UM@@ 966
stamp 966
preview 966
logos 965
athletes 964
â@@ 964
ner@@ 964
acquiring 964
black@@ 964
writes 964
beliefs 964
Tuscan 964
0.00 964
sle@@ 964
tas 964
Kat@@ 963
sten@@ 963
Nepal 963
Hal@@ 963
disclose 963
Stock 963
NI@@ 963
Bangladesh 963
Georgian 963
conf@@ 963
blo@@ 963
Next 963
Angeles 962
Angola 962
Ag@@ 962
Lanzarote 962
oli 962
compression 962
Medi@@ 962
consecutive 962
Abu 961
thereafter 961
ario 961
ped 961
desires 961
systemic 961
Cubase 961
297 961
dings 960
corporation 960
rever@@ 960
illustrated 960
politician 959
Banking 959
AKVIS 959
fixes 959
patience 959
Nov@@ 959
ae 959
dru@@ 959
2.6 959
legend 959
relies 958
admittedly 958
complain 958
templates 958
Perspective 958
slope 958
Klaus 957
Jackson 957
zy@@ 957
anger 957
Bremen 957
yo 957
Power@@ 957
gun 956
dell 956
matched 956
pubs 956
nat@@ 956
intervals 956
Sen@@ 955
electro@@ 955
lectures 955
warn 955
reminds 955
3355 955
brick 955
brush 955
weekends 954
LIN@@ 954
doubled 954
actu@@ 954
flooding 954
persist 954
229 954
happiness 954
1973 953
evolving 953
realm 953
deploy 953
Granada 953
abstract 953
privately 952
ams 952
respondents 952
coat 952
bis@@ 952
ero@@ 952
attendance 951
neglected 951
clears 951
aforementioned 951
Tru@@ 951
Pap@@ 951
Don 951
Tom 951
supplements 951
undergo 951
Audit 950
acy 950
towers 950
optimism 950
Standards 950
Liberties 950
dancing 950
celebrating 950
1977 949
Tools 949
warmth 949
reads 949
Avenue 949
legality 949
twentieth 949
modernization 949
levy 949
Sec@@ 948
draftsman 948
mal 948
illustrates 948
AU 948
undergoing 948
multinationals 947
Senate 947
mentions 947
&apos;E@@ 947
copied 947
rape 947
unjustified 947
196 946
cont@@ 946
ř@@ 946
satellites 946
500@@ 946
hol@@ 946
locate 946
sou@@ 945
TACs 945
graduates 945
rendered 945
68@@ 945
prompted 944
responds 944
destined 944
subway 944
ue 944
Ay@@ 944
supportive 944
Kim 944
Forestry 943
128 943
tolerate 943
play@@ 943
ography 943
Sel@@ 943
Ke@@ 943
hike 943
beta 943
rendering 942
wildlife 942
ч@@ 942
VER@@ 942
Henry 942
7,@@ 942
far@@ 941
PCs 941
differs 941
cited 941
materi@@ 941
Kra@@ 940
inde@@ 940
CAD 940
desperate 940
Mobility 940
aga 940
Km 940
Kremlin 940
1981 939
opponent 939
Property 939
Merkel 939
floating 939
Currency 939
34@@ 938
explosion 938
Hei@@ 938
balancing 938
rewards 937
balconies 937
SD 937
religions 937
marketed 937
advisable 937
sorted 936
ading 936
P. 936
housed 936
hits 936
disturbing 936
completeness 936
WiFi 936
bers 936
egg 936
Download 936
opted 936
curious 935
describing 935
sto 935
Ty@@ 935
Up 934
NGL 934
Candidate 934
inspire 934
exploration 934
blu@@ 934
receiver 934
corners 934
welding 933
Tom@@ 933
cookie 933
este 933
analytical 933
care@@ 933
His 932
muy 932
Wei@@ 932
streams 932
smo@@ 932
pixels 932
Ironing 932
haus 932
processors 932
lis 932
Malmström 931
millennium 931
freeze 931
cc@@ 931
cables 931
stal@@ 931
distributor 931
8,@@ 930
eller 930
BER@@ 930
attracting 930
flagship 930
counterfeit 930
ref@@ 930
fairer 930
behave 929
confrontation 929
PVC 929
wards 929
exchanging 929
sunshine 929
Gri@@ 929
striving 929
diagnostic 928
exploiting 928
Gothenburg 928
3.2 928
mot@@ 928
Rwanda 928
smell 928
premiums 928
T. 927
phasing 927
recognizes 927
1983 927
ut 927
pit@@ 927
tan 927
Lower 926
No. 926
ova 926
insulation 926
Lido 926
Klingon 926
weakening 926
neighbour 926
industrialised 926
Father 925
eck 925
Thessaloniki 925
predominantly 925
Il@@ 925
Nielson 925
maturity 924
parliamentarians 924
Democrat 924
kindly 924
mask 924
DIN 924
Governance 923
fragmented 923
harmonising 923
Super 923
projections 923
graduate 923
umbrella 923
neighborhood 923
perpetrators 922
.ch 922
glance 922
75@@ 922
drastic 922
cas 922
wind@@ 922
tier 922
Sixth 922
At 922
mur@@ 922
wil@@ 921
ESDP 921
incumbent 921
Ben 921
sy 921
fis@@ 921
marketplace 921
aerospace 921
new@@ 921
Cli@@ 920
lady 920
amb@@ 920
surf 920
marvellous 920
assignment 920
Montreal 920
helicopter 920
proving 920
alla 920
pensioners 920
Table 919
basket 919
compressed 919
representations 919
по@@ 919
Delta 919
climatic 919
feeds 919
dd@@ 919
lan 919
strasse 918
wash 918
accord 918
bottles 918
guys 918
hate 918
Cl@@ 918
advertisements 918
bedding 918
imprisoned 918
patio 918
Night 918
Oxford 918
touches 917
maternity 917
33@@ 917
Greenland 917
tasting 917
publisher 917
concentrations 917
font 917
Lomé 916
fol@@ 916
flu@@ 916
39@@ 916
planted 916
differentiated 916
landmark 916
unwind 916
dose 916
64@@ 916
Cab@@ 916
slogan 916
rin@@ 915
assistant 915
echo 915
sacred 914
run@@ 914
senses 914
kes@@ 914
assign 914
violate 914
gia 914
hur@@ 914
tar 914
principally 913
legs 913
Integrated 913
Emperor 913
Mis@@ 913
alizing 913
liabilities 913
impunity 913
specialties 912
Sofia 912
Premium 912
physically 912
precarious 912
promotions 911
analyze 911
ney 911
extensively 911
Algarve 911
Pope 911
Miguel 911
recipes 910
confirming 910
Cat@@ 910
RAM 910
arose 910
validation 910
debut 910
Walter 910
hum@@ 910
DI 910
formulation 909
bil@@ 909
Majorca 909
fan@@ 909
concentrating 909
fora 909
Dem@@ 908
swing 908
honoured 908
photographic 908
Ja@@ 908
beam 908
etta 907
ez 907
Quartet 907
harassment 907
interiors 907
vil@@ 906
trusted 906
nationalist 906
incorporates 906
tags 906
pronounced 906
summits 906
fications 905
maximise 905
absorb 905
750 905
Bahn 905
din@@ 905
enter@@ 905
Comm@@ 904
acks 904
photographers 904
Sound 904
illnesses 904
ry@@ 904
unsustainable 904
CAR@@ 904
ota 904
degradation 903
fired 903
Conduct 903
cigarette 903
adjustable 903
editorial 903
net@@ 902
fluctuations 902
Saxony 902
renewables 902
Manhattan 902
explored 902
saves 902
authorising 901
Almunia 901
Easter 901
meng@@ 901
eo 901
Cra@@ 901
compile 901
mana 901
incorporation 901
pregnant 901
Excel 901
yea 900
eti@@ 900
Markets 900
bo 900
zen 900
unlawful 900
After 900
nie 900
adidas 899
uranium 899
cultivated 899
TC 899
22.@@ 899
Auto@@ 899
dem@@ 899
Marbella 899
TFEU 899
assurances 899
Uzbekistan 899
Bali 899
stuck 898
catching 898
allegations 898
Burundi 898
foreseeable 898
arch 898
grip 898
quar@@ 898
mad 898
pitch 898
accomodation 898
Temple 897
controllers 897
wi 897
pigs 897
wasted 896
hin@@ 896
predicted 896
TACIS 896
cow 896
theatres 896
pem@@ 896
neighbors 896
Adam 896
annulment 895
indi@@ 895
aus@@ 895
circular 895
abstain 895
Economics 894
nutritional 894
1974 894
worries 894
inventions 894
Ed@@ 894
Albert 894
constituents 894
Deutschland 893
sea@@ 893
ju 893
pledge 893
hinder 893
endangered 893
Siena 893
yards 893
interconnection 893
vigilant 893
gg@@ 892
Lat@@ 892
SSL 892
V. 892
tus 892
nose 892
shareholder 892
ASS@@ 892
instrumental 892
manoeuvre 892
Studies 892
corridors 892
Hy@@ 892
ula 892
Apartment 891
motor@@ 891
ligh@@ 891
dness 891
let@@ 891
plac@@ 891
RES@@ 891
24th 890
terminology 890
stipulates 890
elled 890
displaying 890
holy 890
browsing 890
easing 890
Hollywood 890
prisons 890
intercultural 889
charts 889
shipments 888
Former 888
LateRooms.com 888
Fa@@ 888
Oil 888
informative 888
Bot@@ 888
motors 887
plasma 887
Ages 887
gravity 887
Vladimir 887
criticise 887
prescribed 887
Je@@ 887
Bologna 887
d.@@ 887
Uganda 887
absorption 887
combustion 887
overlook 887
etic 886
coordinator 886
reactors 886
belts 886
Application 886
Gender 886
facilitated 886
riders 885
lagging 885
spac@@ 885
Venetian 885
thro@@ 885
aligned 885
tent 884
Erika 884
kick 884
repairs 884
practise 883
New@@ 883
shortages 883
1950 883
occupying 883
ils 883
imposition 882
Verts 882
photograph 882
remainder 882
configurations 882
regain 882
Kr@@ 882
Consulting 881
kl@@ 881
Mugabe 881
racist 881
ato@@ 881
volatility 881
nia 881
heaven 881
Machine 880
Love 880
cleaned 880
Key 879
SK@@ 879
Chad 879
lac@@ 879
olo 879
marina 879
Reader 879
yields 878
Dom@@ 878
beneath 878
regrettably 878
endeavours 878
dge 877
eradicate 877
gene 877
enquiry 877
ел@@ 877
retaining 877
assent 877
aming 877
3.1 877
Sab@@ 877
correctness 877
dine 877
Classic 877
intact 877
interact 877
communicating 876
Moroccan 876
uk 876
sided 876
MEDA 876
Recovery 876
individu@@ 876
condemns 876
mento 876
flowing 875
jan 875
ater 875
ino@@ 875
dam 875
IL 875
variant 874
Kan@@ 874
takeover 874
infringed 874
..... 874
gener@@ 874
ear 874
quicker 873
tabling 873
guards 873
recipe 873
defeated 873
gay 873
Collection 873
versa 872
supranational 872
adventures 872
crossed 872
Terminal 872
Lebanese 872
relying 872
smile 872
excursion 872
genes 872
hanging 871
eventual 871
minerals 871
nos 871
Ob@@ 871
marginal 871
risky 871
caves 871
questioned 870
WITHOUT 870
vel 870
recalling 870
punished 870
pole 870
rulings 870
ecosystem 870
careers 870
SW@@ 869
utilisation 869
grasp 869
ANY 869
workable 869
assortment 869
newer 869
Points 869
1.8 869
mirrors 868
CF@@ 868
inhabited 868
acoustic 868
midnight 868
show@@ 868
Go 868
H. 868
Independent 868
MEDIA 867
bow 867
pockets 867
fa 867
ey@@ 867
distorting 867
exterior 867
ished 867
Hübner 867
Under 866
tuberculosis 866
freezing 866
toy 866
viewer 866
eting 866
disruption 865
organizational 865
Petersburg 865
succession 865
alising 865
cyclical 865
main@@ 865
legislators 865
Satellite 865
Do 865
slower 865
fulness 865
bubble 864
travels 864
24.@@ 864
adjusting 864
thickness 864
pornography 864
obsolete 864
seized 864
secretariat 864
The@@ 864
sound@@ 864
neuro@@ 864
controversy 863
presses 863
urging 863
Estonian 863
1500 863
xes 863
talented 863
audi@@ 863
voluntarily 863
brochures 863
passwords 863
acceleration 863
AF 863
WH@@ 862
racial 862
evaluations 862
gs@@ 862
06@@ 862
p.@@ 862
ort 862
Eurex 862
suppose 862
Dar@@ 861
Verona 861
centralised 861
missile 861
gesture 861
Editor 861
Questions 861
competitor 861
partitions 860
reassure 860
ologists 860
Leon 860
Base 859
inv@@ 859
approached 859
som@@ 859
FI 859
bility 859
ening 859
DJ 859
kel@@ 859
argues 859
ARD 859
cour@@ 858
р 858
sla@@ 858
supermarket 858
Benjamin 858
RI@@ 858
connectivity 858
chemistry 858
widening 858
ski@@ 858
ination 858
radar 858
clinic 858
trap 858
UV 857
advertisement 857
prec@@ 857
lasts 857
Tor 857
Zone 857
Crete 857
prolonged 857
wood@@ 856
supermarkets 856
Kur@@ 856
SPA 856
printers 856
kits 856
21.@@ 855
utilities 855
cooked 855
Sahara 855
Antoine 855
cook 855
ê@@ 855
nicely 854
impressions 854
GNP 854
coexistence 854
distributing 854
amateur 854
ght@@ 854
Berlusconi 854
atmospheric 854
Bag@@ 854
wouldn 854
Die 854
disorder 854
scanner 853
Bangkok 853
tab@@ 853
Audio 853
Tyrolean 853
graduated 853
Latvian 853
rotation 853
assert 853
lodge 853
kem@@ 853
seemingly 853
anxiety 853
lined 853
über 852
strategically 852
inspiring 852
Scoreboard 852
passionate 851
implied 851
mitigate 851
strings 851
ned 851
Ker@@ 851
Fol@@ 851
Store 851
G. 851
regrets 851
pledged 850
DM 850
detained 850
Outlook 849
Leader 849
atten@@ 849
assistants 849
globalised 849
Imperial 849
Production 849
SL@@ 849
ened 849
proc@@ 848
vali@@ 848
rings 848
tory 848
treasures 848
aro@@ 847
ears 847
intolerable 847
colony 847
László 847
implements 847
vendors 847
undertook 847
Leone 847
advancing 847
outdated 847
adi 847
CP@@ 847
populist 847
hearings 847
Type 846
unresolved 846
CET 846
Holding 846
taxpayer 846
sqm 846
EK@@ 846
Basic 846
ат@@ 846
liberties 845
protectionist 845
Kam@@ 845
Rotterdam 845
canal 845
Please 845
endorses 845
Crisis 845
arguing 845
Es 845
zione 844
vigorously 844
Pedro 844
Rot@@ 844
tre 844
enquiries 844
odd 844
ESS@@ 844
Pool 844
od 843
folders 843
Op@@ 843
PC@@ 843
forwarding 843
directories 843
fir@@ 843
ized 843
groundwater 843
Manchester 843
Res@@ 843
accesses 843
ě@@ 843
rush 842
personalised 842
interpreters 842
robot 842
plan@@ 842
eager 842
Lodge 841
boutiques 841
preceding 841
Texas 841
ICA 841
waiver 841
pres@@ 841
our@@ 841
Planning 841
expectation 841
mente 841
authentication 840
Networks 840
lasted 840
Anne 840
MARKET 840
replaces 840
rejects 840
scores 840
ute 840
más 839
det 839
spiral 838
Inc. 838
som 838
TER 838
Tony 838
oxygen 838
AA 838
Vision 838
hotel@@ 837
stressing 837
authorise 837
tured 837
replied 836
bombs 836
reign 836
diversified 836
disagreement 836
107 836
alities 836
gateway 836
sses 836
aftermath 836
psycho@@ 836
initi@@ 836
expiry 836
pave 835
upheld 835
assumptions 835
complements 835
owns 835
sul@@ 835
annexed 835
ail 835
100,000 835
hath 835
incapable 835
Mann 835
Gardens 834
sanitary 834
landfill 834
Cube 834
Gam@@ 834
secrecy 834
imprisonment 834
panic 834
nomination 833
one@@ 833
check@@ 833
animated 833
rides 833
cater 832
Notice 832
dity 832
minim@@ 832
aber 832
sos 832
tu 832
machining 832
insi@@ 831
changeover 831
workflow 831
ï@@ 831
cha 831
90@@ 831
imaging 831
Course 831
Sin@@ 831
beforehand 831
announces 831
parental 831
ş@@ 831
Cs 831
endorsement 831
synergy 831
на@@ 830
sponsors 830
Jack 830
Ltd. 830
ATE 830
traveller 830
calculating 830
Date 830
1.0 830
Guatemala 829
downward 829
stadium 829
imminent 829
Seventh 829
Two 829
safeguarded 829
0.7 829
oned 829
leap 829
labelled 828
ular 828
oak 828
cious 828
dismissed 827
Eli@@ 827
leg 827
slides 827
underpin 827
Freedoms 827
patri@@ 827
Andalusia 827
headings 827
Gol@@ 827
да@@ 827
analog 826
bre 826
R. 826
Asylum 826
gle@@ 826
salmon 826
episodes 825
incidence 825
aring 825
Before 825
slip 825
gin@@ 825
Peninsula 825
worn 825
motorways 825
questionnaire 825
dozen 824
enriched 824
yourselves 824
discourse 824
switched 824
announcing 824
Play@@ 824
tism 824
Memorandum 823
tz@@ 823
546 823
Ai@@ 823
chem@@ 823
username 823
FRY 823
neutrality 823
Pic@@ 823
registers 823
repository 823
observing 823
MP 822
verse 822
flats 822
occupy 822
Groups 822
на 822
buried 822
tem@@ 822
talents 822
imposes 822
alle@@ 822
VIII 821
CD@@ 821
fertile 821
Administrative 821
specifies 821
Sau@@ 821
DRC 821
bicycles 821
mic 821
cyber 821
â 821
accomplish 821
jacuzzi 821
Start 820
utterly 820
Electronic 820
secrets 820
TNG 820
insolvency 820
hypocrisy 820
proxy 820
Estate 820
baroque 820
Italia 819
skiers 819
shirt 819
translator 819
UC@@ 819
disregard 819
25th 819
immigrant 818
mul@@ 818
likelihood 818
meadows 818
banner 818
junction 818
distorted 818
illa 818
credited 818
wird 818
wel@@ 818
F. 818
Beauty 818
ava 818
denial 817
www.eib.org 817
volatile 817
Dimas 817
crafts 817
eg@@ 817
allocations 817
undue 817
pilots 817
fatal 817
contacted 817
sei@@ 816
registering 816
undermines 816
clarifying 816
0.3 816
Oracle 815
yen 815
orderly 815
polls 815
BI@@ 815
Speed 815
rebuilding 815
A1 814
overlooks 814
sells 814
casinos 814
Auto 814
Fire 814
sponsor 813
frequencies 813
civilization 813
bitter 813
Republican 813
electronically 812
Rimini 812
overlooked 812
catalyst 812
н 812
Monaco 812
fluid 812
Pr@@ 812
SP 811
EURO 811
oversight 811
proportions 811
lamp 811
Tim@@ 811
mins 811
pers 811
vine 811
0.2 811
COMP@@ 810
interpreting 810
precedence 810
faithful 810
prospective 810
ре@@ 810
extremism 810
Bluetooth 810
Tourist 809
searches 809
EUROSTAT 809
Kallas 809
cafe 809
albums 809
gt 809
Saharan 809
Stefan 809
derive 809
accusations 809
excitement 808
nuts 808
cofinancing 808
attracts 808
rival 808
accelerating 808
yn@@ 808
converting 808
intermediaries 808
Sign@@ 808
Bru@@ 807
ele 807
forgetting 807
Dubai 807
natur@@ 806
therein 806
conferred 806
constructions 806
55@@ 806
waterways 806
disciplinary 806
Winter 806
synthesis 806
embark 805
Palazzo 805
Lufthansa 805
aka 805
crazy 805
suffers 805
ada@@ 805
orchestra 805
mos 805
zer@@ 805
Commander 804
Fretwell 804
abundance 804
Florida 804
polite 804
fire@@ 804
consultant 804
pet@@ 804
104 804
aking 804
dense 804
stretches 804
reaffirm 804
cabinet 804
Grande 803
beverage 803
arti@@ 803
 803
equip 803
communism 803
Creative 803
variation 803
lers 803
OU@@ 803
Watson 803
ı@@ 803
underwater 803
iled 803
lum@@ 802
friendliness 802
zi 802
lement 802
Performance 802
vit@@ 802
Conservative 801
SI 801
ges@@ 801
importing 801
lodging 801
hierarchy 801
compensated 801
travelled 801
thi@@ 801
til 801
Malaga 800
lightweight 800
Galicia 800
foresees 800
Title 800
FYROM 800
Securities 800
generator 799
scanning 799
forge 799
keywords 799
evasion 799
tactics 799
stabilise 799
Mak@@ 799
championship 799
affiliated 798
corridor 798
responsibly 798
CPU 798
auditors 798
bacteria 798
sian 798
broadcasters 798
advantageous 798
Operation 797
Portal 797
erosion 797
bordering 797
App@@ 797
Document 797
squares 797
theories 797
Body 797
hedge 797
uncertainties 796
Bau@@ 796
bankers 796
high@@ 796
sunset 796
eng 796
expenditures 796
ous@@ 796
fittings 796
referral 796
consume 796
browsers 796
formations 795
oted 795
aggression 795
9,@@ 795
TS@@ 795
Innsbruck 795
committing 794
professionally 794
attacking 794
auditing 794
drain 794
painter 794
eness 794
Can 794
balls 794
298 794
fares 794
amidst 794
aks 793
invisible 793
upstream 793
realism 793
hab@@ 793
channelled 793
anim@@ 793
unrealistic 793
sighted 793
Cav@@ 793
Arabic 793
insights 793
175 792
practitioners 792
dor 792
crimin@@ 792
fr@@ 792
whoever 791
fro@@ 791
EST@@ 791
oppression 791
alternate 791
eter 791
occurrence 791
survived 791
cry 791
arity 791
notifications 791
Mus@@ 791
Vil@@ 790
flavour 790
vent@@ 790
administrators 790
utilization 790
Hospital 790
potato 790
sequences 790
Stra@@ 790
transforming 790
Vis@@ 790
chy 789
ami@@ 789
funny 789
Deep 789
blank 789
CIA 789
Indonesian 789
lab 789
I.@@ 789
delights 789
gated 789
envisage 789
lighter 789
glacier 788
142 788
reside 788
tian 788
gas@@ 788
EW@@ 788
consortium 788
Brandenburg 788
stroke 788
telephony 788
Battle 787
planes 787
refuses 787
eu 787
Cri@@ 787
accumulation 787
bonuses 787
Waste 787
ен@@ 787
warehouse 787
HO@@ 787
editions 787
importers 787
satisfying 786
preceded 786
conducive 786
Immigration 786
addiction 786
executives 786
rap@@ 786
doctrine 786
Camp 786
à@@ 785
besar 785
hectare 785
reluctant 785
Giovanni 785
emphasising 785
Tenerife 785
handles 785
tw@@ 785
extremists 785
tation 785
diabetes 784
ei 784
unwanted 784
chen 784
resi@@ 784
Av@@ 784
pharmaceuticals 784
AH@@ 784
1930 784
magnitude 784
key@@ 784
Sydney 784
rewarded 783
UM 783
soccer 783
polar 783
auspices 783
Mozilla 783
extradition 783
invalid 783
PR 782
Seattle 782
reconsider 782
loyal 782
1969 782
sid 782
hero 782
Mozart 782
glory 782
contributors 782
Ph@@ 782
capitals 782
undergone 781
norm 781
clay 781
storing 781
anxious 781
DO 781
asses 781
seafood 781
IM 781
3,000 780
Prosecutor 780
sentiment 780
feld 780
.eu 780
po 780
summ@@ 780
offerings 780
gram 780
mistaken 779
ет@@ 779
nineteenth 779
voiced 779
Charlie 778
mysterious 778
Carlo 778
mayor 778
ik 778
trekking 778
UPS 778
routing 778
Burmese 778
prop@@ 778
fair@@ 778
ер@@ 778
attachment 778
registry 777
ont 777
compound 777
Magic 777
Ethernet 777
critically 777
contexts 777
nor@@ 777
rhythm 777
23.@@ 777
Aqu@@ 777
Porsche 777
deeds 776
RT@@ 776
refrigerator 776
Bet@@ 776
FA@@ 776
proportional 776
presidents 776
1.7 776
temp@@ 775
clip 775
Converter 775
Barrot 775
pink 775
Mali 775
taxis 775
gio 775
joins 775
1971 775
graph 775
petitions 774
secretary 774
examines 774
telecommunication 774
Socrates 774
alistic 774
Jobs 774
collapsed 774
Prevention 774
commercially 774
inputs 774
gastronomy 773
ST 773
rebuilt 773
aman 773
GATT 773
DS@@ 772
ency 772
interpretations 772
decommissioning 772
bombing 772
MIDI 772
goodwill 772
Fon@@ 772
premier 772
Junior 772
Play 772
NO 771
TA@@ 771
technicians 771
microwave 771
backwards 771
Photo 771
Harry 771
Bangemann 771
Canaria 771
sculptures 771
Double 771
FIN@@ 771
IE 771
tiv@@ 770
Workers 770
catastrophic 770
Fifth 770
Lama 770
exhibits 770
ico 770
lev@@ 770
Map 770
LateRooms 770
fulfils 770
apparatus 770
bert 770
mac@@ 769
30.@@ 769
shifted 769
ano@@ 769
dice 769
Wilhelm 769
theft 769
Virgin 769
avian 769
DVDs 769
touristic 769
phased 769
Potočnik 769
Stephen 768
nec@@ 768
pregnancy 768
decreasing 768
Rad@@ 768
½ 768
scholars 768
tutorial 767
battles 767
situ@@ 767
worsening 767
preferably 767
Friedrich 767
easiest 767
coordinates 767
poster 767
lows 767
emerges 767
constructing 767
condemning 767
DB 767
IK@@ 766
amid 766
ATIONS 766
employing 766
Fl@@ 766
unconditional 766
Tech 766
ão 766
allocating 766
fla@@ 766
Long 766
pig 766
Sor@@ 765
dried 765
DA@@ 765
enormously 765
TI@@ 765
ridiculous 765
accumulated 765
Lakes 765
unilaterally 765
stolen 765
Ny@@ 764
adapter 764
repressive 764
INTERREG 764
captain 764
gur@@ 764
actress 764
hostile 764
ignoring 764
enhances 764
poet 764
retains 763
bell 763
1972 763
drops 763
picking 763
Tam@@ 763
totalitarian 763
stairs 763
Event 763
viewpoint 763
vigorous 762
ranked 762
injustice 762
she@@ 762
Call 762
governor 762
reali@@ 762
equilibrium 762
pt 762
ulation 762
illustration 762
Comp@@ 762
lorries 762
surprises 762
visi@@ 762
AV 762
Self 762
EE 762
hair@@ 762
neglect 761
Van@@ 761
delegates 761
Tool 761
bou@@ 761
vitally 761
Syn@@ 761
frank 761
&apos;Ivoire 761
48@@ 761
shade 761
Sand@@ 761
devised 761
Ladies 761
tia 761
bizarre 761
Military 760
tide 760
ér@@ 760
ball@@ 759
eling 759
ace@@ 759
rotating 759
Name 759
unding 759
78@@ 759
lecture 759
fled 759
bes@@ 759
lier 759
dividing 759
Carl 758
destiny 758
fortune 758
firewall 758
ep 758
restart 758
Simon 758
Thank 758
Formula 758
ideals 758
rented 758
answering 758
incineration 758
undertakes 757
Trust 757
cafés 757
rocky 757
nik 757
Drive 757
chic 757
25.@@ 757
ric 757
councils 756
Lee 756
io 756
Fra@@ 756
Zagreb 756
lag 756
Maison 756
Save 756
gastronomic 756
arable 755
Serbs 755
Catalan 755
cart 755
aller@@ 755
May@@ 755
legislator 755
Installation 755
zen@@ 755
recep@@ 755
у 755
Rica 755
pil@@ 755
115 755
ks@@ 754
possesses 754
habitat 754
CP 754
rulers 754
treats 754
incomprehensible 754
té 754
Stu@@ 754
103 754
convictions 754
mandates 754
ү@@ 754
Johannes 753
cho 753
anch@@ 753
modalities 753
signatories 753
CM@@ 753
ander 753
Pascal 753
charity 753
devise 753
tightening 753
holistic 753
illusion 752
Model 752
ceasefire 752
boasting 752
dence 752
visu@@ 752
hon@@ 752
sink 752
minimize 752
intake 751
broaden 751
Ret@@ 751
alling 751
Azores 751
Three 751
Cel@@ 751
Television 751
unused 751
rat 751
Dimension 751
abused 750
DS9 750
mercy 750
Scheme 750
peng@@ 750
scattered 750
violates 750
imperial 750
Café 750
alliances 750
drying 750
ITS 750
explosive 750
evolve 750
20,000 750
rounded 750
originated 750
repeating 749
Four 749
ories 749
cot 749
lenses 749
pes@@ 749
og 749
3.3 749
guess 749
inn 749
105 749
berry 749
elevator 749
dialogues 749
peacefully 749
witnessing 749
Il 749
optimise 748
pot@@ 748
entertaining 748
Enlargement 748
Son 748
dom 748
Newsletter 748
comparing 748
lessness 748
shr@@ 748
closes 748
crude 747
dt 747
noch 747
nitrogen 747
Survey 747
applaud 747
Cadiz 747
collaborative 747
useless 747
converter 747
Deluxe 746
naval 746
avoidance 746
cosmopolitan 746
subtle 746
scratch 746
league 746
Lady 745
ро@@ 745
any@@ 745
pub 745
ben 745
ECA 745
portrait 745
modem 745
fon@@ 745
pioneering 745
vegetarian 745
rei@@ 745
brave 745
helicopters 745
prudent 745
philosophical 745
delegated 744
treasure 744
eff@@ 744
passports 744
mg 744
attribute 744
outskirts 744
logged 744
allegedly 743
alien 743
utter 743
legislature 743
Way 743
dominate 743
vent 743
richest 742
inefficient 742
reproduced 742
fantasy 742
attained 742
translating 742
rustic 742
flat@@ 742
march 742
rs 742
satisfactorily 742
decisively 742
Pass 742
zip 742
AGE 742
foam 741
Andris 741
medication 741
html 741
Lyon 741
SO 740
identities 740
encompasses 740
mili@@ 740
Lab@@ 740
Brun@@ 739
That 739
jeopardise 739
enforcing 739
modulation 739
road@@ 739
Flemish 739
poetry 739
disable 739
gently 739
implants 739
Sho@@ 739
cin@@ 739
provincial 739
cliffs 739
preparedness 739
ң 739
Hil@@ 739
dubious 738
dictator 738
TB 738
120@@ 738
Rail 738
jungle 738
gun@@ 738
breed 738
sits 738
slavery 738
coated 738
civic 738
cut@@ 738
glasses 737
Belarusian 737
Iron 737
ador 737
Hôtel 737
regi@@ 737
wings 737
reversed 737
pdf 737
decorative 737
inconsistent 736
debit 736
Commercial 736
00352 736
shifts 736
tents 736
tenth 736
prohibits 736
taxable 736
By 736
get@@ 736
54@@ 736
ami 735
grassroots 735
courtesy 735
defenders 735
supervised 735
Cash 735
fur 735
Romano 735
С 734
cats 734
ration 734
reasoning 734
durch 734
negotiators 734
loses 734
95@@ 734
dent@@ 734
concession 734
sculpture 734
spe@@ 733
carpet 733
arians 733
probability 733
ICC 733
reacted 733
nar@@ 733
102 733
FI@@ 733
Last 733
standardised 733
campsite 733
occasional 733
trades 733
shirts 732
ambient 732
cyclists 732
exempted 732
genre 732
rolls 732
Med@@ 732
Blizzard 732
ambiance 732
NE@@ 732
lla 732
к 732
envelope 732
corrective 732
additions 732
Vegas 732
C.@@ 732
visions 731
Guard 731
voucher 731
mereka 731
Dur@@ 731
frustration 731
Link 731
E.ON 730
cruel 730
ко@@ 730
statistic 730
cip@@ 730
2.7 730
Hum@@ 730
BAE 730
ATM 730
spin 729
influx 729
void 729
ELL@@ 729
proclaimed 729
VA 729
poll 729
favorable 729
compilation 729
farmhouse 729
McCreevy 729
renting 729
TAC 729
IR 729
Sav@@ 728
escalation 728
dock 728
bed@@ 728
Plans 728
news@@ 728
Ecuador 728
tail 728
Messenger 728
Top@@ 728
einen 728
abundant 728
clips 728
watched 727
о 727
grams 727
mil@@ 727
bargaining 727
backgrounds 727
atomic 727
sky@@ 727
Continental 727
Ei@@ 727
Marc 727
3G 727
ade@@ 727
observance 727
1040 727
richer 727
attractiveness 726
Commons 726
Print 726
sequ@@ 726
PNR 726
Horn 726
FO@@ 726
wan 726
vac@@ 726
communal 726
compelling 726
Add 726
Poly@@ 726
peri@@ 725
genic 725
MB@@ 725
Eurocopter 725
Brown 725
cents 725
defensive 725
journal 725
premi@@ 725
roll@@ 724
 724
ettes 724
shocked 724
ONE 724
closures 724
Speci@@ 724
E.@@ 724
prototype 724
Ernst 724
appearances 724
resilience 724
correspondence 723
ologist 723
Help 723
denying 723
hier 723
vente 723
но@@ 723
liaison 723
Swoboda 723
Tak@@ 722
transi@@ 722
Lim@@ 722
Chan@@ 722
speeding 722
L. 721
len 721
bury 721
Catalonia 721
esa 721
sq@@ 721
versus 721
expired 721
Castro 721
contradictions 721
enclosed 721
Baroque 721
Entertainment 720
Bab@@ 720
650 720
wonders 720
dur@@ 720
polio 720
Split 720
unduly 720
navigate 720
pon@@ 720
mach@@ 720
eux 719
grace 719
merge 719
ook 719
adherence 719
Cruz 719
whit@@ 719
aya 719
PCI 719
Conservatives 719
testimony 719
fonts 719
tuning 718
lava 718
ä@@ 718
Cancún 718
2.8 718
Sicily 718
liner 718
Nar@@ 718
Javier 718
ish@@ 718
communautaire 718
complementarity 717
contested 717
prayer 717
cans 717
posters 717
Unix 717
employability 717
Sardinia 717
cians 717
URBAN 717
tico 716
Wine 716
Bolivia 716
paste 716
servicing 716
teri@@ 716
elegantly 716
desperately 716
standardized 716
evidently 716
Steinberg 716
symboli@@ 716
Everest 716
enlarge 715
offline 715
bra 715
Müller 715
distress 715
programmed 715
tious 715
zia 715
ds@@ 715
publishes 715
SLR 714
collaborate 714
Sky@@ 714
Tran@@ 714
bir@@ 714
tations 714
exhaustive 714
pay@@ 714
1. 714
app 713
Scott 713
Hilton 713
Fal@@ 713
phot@@ 713
Mandelson 713
shield 713
muscle 713
soli@@ 713
4.1 713
M.@@ 712
recycled 712
TH 712
~ 712
300@@ 712
childcare 712
fort 712
nur 712
Oliver 712
All@@ 712
Progress 712
mills 712
cows 712
ack@@ 712
hell 712
Lar@@ 712
vibration 712
240 712
cock 711
eternal 711
Total 711
Zürich 711
homeland 711
nan@@ 711
Tajani 711
specialty 711
án@@ 711
Rei@@ 711
absorbed 711
duplicate 711
apologise 711
confusing 710
spreads 710
waterway 710
ventilation 710
GL@@ 710
mighty 710
reproduce 710
rays 710
honesty 710
Cho@@ 710
cite 710
USE 710
contractor 710
tonne 710
direc@@ 710
casual 710
ä 710
unauthorized 710
oured 710
tec@@ 709
pixel 709
there@@ 709
orn 709
stadt 709
1950s 709
periodic 708
referendums 708
consisted 708
Est@@ 708
instructors 708
packs 708
periodically 708
switches 708
patches 708
Modern 707
smokers 707
drastically 707
YORK 707
ax 707
witnesses 707
liberalised 707
Ramblas 707
majestic 707
pled 707
tsunami 707
vin 707
aerial 707
angan 707
benchmarking 707
Punta 707
temptation 707
fibres 707
Ari@@ 707
produc@@ 706
ration@@ 706
spells 706
epi@@ 706
Info 706
bla@@ 706
counterpart 706
connector 706
disks 706
questionable 706
corn 706
widest 706
Liberia 706
OG@@ 706
Andor 706
CN@@ 706
ria 706
DEL@@ 706
motives 705
gauge 705
Salvador 705
ust 705
chers 705
polluting 705
eless 705
kita 705
interrupted 705
fin 704
Hannover 704
viewers 704
EH@@ 704
herbs 704
mapping 704
Commonwealth 704
sand@@ 704
Water@@ 704
Janez 704
с 704
PRO 704
5.00 704
lls 704
speculative 704
durability 703
agri 703
XI 703
boast 703
retired 703
SEO 703
auc@@ 703
INI 703
EIT 703
expan@@ 703
Theater 703
kno@@ 703
questioning 703
Bible 702
sliding 702
comprised 702
deli@@ 702
breathe 702
surround 702
HOTEL 702
Messe 702
differentiation 702
scourge 702
redistribution 702
Final 702
reinforces 702
psych@@ 702
taxed 701
Men 701
pots 701
gical 701
ein@@ 701
infectious 701
Gran@@ 701
s. 701
Lucerne 701
tho@@ 701
occupies 701
transporting 701
Presidencies 701
crown 700
side@@ 700
Care 700
5000 700
cht 700
ambi@@ 700
Dam@@ 700
thee 700
stems 700
GO@@ 700
Alpes 700
polluter 700
scarce 700
yn 700
censure 700
read@@ 700
muscles 700
analysts 700
scandalous 700
5.5 700
Chianti 699
anytime 699
27.@@ 699
та@@ 699
informs 699
myth 699
nationally 699
EFSA 699
envisages 699
YouTube 699
pairs 698
open@@ 698
clu@@ 698
disappearance 698
conflicting 698
IMO 698
babies 698
berger 698
odi@@ 698
elec@@ 698
ANCE 698
Nicolas 698
neighboring 698
residing 698
fever 698
Doctor 698
Gau@@ 698
bien 698
collateral 698
settling 697
awarding 697
ston 697
ENP 697
Bern 697
CAN 697
108 697
HOME 697
einem 697
jan@@ 697
surge 697
SOL@@ 696
guy 696
cane 696
embryos 696
misunderstanding 696
token 696
Magazine 696
reliance 696
acres 696
lion 696
backbone 696
scientifically 696
dealings 696
beaten 696
Heidelberg 696
10.00 696
Photoshop 696
IES 695
ech@@ 695
expectancy 695
curve 695
Marx 695
Den@@ 695
lobbying 695
potatoes 695
totalling 695
ples 695
sko 695
gol@@ 694
scri@@ 694
л 694
Ale@@ 694
matrix 694
vendor 694
impro@@ 694
onal 694
Color 694
Turin 694
competencies 694
aro 694
sealed 693
ssi@@ 693
peacekeeping 693
Dal@@ 693
boundary 693
mud 693
ę@@ 693
enne 693
bandwidth 693
Mei@@ 693
god 693
Active 693
Knowledge 693
Rehn 693
acknowledging 693
Var@@ 693
MON@@ 692
fighters 692
republic 692
Ali 692
Strip 692
dressing 692
Visual 692
Luc 692
rea 692
Generation 692
pulse 692
fraudulent 692
emergencies 692
och 692
Edit 692
lio 691
ées 691
02@@ 691
URE 691
pap@@ 691
lt 691
mp 691
Quarter 691
weighing 691
advocating 691
56@@ 691
Sta@@ 691
Smart 691
ALL@@ 691
EOS 691
needless 691
IONS 690
tenders 690
adversely 690
bak@@ 690
Vinci 690
Desktop 690
concentrates 689
ped@@ 689
ABLE 689
guideline 689
cann@@ 689
outsourcing 689
2017 689
salon 689
PA@@ 689
Delors 689
borrow 689
hiding 689
unavoidable 689
oth 689
dering 689
ssa 689
cylinder 688
public@@ 688
groves 688
rum 688
democrats 688
sampling 688
construc@@ 688
Mul@@ 688
customary 688
intolerance 688
Camp@@ 688
Orange 688
Border 688
atan 687
Graz 687
inherited 687
believing 687
Kiev 687
7.5 687
DIS@@ 687
Oc@@ 687
II@@ 687
planting 687
trader 687
Poettering 687
Mini@@ 687
aches 686
host@@ 686
vicious 686
cides 686
formalities 686
caps 686
announcements 686
awaited 686
Photo@@ 686
Sharon 686
colo@@ 686
Gott 686
BG 686
personalities 686
Roth 686
ousness 686
emphasizes 685
servant 685
exhibit 685
seamless 685
inexpensive 685
cross@@ 685
timetables 685
mate 685
glo@@ 685
meny@@ 685
ett 685
oh@@ 685
intensively 685
800@@ 685
TM 684
scarcely 684
dou@@ 684
MENT 684
sheer 684
dis 684
hikes 684
extracted 684
nervous 684
liberation 684
Gardena 684
clusters 684
ec 684
jacket 683
rage 683
vom 683
Cards 683
dunes 683
Columbia 683
integrates 683
Ros@@ 683
mentary 683
HI 683
emotion 682
resignation 682
LabVIEW 682
Prestige 682
feared 682
reliably 682
happily 682
starship 682
embarked 682
Romans 682
touring 682
perceive 682
Interim 682
OM 681
ppy 681
acquisitions 681
ald 681
ouse 681
Settings 681
1958 681
gos 681
Mah@@ 681
extraordinarily 681
dic 681
fiber 681
Sudanese 680
Bugtraq 680
insured 680
contractors 680
tionally 680
sson 680
gon@@ 680
logistical 680
Ž@@ 680
federation 680
Risk 680
Scandinavian 680
HTTP 679
physi@@ 679
replic@@ 679
asa 679
gor@@ 679
Patrick 679
GSM 679
Semester 679
zza 679
straße 678
dal@@ 678
liberalism 678
crafted 678
Reasoned 678
tranquillity 678
EAGGF 678
Georgieva 678
digi@@ 678
surrender 678
delle 678
modernity 678
dapat 678
uniquely 678
rigour 678
KS 678
Reconstruction 677
TI 677
EURO@@ 677
rooftop 677
Engine 677
downstream 677
decree 677
PXI 677
fish@@ 677
MHz 677
SilverFast 677
Mozambique 677
Renault 677
block@@ 677
hull 677
scar@@ 677
CONCLUSIONS 677
kit@@ 677
thri@@ 676
platz 676
Fitness 676
flair 676
tricks 676
Multi 676
Bir@@ 676
Ce@@ 676
dividends 676
abolishing 675
oms 675
30th 675
kom@@ 675
preferable 675
humane 675
phosp@@ 675
 675
freshly 675
ów 674
stagnation 674
ys@@ 674
bili@@ 674
yachts 674
photo@@ 674
crowded 674
&apos;Azur 674
hop 674
ε@@ 674
mathematics 674
centred 674
tersebut 674
woody 673
opp@@ 673
uro 673
Androulla 673
musician 673
Sto@@ 673
eva 673
Genoa 673
classi@@ 673
Len@@ 673
Mont@@ 673
coaches 673
Flynn 673
divorce 673
dictionary 673
fel@@ 672
biology 672
Understanding 672
part@@ 672
storey 672
reactor 672
favours 672
franchise 672
economist 672
after@@ 672
nestled 672
uss@@ 672
Bristol 672
expire 672
Catalunya 671
ë@@ 671
Mauritania 671
kms 671
hel@@ 671
ow@@ 671
mountainous 671
progressing 671
schedules 671
med@@ 671
mathematical 671
transposing 671
iling 671
hungry 671
ô@@ 671
filtration 670
ms@@ 670
ThyssenKrupp 670
Kno@@ 670
af 670
sty@@ 670
.NET 670
volcano 670
thumb 670
publi@@ 670
tail@@ 670
exhausted 670
focussed 669
span 669
intern@@ 669
geo@@ 669
executions 669
revising 669
headline 669
wan@@ 669
Buddhist 669
88@@ 669
Nuremberg 669
Länder 669
tyres 669
parcel 669
modal 669
lean 669
invoices 668
unequal 668
fronts 668
indulge 668
tant 668
26.@@ 668
logs 668
constructively 668
Books 668
reck@@ 668
vulnerabilities 668
GCC 668
lane 667
qualifying 667
ishing 667
Implementation 667
malware 667
Astrium 667
Motor 667
authorisations 667
rot@@ 667
doorstep 667
impartial 667
punish 667
dispatch 667
UP 666
pandemic 666
fen@@ 666
CA@@ 666
FTP 666
axes 666
Gas 666
customised 666
masses 666
ush@@ 666
OJ 665
де@@ 665
Not 665
undesirable 665
misery 665
François 665
metallic 665
cleanliness 665
sarge 665
unwilling 665
Medina 665
fried 665
overlaps 665
caring 665
tendencies 665
Jonathan 665
Fontaine 664
CMS 664
Pakistani 664
briefed 664
ordinated 664
Assad 664
compositions 664
kat@@ 664
pioneer 664
то@@ 664
23rd 664
Silver 664
BU@@ 664
locks 663
curb 663
donated 663
Drugs 663
irreversible 663
plateau 663
ampli@@ 663
Benz 663
GT@@ 663
Expo 663
terminated 662
MI@@ 662
haben 662
cottage 662
fe 662
ul 662
FIFA 662
Animal 662
til@@ 662
gle 662
coasts 662
belonged 662
premiere 662
Index 661
cocoa 661
Right 661
fast@@ 661
dass 661
Polo 661
vitality 661
Solar 661
EPA 661
Posselt 661
Governor 661
Defense 661
flies 661
я 661
gens 661
existent 661
definitively 661
e.V. 661
lining 661
EDPS 660
defective 660
Pisa 660
cum@@ 660
vy 660
ren 660
Yo@@ 660
cit@@ 660
fundamentalism 660
servi@@ 660
flavours 660
energetic 660
mers 660
bru@@ 660
insisting 660
remarkably 660
horror 659
header 659
wired 659
bath@@ 659
conversations 659
SN@@ 659
Dol@@ 659
Sakharov 659
Records 659
honestly 659
Ve@@ 659
ares 659
baru 659
BS 659
Sac@@ 659
upgrades 659
scientist 659
relieve 659
shocking 658
recognizing 658
RAL 658
blogs 658
batch 658
overhaul 658
irrelevant 658
kings 658
GH@@ 658
mark@@ 658
humidity 658
Standing 658
UNHCR 658
Arafat 658
Os 657
PayPal 657
teenth 657
assault 657
pass@@ 657
ession 657
a. 657
Milano 657
tioned 657
insists 657
doping 657
IND 657
revive 657
Friends 657
Cop@@ 657
specifying 657
BAR@@ 657
ern 656
DER 656
continual 656
famili@@ 656
performers 656
ml 656
arrives 656
woven 656
FROM 656
44@@ 656
DP 656
sins 656
GS 656
compensatory 656
190 655
day@@ 655
fountain 655
pulled 655
Post@@ 655
colorful 655
pop@@ 655
prestige 655
circuits 655
Dep@@ 655
ESS 655
unreasonable 655
KO@@ 655
ax@@ 655
withstand 655
Virtual 655
cep@@ 655
orientated 655
bottlenecks 654
clever 654
wondering 654
aco 654
ballot 654
trailer 654
Inter 654
bronze 654
literacy 654
paved 654
Ankara 654
cant@@ 654
vain 654
AW@@ 654
IF 654
vintage 654
unpleasant 653
Better 653
lay@@ 653
youngest 653
shades 653
Deb@@ 653
VO@@ 653
PP 653
Bla@@ 653
recast 653
m. 653
Fernando 653
ny@@ 653
toilets 653
Superior 653
valve 653
gging 653
withdrawing 653
pad@@ 653
conditionality 652
pledges 652
wilderness 652
wers 652
Infineon 652
ank 652
tall 652
affiliate 652
HD@@ 652
ò 652
tives 652
lateral 652
bare 652
gem 652
Out@@ 651
NA 651
INTER@@ 651
bling 651
hired 651
Memory 651
aki 651
prejudge 651
oneself 651
230 651
preconditions 651
catalogues 651
throwing 651
&apos;S 651
institution@@ 651
stit@@ 651
disposed 651
4.2 651
apple 651
ERP 650
measurable 650
sar@@ 650
grape 650
colored 650
residues 650
Pil@@ 650
Wit@@ 650
flame 650
Sil@@ 650
tighten 650
projection 649
не@@ 649
scoreboard 649
Fourth 649
vaccine 649
tec 649
stand@@ 649
cult 649
periphery 649
Up@@ 649
Annan 649
pertaining 649
Farm 649
dinners 649
oting 649
ministries 648
да 648
perfection 648
Liber@@ 648
vitamins 648
otel 648
Luis 648
Lamanites 648
asing 648
Senior 648
audiences 648
Gs 648
deteriorating 648
tening 647
penetration 647
ü@@ 647
confine 647
Jacob 647
popul@@ 647
Fel@@ 647
prudential 647
excited 647
Authorities 647
sty 647
erected 647
chassis 647
REC@@ 647
elementary 647
barbecue 647
flu 647
diamond 647
lover 647
lodged 647
watch@@ 646
Hat 646
ás 646
RS 646
unrest 646
home@@ 646
280 646
enrich 646
Bed@@ 646
Qaeda 646
tag@@ 646
ett@@ 646
merging 646
town@@ 646
entrants 646
Gui@@ 646
aw@@ 646
composite 646
lyrics 646
administer 645
ici@@ 645
earning 645
worship 645
ende 645
t.@@ 645
Kaliningrad 645
breathing 645
roller 645
reachable 645
pt@@ 645
pad 645
absor@@ 645
sat@@ 645
Provider 645
chicken 645
OV@@ 644
ller 644
Monte@@ 644
pling 644
renamed 644
stly 644
Train 644
soap 644
Mini 644
cleansing 644
AVI 644
IST@@ 644
presumably 644
afforded 644
Mau@@ 644
28.@@ 644
permitting 644
Pon@@ 644
Form 643
za@@ 643
ender 643
conceptual 643
bee 643
Jet 643
tissues 643
Horizon 643
Industries 643
ż@@ 643
clean@@ 643
Andorra 643
memorial 642
vineyard 642
multilingualism 642
accredited 642
differential 642
creations 642
tended 642
UEN 642
hostage 642
wo 642
miracle 642
Hot@@ 642
Ir@@ 642
très 642
vested 642
inver@@ 641
Band 641
bloody 641
Location 641
tiveness 641
éri@@ 641
outbreaks 641
ough 641
0.4 641
fier 641
itas 640
Roger 640
clouds 640
struggles 640
MPEG 640
tivity 640
kov 640
rel 640
ANT 640
hunt 640
Mare 640
astonishing 640
businessmen 640
authenticity 640
IRC 639
zers 639
wn@@ 639
Eiffel 639
cell@@ 639
outgoing 639
Translation 639
Joaquín 639
motorcycle 639
MAN 639
vines 639
5.1 639
Dé@@ 639
untouched 638
manuals 638
nom@@ 638
resettlement 638
hood 638
gru@@ 638
Cou@@ 638
Blog 638
stack 638
vitamin 638
profoundly 638
cht@@ 638
bloc 638
gorgeous 637
Herman 637
recovering 637
Olympics 637
Transatlantic 637
boots 637
Mercure 637
cen@@ 637
bad@@ 637
nam@@ 636
indices 636
notices 636
Plant 636
3.4 636
dominance 636
arrests 636
atrocities 636
bia 636
formali@@ 636
aut 635
plugins 635
Telecommunications 635
unambiguous 635
Money 635
anchor 635
Transfer 635
Bonus 635
oceans 635
anta 635
Coun@@ 635
stakes 635
Josef 635
avant 635
Der@@ 635
removes 635
aluminum 635
ema 634
PI@@ 634
fraction 634
ignorance 634
algorithms 634
tac@@ 634
Seller 634
199@@ 634
archipelago 634
blessed 634
emphatically 634
mitigation 634
tle 634
FAO 634
portals 634
CAN@@ 634
clicks 633
во@@ 633
Guantánamo 633
depart 633
obesity 633
deplore 633
UP@@ 633
Electronics 633
outright 633
identifiable 633
Veterinary 633
Equipment 633
fran@@ 633
presidencies 633
heed 633
cool@@ 632
Category 632
Str@@ 632
drum 632
memorandum 632
drift 632
merchandise 632
immersed 632
stretching 632
uncontrolled 632
accorded 632
Wo@@ 632
Shuttle 632
SG 631
moisture 631
Wor@@ 631
Belliard 631
07@@ 631
ington 631
emo@@ 631
veri@@ 631
revival 631
Chirac 631
0.6 631
Bucharest 631
Günter 630
illi@@ 630
scanners 630
kilometre 630
kur@@ 630
Amazon 630
ais 630
atics 630
bisa 630
cheapest 630
exam 630
Alzheimer 630
Route 630
elites 630
exile 630
1200 630
Europ@@ 630
har 629
objectively 629
ā@@ 629
Pyrenees 629
MES 629
THIS 629
billing 629
п 629
euro@@ 629
screw 629
handicapped 629
chalet 629
EF 629
conductor 629
geography 628
tunnels 628
monumental 628
DEM 628
Ferrari 628
ventures 628
137 628
Text 628
Little 628
loves 628
FINANCIAL 628
1948 628
Forces 627
ultra@@ 627
beans 627
tn@@ 627
Maltese 627
valuation 627
tery 627
Hon@@ 627
prin@@ 627
diff@@ 627
aroma 627
Werner 627
disclosed 627
Bernard 627
Vitorino 627
ingredient 627
Ele@@ 627
scre@@ 627
leaf 627
needing 626
Bath 626
usefulness 626
fore 626
spir@@ 626
Broad 626
tale 626
induced 626
Cardassian 626
hake 626
divers 626
TVs 625
DEBATE 625
devi@@ 625
hazards 625
sad@@ 625
С@@ 625
yan 625
quotation 625
eria 625
enn@@ 625
Fraud 625
Committees 625
mais 625
aly@@ 625
uro@@ 625
malicious 625
OL 624
sweeping 624
Diamantopoulou 624
ascertain 624
tains 624
ishment 624
logy 624
comple@@ 624
volunteer 624
achieves 624
jet@@ 624
fame 624
tolerated 624
cloth 624
tooth 624
coincidence 624
Core 624
wool 624
Linz 624
constituent 624
Busquin 623
permissible 623
dered 623
litigation 623
dilemma 623
curriculum 623
proteins 623
european 623
horn 623
INA 623
ids 623
verdict 623
convicted 623
warrants 623
ña 622
dressed 622
Clo@@ 622
legi@@ 622
Navy 622
260 622
deluxe 622
cured 622
labeled 622
Colombani 622
Hahn 622
socket 622
facade 622
shelf 622
organisers 622
revealing 622
ITY 622
anders 622
quarterly 622
vet@@ 622
Valle 621
gut 621
Erkki 621
Pun@@ 621
nica 621
precautions 621
Spock 621
outdoors 621
São 621
subscribers 621
EK 621
extremist 621
denti@@ 621
diploma 621
Far 621
retrieve 620
decentralisation 620
hurt 620
Nat@@ 620
streamlined 620
01.@@ 620
Football 620
culturally 620
monster 620
custody 620
kW 620
mt 620
stre@@ 620
lease 620
Kurds 620
turmoil 620
CSS 620
Study 620
vos 619
Price 619
elles 619
biometric 619
Rose 619
ag 619
Wolf 619
reap 619
Soundproofed 619
ECJ 619
ECT 619
uted 619
mesh 619
narrative 619
dividend 619
excludes 619
artwork 619
exacerbated 619
Panama 619
overly 619
supreme 619
raid 619
Reports 619
deputy 619
Ple@@ 618
Jazz 618
cz@@ 618
lia@@ 618
BM@@ 618
cabins 618
calibration 618
underestimate 618
dow@@ 618
compromised 618
merchant 618
variants 618
mobilising 617
Margot 617
enacted 617
Mars 617
Henri 617
ado@@ 617
lobbyists 617
watches 616
Mode 616
Schreyer 616
trainers 616
jer@@ 616
Pension 616
QuarkXPress 616
TEC 616
bind 616
pipelines 616
fingers 616
Sisko 616
Number 615
08@@ 615
ды 615
Bahrain 615
sticks 615
99@@ 615
hazard 615
armies 615
uno 615
Ash@@ 615
sau@@ 615
human@@ 615
LA@@ 615
Mé@@ 615
Stalin 615
Ul@@ 615
statue 614
massacre 614
Pur@@ 614
cliff 614
sco@@ 614
1900 614
Johann 614
brethren 614
flan@@ 614
kann 614
Morgan 614
bones 614
ssed 614
universally 613
mail@@ 613
holo@@ 613
sponsorship 613
344 613
chambers 613
ICES 613
guesthouse 613
litres 613
reintegration 613
ush 613
ographic 613
coral 613
insurers 613
ishes 613
Soci@@ 613
molecular 613
NH 612
Centres 612
Zu@@ 612
discusses 612
tactical 612
onn@@ 612
sav@@ 612
shortest 612
Alicante 612
nonsense 612
ceramics 612
introductory 612
Son@@ 612
stemming 612
tankers 611
6.5 611
expose 611
Bran@@ 611
pasta 611
basketball 611
beg@@ 611
berries 611
TEN@@ 611
edly 611
Telecom 611
dant 611
BT 611
т 611
sixty 611
lengths 611
fortunate 611
societal 610
accreditation 610
etto 610
UE 610
VE 610
enforceable 610
Higher 610
standpoint 610
21000 610
DV@@ 610
trick 610
imperialist 610
erie 610
unauthorised 610
Gener@@ 610
decoupling 610
Options 610
WordPress 610
111 610
NT 609
oblige 609
cereal 609
wy@@ 609
eno 609
Taxation 609
firmware 609
yl 609
Lei@@ 609
ensemble 609
clash 609
adhered 609
free@@ 609
chapel 609
Pel@@ 609
inheritance 609
Dalai 608
Realty 608
storms 608
recommending 608
voor 608
deadlock 608
coding 608
mati@@ 608
compliment 608
lei@@ 608
sorting 608
Ry@@ 608
ни@@ 608
cakes 608
interdisciplinary 608
loving 608
AI 608
monks 608
uploaded 607
factual 607
faction 607
itali@@ 607
unds 607
nov@@ 607
evi@@ 607
architectures 607
messaging 607
antly 607
glob@@ 607
Mun@@ 607
Secure 607
advancement 606
Me 606
triangle 606
Ou@@ 606
sender 606
Set 606
rati@@ 606
Algerian 606
Francis 606
electromagnetic 606
Andrew 606
bing 606
harus 606
praised 606
neoliberal 606
comparisons 605
aciones 605
Centro 605
1956 605
Ljubljana 605
1965 605
tendering 605
kal@@ 605
forwards 605
scored 605
php 605
rewarding 605
Miles 605
pit 605
Radisson 605
POS@@ 605
MAN@@ 604
stered 604
Palm 604
leasing 604
THAT 604
nau@@ 604
encoding 604
wound 604
ministry 604
practised 603
zel@@ 603
Boston 603
Sub 603
vie@@ 603
rev@@ 603
Disney 603
pes 603
Fine 603
bids 603
Johnson 603
ambassador 603
secre@@ 603
CNC 603
Response 602
tele@@ 602
gulf 602
Hezbollah 602
upward 602
timeframe 602
streamline 602
amed 602
å 602
Greeks 602
demonstrators 602
lung 602
commander 602
followers 602
discs 602
Refugees 602
noticeable 602
guestrooms 602
succ@@ 602
unequivocal 602
228 602
entre 602
Flanders 602
MC 601
TP 601
declares 601
judging 601
Libyan 601
rally 601
delicacies 601
apo@@ 601
tee 601
CRM 601
prone 601
Reference 601
pos 601
Spe@@ 601
deletion 601
arrow 600
scent 600
aler 600
Mont 600
Alan 600
deliberation 600
resolutely 600
Sundays 600
commits 600
shake 600
2. 600
Medium 600
rant 600
1962 600
wald 600
Bay@@ 600
quotes 600
Christianity 600
bun@@ 600
condolences 599
Os@@ 599
202 599
1966 599
Banks 599
Borders 599
onian 599
Eric 599
expires 599
bays 599
streaming 599
contracted 599
domination 599
singles 598
titled 598
Tanzania 598
petroleum 598
itinerary 598
kol@@ 598
equi@@ 598
stran@@ 598
cartels 598
discourage 598
Zimmer 598
flee 598
descent 598
FS 598
affiliates 597
liv@@ 597
FT@@ 597
chs 597
LL@@ 597
separ@@ 597
³ 597
Brian 597
prerequisites 597
overriding 597
mentality 597
geographically 597
expulsion 597
genital 597
int@@ 597
trac@@ 597
nas@@ 596
jun@@ 596
rat@@ 596
spor@@ 596
bet@@ 596
Senegal 596
Lloyd 596
impaired 596
Stage 596
Cast@@ 596
accede 596
transports 596
47@@ 596
doubling 596
Stein@@ 596
dip 596
Ring 596
hau@@ 596
IO 596
queen 595
collectors 595
steer 595
Free@@ 595
censorship 595
29.@@ 595
pré@@ 595
coatings 595
warp 595
Az@@ 595
assesses 594
dire 594
finalise 594
Tunisian 594
OUR 594
lage 594
jurisdictions 594
tranquility 594
shouldn 594
Bell@@ 593
P.@@ 593
Birmingham 593
imagined 593
screen@@ 593
Corbett 593
ased 593
utes 593
tub 593
paradox 593
choir 593
enrichment 593
implicit 593
Otto 593
Ran@@ 593
unaware 593
498 593
adjourned 593
milling 593
es.@@ 592
bahwa 592
gne 592
manifest 592
bungalows 592
Cent@@ 592
grades 592
Southeast 592
Vatican 592
Tab@@ 592
Torre 592
109 592
consular 592
Dre@@ 592
Electric 592
subsidised 592
beams 592
Conil 592
uncomfortable 592
windsurfing 592
Gl@@ 592
desi@@ 592
Miert 591
diversify 591
shar@@ 591
acquainted 591
Archer 591
lag@@ 591
centrali@@ 591
123 591
fertility 591
intermediary 591
esses 591
lle 591
underestimated 591
alls 591
stakeholder 591
resp@@ 591
Bour@@ 591
VP 590
ING@@ 590
Fox 590
asti@@ 590
Shine 590
escaped 590
Dubrovnik 590
Pre 590
ferries 590
discoveries 590
ceased 590
video@@ 590
ð@@ 590
fundamentals 590
Yes 589
congratulated 589
avenue 589
Bosch 589
recurring 589
Riga 589
rigorously 589
ix 589
Arms 589
bubbles 589
O.@@ 589
sit@@ 589
weakest 589
décor 589
Champs 589
innov@@ 589
seafront 589
executing 589
BE@@ 589
Champion 588
philosopher 588
astic 588
Who 588
skies 588
Watch 588
waterfalls 588
surgical 588
commanded 588
Bus@@ 588
loopholes 588
probe 588
guns 588
ared 588
EBRD 588
abandoning 588
endi@@ 588
therapies 587
motorcycles 587
instructor 587
determin@@ 587
Jones 587
Wol@@ 587
node 587
Rompuy 587
vocal 587
aquatic 587
A6 587
SECURITY 587
Martini 587
F1 587
Temporary 587
eri 586
relied 586
champions 586
touching 586
prohibiting 586
ented 586
suspects 586
expedition 586
pain@@ 586
Welcome 586
Cameron 586
overdue 586
cancellations 586
dding 585
ury 585
pointless 585
persecuted 585
abo@@ 585
fats 585
associates 585
Lon@@ 585
INT@@ 585
invaluable 585
distributions 585
BBC 585
tat@@ 585
tat 585
Dell 585
ART 585
Eritrea 584
goo@@ 584
grand@@ 584
broker 584
emer@@ 584
AZ@@ 584
Rotarians 584
Sem@@ 584
chiefly 584
Vietnamese 584
persuaded 584
Lukashenko 584
HER@@ 583
microphone 583
mystery 583
acity 583
tudes 583
dispose 583
workstation 583
telephones 583
freed 583
path@@ 583
1961 583
prescription 583
reli@@ 582
was@@ 582
relaunch 582
Masters 582
wrongly 582
Acceding 582
portfolios 582
mont 582
assignments 582
framed 582
bearings 582
Mou@@ 582
tighter 582
fancy 582
GNOME 582
tempted 581
suppression 581
tougher 581
tible 581
Most 581
pp 581
lowered 581
stun@@ 581
acclaimed 581
interconnected 581
Challenge 581
sparkling 581
sourced 581
responsive 581
virtu@@ 581
havens 580
Atomic 580
seated 580
hardest 580
rical 580
glia 580
exhibited 580
IDE 580
Description 580
cinemas 580
inclined 580
sustaining 579
suffice 579
chest 579
Elba 579
Planet 579
BA@@ 579
46@@ 579
angry 579
directing 579
assassination 579
Metal 579
GIS 579
Links 579
acids 579
pause 579
intimidation 579
Wild 579
branded 579
5.2 579
atau 578
Camping 578
OF@@ 578
Islamist 578
nous 578
anya 578
CU@@ 578
custom@@ 578
herbal 578
conten@@ 578
illing 578
releasing 578
academics 578
contempt 578
tut@@ 578
Analysis 578
jel@@ 578
Yahoo 578
lob@@ 578
oid 578
burned 578
Nicaragua 578
Bak@@ 578
long@@ 578
cular 577
Coordination 577
DR 577
31st 577
sanction 577
Ghana 577
Špidla 577
Nau@@ 577
infinite 577
deepest 577
dot 577
Kyi 577
135 577
XII 577
1939 577
ғ@@ 577
BP 577
gger 577
rivals 576
1963 576
legislate 576
seafarers 576
Angela 576
metropolitan 576
VAL@@ 576
bagi 576
selector 576
vul@@ 576
Mike 576
troika 576
prepares 576
halfway 576
digit 576
gli 576
appraisal 576
gged 575
NE 575
cone 575
threads 575
chooses 575
sexy 575
Confederation 575
Rosa 575
Ji@@ 575
tandem 575
Red@@ 575
Jesolo 575
Observatory 575
viol@@ 575
ICAO 575
intellectuals 575
Oh 574
х 574
ә@@ 574
antivirus 574
Eden 574
Hom@@ 574
Acrobat 574
nis@@ 574
plat@@ 574
Technological 574
Antwerp 574
alis 574
connectors 574
Traveller 573
crossroads 573
wel 573
Verde 573
anticipation 573
maj@@ 573
entes 573
Asi@@ 573
nut 573
Pom@@ 573
Cox 573
Carmen 573
restructure 573
rectify 573
accommodating 573
complained 573
spra@@ 573
Conventions 573
artificially 573
outlet 573
heroes 573
G7 573
complications 573
drilling 572
Info@@ 572
GUI 572
Living 572
facial 572
uma 572
postponement 572
AST@@ 572
fashioned 572
ли@@ 572
gly@@ 572
Anglo 572
securely 572
ison 572
dest 572
emis@@ 572
Bul@@ 572
landed 572
parti@@ 571
withholding 571
shoulders 571
logistic 571
ITER 571
wheelchair 571
bargain 571
backward 571
tered 571
ologically 571
Donald 571
Stars 571
Cul@@ 571
comic 571
trainings 571
anian 571
BV 571
320 571
wat@@ 571
Terme 571
Us 570
Turks 570
Alb@@ 570
weights 570
NET 570
flesh 570
eBay 570
Guidance 570
ailing 570
Stadium 570
76@@ 570
Scandinavia 570
founders 569
meditation 569
scrap 569
ө@@ 569
creators 569
tioning 569
SEN 569
tex 569
esp@@ 569
whis@@ 569
CV@@ 569
unhappy 569
habit 569
Romagna 569
joints 569
Ü@@ 568
requisite 568
modernised 568
agu@@ 568
98@@ 568
acqu@@ 568
declaring 568
Email 568
lite 568
participates 568
ign@@ 568
bab@@ 568
clone 568
116 568
Tit@@ 567
ure@@ 567
31.@@ 567
notebook 567
bat 567
flexibly 567
PROGRAMME 567
Rou@@ 567
slim 567
adequacy 567
Shopping 567
Governing 567
rum@@ 567
privatization 567
with@@ 567
K. 567
convened 566
Vulcan 566
Circle 566
121 566
UEFA 566
vian 566
Cla@@ 566
ыл@@ 566
GIMP 566
bustling 566
Construction 566
hormones 565
cies 565
oma 565
stupid 565
demo@@ 565
silk 565
Heathrow 565
age@@ 565
dest@@ 565
USSR 565
fourteen 565
troubled 564
Ivan 564
gg 564
premise 564
Suu 564
iz 564
Julian 564
typ@@ 564
adalah 564
Gaulle 564
trainer 564
wounded 564
Mrs. 564
favourably 564
staffing 564
appointing 564
fut@@ 563
Platz 563
polluted 563
Laos 563
diplomats 563
Impact 563
specializes 563
eighth 563
hitting 563
graveyard 563
Boeing 563
Andean 563
NEW 563
1930s 563
eras 563
hall@@ 563
TRA@@ 563
pod 563
fts 563
derives 563
CI 563
DF 563
SAS 563
whirlpool 563
irs 562
utilised 562
foresee 562
comprehensible 562
ind@@ 562
gang 562
са@@ 562
ordin@@ 562
hiring 562
Andrea 562
ritual 562
orientations 562
XIV 562
locking 562
texture 561
real@@ 561
Abbas 561
das@@ 561
&apos;clock 561
TCP 561
3.6 561
esti@@ 561
spyware 561
actic 561
priest 561
Honduras 561
tern@@ 561
sceptical 561
Audi 561
swap 561
ité 561
CER@@ 561
maximize 561
Palais 561
stretched 561
itation 561
organism 561
accidental 561
OU 560
rup@@ 560
Race 560
pertinent 560
Shoe 560
diminished 560
compressor 560
Jarzembowski 560
tisation 560
sity 560
COM@@ 560
Mother 560
Lab 560
inflationary 560
sont 560
Mt 559
fleeing 559
heights 559
Easy 559
chro@@ 559
paving 559
ii 559
ope 559
Events 559
basics 559
rain@@ 559
footwear 559
TW@@ 559
zy 559
mobilised 559
conveniences 559
otherapy 559
privati@@ 559
geometry 559
dig 559
FM 559
improper 559
rebel 558
ore@@ 558
etti 558
substitution 558
ovo 558
sunlight 558
annum 558
Gy@@ 558
trailers 558
Com 558
ard@@ 558
600@@ 558
106 558
herd 558
MS@@ 558
Europe@@ 557
arm@@ 557
blends 557
showcase 557
sers 557
underpinned 557
ANA 557
cha@@ 557
unsuccessful 557
tribes 557
fledged 557
shameful 557
turing 557
ELDR 557
commence 557
Motion 556
tuned 556
starch 556
chrome 556
thirteen 556
jam 556
unrestricted 556
Status 556
contacting 556
cav@@ 556
rack 556
midday 556
CIS 556
550 556
damp@@ 556
1964 556
Trieste 556
-the 556
Aegean 556
Evans 556
FF 556
barrel 555
Cancun 555
tout 555
palaces 555
Interinstitutional 555
annexes 555
supporter 555
discrepancies 555
spambots 555
tig@@ 555
alt 555
insistence 555
210 555
Torres 555
1944 555
GA@@ 554
moderation 554
MDGs 554
jewellery 554
Mark@@ 554
tial 554
skis 554
Tours 554
perpetrated 554
mali@@ 554
advisers 554
livelihoods 554
Seven 554
respiratory 554
walked 554
inclu@@ 554
ord 554
nickel 554
peculiar 554
C6 554
forged 554
High@@ 554
milli@@ 553
handful 553
Cohn 553
Tat@@ 553
interruption 553
YOUR 553
Barbara 553
Fil@@ 553
iner 553
tain 553
rope 553
conceal 553
deteriorated 553
fet@@ 553
Enterprises 553
Moon 553
Arrival 553
spray 552
entitlement 552
algorithm 552
vocabulary 552
alloy 552
nes 552
Stone 552
unites 552
phrases 552
volleyball 552
rationale 552
initiating 552
elt 552
pol 552
liquids 552
Soft 552
avoids 552
Gates 552
dens 552
Niger 551
bran@@ 551
despair 551
Sector 551
lends 551
dunia 551
resting 551
plea 551
Orthodox 551
brass 551
invoked 551
futures 551
zoo 550
Cr@@ 550
burst 550
stru@@ 550
merchants 550
fif@@ 550
analogue 550
Autonomous 550
Stream 550
ood 550
Ré@@ 550
realising 550
Málaga 550
zar@@ 550
arbitration 550
endanger 550
predictability 550
predecessors 550
shipyards 550
carved 550
Blu 550
collects 550
об@@ 550
sab@@ 550
modifying 550
refunded 549
tain@@ 549
tribunals 549
eg 549
Major 549
id@@ 549
assemblies 549
minus 549
banners 549
tear 549
crews 549
occupations 549
multilateralism 549
penal 549
Evaluation 549
Baghdad 548
prevailed 548
disputed 548
cer 548
trapped 548
aud 548
esse 548
rebels 548
Sti@@ 548
ι@@ 548
prosecutor 548
stra 548
Mitchell 548
murders 548
lagoon 548
ecologically 547
synonymous 547
Sebastian 547
corrosion 547
unter 547
1920 547
mentally 547
126 547
Poles 547
Nav@@ 547
modi@@ 547
Mir@@ 547
sensi@@ 547
unt 547
Armenian 547
completes 547
twi@@ 547
autom@@ 547
spends 547
scales 547
vely 546
blown 546
usability 546
Cir@@ 546
Gir@@ 546
mmer 546
400@@ 546
Sz@@ 546
12.00 546
Berg 546
policing 546
adhesive 546
rider 546
cohesive 546
flawed 546
Paulo 546
IAEA 546
correlation 546
webpage 545
Mes@@ 545
Thyssen 545
IZ@@ 545
generators 545
termed 545
Bin@@ 545
Kom@@ 545
aga@@ 545
Bes@@ 545
mus@@ 545
Napoleon 545
zzo 545
Ant@@ 545
repertoire 545
Basilica 544
headlines 544
unsafe 544
enz@@ 544
herein 544
cord 544
teachings 544
Letter 544
depreciation 544
illustrations 544
pile 544
numbered 544
call@@ 544
suspicious 544
invitations 544
diplomas 544
Bratislava 544
originate 544
FA 544
hal 543
beloved 543
COR@@ 543
Users 543
readable 543
JHA 543
hello 543
können 543
MM@@ 543
glorious 543
unspoilt 543
Palermo 543
Black@@ 543
bang 543
here@@ 543
ambiguous 543
Institut 543
tam@@ 543
93@@ 543
paradigm 543
Studios 543
Weber 543
packaged 543
violating 543
...... 542
Module 542
Bendit 542
Cecilia 542
sec 542
Babysitting 542
justifies 542
sacrifices 542
beet 542
Lis@@ 542
Italians 542
tol@@ 542
barb@@ 542
cial 542
cket 542
footprint 542
mming 542
altar 542
Mam@@ 542
GE@@ 542
worthiness 542
Will 542
Mannheim 542
emperor 542
CV 542
readings 541
Comfort 541
crucially 541
agendas 541
RU@@ 541
reconstructed 541
upholding 541
4000 541
acti@@ 541
obliges 541
criticized 541
María 541
pound 541
scandals 541
Safe 541
dio 541
nationalities 541
Feira 540
colonies 540
colleges 540
Kas@@ 540
Hanover 540
sof@@ 540
oleh 540
fake 540
Copyright 540
shine 540
000.000@@ 540
raft 540
Against 540
ode 540
decorations 540
loader 540
traction 540
authorises 540
flaws 540
juncture 540
yr@@ 540
DF@@ 539
RAW 539
supervisors 539
Angel 539
wurde 539
incur 539
relay 539
floppy 539
sol 539
detached 539
explo@@ 539
depleted 539
VIS 539
J.@@ 539
tragedies 538
uneven 538
Steve 538
fiers 538
tex@@ 538
Why 538
elevated 538
ners 538
organizers 538
Tol@@ 538
SY@@ 538
denounce 538
supervise 538
1959 538
cellular 538
efficacy 538
mir 538
Bern@@ 538
semester 538
acknowledgement 538
revolution@@ 538
approximate 538
coaching 538
els@@ 538
1940 538
grouped 538
repetition 538
valves 537
customize 537
850 537
sellers 537
Schmidt 537
æ@@ 537
boulevard 537
JPEG 537
veal 537
xy 537
mono@@ 537
counterproductive 537
sewage 537
Benita 537
inaugurated 537
wning 537
uting 537
ring@@ 537
Certificate 537
Toulouse 537
Bl@@ 537
stat@@ 537
necessit@@ 536
deserved 536
Medicine 536
cation 536
az 536
south@@ 536
hypocritical 536
upwards 536
grips 536
optimised 536
Victorian 536
stove 536
chess 536
quietly 536
Solution 536
navig@@ 536
1.9 536
ond 535
historians 535
Racing 535
boss 535
Berg@@ 535
Institutional 535
accustomed 535
syntax 535
vity 535
psychology 535
overlapping 535
ater@@ 535
Lor@@ 535
dit 535
alty 535
advent 535
siveness 535
Gem@@ 535
Ah@@ 534
boo@@ 534
Markus 534
Tele@@ 534
Gordon 534
distill@@ 534
traps 534
polis 534
pizza 534
breakfasts 534
Roadmap 534
Under@@ 534
expelled 534
xe 534
elli@@ 534
Blu@@ 534
dropping 534
achievable 534
widen 534
dreadful 534
4.0 534
Rob@@ 534
underpinning 533
lib@@ 533
Fort 533
niche 533
dirt 533
stabilising 533
256 533
Indians 533
aca 533
Krakow 533
missiles 533
validated 533
outlining 533
reminiscent 533
Loyola 533
foil 533
Vic@@ 533
113 533
PRESS 533
engineered 533
playback 532
pleasing 532
ме@@ 532
Bordeaux 532
bovine 532
CM 532
menting 532
Campo 532
Logistics 532
washed 532
mates 532
Füle 532
alan 532
pond 532
translates 532
169 532
confronting 532
nation@@ 532
hus@@ 532
Drug 532
visually 531
factions 531
GI@@ 531
ensuite 531
dev 531
Sli@@ 531
Moses 531
Pes@@ 531
azione 531
depths 531
SEC 531
Doc@@ 531
v. 531
cottages 531
hat@@ 531
thriving 531
wenn 531
dat 531
flour 531
idi@@ 531
preserves 530
fat@@ 530
capturing 530
weigh 530
Í@@ 530
Acc@@ 530
moulding 530
Eis@@ 530
lim@@ 530
Holocaust 530
gic 530
telecom 530
job@@ 530
strand 530
She@@ 530
revitali@@ 530
streamlining 530
0.8 530
killings 530
hay 529
equals 529
Agent 529
hamper 529
staged 529
slightest 529
lent 529
Namibia 529
infringe 529
vacations 529
optimisation 529
barcode 528
friction 528
aders 528
ssing 528
wai@@ 528
aided 528
145 528
Return 528
1800 528
Zend 528
SOLVIT 528
cots 528
spur 528
radius 528
adaptability 528
32@@ 528
unnecessarily 528
constitu@@ 528
München 528
healthier 528
ă@@ 528
roman@@ 528
B6 528
ager 528
infrared 528
Stat@@ 528
reminding 528
2D 528
RC 527
oli@@ 527
Factory 527
divine 527
tural 527
Diego 527
plight 527
nodes 527
brightness 527
pointer 527
superfluous 527
m.@@ 527
By@@ 527
Payment 527
hose 527
fertili@@ 527
ose 526
teaches 526
VW 526
Americas 526
lus 526
pero 526
undemocratic 526
Regi@@ 526
bench 526
optimally 526
ICEcat 526
T.@@ 526
Fac@@ 526
eded 526
wondered 526
Legislative 526
otic 526
ual 526
garde 526
scen@@ 526
hop@@ 526
ple 526
bahn 526
jak 525
ERA 525
ature 525
xed 525
exporter 525
seals 525
DOS 525
longstanding 525
fingerprints 525
grinding 525
hil@@ 525
shaft 525
Vin@@ 525
reimbursed 525
ete 525
stabilization 525
Matthias 525
boot@@ 525
flourish 525
nurses 524
repeal 524
amo 524
Voice 524
D.@@ 524
vet 524
buff@@ 524
COD 524
Dri@@ 524
iti 524
darkness 524
tual 524
infant 524
olds 523
assists 523
commissions 523
jen@@ 523
These 523
delaying 523
antenna 523
spectators 523
diese 523
monsters 523
grab 523
mand@@ 523
glio 523
dictatorships 523
refer@@ 523
те@@ 523
creator 523
orbit 522
embraced 522
reflections 522
inform@@ 522
reci@@ 522
hugely 522
Blan@@ 522
discriminated 522
reversal 522
50,000 522
eEurope 522
Map@@ 522
hampered 522
Whit@@ 522
cheque 522
downhill 522
landmarks 522
Seychelles 522
Contest 522
effected 521
proudly 521
vigilance 521
aromatic 521
pork 521
grouping 521
interactions 521
conquered 521
zations 521
ails 521
juices 521
shing 521
compelled 521
Compact 521
ences 521
virgin 521
inspec@@ 521
tti 521
sent@@ 521
Gil@@ 521
stereo 521
commun@@ 521
CSR 521
Ray 521
concer@@ 520
rethink 520
apt 520
geb@@ 520
disen@@ 520
ambiguity 520
Aung 520
Hen@@ 520
traffickers 520
prerogatives 520
FT 520
descriptive 520
Ther@@ 520
devastated 520
Kin@@ 520
appropriation 519
Oli@@ 519
doubles 519
lowing 519
ima 519
Nova 519
displacement 519
advisor 519
Fur@@ 519
ony@@ 519
26th 519
ICS 519
examinations 519
Haus 519
eco@@ 519
endo 519
hrs 519
beating 519
impulse 519
Kyrgyzstan 519
LAR@@ 519
weddings 519
north@@ 519
Gold@@ 519
Elisabeth 519
Command 519
appealed 519
Brothers 519
Pay 519
cons 518
diligence 518
mentation 518
itable 518
Corsica 518
comprehensively 518
avenues 518
rugged 518
rus 518
wisely 518
tray 518
intentionally 518
coincide 518
utili@@ 518
Policies 518
blan@@ 518
zio 518
MR@@ 518
SR@@ 518
termin@@ 518
1949 518
lately 517
naming 517
pulling 517
со@@ 517
fo 517
Py@@ 517
García 517
Wien 517
365 517
Fle@@ 517
Five 517
daylight 517
oxide 517
chment 517
Viennese 517
Fr@@ 517
Pir@@ 517
Novotel 517
itu 517
residences 517
Sou@@ 517
Vill@@ 517
4.3 517
unparalleled 516
inos 516
Opel 516
referenda 516
stomach 516
ghs 516
Interface 516
STATES 516
Persian 516
deterrent 516
amos 516
ticism 516
palette 516
assertion 516
asbestos 516
conveyed 516
ARY 516
Spi@@ 515
regul@@ 515
Packaging 515
hem@@ 515
Cypriots 515
companion 515
interdependence 515
Poverty 515
Madagascar 515
tasteful 515
lever 515
diminish 515
yers 515
Eco@@ 515
Rein@@ 515
vector 515
illuminated 515
jewel 515
torn 515
Years 515
viral 515
alquiler 515
Georg 515
condi@@ 515
ander@@ 515
pursues 515
casts 515
dah 515
cot@@ 515
importer 515
FER@@ 514
melting 514
Manual 514
bent 514
world@@ 514
SIM@@ 514
arranging 514
refu@@ 514
unpredictable 514
Ten@@ 514
ś@@ 514
ION@@ 514
thir@@ 514
levied 514
ironing 514
AND@@ 514
eighteen 513
celebrates 513
mango 513
PO 513
Hyde 513
tou@@ 513
contrasts 513
trialogue 513
encounters 513
mess 513
swept 513
triumph 513
rian 513
opping 513
intervening 513
Yu@@ 512
ier@@ 512
FEMIP 512
Fan@@ 512
Paradise 512
differentiate 512
epic 512
bail 512
repayment 512
aps 512
Glacier 512
externally 512
biogas 512
Africans 512
122 512
Liverpool 512
Has@@ 512
musi@@ 512
irrigation 512
Sup@@ 512
use@@ 512
encompassing 512
Low 512
promoters 512
fierce 512
façade 512
pooling 512
lah 512
empowered 512
lip 512
Romulan 512
Shar@@ 511
unequivocally 511
otto 511
Telekom 511
restructured 511
Move 511
ting@@ 511
Ericsson 511
blade 511
CONTENTS1 511
obscure 511
Gonzalez 511
baked 511
Style 511
Aff@@ 511
Presse 511
bricks 511
tractors 511
put@@ 511
Patri@@ 511
onboard 511
attributable 511
ит@@ 511
loo@@ 510
OTHER 510
Mid@@ 510
antes 510
graphs 510
ener@@ 510
deforestation 510
TION 510
Mot@@ 510
tops 510
bathtub 510
purity 510
deadly 510
spar@@ 510
A3@@ 510
Mit@@ 510
sic 510
scepticism 510
PES 510
champagne 510
Companies 510
gui@@ 510
Kel@@ 510
ICTY 510
Wars 510
reluctance 510
soup 510
Pan 510
lad@@ 510
SAT 510
sono 510
temples 510
Rapid 509
campus 509
regulates 509
morality 509
cumulative 509
embo@@ 509
ą@@ 509
activist 509
tet@@ 509
sensation 509
бол@@ 509
tro 509
seg@@ 509
drove 509
runners 509
Architecture 509
Fujifilm 509
intentional 509
exaggerated 509
cyber@@ 509
cc 509
upset 509
Bs 509
Ds 509
stell@@ 509
Crespo 509
richness 509
scheduling 509
detainees 509
clarifies 508
Death 508
reorganisation 508
Mail@@ 508
EUROPE 508
geo 508
Jürgen 508
Dark 508
Kir@@ 508
Get 508
OEM 508
EPAs 508
fix@@ 508
obs@@ 508
diamonds 508
Mongolia 508
asia 508
waited 508
1947 508
hint 508
Original 508
270 507
filtering 507
ause 507
Actions 507
severity 507
ffs 507
Bashir 507
abili@@ 507
lanes 507
gies 507
disc@@ 507
Les@@ 507
Tip 507
Wikipedia 507
CR 507
Confederal 506
sauce 506
aired 506
prim@@ 506
interpreter 506
Barón 506
Presidential 506
GF@@ 506
Brava 506
seldom 506
residual 506
Khan 506
LAN@@ 506
unforeseen 506
ellers 506
wra@@ 506
finishes 506
jumping 506
BASF 506
speciality 506
ph 506
EG 506
pho@@ 505
ық 505
Lieutenant 505
Venezia 505
bedded 505
Affiliate 505
MER@@ 505
generosity 505
e. 505
cached 505
Veneto 505
coordinators 505
potent 505
1951 505
Brit@@ 505
slowing 505
ASEM 505
Philip 505
sse 505
PI 504
05.@@ 504
dynamically 504
GNI 504
ZF 504
mobili@@ 504
ripe 504
indifferent 504
broadcasts 504
souls 504
lie@@ 504
eshops 504
DivX 504
c.@@ 504
kitchens 504
aly 504
plum@@ 504
submissions 504
homely 504
Experts 504
Edward 503
Wireless 503
Fuerteventura 503
1929 503
teenagers 503
Efficiency 503
fam@@ 503
enberg 503
plains 503
hut 503
dev@@ 503
enduring 503
boring 503
unveiled 503
Muller 503
consequent 503
sional 503
hear@@ 503
eper 503
DEN@@ 503
influencing 503
CNS 503
DSLR 503
Stavros 503
N. 502
weg 502
AMA 502
galaxies 502
brakes 502
bug@@ 502
collector 502
invent 502
Where 502
attacker 502
toolbar 502
susceptible 502
Ky@@ 502
homemade 502
alled 502
Conservation 502
arrivals 502
gau 502
Lehne 502
traced 502
Jer@@ 502
spa@@ 502
Not@@ 502
than@@ 502
Nevada 502
downs 502
angles 502
KG 502
Oomen 501
They 501
TT 501
ans@@ 501
58@@ 501
fights 501
aran 501
dawn 501
simplifies 501
49@@ 501
fragments 501
Sarajevo 501
deposi@@ 501
Turkmenistan 501
Dominion 501
Di 501
ұ@@ 501
Aparthotel 501
MAT@@ 501
comedy 500
grill 500
misunderstandings 500
elastic 500
herring 500
overhead 500
bankrupt 500
129 500
drums 500
respectful 500
standstill 500
awesome 500
manuscript 500
Ts 500
o.@@ 500
nur@@ 500
irre@@ 500
30,000 500
pedi@@ 500
whichever 500
ude 500
forgive 500
induc@@ 499
Cin@@ 499
ý 499
ship@@ 499
Nord@@ 499
aires 499
vacancies 499
Davos 499
BB 499
NAFO 499
bustle 499
oming 499
Colombian 499
converts 499
diagnostics 499
resigned 499
vesti@@ 499
awful 499
Sunni 499
C4 499
Duke 499
liners 499
FX 499
asts 499
cursor 499
dot@@ 498
ands 498
OP 498
amazed 498
Note 498
Decisions 498
elaboration 498
Alt@@ 498
Karlsruhe 498
INE 498
MENTS 498
specializing 498
hints 498
Bonino 498
Mandriva 498
bishop 498
extras 498
lav 498
cardiovascular 498
plausible 498
Fro@@ 498
tribunal 498
activating 497
exten@@ 497
liver 497
tern 497
ima@@ 497
liberalising 497
Rue 497
Draft 497
justifiable 497
gon 497
oo 497
Value 497
qu 497
Brand 497
González 497
28th 497
Jur@@ 497
bounds 497
tili@@ 497
legitim@@ 497
Regulatory 497
thermo@@ 496
assemble 496
fairy 496
prioritise 496
dents 496
ле@@ 496
Janeiro 496
Promotion 496
indefinitely 496
Arabs 496
eding 496
commissioning 496
blockade 496
progressed 496
battlefield 496
num@@ 496
Perl 496
eit 496
canals 496
ruin 496
eli 496
dioxin 496
encompass 496
amen 496
insignificant 496
pris@@ 496
centralized 496
quantum 496
Böge 496
advertise 496
dossiers 496
undeclared 495
deaf 495
ital 495
Glasgow 495
за@@ 495
Williams 495
avail 495
Projects 495
ratios 495
blessing 495
e- 495
vers@@ 495
objec@@ 495
3.7 495
wl 495
Convergence 495
Intelligence 495
nt 495
EU28 495
pray 495
organises 495
CE@@ 495
ile 495
Art@@ 495
Fair@@ 495
diver@@ 495
COMMISSION 495
5.0 495
KA 495
reconciling 494
auxiliary 494
inci@@ 494
famine 494
priv@@ 494
disposition 494
divergent 494
Re 494
shallow 494
nationwide 494
levies 494
deflation 494
southwest 494
Andalusian 494
IA@@ 494
embracing 494
Bis@@ 494
notorious 494
Fun@@ 494
Vancouver 494
secon@@ 493
º 493
obli@@ 493
headquartered 493
y.@@ 493
Buddhism 493
Belfast 493
adaptations 493
casualties 493
embodied 493
Geo@@ 493
mis 493
ennial 493
patron 493
feast 493
Hof 493
discharges 493
heel 493
PDO 493
KB 493
expands 493
green@@ 492
Ruijten 492
Phare 492
eres 492
clinics 492
extinction 492
9396 492
anza 492
faults 492
dwell 492
skating 492
MSN 492
22nd 492
tempo 492
Nephi 492
ça 492
1933 491
Corps 491
forgot 491
GRE@@ 491
distinguishes 491
Only 491
gray 491
underneath 491
auctions 491
handing 491
nutrients 491
analyzed 491
ulate 491
que@@ 491
atas 490
trauma 490
contributor 490
wasting 490
northwest 490
credentials 490
TOS 490
MD@@ 490
ACE 490
Parc 490
rubber@@ 490
Pen 490
Blo@@ 490
Plat@@ 490
hydro 490
credi@@ 490
Export 490
compromising 490
advising 490
goats 490
Inform@@ 490
beginnings 490
posing 490
dging 490
metropolis 490
mould 490
zzi 490
sans 489
compares 489
Francesco 489
aked 489
EEAS 489
UCLAF 489
juga 489
spouses 489
Sir@@ 489
Sus@@ 489
Stre@@ 489
incorrectly 489
gin 489
contra@@ 489
blues 489
acion 489
technologically 489
flexicurity 488
57@@ 488
chron@@ 488
11.30 488
imit@@ 488
ret@@ 488
secara 488
boun@@ 488
proceeded 488
disin@@ 488
eaten 488
ABILITY 488
composers 488
ille 488
unlock 488
revol@@ 488
passages 488
hormone 488
slaves 488
Marseille 488
tist 488
Ø@@ 488
ignores 488
losers 488
Paolo 488
refundable 487
searched 487
recruit 487
wastewater 487
Salzkammergut 487
warfare 487
ret 487
Embassy 487
bolster 487
Materials 487
survivors 487
vocation 487
incar@@ 487
shadows 487
disturbances 487
unaffected 487
gna 486
turbines 486
compiling 486
traveled 486
historian 486
soldier 486
quer@@ 486
reuse 486
kov@@ 486
scra@@ 486
kun@@ 486
Habitats 486
VB 486
201@@ 486
recruited 486
Coffee 486
sever@@ 486
litre 485
emi@@ 485
wen@@ 485
mechanics 485
tura 485
Ze@@ 485
counters 485
blamed 485
POL@@ 485
chlor@@ 485
omm@@ 485
perceptions 485
Approach 485
priests 485
ost@@ 485
essed 485
lender 485
sufficiency 485
CT 485
french 485
Louvre 485
essi@@ 484
ons@@ 484
commendable 484
λ@@ 484
Over@@ 484
extracts 484
155 484
THER@@ 484
Albanians 484
prevails 484
138 484
geological 484
observes 484
Beta 484
equivalence 484
ба@@ 484
dragging 484
Lamfalussy 484
well@@ 484
Kri@@ 484
cles 484
gni@@ 483
pretend 483
northeast 483
knock 483
encia 483
writings 483
Decree 483
Tex@@ 483
α@@ 483
Goods 483
IAS 483
Automatic 483
ETA 483
Forex 483
Clean 482
indifference 482
oll@@ 482
focussing 482
revisions 482
Anton 482
physician 482
inflicted 482
pounds 482
Victor 482
scuba 482
shy 482
Eurodac 482
Wel@@ 482
FF@@ 482
dignified 482
sounding 482
disco 482
formulating 482
timeless 482
Barb@@ 482
Label 482
8.5 482
arc 482
Marrakech 482
organ@@ 481
ckle 481
intensifying 481
biased 481
Heart 481
[...]
